<blank>
<s>
</s>
▁
s
▁de
▁,
▁.
'
▁la
’
▁à
▁des
▁et
▁l
▁le
▁d
▁les
▁du
▁en
▁a
▁au
e
▁que
▁un
▁est
▁une
▁pour
)
-
(
▁par
▁dans
ment
▁qui
.
▁sur
é
▁aux
▁Le
▁pas
▁ou
▁qu
▁il
$
▁n
▁sont
t
:
▁ce
▁Les
▁ne
er
ent
▁La
▁ont
%
▁été
▁plus
r
▁L
ant
▁Canada
́
▁C
▁se
▁1
;
▁son
▁nous
»
▁c
nt
▁actions
▁leur
«
avec
▁être
▁Fonds
▁Il
▁M
▁dé
es
ait
▁fait
▁ses
cette
ux
▁sa
▁ces
▁appelant
▁Société
▁autres
▁31
▁y
▁elle
▁cours
▁A
▁valeur
▁En
▁2
re
▁gouvernement
▁comme
▁terme
▁millions
▁peut
▁dollars
▁société
▁produit
▁était
▁non
/
▁rapport
▁loi
▁exercice
ons
▁000
▁période
▁fonds
a
▁si
▁titres
vait
▁3
▁je
cembre
▁30
▁financiers
▁frais
▁trimestre
S
▁Je
▁date
x
▁rendement
▁sous
▁Nous
▁parts
▁ils
▁placement
▁toute
▁même
▁projet
▁faire
taux
▁conseil
▁mesure
–
▁soit
ation
▁demande
▁Au
activités
▁entre
▁année
▁notre
▁marché
▁on
▁série
▁mais
vous
▁compte
▁nos
—
▁ministre
▁tout
▁autre
▁dont
▁services
▁montant
▁avoir
ient
▁4
▁direction
rait
▁demandeur
▁in
▁Pour
▁tous
▁deux
▁vente
▁S
▁également
▁état
▁gestion
▁D
l
▁net
▁selon
▁droit
▁question
▁entreprise
▁cas
▁5
▁premier
▁Inc
▁nombre
▁lui
eur
?
▁secteur
▁titre
▁prix
▁coût
▁Président
▁exploitation
▁information
▁comité
▁ainsi
▁capital
▁député
d
▁jour
▁10
▁mois
▁présente
▁avons
▁sera
▁avant
▁partie
▁risque
n
▁après
▁R
▁Loi
▁bien
▁juin
▁preuve
▁doit
▁présent
▁J
▁appel
▁élément
▁aussi
▁revenu
▁sans
▁actifs
▁mars
▁décision
▁canadienne
▁ans
age
`
▁À
▁Dans
▁raison
▁catégorie
▁contrat
peuvent
ra
▁ré
▁ai
ci
▁Ce
▁financière
▁chaque
▁6
où
▁DE
▁contre
▁perte
▁ordinaires
▁moins
▁2013
▁certain
▁p
▁portefeuille
▁2014
▁2012
▁j
▁2015
▁résultats
▁2011
▁B
ette
▁droits
▁égard
▁Monsieur
▁crédit
▁15
▁moyen
▁2010
▁De
temps
▁personne
▁pays
▁action
quelle
▁membres
▁devrai
▁CanLII
▁afin
▁intérêt
▁2016
▁suivant
▁trè
puis
▁septembre
dit
‐
▁renseignement
▁billet
▁7
▁administrateur
▁avis
▁façon
▁acquisition
▁article
▁Si
▁Ces
▁P
▁lorsqu
▁croissance
▁ci
▁12
▁trésorerie
▁Par
▁fin
près
▁2017
▁évaluation
▁administration
▁cadre
[
▁nouveau
▁juste
▁sénateur
▁long
▁placements
on
▁9
▁2009
tant
▁sociétés
▁actif
▁États
▁8
u
▁seront
▁part
▁paragraphe
C
]
▁2018
▁vertu
▁somme
▁chef
▁base
▁pourrait
▁personnes
▁fonction
▁travail
▁trois
▁janvier
▁bénéfice
▁eu
il
▁Canadiens
▁matière
▁2008
▁niveau
▁11
▁moment
▁rémunération
▁générale
ront
▁prêt
▁environ
▁aucune
▁options
▁F
▁étai
▁Québec
▁Elle
▁certaine
à
▁2007
▁offre
▁cet
Unis
▁importante
▁T
▁régime
▁conclu
▁of
▁relative
▁politique
▁2006
▁achat
▁obligations
ez
▁emploi
▁20
▁situation
▁tribunal
▁aucun
▁actionnaires
cela
▁lieu
▁dernier
▁jusqu
▁pré
▁note
▁présenté
▁re
▁président
▁incidence
▁participation
que
▁fois
▁risques
▁pendant
▁m
▁impôt
▁annuel
▁total
▁2005
▁to
▁suit
▁documents
▁actuelle
▁sujet
▁enfant
▁Chambre
▁liés
eurs
▁suite
▁100
1
ées
ance
▁questions
▁13
▁vot
▁investissement
▁ni
fois
concernant
▁rubrique
▁mai
▁the
▁octobre
▁intérêts
▁CA
▁indice
▁effet
▁Banque
▁canadien
▁2004
▁fins
▁première
▁tenu
▁objectif
▁mise
▁donnée
▁avril
▁porteurs
▁tableau
▁14
▁programme
▁G
▁besoin
▁2019
▁hausse
▁XXXX
▁ceux
▁système
▁I
▁terminé
▁changement
▁valeurs
▁16
▁donné
asile
▁mari
▁pouvoir
▁E
mment
▁seule
▁augmentation
▁Un
▁famille
▁contrôle
y
▁nécessaire
▁résultat
▁clients
▁deuxième
▁plan
▁elles
▁obtenir
▁dossier
▁assurance
▁important
▁Une
▁facteur
donc
▁fiducie
principalement
▁peu
▁déclaration
▁problème
▁compris
2
aire
prendre
té
lors
▁production
▁On
ieurs
▁poste
▁gestionnaire
▁celui
›
▁25
▁Toute
▁règlement
▁2003
▁suis
▁affaires
quel
▁17
▁comparative
▁18
ovembre
▁passif
▁service
▁ensemble
▁déclaré
▁doive
▁juge
▁liée
▁souscription
▁public
▁opérations
i
▁conformé
▁dernière
▁parce
▁charges
▁conditions
&
▁mon
▁celle
▁juillet
▁employés
▁février
tenir
R
▁financement
▁échéance
▁dépense
encore
▁dire
▁prise
▁hui
▁vote
consolidés
▁nom
▁américain
▁Mme
▁propres
o
▁2002
▁économique
ement
▁clos
▁vie
▁notam
▁référence
▁norme
▁no
▁change
▁conséquent
▁Commission
▁espèce
▁Ils
▁développement
▁établi
▁ressources
▁dette
août
▁nette
ables
▁santé
▁impôts
▁US
▁annuelle
c
▁application
▁19
▁suivante
▁revenus
▁agit
3
▁fédéral
▁reçu
▁canadiens
▁document
▁protection
▁prospectus
▁O
▁élevé
▁clôture
▁2001
le
venir
▁Règlement
▁processu
▁motif
▁art
▁sécurité
A
ais
▁gens
▁remboursement
▁rachat
▁circulation
▁groupe
▁plu
▁prévoi
▁ayant
▁me
▁convention
▁général
▁accord
▁28
▁dividendes
▁vue
vant
▁maintenan
▁agent
5
▁É
▁directe
▁an
▁point
tôt
▁faut
▁b
▁supplémentaire
▁représente
▁responsabilité
quoi
▁libéra
▁pouv
▁faite
▁flux
▁beau
▁objet
▁g
▁exemple
▁pourraien
▁précédent
▁milliard
▁Conseil
*
▁Cour
coup
▁émission
aujourd
▁baisse
▁pris
▁méthode
▁Comme
▁parties
▁qualité
▁grande
▁avai
▁estime
▁déjà
▁so
▁raisonnable
ue
▁assurer
▁Catégorie
ce
▁21
▁and
▁capacité
▁savoir
▁région
▁sens
▁chose
▁disponible
▁IFRS
▁conseiller
▁témoignage
▁telle
▁charge
▁emprunt
ité
▁audience
ions
▁filiale
▁payer
▁attribuable
▁aide
▁Des
▁24
visant
▁...
▁instruments
▁étan
▁paiement
▁honorable
▁avantage
▁propriété
▁prestation
▁prévu
z
▁2000
▁capita
▁ma
▁22
ième
▁retraite
▁membre
▁dispositions
▁analyse
▁fixe
▁continue
▁troisième
▁27
▁reporter
▁indique
▁voir
▁all
▁intention
▁durée
▁possible
▁toujour
▁car
▁règle
▁procédure
▁applicable
▁29
▁ordre
▁collèg
▁fiscale
▁nouvelle
8
▁recherche
▁23
▁garantie
▁établir
▁augmenté
▁lettre
▁Ltd
▁Ontario
▁inc
▁50
▁N
▁SPR
▁financier
▁Selo
ependant
▁soutien
▁demandé
▁personnel
▁présentée
▁stratégie
▁intermédiaire
E
▁quant
▁créance
▁cause
▁motion
▁cinq
ici
▁court
▁manière
▁parlementaire
▁ET
▁lors
▁distributions
▁forme
▁applique
▁page
▁moyenne
▁nouvelles
▁argent
▁or
▁établissement
▁immigration
▁vigu
tient
▁Cela
▁per
▁organisme
▁investisseurs
▁haute
▁projets
0
▁permis
▁relatif
▁for
▁examen
▁voul
▁principale
▁début
président
▁lois
▁mettr
▁outre
▁réponse
gré
▁font
en
▁26
aux
▁calcul
▁pratique
▁tiré
▁donner
▁particulier
▁immeuble
▁comptabilisé
▁ferme
auf
▁heure
▁monde
▁comptables
▁concerne
▁conservat
ir
▁traitement
▁indiqué
▁assemblée
▁principe
▁Corporation
f
▁circonstance
▁comprend
▁prévue
▁entité
▁mondiale
▁détail
▁publique
▁débat
▁économie
▁DES
4
▁représentant
▁FNB
▁distribution
▁simple
▁échéant
▁recevoir
vons
▁ailleurs
▁employeur
▁H
▁place
it
▁particulière
▁indépendant
com
▁importants
▁statut
▁immobilisations
▁celles
▁semaine
▁mis
▁passé
▁gaz
▁Toronto
▁No
▁affaire
▁privilégiée
▁déterminer
able
▁Compagnie
|
▁bonne
▁permett
▁comptable
rien
▁bon
▁réserve
ISR
▁Comité
▁principal
▁utilisé
dérivés
▁entente
▁diminution
▁responsable
▁fournir
▁donne
ccès
▁500
▁modifications
in
▁refus
▁LA
▁obtenu
▁Lorsqu
▁réalisé
▁obligation
P
▁vers
B
▁supérieur
▁lié
de
▁option
▁versé
▁compétence
▁million
▁couverture
▁négociation
exigences
▁tel
▁budget
▁mobilière
▁commerce
émises
▁possibilité
▁intimé
▁réseau
▁dépôt
▁facilité
▁abord
▁Tribunal
▁puisqu
▁quatre
▁Portefeuille
▁TSX
▁réduction
▁biens
▁régimes
▁f
▁40
▁porteur
▁étranger
jamais
▁comptes
▁porte
_
▁1999
ur
▁Fiducie
▁visa
▁gains
▁contrepartie
▁Services
ante
▁présenter
▁explique
▁débenture
▁unique
▁existe
▁six
▁Corp
▁industrie
▁écart
▁dirigeants
▁relatives
▁occasion
▁enregistré
▁aura
▁utilisation
▁alinéa
▁programmes
▁position
is
▁composé
▁bons
▁comprenn
▁chapitre
▁Série
jacent
▁attend
▁neuf
▁admissible
▁Groupe
▁établie
▁crédi
▁mal
▁DU
▁épo
al
▁transport
▁vice
▁vise
▁compagnie
part
▁conséquence
▁Vous
travaux
▁internationale
▁nature
▁constitue
▁exercices
▁location
▁déposé
▁Actions
▁Sénat
▁provinces
▁américaine
▁autorité
▁disposition
▁événement
▁grand
provenant
▁aider
▁visé
▁audit
▁banque
▁sein
▁variable
▁interne
▁énoncé
▁approbation
▁semble
▁sorte
▁candidat
▁permet
▁directeur
▁v
▁critère
▁totale
▁compter
▁eux
▁fonctionnaire
▁échange
▁mandat
▁tranche
▁futurs
▁Se
▁liquidative
▁Frais
"
▁effectué
▁État
▁tenue
▁relation
▁pu
▁division
iers
▁préoccup
▁correspond
dessu
▁pièce
▁permettr
▁adresse
▁chez
▁Immigration
▁installation
▁affirm
p
▁permanent
▁conclusion
▁détenu
▁chiffre
▁va
▁ve
▁exploration
▁Total
▁marge
▁garanti
▁acquis
ing
▁modification
▁Co
▁ministère
▁quatr
▁contraire
▁étude
▁Capital
▁âg
▁répond
▁actuel
▁quelques
▁chacun
▁nationale
▁respect
▁trouve
6
▁fiduciaire
▁propriétaire
▁seul
▁décrit
▁formation
œuvre
▁recommandation
▁juridique
▁soin
▁opposition
rendre
▁réduire
▁tard
tout
▁privé
▁contribu
▁Voir
▁vrai
▁quelque
▁parl
▁Rapport
te
être
durant
▁claire
▁environnement
▁terminée
dessous
▁Bien
▁puisse
▁unités
F
▁site
▁Nord
▁fondé
▁consulté
▁émis
▁réunion
▁enquête
▁rôle
▁mentionné
▁FPI
▁demander
▁prend
▁présentation
▁Montréal
T
▁Autre
▁bancaire
▁arrêt
▁activité
▁portant
▁semestre
▁opération
▁Mackenzie
▁ajusté
▁répondr
▁respectivement
▁police
▁équipe
▁procuration
▁hypothèse
▁acte
▁pourcentage
▁trait
▁Code
▁principa
m
▁écrit
▁erreur
▁renvoi
L
▁marchandise
▁rang
▁voie
▁demeure
▁initiale
▁stratégique
▁territoire
▁liquidité
at
▁quand
▁expérience
▁dollar
▁entend
parler
▁60
▁déduction
▁commun
▁payé
▁petite
▁province
▁investir
▁mère
▁notes
ême
▁paiements
▁correspondant
▁aimer
▁domaine
▁SAR
▁énergie
D
▁connaissance
▁adopté
b
▁vérification
▁attribution
▁but
▁viv
▁recours
▁hors
▁global
▁examiner
▁transfert
▁dû
après
▁importance
▁mieux
▁CSC
▁2020
▁exige
▁crois
▁amortissement
▁appui
▁organisation
avenir
▁construction
ations
▁différent
▁Notre
▁essentielle
▁investi
vient
▁Re
▁35
-1
▁trouver
▁limite
▁versée
▁ch
▁propos
▁modalité
▁réglementation
▁Voi
▁U
=
▁solde
▁fournisseur
▁épou
▁émetteur
▁découlant
▁ancien
▁femmes
▁résident
▁lien
▁conforme
réation
uses
▁figur
▁propre
M
▁Aux
elle
▁Pièce
▁versement
▁atteindr
▁défavorable
▁www
▁diminué
▁protéger
▁client
▁h
▁doute
▁améliorer
▁compar
talité
▁rendu
▁certificat
▁vos
▁con
▁commandite
▁mes
▁honoraires
▁bilan
▁utilisée
▁Plus
et
▁infraction
▁The
▁brut
ion
ues
▁performance
▁fais
▁pages
▁K
▁efficace
ure
▁adoption
▁In
▁parti
▁cible
avantage
▁résidence
▁reste
▁atteint
▁amélioration
▁efforts
▁sou
nent
▁relations
▁évaluer
▁BAIIA
▁offrir
▁fiscal
▁V
É
▁PCGR
▁choi
▁transaction
partir
▁précise
▁appuy
▁annexe
▁difficile
▁ligne
▁pied
▁inférieur
▁moi
▁offert
▁mot
▁vu
▁utiliser
pense
ne
▁pétrol
▁équivalent
▁haut
▁Valeur
▁modèle
▁correspondante
▁observations
▁conversion
▁Parlement
▁LE
▁différé
▁devise
▁capitalisation
▁souven
aires
▁usine
▁contien
▁peine
▁reconnu
▁né
▁divers
▁collective
▁faible
▁choisi
▁Chine
ie
▁Colombie
▁Bourse
suite
▁points
▁différente
▁contexte
▁marque
▁section
corporelles
▁face
▁hypothécaire
▁exposition
▁criminel
▁réserves
▁Citoyenneté
▁population
▁salaire
▁imposition
▁engagé
▁probable
▁visée
▁ordinaire
▁fédérale
▁hon
us
▁comprendre
▁Tous
▁Honor
▁modifié
▁rappel
▁acquisitions
▁parole
▁heures
▁Produit
▁entrée
▁annoncé
eux
ques
▁antérieure
▁forage
▁veut
▁difficulté
▁étape
▁parents
lesquels
▁ratio
▁W
▁collectivité
▁travailleurs
▁Son
▁entendu
même
Depuis
▁45
▁Limited
▁avez
▁comment
▁élection
▁études
▁circonscri
▁pouvant
▁Chaqu
▁mondial
▁comptabilisée
▁fondée
tiers
▁gouvernance
▁traduction
▁travailler
▁200
▁CPA
vent
▁propose
▁rapide
▁bureau
la
▁Accueil
▁formulaire
▁courant
▁liste
râce
▁secrétaire
▁cote
▁témoin
▁réel
▁jeunes
▁approuvé
▁approche
▁législative
▁ordonnance
▁externe
I
▁simplifié
▁remercie
▁avocat
▁forte
N
▁délai
▁témoign
▁social
▁amendement
faisant
▁véritable
▁auditeur
▁connaît
h
▁résumé
▁reprise
▁Alberta
▁victime
▁Titre
▁majorit
▁vendu
▁associés
▁premiers
▁engagement
▁1998
bilité
▁Or
▁signé
▁fav
▁suivi
▁co
▁réglementaire
▁connexe
▁consomm
▁cotisation
▁inscrit
▁augmenter
▁arrivé
▁32
▁naturel
▁remplace
▁citoyen
▁gain
▁inscrits
▁soulign
▁détenue
▁mill
▁situé
▁sociale
▁36
▁considérable
▁prochaine
▁agiss
▁Tout
▁communiqué
▁initial
▁rejeté
▁SAI
▁réalisation
▁inter
▁aurai
▁absence
▁Gestion
▁TD
▁favorable
▁modifiée
▁commission
▁meilleur
▁étrangère
▁estimations
▁exercer
▁Date
▁déterminé
▁pension
Q
▁considéré
▁34
g
ption
▁vendre
▁plaignant
▁dispose
les
+
parav
▁examiné
▁justice
▁variation
▁unité
▁Lib
▁at
▁structure
▁souhait
▁nord
▁i
▁Parti
▁évalué
▁technologie
▁magasin
▁libellé
▁confi
▁réfugiés
▁ample
▁consulter
▁33
▁maison
▁profit
▁différence
▁Mal
▁registre
▁autorisé
▁élevée
▁courtier
▁humaine
!
▁SFP
▁Trust
▁effectuer
▁endroit
ète
▁définition
▁père
▁conventions
▁présence
▁solide
▁EN
chacune
▁not
▁terrain
▁maintien
▁X
▁créer
▁immédiate
▁côté
Britannique
▁Company
▁Amérique
▁International
▁intégr
7
▁homme
▁historique
▁calculé
▁exprimé
co
▁Est
▁articles
▁civile
▁concurrence
▁avance
▁fourni
▁reçoi
▁tels
▁spéciale
▁maximal
▁agir
▁pertinente
▁échelle
▁variations
▁jugement
▁nommé
if
▁contenu
▁rachetable
▁potentiel
▁carte
voix
▁Compte
▁CIBC
▁acquise
▁effectuée
▁finances
▁inscription
▁acheter
rie
▁inscrite
▁vérificateur
▁Group
▁39
▁ajustement
▁titulaire
▁égal
ed
▁Bénéfice
▁réduit
▁Web
▁entendre
▁désigne
▁pro
▁proposé
▁Placement
▁type
▁diverse
▁immobilier
▁vou
▁commencé
▁comport
▁complète
▁Que
▁totalis
▁trop
▁rempli
▁Régime
▁respecter
▁désigné
▁genre
or
▁provision
▁essentiel
▁modifier
▁oeuvre
▁meilleure
▁communication
▁90
▁touché
▁national
▁épargn
▁Aucun
▁précisé
ton
▁rencontre
▁actionnaire
▁matériel
▁dividende
▁inclus
▁appliquer
▁mine
▁37
▁roule
▁libre
▁décidé
▁devr
▁Life
▁centrale
ont
▁reconnaît
▁New
▁garde
▁38
▁chargé
▁supérieure
▁Energy
▁continuer
▁be
▁Actif
▁siège
▁exerce
tirer
▁auront
V
▁FONDS
▁autochtone
▁consiste
▁rejet
▁payable
envers
▁communauté
fin
▁circulaire
ulent
▁groupes
▁convien
▁mainteni
▁établis
▁St
▁bourse
▁finale
▁participer
▁quelle
▁exception
▁rend
▁exclu
aison
▁décrite
▁départ
▁administratif
▁fille
▁travaill
▁constituent
▁constate
▁monétaire
succès
▁employé
▁pertinent
▁possède
▁quoi
▁ville
▁exposé
▁BMO
▁exclusive
▁caractère
▁adopter
▁indirecte
▁Nombre
▁publié
▁fils
▁fusion
ique
▁Vice
-2
ter
▁Avant
▁commercia
▁passer
▁offerte
▁courtiers
▁vol
ca
vais
▁datée
ès
▁globale
▁partenaire
▁LES
▁daté
▁utilis
▁judiciaire
évolution
▁lignes
▁anticipation
▁imposable
▁international
▁fournit
▁inclu
isation
ils
▁engagements
▁texte
▁supplément
▁idée
▁reporté
▁solutions
▁parle
iste
▁RBC
▁sept
▁cité
▁dépend
▁verser
▁NPD
▁commissaire
▁regroupement
▁exécuti
insi
▁grandes
▁Finances
▁réaliser
▁Parts
▁2019-07-1
▁Internet
▁essai
▁attente
▁réalisée
▁équilibré
▁propriétés
▁puis
▁particip
▁300
▁manque
▁mé
▁croi
ES
▁livre
▁conformit
▁géré
▁accroîtr
▁marques
▁régulière
▁Sa
▁composante
ve
▁restrictions
▁discours
▁payables
▁convaincu
man
▁pourra
▁voter
▁officielle
▁Revenu
▁1997
efficacité
▁Aucune
▁centre
▁eau
▁as
▁ex
▁Madam
▁connu
▁attribuée
▁liberté
▁fond
▁rendue
▁explication
▁II
▁autorisation
▁primes
▁commentaire
▁importe
▁ententes
▁élève
▁résolution
▁avion
▁occasions
▁description
communes
▁55
▁attribué
ément
era
▁subi
▁constaté
▁préalable
▁Certains
▁stocks
▁priorité
▁plainte
bureaux
▁Rendement
▁véhicule
▁maladie
▁commis
▁conclus
▁42
▁aller
▁audité
▁dates
▁comparable
▁41
▁sollicit
@
enregistrement
▁téléphone
▁associé
▁débiteur
▁répartition
▁zone
▁Qu
▁expliqué
▁ajouté
▁nomination
▁annonce
▁considération
ssez
▁conflit
▁fournis
▁CI
▁70
▁justifi
▁soulevé
▁fera
▁commercial
▁vérifié
▁oppos
▁fonctionne
▁défense
▁entièrement
▁Management
▁80
▁défaut
▁privilège
▁mission
▁conclusions
▁producteur
▁Nos
▁interprétation
▁transactions
▁Canadian
▁Europe
tre
an
▁équipement
▁44
▁sais
▁élevai
▁dépréciation
▁directrice
▁étudi
▁indication
▁allégation
▁automatique
mise
▁consentement
▁numéro
rice
▁permanente
▁semblable
▁susceptible
▁commissions
alité
▁portée
th
▁proposée
▁pondéré
▁consolidé
parmi
ier
▁déposée
▁CAD
▁atteinte
▁John
▁comptabilis
▁extérieur
▁prospectif
▁prochain
▁traité
généraux
▁proposition
▁convertibles
▁incertitude
▁Nouvelle
▁Manuvie
▁partage
▁fil
▁sommaire
▁formule
▁Bell
▁Convention
▁o
▁attention
▁volume
▁révision
▁valo
▁procès
▁Cet
▁assujettie
▁main
emploi
▁remboursable
▁opérationnel
▁voyage
▁volatilit
▁origine
▁restructuration
▁livraison
▁Risque
▁chap
neur
▁probabilité
▁leader
▁effets
▁soumis
▁poursuite
▁fabrication
▁RAPPORT
▁investiss
▁habituelle
▁75
▁produir
▁clair
▁privée
▁fier
▁Document
▁43
▁petit
▁400
▁regard
▁notice
▁Air
▁directive
ommercialisation
J
▁ouvert
▁partout
▁jou
auquel
▁apport
▁temporaire
▁mises
mètres
▁syndicat
▁fer
▁entretien
▁conduite
▁clientèle
▁considérée
▁fluctuations
▁suiv
▁dix
▁perspective
▁histoire
▁comporte
▁version
▁militaire
▁technologies
▁accordé
▁remise
v
▁électronique
▁montre
▁brute
▁additionnelle
▁Fidelity
ble
▁Sur
▁école
poursuivre
▁DORS
▁constituée
▁consommateur
▁milieu
▁acquérir
▁Inde
▁appareil
▁INC
▁accorder
U
▁socia
▁située
▁professionnels
▁fournie
▁solution
▁longue
▁servir
▁approprié
▁close
▁agents
▁tendance
▁reçue
▁conformes
éré
▁précédente
▁frère
▁appropriée
▁réelle
▁65
▁normal
▁remarqu
iez
▁minimum
dès
▁requérant
▁48
▁campagne
▁surveillance
▁utile
▁personnelle
ATION
▁inqui
▁redevance
▁médecin
onnant
▁caisse
▁gérer
▁Section
▁électrici
▁langue
▁épargne
▁réce
MC
▁communiquer
W
▁150
▁1996
▁prime
▁signal
▁garantis
ture
preneurs
▁signifie
▁carré
▁renouvelable
ère
▁comptabilit
▁is
▁média
▁ID
▁condition
▁déficit
▁cherche
▁existence
▁taxe
armes
▁compose
▁secondaire
▁SUR
▁bénéficiaire
▁plans
▁prévision
O
▁papier
▁régl
▁accusé
G
▁suffisa
▁appuie
▁séance
▁bas
▁grands
▁discrétionnaire
▁opérationnelle
▁additionnel
▁bi
▁clés
▁Ministr
▁similaire
arrière
▁requis
▁destiné
▁absolu
▁52
▁foi
▁octroi
istes
▁poser
son
▁saisi
▁tribuna
▁remplacé
▁permettra
▁OPC
▁initiatives
▁institutions
di
▁utilise
▁précis
▁financer
▁commerciales
▁prévoy
IPR
▁identit
▁CF
▁devoir
▁éventuelle
▁naturelle
▁code
▁techniques
oire
▁Du
tiens
▁passage
▁gérant
▁Quand
▁gamme
▁généré
▁250
▁recev
▁lu
▁visite
▁46
▁Ottawa
▁sources
▁POUR
▁Achat
▁Billet
isme
ou
▁Variation
▁conclue
pondér
▁ajout
œur
▁québécois
▁défend
▁menace
▁Information
▁active
▁étendu
▁final
▁49
▁USD
▁ouverture
▁passe
▁800
▁Bank
▁déclare
▁écrite
vont
▁600
▁opinion
▁investit
▁vit
▁teneur
▁médicament
▁étudiant
oir
▁logement
▁Bloc
▁intégré
▁Sun
suivre
▁complet
▁progress
▁affecté
▁Holdings
▁femme
drais
▁collectif
▁nui
▁Alliance
▁Trésor
▁monnaie
▁locale
▁informé
▁positif
▁commande
ner
▁Nouveau
▁Cité
▁provinciale
▁créé
▁Dr
▁élu
▁caractéristique
▁travaillé
▁établissai
vez
▁mensuel
K
▁58
▁Power
▁afférente
9
▁limitée
resse
▁normale
▁effective
▁retour
ception
▁exercé
▁négocié
▁acheteur
▁soumise
▁47
▁facile
▁commerciale
▁ét
▁soutenu
®
▁éducati
▁éventuel
▁copie
▁quotidienne
▁affirme
fs
▁continu
▁considère
▁relève
▁procéder
▁prépar
▁négative
▁licence
▁atta
▁touch
entrevue
▁ouverte
▁vendue
▁Mais
▁tent
dre
▁Charte
▁usage
▁rép
▁Elles
▁instance
▁rest
▁figure
▁degré
▁marchande
▁comptant
▁réussi
▁définie
▁sénat
ine
k
▁coentreprise
▁répercussion
▁constitué
▁51
dire
▁gouvernementale
value
▁grave
me
▁publiques
▁Coût
▁mode
▁législati
accepter
▁appelé
▁63
▁grief
▁Saint
▁significative
ardeau
am
▁procédé
▁tarif
▁110
▁IAS
▁feu
▁85
▁sûr
▁physique
▁Fund
▁vaste
X
▁maximum
▁Sous
▁initiative
um
-12
▁loin
pprovisionnement
▁assorti
▁Et
▁impact
▁intervention
▁perdu
▁violence
▁parrain
▁mondia
▁Montant
▁consultation
▁courante
▁tonnes
▁apporté
▁quasi
▁apporter
▁atténu
▁contribution
▁pêche
▁cabinet
▁Association
▁conjoint
▁fé
▁authenti
▁autorisée
▁--
▁53
▁communications
▁apportée
▁précéde
▁chance
▁extraordinaire
▁détenteur
croit
▁humanitaire
▁retourn
▁direct
▁boursier
▁taxes
-10
conseiller
▁vendeur
▁01
▁espè
▁expansion
▁requise
▁pai
▁connaiss
▁accepté
▁souffr
▁entraîner
▁Agence
▁auxquel
▁Q
▁interdit
▁classé
▁mensuelle
▁découle
▁déposer
▁source
▁calculée
▁parc
▁Comment
▁Desjardins
-11
▁rencontré
▁Nations
▁Jean
▁électeur
▁préparé
née
▁extrême
▁presqu
▁supr
▁Rien
▁excédent
▁conçu
▁fréquen
▁rembourse
▁Financial
▁durable
▁remboursé
▁Pri
▁occupe
▁réuni
▁exacte
▁Obligations
▁AU
▁1995
▁Vancouver
▁mett
▁classe
▁plein
▁crise
▁provien
▁veuil
conque
antes
▁pétition
ar
▁équitable
▁Note
▁comportement
mène
▁professionnelle
▁phase
ly
▁types
▁trimestriel
▁détenai
▁arrive
▁Centre
▁LLC
▁aspects
▁agence
ménagement
▁67
▁cent
▁passant
▁Ouest
▁levée
▁lecture
▁cession
▁occupé
▁stable
▁outil
▁agriculteur
▁recouvrement
▁anglais
▁huit
▁obligatoire
iques
▁changer
▁professionnel
ut
tandis
▁pleine
▁retard
ard
▁do
▁placeur
▁Veuille
▁futures
▁Perte
cluant
▁existant
▁automobile
▁échantillon
▁établiss
▁multiple
▁Financière
heureuse
▁mention
▁Contrat
▁fixé
▁planification
▁porté
▁spécial
▁appréciation
▁indemnité
▁préjudic
▁Ressources
▁Pend
▁56
▁acheté
▁congé
▁reflète
▁Page
▁négatif
▁tâche
▁effectif
▁décider
terminant
▁bois
▁Université
▁estimation
▁retourné
▁illustr
▁loca
▁recommande
▁intérieur
▁partis
▁incombe
▁lumière
lez
▁arrangement
▁54
▁Con
▁Act
▁traiter
▁AUX
▁déc
onformément
▁collaboration
▁confirmé
▁considér
▁presse
▁régie
▁1993
ugmentation
▁Royaume
faud
▁volumes
▁renforce
▁ancienne
▁57
▁provisions
▁argument
tion
▁accordée
▁éthique
▁1990
▁relevé
▁repose
°
▁rentabili
▁Administrateur
ive
▁affidavit
iv
mener
▁Global
▁Gold
▁72
▁envoyé
▁ouvrable
▁Ma
▁1985
▁subvention
ête
▁représenté
▁large
▁test
▁devra
▁démontre
▁aliment
▁cour
▁industriel
▁exemplaire
▁devenu
▁orientation
▁réglé
▁renvoyé
H
▁vend
▁puit
▁commandité
▁Y
au
▁courtage
▁ACTIONS
▁suffisant
▁Ré
▁administrative
▁contrebalanc
▁éviter
▁graphique
▁positions
▁payée
▁force
▁souhaite
▁culture
▁Asset
▁Développement
▁subir
▁changé
▁fixation
▁PAR
-3
▁Service
▁expiration
▁transition
▁clinique
▁paie
▁ultérieure
▁complexe
▁Affaires
▁distinct
▁partenariat
▁taille
▁Dossier
▁Certain
▁expression
▁assujetti
▁exclusion
▁fondamentale
20
▁examine
licite
▁Règl
▁conserver
▁légère
▁inférieure
nous
▁appuyé
▁conjonct
▁partielle
▁infrastructure
▁rajusté
▁courriel
▁seuil
▁symbol
▁report
ac
▁mentionne
10
▁instructions
▁locataire
▁fondées
▁coupable
▁fédérales
▁dilué
▁déposit
▁adoptée
▁Marché
environnementale
▁FR
▁envoi
▁effectue
▁Solde
▁ajouter
▁file
▁indiqu
vec
▁64
▁déterminée
▁700
▁électorale
▁découvert
▁Incidence
-15
▁mort
▁litige
▁Non
▁fausse
▁Ont
▁Taux
▁confirm
▁remis
▁sud
▁diversifié
▁discuter
▁conjointe
75
▁lire
▁met
▁exigible
rons
▁Description
▁profits
▁empêcher
▁DÉ
▁sélection
▁élargi
▁fisca
▁First
▁convenu
▁centres
▁pose
▁essay
▁tienne
ence
▁accru
Uni
▁émergent
▁démontré
▁énoncée
▁infrastructures
▁1994
▁Nivea
doc
▁York
▁Programme
▁Notes
▁récente
▁intitulée
▁subalterne
ti
▁porter
▁adéquate
to
▁Sécurit
▁précède
▁revue
▁estimé
urs
▁réputé
▁servi
▁exposée
▁impression
▁Oppos
▁détermination
▁intervenant
▁SA
▁minutes
▁97
avis
▁notation
▁moindre
▁investisseur
ale
▁superficie
actions
▁zones
▁acceptation
▁composition
ANT
50
▁fasse
▁accompli
▁technique
▁interje
▁assujettis
▁accueilli
▁sortie
▁Bureau
▁lancé
quer
▁affiché
▁sondage
▁quantité
▁apparten
▁relié
▁rachet
▁auteur
▁minimale
écu
▁pay
ÉS
.1
▁Manitoba
▁exprim
▁fourniss
▁imposer
▁arrêté
▁intégrée
▁Quel
▁Z
▁réforme
▁ami
ateur
▁incitatif
▁train
▁sensible
çon
▁augmente
▁dis
▁indiquées
▁obtien
▁patient
▁susmentionné
▁61
▁59
▁anti
veiller
continué
quitté
▁propositions
▁mérite
▁défi
ai
▁coupon
▁envisage
MD
▁pr
▁assure
▁pauvre
▁décè
▁aurifère
▁File
▁esprit
▁Santé
▁Mon
des
ite
▁discussions
▁nécessité
lève
▁entier
▁Calgary
▁complémentaires
▁portent
▁logiciel
▁passée
▁Brookfield
▁positive
▁Saskatchewan
▁dommages
▁Rémunération
▁valide
▁societ
▁appartien
est
▁écoute
▁68
▁résume
▁travaille
▁volont
▁civil
▁commencer
tes
▁totalisé
otation
▁majoré
▁existante
25
▁arriver
▁conférence
poid
▁Qui
▁émettr
▁All
▁bout
▁117
issent
un
▁rue
-02
▁association
▁traite
▁imposée
Y
-01
▁souligne
ène
▁quote
▁amis
▁récent
▁télé
▁accroisse
▁formulé
▁mécanisme
▁120
▁impose
use
▁jugé
▁évalue
▁modifi
▁éviden
▁Marque
▁réform
▁individuelle
▁équit
▁obtention
▁participants
▁accrue
▁62
naires
▁convainc
▁législat
▁Mandat
▁loyer
▁individuel
▁détention
▁66
▁Investment
▁futur
▁démontrer
▁délais
▁forma
▁approuvée
▁démocratique
-03
▁96
▁sub
▁estimative
▁vienne
▁appréci
▁promesse
▁chemin
▁forces
▁téléphonique
▁Pro
▁remettr
▁occuper
▁causé
▁prestat
▁TPS
▁doi
▁octroyée
▁coup
ire
▁retenue
-13
Écos
▁sup
▁Acquisition
▁détaillée
\
▁fabricant
▁instrument
▁aîné
▁varie
▁liquide
▁retire
▁Russell
▁125
▁résultant
▁venu
▁appliqué
▁cat
▁acquitter
onsieur
▁95
▁désir
couverte
▁dirigeant
▁Exercice
▁guerr
▁Paul
▁minérale
▁incorporel
▁séparé
▁antérieur
▁exportation
▁géographique
▁moitié
▁provisoire
▁produite
▁laisser
▁limité
voit
▁télécommunicat
isant
▁Dé
ière
▁publication
▁policiers
▁journée
ouvoir
tend
▁para
▁Transport
▁marche
▁entraîné
▁représentai
▁Sud
sedar
▁Instruments
▁manifeste
▁périodique
▁engage
▁patrimoine
▁accorde
▁message
▁contact
▁Fact
étique
▁commence
joindre
rier
▁local
▁profil
-5
▁posséd
nement
▁Investors
▁future
▁démarche
▁désignée
▁FINANCIERS
▁David
▁aéroport
▁Communications
▁reflét
gère
▁sexuelle
▁by
▁définitive
▁favoriser
▁comprenai
▁adjoint
▁combattant
▁admis
▁accepte
▁criminelle
▁institution
▁candidature
▁experts
▁Première
▁discut
▁minière
pression
▁pench
▁requête
▁Période
▁exploitant
▁Premières
▁distincte
▁discrimination
▁promotion
▁2021
▁Résultat
▁He
▁initiat
▁Scotia
▁naissance
▁arguments
été
▁équilibre
▁expertise
▁Ne
▁crime
rainte
▁suffi
▁situations
esse
▁réfugié
▁contractuelle
▁900
▁urgence
▁bâtiment
▁trouvé
▁incident
ÉE
érence
▁reconnue
▁mauvaise
▁drogue
ville
▁exposés
▁1992
▁second
15
▁utilisateur
▁répondant
▁1981
abilité
▁West
▁consolidée
00
0,00
▁Votre
▁égale
vienne
▁fall
▁scientifique
▁précéd
▁pondération
ieux
ssement
▁intéresse
▁proportion
▁nouvel
▁appliquée
▁accident
▁Trois
▁Lors
▁Fond
▁joint
▁condamn
▁oblig
▁volontaire
▁conception
▁retenu
▁Standard
▁retrouve
euse
▁gros
▁LP
▁volet
▁passeport
▁Afin
▁soup
eau
▁GRC
▁graves
▁encaisse
▁progr
▁visit
▁Charges
▁gagné
ça
▁terres
▁Me
▁III
▁brevet
▁quelqu
▁verse
approuver
▁résili
▁profiter
▁corrig
▁assist
▁interveni
▁armée
▁jeu
▁minimal
▁69
▁différe
▁serve
▁familial
rez
▁fi
-19
▁peuple
▁ÉTATS
con
▁bar
▁signature
▁Indice
moins
▁majeure
▁mentionnée
▁éch
▁mené
▁publicité
▁Assemblée
▁provincia
-20
▁municipalité
▁couvrir
▁Resources
▁assuré
▁procureur
▁hier
▁CDS
▁Protection
▁due
▁Partie
▁exercées
▁France
▁Client
▁Impôt
▁Robert
▁concession
▁Dynamique
▁impossible
▁incluse
ro
▁PLC
#
▁SEDAR
▁1,5
▁spécialisé
▁suffisante
▁quitter
▁bénéficier
▁évaluée
▁stock
Z
▁médica
-4
▁critique
▁Activité
▁consenti
▁excellent
▁reconnaiss
▁Street
▁commanditaire
iens
▁réclamation
▁bénéfici
▁fondement
ves
▁minerai
▁annualisé
▁danger
▁revi
cution
▁tenant
▁gr
▁inscri
▁AGF
▁cumulatif
▁satisfait
▁swaps
FP
investissement
▁incapable
▁consolidation
Brunswick
▁puiss
▁substitution
▁adm
▁anticipée
▁pens
posée
30
-14
▁prenant
▁répartis
▁Plan
perçu
▁euro
▁entraîne
▁exiger
▪
▁internationa
▁nommer
▁interdiction
▁Canadien
aître
voque
▁750
▁cesse
▁nominale
▁99
▁soumett
erie
▁intitulé
▁légale
▁bande
▁contenue
ch
▁délivr
▁sites
-04
▁Terre
▁créditeurs
▁couple
▁71
▁gisement
▁démocrati
▁cumulé
ig
▁allég
▁conditionnelle
▁observation
▁leadership
▁Norme
▁indices
▁souscripteur
▁informer
▁prononcé
▁miniers
11
▁Chef
ouze
▁déterminées
▁recu
▁prescrit
▁Mars
▁écou
▁européenne
▁Ltée
▁anticipé
▁Quant
▁précision
▁distribu
▁délivré
penser
▁indépendante
▁auto
▁clauses
▁intégrant
▁enregistrée
▁fut
▁concurrentiel
▁exigence
achète
▁514
sert
▁obtenue
▁budgétaire
▁plaisir
▁TSS
▁05
▁climatique
▁91
▁numérique
▁champ
-16
▁intéressant
▁science
▁satisfai
▁chôm
▁expose
▁Flux
▁vision
▁acceptable
▁Justice
▁invite
▁surface
▁84
▁Analyse
DA
▁marketing
▁pensions
▁can
▁rachetée
▁81
▁Technologies
▁accent
▁98
▁Procureur
rai
▁Vente
riez
▁violation
▁bail
▁respecte
▁publiée
▁130
▁appris
▁renouvellement
▁distribué
▁abandonnée
prouver
▁devenue
▁représentation
▁indicateur
RE
-18
▁croy
▁North
▁Hon
-06
▁retrait
▁éliminer
▁compensation
▁résulte
▁Martin
▁accessible
▁limiter
issé
ri
▁poursuiv
▁mineur
ins
espér
▁tire
▁engager
▁Droit
▁faciliter
▁period
▁pourri
▁invité
Ouest
venant
▁survenu
ge
▁73
ège
▁Limitée
▁lutte
▁capable
▁BCE
▁Mexi
▁invalidit
du
▁00
▁chiffré
posé
▁2022
▁CEI
▁touche
èvement
▁poursuivies
▁bloc
▁vérifi
▁trimestrielle
▁Puisqu
▁familiale
▁assister
▁correspondent
▁Inter
▁IAD
▁Institut
-05
▁vive
nnulation
demain
rainage
▁valable
ley
rogé
•
,
▁pre
vront
Grâce
▁travers
▁navire
▁ser
▁retiré
-17
▁Office
▁génération
▁croyons
▁dispos
▁préserv
▁Lake
▁aspect
▁profondeur
▁Fait
▁élabor
▁possession
12
▁crimes
▁confère
▁actualis
dra
▁diminuer
▁soir
▁suppos
▁chaîne
-07
▁technologique
▁génér
▁attribue
▁Requérant
▁issue
▁ETF
roissance
UAD
▁144
▁77
▁92
idé
▁excédentaire
ifs
▁Pierre
▁Franklin
▁76
résorerie
▁Options
ma
▁Union
▁municipalités
▁influence
▁74
échi
▁afférent
▁prospective
▁procurer
▁complété
▁exigé
▁générer
vie
▁mémoire
▁préliminaire
iser
bre
▁salarié
▁cré
▁rapprochement
▁am
▁RÉ
▁image
▁situe
▁fiable
▁offres
▁combiné
▁PLACEMENT
▁concurrent
▁LC
▁trouv
▁RE
▁exécutif
▁divulgation
▁facture
▁morale
▁06
▁potentielle
▁transféré
▁1991
eront
▁indépendance
▁culpabilit
land
▁réinvesti
▁maintenu
▁prudent
ler
▁couvert
séjour
▁Opération
▁manquement
▁River
▁Durant
▁constituer
▁renferme
▁énergétique
▁93
▁suppression
▁admissibilit
▁Ni
▁su
▁inhérent
▁permission
habitants
▁dépasse
▁nations
▁plateforme
j
▁350
▁fixer
▁minières
▁Deuxième
▁Emploi
▁100,00
▁Hong
▁consultations
▁organisé
▁Assurance
▁réputée
▁développer
▁carrière
▁route
▁Projet
▁Amortissement
0,0
▁78
▁partiel
DI
▁acquér
▁axée
▁83
démocrat
▁soi
▁Prêt
▁Finance
▁express
▁récurrent
▁ajoute
▁entrer
▁Passif
▁calend
▁TRIMESTRE
▁détermine
▁contesté
ien
panier
▁Ratio
▁fixée
▁livré
erait
▁amorti
▁with
▁opportun
▁pouvai
▁DIRECTION
▁Gain
▁provincial
igne
▁180
▁PCC
▁imp
▁Income
▁régionale
▁Membre
▁participant
▁prêteur
▁disent
▁carburant
▁rédigé
▁recevra
ger
▁endette
16
▁suspension
LRQ
▁onces
▁transformation
ujourd
▁postérieur
▁plaintes
AIRE
▁qualifié
▁emplacement
▁indiquée
▁94
▁communautaire
▁collabor
▁divorce
▁signée
▁Ordre
▁traduit
▁UN
▁régiss
17
▁attentive
naire
▁reconnaissance
hérent
▁Index
▁disposé
▁Annexe
▁affich
▁AG
▁86
▁Règle
▁indemnisation
cité
ver
▁modéré
citer
▁79
▁jeune
▁respecté
▁feron
▁étend
▁double
Neuve
ies
▁occupation
▁spécifique
▁09
▁prélevé
▁réparation
▁450
▁français
ER
tabilité
▁constatation
▁eaux
▁101
▁amende
▁saisie
▁Enbridge
▁hôpita
ic
▁licences
▁102
▁exploite
usqu
▁88
frant
érance
éter
▁saillants
▁estimée
▁frontière
▁résid
ettre
▁jurisprudence
écédent
▁lancement
▁compréhensi
▁Winnipeg
▁recommandé
▁habitation
end
▁Risques
▁Nom
▁Al
▁Asie
▁informatique
▁reflètent
bles
40
▁Paiement
▁inspection
▁pondérée
▁140
FG
▁TELUS
▁demand
▁cancer
▁espace
▁Intérêt
▁Peu
▁individu
▁prête
▁laisse
▁demi
no
▁boursière
▁respectif
▁réput
▁agi
▁quotidien
▁0,5
▁Societ
▁Investisseur
▁clause
▁discussion
▁ressort
▁SOCIÉTÉ
▁adh
▁nommée
▁CO
▁correcte
▁profession
▁arbitrage
▁Gaz
▁ado
▁87
▁résidentiel
▁1,00
▁représenter
▁clé
▁estimatif
▁significatif
▁111
▁82
▁Résultats
rester
GESTION
▁illimité
▁2023
▁carbon
▁constitution
▁réglementé
60
▁mouvement
▁classement
▁statistique
▁Province
▁are
imant
-6
-09
▁ratios
appelle
éfense
▁105
▁rattaché
▁envoy
▁Canadienne
▁89
▁inflation
▁cessation
▁abonn
▁abus
▁restrictive
▁documentation
▁Dividende
▁rémunér
▁James
erai
▁libération
encontre
▁promoteur
▁Can
▁Politique
meur
oc
14
érer
▁nationaux
▁respective
-21
▁tenter
▁protégé
▁Accord
▁produis
▁Black
▁constante
▁fraude
-26
▁faibles
▁portion
▁ii
▁SC
13
▁achetée
▁destinée
▁citoyennet
▁distinction
▁varier
▁habit
▁IASB
▁dissolution
▁assume
▁tests
▁élimin
▁unanime
égué
▁décide
up
chercher
▁alcool
▁conscient
▁Ses
▁préparer
▁portai
ul
▁Énergie
gnification
▁MM
▁Leur
IN
▁statu
▁devai
ateurs
▁contribuer
▁réclam
ref
èle
▁progression
▁ouest
▁associées
placé
çant
-08
▁Peter
▁innovation
▁HSBC
▁constatée
▁rajustement
im
▁agricole
▁évidence
▁pétrolière
▁Caisse
▁An
▁km
▁sûreté
▁Securities
▁hypothèque
▁prononc
▁115
▁George
▁subordonnée
ot
▁surplus
“
rité
▁demeurer
▁livrer
▁médical
hèque
▁104
▁titris
▁prison
▁retraité
▁Division
▁103
▁amortis
▁ignor
▁post
énumér
▁entrepris
▁emprisonne
▁prosp
▁attendu
pe
▁imputé
▁diffère
▁souscrit
▁négocier
19
▁détaillé
▁anniversaire
▁133
▁incluent
▁108
▁spécifiques
▁Réf
▁rentable
▁transparenc
▁importation
▁assumer
▁mobile
mp
-25
elles
be
do
▁soumission
▁hé
▁proportionnelle
isée
▁seconde
der
▁adulte
▁160
▁Conseiller
▁animaux
▁imposé
▁législatif
éclair
▁distributeur
18
▁416
▁ministériel
ni
▁As
▁excellente
▁1989
▁confér
▁composée
▁that
▁récupération
pire
”
termine
élévision
out
▁concentration
▁rétabli
norme
▁Capita
▁engagées
▁toucher
▁prennent
▁incoh
▁spécia
ible
▁Participation
trait
issant
▁proche
▁07
▁désignation
▁déterminant
▁reportée
▁traitée
▁incapacité
▁défini
▁Ex
égitime
-7
▁Hydro
▁connue
▁détienne
▁dispense
▁BQ
nom
▁har
▁tête
▁remplacer
▁Oui
▁tentative
▁criminalit
▁approuve
▁Renseignement
ha
▁validit
▁Edmonton
sectorielle
▁recueilli
▁loué
▁cuivre
▁08
▁locative
éni
▁CON
▁Couronne
▁compren
▁analyses
▁SECTION
▁fédéraux
▁appliqu
▁Ab
▁107
▁Investissements
▁baux
▁médicale
▁Port
▁Constitution
▁consultatif
▁enseignement
▁03
▁salle
ail
▁Michael
isait
▁hôtel
▁Sans
oudre
27
▁sol
▁fondamental
eration
▁affirmation
▁erron
▁Distributions
▁mines
▁amélioré
▁stade
▁omission
▁Propriété
▁sexe
-23
▁360
▁from
ération
▁perçu
▁rév
▁université
▁175
▁2,5
▁02
utilité
▁engagée
gression
▁106
▁prom
29
▁Forces
▁mixte
▁défendeur
▁Commerce
▁Manuel
▁Hill
▁mandataire
▁surveiller
▁semestriel
▁péri
▁instruction
min
▁poursuit
▁fondamenta
▁Tr
▁élev
▁probant
▁combinaison
▁développé
▁1988
▁joue
▁tir
▁contrôlée
▁demeuré
▁We
ales
▁tour
▁109
▁mentale
▁signe
ève
▁essence
hinois
▁rural
▁entour
▁tarifaire
▁RCS
▁satisfaisant
▁arbitre
▁extrait
▁poursuivi
▁préventi
▁voiture
▁Australi
▁Grand
▁domicile
▁étroite
▁proposer
▁Entre
▁fourniture
vocation
atoire
80
euses
▁menée
▁Mouvement
▁réduite
▁dilution
ôt
fi
▁pren
tique
▁Stratégie
▁agréés
▁tomb
▁FDA
99
▁Lac
▁112
lesse
▁kilomètre
mais
▁analyste
▁recrute
©
▁déduit
▁lacun
▁sold
▁Parmi
▁souscrir
▁closes
▁indications
aille
▁humain
largement
▁affiliée
▁accréditive
▁adéquat
▁matin
▁minier
▁Avis
▁contenant
▁évolu
▁désor
▁GD
▁vidéo
▁ARC
▁1,2
and
▁Charge
▁impayé
▁élaboré
▁nucléaire
jacente
▁Quelle
▁0,3
▁régulier
▁1,0
▁faillite
▁0,1
▁parallèle
▁concentré
▁geste
▁spécialisée
▁disponibilité
▁ferroviaire
▁Tableau
▁adoptées
▁handicap
▁vraisemblable
▁identique
▁lecteur
moi
▁IN
×
▁faiblesse
▁Gas
▁123
▁Tel
▁any
▁charte
▁Investments
qui
▁découverte
▁Partners
▁terre
coeur
résidence
.2
▁combl
▁190
▁favoris
▁pourvoi
ienne
39
▁constitutionnel
▁irré
▁ralentissement
our
▁pâte
▁2024
>
▁aérien
▁170
garder
▁exclusif
▁contractuel
▁industries
▁SEC
▁omis
▁Bay
levier
▁Outre
▁Encore
▁original
-22
▁BC
▁Mac
▁permise
▁préfér
tendu
▁At
viendra
▁normalisé
▁So
▁Nationale
▁MSCI
▁réussite
go
▁113
tation
▁TA
▁install
▁expert
▁prospectives
▁précieu
▁pou
▁Board
▁0,2
mont
▁consist
▁liquidation
▁Premier
▁régi
▁118
▁Remboursement
▁mauvais
▁escompte
▁censé
▁Dette
▁combi
▁recouvrable
exactitude
▁135
nelle
▁Invesco
▁dynamique
▁Bon
can
▁Japon
▁INFORMATION
▁disciplinaire
▁institutionnel
▁composant
▁pétrolier
REER
CO
▁manqu
▁Traduction
▁approximative
▁Unies
▁signer
▁vulnérab
échange
olé
▁universel
▁néglig
ph
▁fourchette
▁embauche
▁CANADA
Canada
▁04
ry
▁1987
▁entière
dépendance
▁convocation
faite
21
iversité
gure
▁guide
AUX
▁ICCA
▁liaison
▁avisé
▁employée
▁bio
▁Mc
▁114
▁Great
▁1986
▁réduis
49
▁chambre
▁partisan
▁145
▁sinistr
▁créancier
▁fra
▁pharmaceutique
▁sanction
▁Gouvernement
▁déce
▁couvr
▁encourage
▁délinquant
▁Juste
▁convertis
▁122
▁TITRE
▁scénario
▁128
▁montré
▁corrobor
▁veille
▁modifie
vis
▁iShares
autoriser
▁refuse
▁enf
▁ON
▁intellectuel
−
▁dégagé
▁annulée
▁116
▁productif
▁119
▁Émission
▁121
▁belle
▁révisée
oubli
sible
▁religieu
▁affecter
▁productivit
▁comptabiliser
▁Richard
▁CAE
▁rentr
▁IA
▁accumulé
▁harmonis
▁nécessite
▁Royal
▁transmis
llèg
vère
▁agriculture
ORIE
mer
blé
estionnaire
vide
▁transmission
▁mains
▁gagner
▁goodwill
▁appelée
ssés
▁intégrale
▁sent
▁vérit
▁recour
▁Fraser
atif
▁associée
ification
▁faux
Centre
▁Directeur
ités
▁éventualité
▁axé
▁sanctions
▁stimul
irai
▁has
▁856
„
▁bord
▁Solutions
prouvée
▁entré
pondération
▁enver
▁129
▁cycle
▁concert
va
▁remplacée
▁douane
▁préval
▁Mines
médi
▁industrielle
▁appuyée
▁FT
▁jugée
▁gen
▁Mesure
▁majoritaire
▁centaine
galement
▁form
▁cumul
▁promis
AL
▁CAF
suscit
▁Poste
▁négociée
▁IMM
▁matériau
▁prescrite
▁2025
specteur
▁attest
-24
▁vêtement
▁Québécois
▁déplacement
▁Man
▁confirme
▁Mo
▁minéralisation
▁126
éparation
▁construit
▁neutr
▁Exploration
▁168
▁plafond
▁nation
▁élaborer
▁comptai
Le
28
▁Ajustement
▁Environnement
▁atteign
▁chimique
▁pénalité
▁régional
▁autorise
▁européen
26
▁renonciation
▁aérienne
▁examinée
▁SI
▁124
▁127
▁substitu
▁0,6
▁DANS
ône
q
voqué
mo
▁corps
▁riches
orial
▁recettes
▁OU
▁agricoles
▁CAPITAL
▁notion
▁Industries
▁1,1
▁maritime
▁compression
▁fermé
assurance
70
▁créée
▁accéd
▁préférentiel
67
ho
▁moteur
▁saisonni
▁sûre
▁adopt
▁comt
▁restaurant
▁gouverneur
▁rotation
op
action
▁multi
EURS
▁CN
▁CRT
▁em
▁République
rafic
▁Évaluation
▁formé
▁Etats
24
▁électrique
▁scrutin
▁justifié
▁Modification
▁distance
▁exerç
▁claims
▁gard
ajoutée
▁consta
▁suppose
▁contracté
▁oblige
ang
tention
▁linéaire
▁pé
▁Signature
▁prospection
▁0,4
▁spécialiste
▁Demande
▁Fédér
onstitutionnelle
▁détaillant
nés
▁acier
ration
▁identification
▁Per
▁logique
▁once
▁Deux
▁Uni
orée
77
▁affai
▁levé
val
▁extraction
▁royale
▁tort
▁Décision
▁déclarée
▁illégale
▁present
▁vois
▁bri
cèle
▁évide
West
Est
▁classée
lauréat
▁bourses
-9
33
▁apprendr
▁indirect
▁225
▁Di
▁consolid
▁port
udi
▁procède
▁table
EUR
▁déclench
▁parent
je
donner
▁laboratoire
▁crée
eusement
▁module
▁coté
▁empêch
▁revoi
▁fonde
▁reliée
▁minoritaire
▁condui
ian
▁tente
▁132
▁Néan
per
▁initia
▁143
▁réfl
ATÉG
▁adressé
IE
▁terroriste
ill
cher
▁147
▁1982
ON
▁FINANCIÈRE
▁suppléant
▁retrouv
22
▁restante
▁138
▁accusation
▁Afghanistan
présentant
▁batt
▁ach
▁fonctionnelle
▁expire
▁jury
▁identifier
▁révélé
79
▁ANNUEL
▁RPC
acceptable
▁cotée
▁commise
̧
▁finance
▁Beau
▁134
▁district
▁PRO
Afrique
▁cre
▁146
▁hypoth
pressions
▁137
▁pilote
▁négociat
lo
▁transmettr
▁exploiter
▁London
ell
▁240
▁Am
▁Royale
▁confusion
▁abrog
EL
▁française
▁131
▁National
▁déten
▁côte
▁anomalies
▁varié
▁constant
▁cach
pit
▁1,3
▁dérivé
▁maîtrise
▁Ville
▁basée
59
▁affectée
36
▁136
▁autonome
issement
▁conserve
▁Avantage
▁139
ouvrir
joint
▁Cours
90
▁opinions
▁0,00
▁authentic
▁PC
▁sérieuse
▁coupons
▁220
▁air
OMC
▁comit
▁reclassé
▁consacré
▁contribue
▁automne
▁activite
▁fluctuation
juste
▁terminer
▁Supplément
tage
45
▁menac
gi
▁divisé
tte
tro
▁RÉSULTATS
▁honnête
▁165
études
▁restant
▁encourager
▁restriction
▁révél
io
▁650
▁accessoire
▁bénéficie
▁k
ivité
spoir
▁acceptée
▁Honoraire
▁Personne
▁rem
69
pro
▁210
▁Smith
▁exceptionnelle
▁Ibid
ice
▁155
44
▁fabrique
▁fa
ires
▁chute
▁délégué
▁revendication
▁tonne
▁1,4
▁dépose
▁Seul
▁Rachat
▁croissant
américain
emagne
▁American
totalit
▁dégag
▁épa
▁Moins
▁scolaire
▁Loblaw
▁Horizons
nalité
RI
▁certification
▁142
▁141
fait
▁For
▁us
-31
▁achet
espèce
▁Report
▁applications
tinence
▁amortissements
▁cannabis
▁segment
▁registr
▁dispar
▁Stock
▁émise
▁conservation
▁voisin
▁166
▁Cabinet
▁concentrer
▁officiel
Américain
▁énonc
46
▁obligat
▁PARTIE
▁Comprend
▁résiduelle
OR
▁capitalisé
-30
▁remplie
▁exist
ENDEMENT
31
Nord
▁Chacun
▁diversification
▁op
▁Be
▁prolonge
▁prorog
pa
▁Suite
ières
montrer
▁550
LE
▁accusations
▁IV
▁exécut
▁accompagn
▁ramen
37
▁Pakistan
ille
▁0,9
▁soutenue
▁révisé
▁sensibili
▁230
ION
GC
▁concurrentielle
▁chiffrai
▁radio
▁identifié
▁Bombardier
▁définis
▁ten
iel
▁respectée
▁annuler
▁blessure
▁observable
▁Mark
89
lisation
▁149
.01
▁restreint
▁tabac
▁différend
▁forestier
▁UNE
▁secret
▁échangé
▁148
RER
▁paramètre
▁Profit
▁2,0
atrice
▁défa
▁fur
▁habitu
-07-09
▁théorique
▁budgets
▁167
▁sauve
▁financé
ap
▁attitude
▁sensibilit
▁tu
▁tacti
ures
▁Oil
lin
▁concord
▁assureur
▁actuarielle
▁tiendra
▁content
▁MW
▁cher
▁152
ceint
▁Objectif
asi
▁159
▁transporteur
mètre
▁empêche
▁définitif
▁redressement
▁solvabilit
▁nulle
▁men
▁consign
▁privilégié
aise
▁REVENU
peur
▁motions
sol
▁immigrant
▁renouvelé
▁révise
▁UAR
▁ca
▁facturé
▁dirigé
È
▁fraction
▁concr
▁stabilis
▁Lifeco
▁RPD
▁concept
cession
▁restreinte
ourir
▁journal
▁viol
▁161
▁157
▁recouvr
▁reven
▁supervis
▁influ
▁racheté
▁discrétion
tés
cevoir
atique
IL
▁bénévole
▁333
▁Relations
▁0,7
▁trous
▁madam
▁roche
ka
po
▁serre
▁traditionnel
-27
▁intérimaire
▁156
Autochtone
▁indiciel
venu
▁accept
ron
▁convertie
w
85
▁diminue
▁common
ham
ak
culé
ines
▁contributions
▁déductible
▁dépasser
▁éliminé
▁annoncée
▁agréé
▁allocation
▁Kong
▁Trimestre
▁EX
cédé
oduc
▁162
une
▁heureuse
▁lucrati
▁cite
▁légal
▁Universal
▁approfondie
▁Donc
09
▁Calcul
▁pipeline
▁Clarington
▁analyser
incère
▁MA
▁Exchange
ko
▁Mont
ouleur
▁souvien
▁171
▁insuffisant
▁0,8
vu
-8
ologie
▁154
▁swap
raisonnable
ouest
▁151
nomination
▁pp
▁compétente
▁municipale
▁moyenn
▁AD
▁basé
▁Changement
ise
▁Métro
eaux
▁supervision
▁ACTIF
▁Mise
▁adaptation
▁annulé
▁1,6
▁153
voir
▁audiences
▁Reine
▁158
23
▁priv
mar
▁Écart
AUTRES
▁actualisée
▁Suncor
▁rechange
▁prolongée
expédition
équivalence
▁Pourcentage
▁sectoriel
▁exact
▁motiv
rices
tel
▁Mar
Sud
allocation
▁flott
▁fluctue
5,00
▁pe
▁Aliant
▁diamant
▁courrie
▁World
▁Autorité
56
▁correctionnel
▁consultant
▁bâti
▁fidé
▁octroyé
▁plai
versement
qu
▁cherch
▁proven
▁voy
▁ltée
▁revend
▁Fort
▁majeur
47
vin
▁intéressée
▁fermée
certitude
▁révoqu
▁pénale
▁apparenté
▁concerné
▁gravit
qué
▁bacca
▁affectation
aï
TS
▁comptabilise
▁courte
▁VALEUR
▁conservé
▁franchis
▁repér
▁attestation
tenez
▁colonne
ik
▁Tire
▁observer
▁venue
ong
▁163
▁instant
▁CNW
▁AC
▁évent
▁immobilière
▁AP
▁pla
▁avancé
harbon
▁déontologi
▁pointe
▁General
jeux
▁pont
▁ciblé
▁rigoureuse
▁couvre
▁compétent
rom
▁citoyenne
42
▁260
▁fiabilit
▁Emprunt
▁Principal
▁Question
▁gross
▁185
▁représentée
primer
▁nominal
▁Déclaration
▁Rogers
▁Van
▁sexuel
●
▁désire
▁Sommaire
▁Media
▁arme
La
07
▁prorogation
▁intéressante
▁définir
▁franchise
▁this
▁Iran
rage
pét
▁Exemple
▁coopérative
▁emprunteur
▁camion
▁latent
▁participe
35
▁limit
▁formulaires
▁sentiment
▁To
▁Prime
▁accélér
▁prolongation
gre
86
▁débuté
lement
▁agrandi
▁dispositif
▁affiche
ign
▁Final
▁imprimé
ssent
▁164
▁Fiera
▁Dépôt
iminution
▁unitaire
▁Offre
▁pi
▁investis
▁America
lu
▁salariale
▁isol
accord
▁212
▁spécifi
-29
▁172
▁3,5
ITÉ
▁176
pr
▁etc
glet
▁Valley
▁nuit
▁servant
▁présumé
▁existent
▁forfait
▁CONSOLIDÉS
▁440
GN
▁assur
rement
IS
▁its
▁407
▁exhaustive
mère
▁vis
▁protocol
▁zéro
▁178
▁succursale
▁expulsion
▁biologique
▁205
▁275
·
▁administré
▁québécoise
▁CNC
▁169
▁di
▁Perm
LI
▁Mode
▁subordonné
▁découlent
résil
▁4,5
▁fruit
mi
▁Infrastructure
cesser
UN
▁hauteur
▁dépensé
▁dangereux
▁conversation
jointe
63
▁320
▁commercialis
▁Réserve
▁173
arité
US
Co
▁baiss
▁déménag
▁CRTC
ol
▁El
▁minorit
port
▁réévaluation
▁définit
▁CONSEIL
▁lés
imons
-28
▁vague
▁traditionnelle
▁démarr
▁TVH
▁174
▁181
88
▁imputable
▁sign
SI
ag
ali
▁Pipeline
▁envoyée
urée
55
▁fidèle
▁sugg
▁410
▁serie
▁divis
▁communiqu
▁mille
▁189
▁décri
▁observée
indre
men
▁confirmation
▁1,7
▁Val
hi
NI
bas
limentation
▁jointe
prié
▁franc
▁incidents
▁présomption
▁apprentis
ate
▁structures
▁850
ommage
▁280
▁classification
▁joui
▁néan
▁signale
▁radiation
▁déchet
▁Atlantique
▁prélèvement
▁religion
▁325
▁man
▁entrepreneurs
▁201
gue
▁effort
▁sort
▁270
▁204
▁Scott
NE
▁confront
65
▁diffusion
▁convenable
66
▁AT
▁démission
▁contrainte
▁faute
▁730
▁193
malade
5,0
▁5,00
▁Bo
▁ordinateur
▁réorganisation
agne
▁suivie
ub
Laurent
éno
87
▁cru
▁195
▁1,8
▁Park
97
▁délibér
midi
▁183
TE
aine
▁attendue
▁opportunité
IC
américaine
▁NON
▁192
▁TransCanada
AT
▁croît
▁177
▁systématique
illance
▁375
▁hiérarchi
34
ites
▁cœur
▁pipelines
▁PORTEFEUILLE
▁renvoy
cu
▁hiver
▁modifiés
chant
▁adapté
▁raffin
▁résolu
▁exercée
▁populaire
▁prot
▁présum
▁188
vi
▁témoigne
GT
▁collecte
▁acquitté
▁desquel
▁184
▁1980
▁repris
▁courus
▁TR
▁403
line
▁commune
èque
forme
▁englobe
▁indienne
▁365
▁187
ME
▁autoris
▁rapproche
éduire
achev
▁former
▁entrepos
monter
▁182
▁179
réci
▁pan
▁transitoire
primé
▁Industrie
▁411
▁alimentaire
▁lourd
▁Don
▁SCC
▁Systems
▁machine
▁White
76
▁assumé
▁présumée
ule
▁réside
57
▁excellence
▁alimentaires
▁épi
▁violent
▁démissionn
▁consacrer
▁Real
ach
EMENT
▁213
▁Sri
▁191
▁209
▁Michel
Templeton
▁194
▁tissu
▁1984
▁relever
▁rythme
▁dia
▁186
▁comparatif
ip
▁Halifax
▁Ke
ba
▁négociable
▁emballage
▁foyer
uée
cul
▁optique
▁prioritaire
▁Credit
▁Radio
▁South
▁inchangé
▁contrôler
▁420
▁soulev
chec
▁votes
écoul
▁arrangements
▁418
▁fr
▁réservée
▁donn
▁855
▁Système
96
▁215
field
▁fabriqué
ifère
lier
▁Éléments
éger
▁stricte
▁330
▁mer
che
▁exécuter
▁distribuer
raign
▁désigner
▁Pré
ju
lutter
▁Renaissance
eille
▁plafon
ssant
▁She
▁encour
MO
▁exemption
▁Modifications
▁ajournement
▁cra
horaire
forcé
▁340
uer
▁235
▁annoncer
▁chiffrée
nant
▁2,2
▁2026
▁202
▁it
▁constituant
▁Point
▁longueur
▁efficience
▁po
▁cellule
▁TMX
▁progressive
▁déploy
sortir
oncle
ous
▁VI
▁réduir
nd
placée
▁tribut
▁Ceci
▁continueron
▁ANNEXE
examen
▁déploie
▁horizon
▁Su
▁ven
lais
▁correction
▁bassin
▁complémentaire
▁acquitte
▁arrest
▁trompe
▁Mining
▁227
ary
▁excède
QUE
▁362
▁remarquable
▁Fa
84
▁199
▁dissident
▁Attribution
▁gagn
▁correspondra
▁diplôme
▁mainte
▁emploie
▁divulgué
éléb
▁0,01
om
▁Pacifi
ney
▁Do
▁demeurée
▁Bons
anc
▁instrui
▁souscri
▁lou
▁combustible
▁décret
▁style
ow
▁conjugal
▁construir
▁Lanka
▁transférer
▁missions
▁examens
▁196
▁apparte
▁206
▁cédé
▁professeur
▁Boralex
▁occup
▁265
▁sommet
▁Lynch
▁qualifiée
▁exceptionnel
▁Donnée
▁fibre
▁cinqu
▁latente
▁pén
chi
▁arriv
▁214
cha
lée
▁208
▁NET
▁photographie
▁Quo
▁poisson
els
78
▁issu
▁île
ries
▁audition
em
cor
▁administr
▁197
▁souscrite
citée
he
réfère
▁débit
▁Média
▁comparé
▁Sentry
▁explicit
▁déclar
▁207
▁photos
financement
▁copies
▁198
tenu
▁enseignant
▁projection
▁222
▁361
▁reprodui
ondre
tech
SFC
▁412
▁record
▁TI
▁nomme
▁351
▁LLP
▁shall
▁continuit
▁zinc
ative
gie
▁person
▁ri
▁constitu
▁Business
▁valoris
▁mus
▁exigée
▁renoncer
terre
▁rétrospective
▁290
▁honor
▁crucial
▁uniforme
▁diligence
▁consultants
▁421
▁203
▁Sy
▁terrorism
▁universitaire
61
▁Administration
▁CORPORATION
▁EXERCICE
MÉ
▁oppose
clin
▁jeux
▁Bio
▁équiva
▁Île
autour
▁reproduit
▁interprète
▁climat
▁352
enne
ellement
ENT
▁315
▁scandal
▁compatible
▁ingénie
▁versera
▁union
▁interrogat
▁village
▁lie
▁coh
TION
lancer
▁5,0
38
▁subséquente
▁sécuritaire
ten
wan
▁245
▁gratuit
▁One
▁224
▁protégée
tic
mon
▁FRP
▁proximit
▁dangereuse
GA
ef
▁5,5
▁Secteur
▁trans
wa
sée
▁Débenture
▁PRI
▁Holding
▁248
▁disposer
48
▁Immobilisation
▁Marc
▁consult
▁déplac
▁diffusé
▁choisie
▁223
▁postsecondaire
vivant
▁232
▁216
▁équivalente
▁310
▁concernée
▁1,9
par
▁profond
▁André
▁Maintenan
▁reclasse
▁CGI
▁diluée
▁culturelle
▁Health
▁dissou
euil
▁United
nariat
▁211
▁avi
parole
▁Ra
▁déroul
urait
▁DBRS
IM
▁229
cho
▁office
82
▁apporte
▁950
▁marquée
▁exceptions
▁Événement
▁540
▁demeur
▁will
rée
TI
▁exploité
▁municipal
▁dressé
▁intervalle
▁support
▁Effet
▁exempt
▁Numér
▁237
▁217
▁Louis
▁Télé
▁Choi
▁ménage
▁serai
ana
▁285
MENT
monie
▁suspend
▁LIR
▁lieutenant
95
▁about
▁firme
▁confié
▁Ta
▁King
océan
▁Dundee
▁ressource
▁255
▁Puis
▁optimis
▁218
▁SNC
▁244
▁soci
élibération
▁Option
▁intégrer
▁221
▁favorise
▁cu
▁ultime
43
▁choisis
▁226
▁diagnostic
▁Mes
▁Green
▁éco
▁234
68
▁web
▁Trans
▁substance
▁Singh
▁géologique
▁juridiction
▁foncier
▁Partnership
ium
▁Class
br
▁contest
▁OCRCVM
sultats
▁236
83
ect
attray
▁380
▁value
▁transparent
▁qualification
▁Law
▁inclusion
▁Gar
▁219
irculaire
▁implicite
ACTIONNAIRES
▁pharmacie
▁senti
▁GP
irement
▁substances
▁intéressés
▁NOTE
▁actualisé
▁tradition
▁251
tendent
▁RISQUE
▁rentes
▁Source
▁dépassé
▁231
▁Goodman
▁nul
▁238
▁Western
▁atelier
▁cad
▁CAN
lor
▁267
aines
2,5
▁vin
▁causes
▁compens
▁233
▁prévisible
ANCE
CI
▁228
▁satellite
▁analysé
▁rehauss
▁241
▁regroupe
▁agress
▁interprété
▁faisa
ï
▁Bill
▁pair
ERIE
wood
72
32
▁notable
▁financial
▁Quebecor
▁460
▁quart
▁conten
ILT
▁Tri
▁2,1
▁Ka
▁assistance
▁Dépense
▁Gains
atrimoine
▁dévou
▁talent
▁Celle
itative
▁425
▁bless
▁249
▁401
▁confidentialit
▁2,3
▁266
nce
▁TB
▁Red
▁Bar
▁FIN
▁2,4
mandant
ésion
tres
rak
adaptation
pi
▁Jones
▁3,0
▁combinée
-38
▁apparaît
▁1983
▁Mountain
nier
94
▁réalis
▁AB
▁accompagné
▁252
ONT
ris
▁dépens
▁such
conseils
▁gazière
tions
épartition
▁décid
▁Environ
▁caucus
▁éolien
▁étudie
frontalier
▁objective
-35
▁Osisko
▁Yukon
08
▁intervenue
▁saine
▁substantielle
▁391
01
▁feuille
9,9
▁résist
tive
▁maximiser
▁éman
▁liquid
41
▁fu
▁which
▁eff
tri
▁Dis
53
▁346
▁imagine
▁Ministère
▁370
▁243
▁242
▁conteste
ose
▁REIT
▁Vietnam
▁échantillonnage
▁structuré
▁divergence
EF
▁LRC
▁7,5
▁panneau
▁Régie
^
▁dénonc
▁Motion
▁surveill
▁272
remont
▁625
▁Travail
ty
gel
▁négligeable
▁publicitaire
▁NOTES
ima
▁sérieusement
tablissement
ÉR
▁Gu
▁Prince
▁indemnis
▁257
▁Young
▁Stephen
▁conducteur
▁295
▁concluant
gu
▁258
98
AR
▁modest
▁courage
▁nov
nel
▁253
▁rénovation
▁excessive
▁256
▁Place
▁RioCan
71
▁254
▁compléter
oli
▁cotis
▁239
▁revendicat
position
▁0,15
compense
▁divisions
▁247
conférence
▁dép
▁372
▁480
▁immigr
▁Citigroup
▁import
▁souvenir
▁ouvrage
▁variant
iés
▁distingu
CDP
54
▁dommage
▁maintenance
tent
▁268
▁560
rintemps
▁destination
▁divulgue
▁2,6
▁264
▁empris
▁fondation
▁Bond
51
▁Car
▁journa
▁334
▁575
▁262
▁Public
▁traduir
▁saison
001
RO
AIRES
▁Laval
▁animal
▁Agent
91
▁520
▁compensé
ormément
▁voici
73
▁279
one
▁discipline
▁FTSE
▁cousin
▁246
▁constat
▁University
▁chronique
lui
▁Home
▁avancée
▁insist
▁credit
▁janv
▁301
▁490
▁carnet
▁392
▁rattach
▁Distribution
▁adopte
▁vien
▁470
ution
▁diversifiée
▁perception
▁apparent
▁ravi
uk
▁Ho
Orient
▁Feuillet
▁Impérial
▁facilit
blier
▁525
vacances
▁269
▁302
▁référend
▁incendie
62
métri
égli
▁263
▁371
▁inconnu
▁fonctionner
▁284
▁lundi
cée
▁259
▁mi
▁publi
▁observé
▁308
▁2,7
▁Brian
▁discriminatoire
€
-46
ISSANCE
▁radiodiffus
81
▁Pharma
rain
▁other
-45
▁coopération
▁Trimark
1,0
▁Aéroplan
▁Canaccord
AP
psychologique
▁rivière
▁session
▁Appelant
▁Morgan
▁auron
▁intégral
▁USA
▁364
acteur
▁430
▁écri
▁transférée
ouille
▁circonstancié
▁286
-32
▁271
▁chasse
ABLE
▁perfectionne
RA
rrière
ran
▁mét
▁justifie
▁pourron
▁385
▁unanimit
ïque
▁Baie
▁Entreprise
▁échu
▁288
▁exploitée
OS
novateur
REEE
▁corporatif
▁390
▁EST
▁cumulative
▁bulletin
93
tendre
▁Agriculture
▁standardis
▁305
ppé
▁1979
64
▁alién
▁282
▁335
▁0,25
citoyen
▁déficience
▁totalisai
▁proté
▁MB
▁Organisation
▁subséquent
▁renouvel
PIB
ercredi
▁530
▁261
diens
▁293
▁555
▁Properties
▁345
▁satisfaction
off
▁Entente
▁accélérer
▁Creek
▁Dominion
▁INTERMÉDIAIRE
▁génère
▁adapter
▁Nortel
▁273
▁Daniel
faire
▁278
agir
▁sembl
ath
▁prescri
way
▁COMP
▁maintenue
▁Brown
▁Cap
▁Suisse
▁Sch
▁have
▁shares
SE
▁consent
▁277
▁276
egard
▁avantageuse
▁CRO
ide
▁réservoir
2,0
cle
▁274
3,0
▁tromp
▁475
1,2
▁quartier
▁Modalit
▁NYSE
▁Vote
▁Da
▁analogue
▁Go
6,0
▁situ
quement
▁absent
▁Direction
▁Raymond
▁000,00
▁Hamilton
-33
ven
▁Budget
▁corruption
▁292
▁procur
▁conditionnel
MA
▁281
rais
▁287
▁Obligation
▁Quadrus
▁quinquenn
▁compensée
▁510
▁Excel
▁surveille
▁306
▁IG
mené
▁efforce
▁344
niers
▁336
▁marijuana
honte
▁Cha
▁contract
▁échéancier
▁675
▁304
▁San
VM
▁289
isse
▁conscience
éria
▁culturel
▁Juin
▁examin
▁cents
UL
▁338
▁AIC
▁NE
oyable
▁complétée
▁312
▁convertible
évaluation
▁Trava
▁améliorée
rê
▁Estate
▁multipli
▁rare
ployés
▁AltaGas
ettez
▁Actuelle
▁assurée
▁attir
1,4
▁363
▁667
paraît
▁rétroacti
duit
▁296
▁Claude
▁Accounting
▁rééquilibr
▁marqué
▁law
▁Insurance
▁Bou
▁primaire
▁318
metteur
palier
mm
LA
▁fini
▁Unité
▁comprise
énétr
PP
amie
▁ta
jo
▁interventions
▁fonder
▁Moyen
▁moderne
▁initié
▁inspir
joui
gé
▁299
▁augment
IA
▁synergie
▁2,8
▁Fair
▁10,00
ç
▁refinance
▁050
▁Part
▁720
▁Moody
▁381
vision
tribu
agi
▁Ko
▁Production
58
RN
▁Li
▁Utilis
▁exon
▁298
▁Petro
▁Mississauga
▁enveloppe
▁interdi
▁303
▁effectifs
▁319
▁Cu
▁remb
▁coupe
▁283
▁AA
estiment
▁éolienne
nie
▁May
ptions
▁LOI
▁sections
▁640
▁anne
▁convertir
onné
acquisition
▁déroule
▁abandonné
▁intervenu
cours
arification
▁321
▁Star
6,7
▁rétroactive
AAE
▁accompagne
▁580
▁ACE
fonds
▁307
▁High
NAC
▁317
▁326
alités
uelles
interrogato
▁Présentation
▁categorie
▁297
▁347
▁chantier
▁greffi
▁368
▁éta
▁309
▁préparée
▁prouve
▁métrique
▁493
▁Contra
▁332
▁fréque
▁boule
▁comporter
▁effectu
▁entrepreneur
▁′
ani
bu
▁SE
▁Cominar
▁occurrence
▁survenue
▁obstacles
MI
mardi
▁cap
▁498
8,00
▁réussir
▁iii
▁remet
▁IGM
▁locatif
ix
▁2.1
GI
▁570
▁001
▁Kyoto
▁Falun
▁Questions
mber
▁TERME
▁exhorte
raint
▁Computershare
ailles
▁316
▁331
▁402
▁voil
▁866
▁commen
résident
▁999
▁355
all
gle
AM
▁Cogeco
▁875
ano
1,9
▁souterraine
BL
▁abri
▁immobilisation
uelle
▁bitumin
▁366
▁procure
▁oct
ay
▁Pertes
▁Acquisitions
▁Réseau
▁incomb
▁SP
dique
▁328
▁FAIT
▁corporation
▁291
06
vo
▁was
1,1
▁337
▁Grande
▁4,8
▁294
▁314
▁313
▁6,5
▁CANADIENNE
▁ordonné
iennes
ida
▁stress
prouv
▁réf
52
quation
▁lot
▁édition
▁restauration
▁Po
▁East
▁publier
UR
▁349
▁Ligne
IG
EXPLOITATION
▁hydroélectri
1,8
04
▁forestière
▁324
▁divorcé
▁mesurée
.3
▁415
▁329
for
▁léger
ché
▁bloqu
▁planifi
ira
▁556
▁322
▁nettoy
▁348
▁adolescent
▁604
▁499
▁appren
▁sang
TRE
ères
▁566
▁facult
▁Ro
▁intenté
IT
tron
▁linguistique
▁routes
▁Financement
▁récupérer
▁manifest
-42
▁vau
▁760
▁Jacques
▁contravention
▁Haïti
Lavalin
▁Fonction
▁Columbia
▁3,1
▁888
▁consistent
▁373
jette
▁Pêche
ël
▁TOTAL
▁ACTIVITÉS
▁Russi
-36
▁465
ga
ug
▁387
Comptables
ssons
▁surintend
imé
▁Na
▁311
serv
▁Pan
▁questionnaire
▁MFS
▁organisationnel
▁Deloitte
▁819
▁aboli
▁pourrai
▁780
▁Aussi
-44
▁Victoria
1,5
▁inventaire
▁tierce
alisé
▁inverse
▁attache
▁Select
ji
▁620
▁327
-37
ab
tlantique
▁590
▁Rose
ESS
aurion
▁recherché
▁réalise
ford
▁Décret
▁FundSERV
▁garant
▁abandon
OC
ber
▁prenne
▁384
▁bateau
▁interromp
triste
▁501
▁tranchée
▁339
▁680
▁remplaçant
▁viendr
▁SERVICES
Pro
gouverneur
▁assis
▁383
▁dépos
▁enregistrer
▁camp
▁épuise
4,0
▁signifi
▁666
▁exclus
▁tri
taire
▁tra
▁341
▁342
racont
xamen
appliquera
IRE
alisation
▁indépendantes
▁impos
▁consensus
net
▁388
▁prouvé
▁troubles
▁acres
▁vingt
CCE
▁rouge
▁origin
▁aime
▁réglement
▁357
▁TRÉSOR
▁354
▁Pre
VIE
▁RES
▁intéressé
▁630
▁résidu
▁PR
▁710
74
CRI
▁KPMG
SU
▁Détail
▁accueil
fiant
IR
▁Philippines
édie
oul
▁745
▁Esp
cation
▁OBLIGATIONS
1,6
▁356
Coopers
PR
▁composer
▁revanch
▁358
▁environnemental
▁Nova
SA
3,4
▁395
▁licenci
▁43-101
▁extension
5,3
▁Gen
▁persuad
▁343
▁Sea
▁nominations
ueuse
▁EURO
SON
▁apparentée
▁plate
▁377
▁excuse
ologique
▁justification
▁entierc
EA
▁Jama
▁Prospectus
▁suggère
▁353
▁interprét
1,3
▁610
▁entraîn
▁démontr
▁revêt
4,5
fière
▁judici
▁810
▁Chrétien
▁423
▁complément
▁376
nage
çu
▁rares
tomb
▁445
è
▁admission
uité
▁verr
▁blanc
▁travailleur
▁lourde
▁confidentiel
oign
▁Représent
▁422
roger
▁885
▁inflig
▁ob
cessible
▁Majest
▁alloué
▁5,6
▁877
▁Industrielle
▁quantitative
▁1970
▁Gong
6,1
▁ajourne
inc
▁Jim
▁404
PA
▁840
▁565
sta
▁gé
▁405
▁323
▁fraudule
▁Rock
▁378
▁417
▁Soci
1,7
flé
ritannique
▁Harper
▁contestation
▁inclusive
▁ciblée
ans
mes
▁négoci
▁CV
▁exécuté
▁435
▁franchi
▁ren
▁389
▁444
▁485
▁rapporté
venants
▁Tél
.10
▁905
▁GE
▁393
▁398
▁regime
▁salu
change
▁515
▁2,9
6,3
▁éli
▁408
▁409
▁introduit
AGE
▁374
gée
sinon
6,4
EX
▁intrins
▁369
▁simultané
▁continuelle
▁426
ois
▁3,2
▁Day
▁formulation
▁Avenue
-34
▁4,0
▁Marge
▁Cor
▁compétitiv
▁imprév
▁386
▁préconis
▁renoncé
7,8
▁territoriale
▁amortie
5,1
▁477
4,3
▁613
▁428
▁367
▁Compar
▁financée
▁montr
▁marine
▁prolongé
▁étiquette
▁443
mor
6,8
ÉRATION
hors
sorerie
▁fournira
prudence
▁382
4,2
choisit
▁455
▁stipule
▁vraie
▁562
ult
▁incorporé
▁ressorti
▁Nig
▁725
quée
▁Pas
▁Shaw
car
7,4
ressent
lère
▁399
▁accrédit
▁Vu
▁TERMINÉ
▁495
▁NI
▁barre
▁classique
eres
▁Cambridge
▁William
▁Provision
▁Johnson
▁géo
▁coupure
5,7
graphique
▁coordonné
▁poly
▁740
met
▁379
▁394
hâte
▁imparti
▁représentatif
▁facturation
▁606
▁repos
col
onais
▁stationnement
▁fondateur
▁arbitr
ÉRIE
▁adven
▁urbain
ama
▁660
▁438
▁Thomas
▁incr
▁policière
5,8
▁396
pal
▁Telecom
3,5
fondé
▁consacre
▁offr
2,9
▁super
▁487
tine
OL
▁462
▁messages
▁manufacturier
▁remun
2,2
blie
▁PAS
▁860
▁CP
certe
▁452
▁Facilité
▁enjeu
2,1
FR
▁0,20
▁497
▁5,8
▁génétique
▁équivalant
allée
▁Abitibi
▁820
▁PORT
resser
▁accueill
▁incompatible
▁441
yant
uté
tendue
▁437
▁359
▁surven
▁464
▁recen
▁448
▁Ê
▁449
▁980
▁0,05
▁429
▁renseign
ôme
habite
▁Pricewaterhouse
▁ADMINISTRATEUR
▁grain
alinéa
▁intervi
▁autonomi
▁Emera
▁Article
▁trag
bo
erale
▁Auto
▁graduelle
▁Wood
hési
tal
▁777
▁690
▁excuses
▁approfondi
▁397
▁427
▁519
▁associ
▁Immeuble
▁cellulaire
BI
▁comprom
▁excéder
CA
▁décriv
porté
▁451
▁545
▁Bruce
▁gri
GE
érente
Labrador
▁432
▁contacts
▁433
†
AC
▁Guy
▁414
▁légi
tifs
▁excéd
▁Chi
▁413
▁466
by
▁Electric
▁467
▁468
▁aéron
8,9
LES
▁469
▁474
▁880
▁rel
▁converti
▁IP
▁665
▁990
ung
▁447
▁transcription
▁536
▁1978
voquée
▁2027
5,5
▁lever
DV
▁506
▁436
▁Ch
▁406
ING
▁920
forêt
▁entraînera
ILL
▁476
▁interruption
▁5,1
tatistique
pol
-43
▁PARTS
▁3,3
faisan
Vie
ST
cale
▁augmentera
▁mentionn
▁718
▁frei
▁étage
▁505
▁523
tendant
▁expédit
▁muni
▁Juge
nanciers
▁ph
▁442
▁TC
▁521
▁communiquée
▁940
asse
gique
▁School
▁accumul
▁combat
▁3,8
Édouard
▁770
3,3
5,6
▁535
▁Ancien
geant
▁fusionné
▁attent
▁complexité
kin
▁reddition
▁0,10
▁434
preuve
céder
ban
revente
▁561
lon
▁457
égé
▁527
célé
âm
▁viable
▁3,6
7,0
▁672
▁3,7
7,5
▁tax
auche
▁Roy
▁Isra
▁670
RP
▁737
▁825
▁suppl
▁Networks
cré
lande
▁détaille
▁453
tée
intérêts
▁IT
IQUE
▁concret
▁diversifi
▁419
▁471
VE
êt
▁Journée
▁424
▁Détermin
▁avocate
ke
2,3
9,0
ourbe
utile
2,8
▁456
prorata
▁522
▁647
▁543
▁504
LB
2,4
ttre
▁soumet
mis
▁MD
uff
▁réflexion
8,1
▁GPT
ministre
▁Bas
tué
gène
▁refuge
▁réclamé
▁478
▁citation
▁Indi
▁bann
▁431
▁547
▁boîte
▁494
▁Réponse
▁perturbation
▁manuel
▁marchand
▁expressions
▁organ
PL
▁557
▁aptitude
évit
▁960
▁1.1
▁employer
▁526
▁8545-
▁congédiement
lles
▁minim
5,4
▁486
▁567
▁cautionnement
▁obstacle
▁0,50
8,3
▁564
▁775
▁830
légation
▁676
▁standard
difice
▁Territoire
▁Ed
préhensi
▁acquittée
-41
5,2
▁488
▁694
▁518
▁473
▁Cas
zo
▁abs
▁715
▁496
▁TVA
▁446
▁transmise
▁Ou
▁NCA
▁Zone
▁454
nnies
MIN
▁551
▁Quote
▁diz
▁Front
▁Type
CES
cidiv
▁embauch
▁568
▁686
▁Murray
▁incarc
▁Com
▁Weston
▁minimis
▁461
lissement
nction
▁faille
▁615
▁695
▁439
▁central
▁quorum
▁stage
ja
éné
▁cyber
▁502
▁recouvré
▁542
▁compare
▁NO
Prince
▁sache
▁Williams
92
▁under
▁463
we
▁492
▁805
▁870
▁VL
INE
CEMBRE
▁577
▁répartie
▁472
▁509
8,0
▁exhausti
BNC
▁548
▁homolog
▁Guide
RU
▁Bi
▁Claymore
bli
▁représ
▁595
▁dirige
4,7
CH
Con
TAN
▁512
▁910
activ
▁ouvr
▁résidentielle
-48
▁CE
▁actuariel
▁ver
▁4,9
▁échelonn
▁489
▁pos
▁Noël
Dominion
▁Gal
▁conven
▁troupe
▁bras
▁Windsor
▁AUDIT
▁cou
▁EUR
▁458
SL
▁787
▁ech
▁équi
▁abandonne
▁boisson
▁552
▁482
▁constitutif
▁Publication
▁gérée
▁558
▁674
▁605
▁implique
▁ANNUELLE
▁541
▁photo
▁profonde
▁operations
4,4
▁AMÉRICA
CE
▁529
▁585
▁risqu
iable
▁532
▁introduction
duc
▁571
ED
▁laitier
▁0,75
▁728
▁3,4
économique
▁459
▁rab
▁546
▁FC
7,00
oût
▁537
▁643
▁491
▁583
▁Comptabilis
▁Keyera
EC
▁Northern
▁517
▁559
▁consentie
▁termin
▁662
▁533
mission
lés
▁Fin
vir
émo
▁483
▁identifiable
▁Island
▁Pi
▁Sears
▁481
▁975
▁reconnais
▁705
▁four
▁Suiv
▁Transfert
7,3
▁569
▁syndiqué
▁598
▁711
▁714
▁544
▁593
▁émett
don
▁516
▁484
▁Poor
rable
érés
▁010
▁507
▁incitati
▁pollution
▁Ukraine
▁red
▁minéraux
▁599
▁Forest
urie
▁copropriété
▁534
▁réservé
▁597
▁seron
▁couche
▁538
{
▁591
▁sport
▁scolaires
.11
▁563
▁avr
osit
▁manifestation
franche
▁572
▁528
▁Téléphone
▁amélior
▁080
▁succession
▁4,6
▁PME
▁habituel
▁479
▁placer
▁503
▁envisagé
▁year
▁mécanique
CELI
▁576
▁985
▁Texas
▁513
▁diriger
▁station
cherché
référer
connais
▁identifiée
▁OPÉRATION
▁Notice
amour
▁AL
veill
FL
illi
▁contradiction
▁Ajout
4,8
▁FI
▁fête
▁hélicoptère
▁635
▁PT
▁040
▁645
▁PREMIER
▁511
▁preneur
▁Net
▁débou
pass
4,6
▁viabilit
▁701
▁Engagements
RG
▁immédiat
-51
▁573
RRQ
glis
▁injection
▁électoral
éro
▁Vers
▁642
▁China
FI
▁702
▁interdis
▁repli
stein
▁549
▁Drug
▁pure
HO
▁524
ain
lan
▁Globe
3,1
▁631
▁segments
▁592
▁intelligent
▁expliqu
▁925
entam
quête
▁RÉGIME
▁QC
▁rente
▁Italie
ède
▁British
▁journaliste
ui
onne
▁consécutif
▁municipa
▁requi
▁semestrielle
▁comprises
EM
▁614
▁dépass
▁890
▁Ste
hnique
péré
▁Crédit
▁699
▁City
▁médicales
▁002
▁Washington
▁995
irait
▁588
▁restrein
▁Océan
berg
▁TransAlta
▁brè
▁Exploitation
▁Ru
▁Wilson
8,5
▁Admissibilit
▁quantitati
▁584
▁télécopie
▁francophones
▁BBB
IÈME
▁Science
▁646
▁706
▁QUE
▁5,4
▁531
▁cessions
▁Turqu
▁câbl
Saint
▁997
▁Standards
tan
▁March
▁créat
±
▁717
▁851
▁reprend
▁020
émie
▁micro
▁affect
▁cri
▁inhabituel
05
uel
▁habile
▁696
ITRE
▁732
▁retourne
▁673
▁581
▁policier
▁Responsabilité
▁681
▁Grant
▁volatil
▁relevant
oyons
▁682
▁641
▁847
▁Protocol
2,00
▁815
▁côtière
▁vert
ich
sondage
▁508
▁064
▁578
▁CHAP
▁622
▁619
▁génie
▁601
▁833
venue
▁Thompson
▁presente
▁678
▁776
6,9
▁expliquent
▁superviser
▁762
▁expiré
▁574
▁Bra
▁subjective
moul
▁4,7
▁octroy
▁644
▁Vie
▁visible
▁685
▁démo
▁CIRCUL
▁adjo
▁539
▁618
▁consécutive
▁589
▁Investissement
▁638
▁790
▁alliance
▁Ag
▁Somme
▁pratiqu
▁partagé
▁Long
▁887
▁présid
▁687
▁PCA
▁609
▁correspondance
▁767
▁éga
enfant
▁AVIS
▁692
▁Th
▁612
▁996
▁6,8
▁collège
▁veine
▁603
ignant
▁CC
▁683
In
Québec
▁AM
▁équip
bb
nov
▁632
▁Maple
▁routier
▁752
▁930
▁911
hu
▁libéré
▁relance
▁648
▁Pacific
SP
cteur
roi
▁févr
▁998
▁689
▁554
▁633
▁637
0,1
fa
▁655
écuté
▁class
▁ralenti
élect
9,5
pargn
▁Court
▁audio
▁concentre
PC
▁627
▁4,2
▁December
ttent
▁thérapeutique
▁688
▁Parce
▁optimisation
▁636
gagne
cran
▁indéterminée
▁couleur
2,6
▁586
URE
▁553
▁Conversion
▁leaders
▁im
RM
instar
▁664
▁masse
dû
▁température
û
▁668
▁616
▁contradictions
▁compromis
▁recycl
▁716
▁accompagnée
▁administratri
lib
▁suisse
pareil
▁712
pp
érou
▁Formulaire
▁768
▁constituera
▁4,3
▁FIDUCI
▁engendr
▁sain
crit
isons
▁587
▁778
bré
her
posés
▁652
▁677
pensée
▁765
égal
▁693
▁842
mark
▁781
▁970
5,9
▁607
▁6,3
▁733
▁CS
tie
▁4,4
▁639
▁rigoureu
▁our
▁742
▁BÉNÉFICE
▁stations
RIPR
▁596
▁602
yons
▁656
▁pili
▁982
▁may
▁624
▁RÉMUN
▁Bisset
3,9
▁CND
ataire
▁RENSEIGNEMENTS
▁gar
MS
▁Bur
▁vap
7,1
▁608
▁Queen
eries
▁Pays
▁allusion
▁755
▁assimil
7,6
▁3,9
3,2
▁878
▁594
▁617
▁case
▁projeté
▁874
▁Ac
▁629
▁824
3,8
▁713
ivertissement
▁Fi
▁835
reint
han
▁Douglas
▁officier
▁684
OU
▁Pembina
▁évalu
UM
▁626
▁influencé
ial
▁circuit
▁5,2
▁848
▁994
lic
▁707
▁946
▁RONA
▁5,3
▁753
▁955
▁871
▁582
▁669
▁731
▁Charles
▁entendue
▁965
▁697
▁QUI
▁conduit
▁idé
▁845
▁Stone
▁Jazz
▁politic
▁Vi
▁enquêteur
▁6,0
▁698
▁structurée
▁suspendu
▁857
▁909
ob
▁contra
▁726
▁Guardian
▁revu
nels
▁611
▁704
▁CH
▁fl
▁906
▁Transcription
▁minima
iller
▁1,25
cent
▁623
▁658
▁PRODUIT
‘
▁769
▁Ca
ALEN
§
▁6,6
-40
▁inutilisé
▁735
03
4,1
poche
▁663
▁Graham
▁FERR
▁657
▁installer
▁insuffisance
▁785
▁métier
▁708
▁724
▁corrél
▁rédact
▁679
▁834
▁MODIFICATION
▁entrepôt
▁628
hum
▁Structure
▁terribl
▁579
▁649
▁consacrée
UT
▁764
▁CT
▁bris
▁TO
▁autoroute
ETS
ielle
▁654
▁060
▁004
▁659
▁Har
▁Mart
▁621
▁719
6,6
bal
▁Quelque
9,7
▁Technologie
▁799
HU
▁nickel
▁Barclays
▁Nunavut
▁846
RD
▁dominant
8,4
▁722
▁81-102
▁915
▁cr
latérale
▁Barrick
▁pri
▁651
▁988
▁Tremblay
▁satisf
og
▁671
▁indéfini
▁align
ati
radi
▁urgent
▁écologique
âch
tayer
▁envisagée
▁807
▁enthousias
▁5,9
▁634
▁821
▁occupant
▁encouru
▁ref
▁MANU
▁paragr
▁préférence
▁653
▁986
▁tension
▁748
▁852
▁Construction
▁expliquée
▁756
▁744
▁5,7
▁786
TER
▁don
the
tar
▁suicide
abond
▁Merrill
▁727
▁convenue
▁index
▁Ju
▁acc
▁jet
▁841
mie
▁808
▁Appel
▁caution
▁Rio
▁jap
▁754
▁simplifie
9,6
▁863
▁pénal
levé
▁691
▁747
▁772
▁deviendra
exploitation
▁dimension
agrément
▁inst
acité
▁832
▁030
▁721
pétr
▁Dre
▁Andrew
▁738
▁indépenda
montée
▁818
ît
▁766
▁945
▁mutuel
▁Nex
sky
▁935
▁dépréci
accise
▁723
▁795
rveille
avi
▁858
▁Élection
▁005
▁989
▁075
▁tr
▁954
ât
7,2
▁916
▁DATE
AA
▁817
▁phrase
mb
▁distinctif
▁STOXX
▁survienne
ITE
▁861
▁844
▁937
▁973
pprobation
▁ignore
▁1977
▁789
▁rédig
-93
▁749
▁771
abonnement
▁709
latine
▁same
▁Syndicat
ablement
uite
▁mor
plé
▁expédié
▁dignité
▁759
▁802
▁912
▁gouvernemental
▁matérialisé
▁947
▁convoquée
vaud
▁Ob
▁792
▁025
DU
▁géophysique
▁affirmative
▁003
▁Déc
▁aval
▁simulation
▁902
▁703
▁734
▁966
▁interest
▁736
▁meuble
▁profite
▁763
▁661
Mellon
▁2,00
▁956
▁COMPTABLES
ulaire
rner
▁mat
▁4,1
3,7
▁Foods
▁Recherche
ack
▁938
verra
▁emb
conduite
▁Mi
▁Situation
▁mentor
▁Development
▁757
2,7
▁758
▁ciel
▁voyageur
▁782
VI
▁779
▁797
OFFRE
▁purg
▁OF
otée
▁803
ault
▁801
▁984
▁812
gro
hrétien
▁Angle
▁bl
▁remett
▁récolte
aud
▁ANNONCE
▁Taylor
3,6
▁859
▁729
6,5
▁globa
▁programm
ada
▁mobilier
▁Em
▁854
▁941
▁exprime
▁853
Jean
▁873
▁design
▁Pat
▁bénéfi
▁843
▁892
▁893
▁LeBreton
▁procédur
▁Funds
▁006
▁865
▁Harris
ifier
well
▁746
▁987
gramme
▁fact
-50
tures
▁969
▁967
▁appr
▁868
▁964
▁OR
▁Equity
IF
▁879
▁prima
9,1
▁vaccin
▁juger
iz
▁6,4
▁903
▁933
▁864
▁942
▁943
▁combatt
▁conjug
▁Marie
har
-55
▁BlackRock
▁761
▁739
▁projetée
▁Fusion
▁PSB
▁798
▁907
interrompu
▁895
▁867
découvrir
▁751
▁809
▁MC
▁913
SIF
▁State
▁plancher
IST
▁831
▁811
▁mettra
▁Bal
▁attendant
▁773
▁783
▁883
▁encaissement
illé
▁963
▁978
▁Propriétaire
▁928
▁terminal
▁796
cout
▁993
▁informe
vian
▁976
▁dialogue
▁872
▁774
lot
▁932
SC
▁majoration
▁imputée
▁famili
▁839
▁917
▁Adoption
approchement
▁intersection
▁invalide
ari
▁992
▁coefficient
▁Edward
▁981
▁Ha
▁897
-39
▁Campbell
▁813
▁793
▁827
élè
AD
iff
▁968
▁ED
▁infirmière
▁828
▁Arrêt
▁898
▁renforcé
6,2
lastique
town
▁Dan
▁951
▁743
▁784
▁distribuée
▁949
AF
▁recon
lle
▁trouble
▁AVEC
▁héberge
▁849
ARD
▁verbal
gen
tru
▁816
▁solidarité
▁983
▁936
ov
▁participante
▁sorti
▁822
▁1976
▁délimit
▁794
pre
▁Burns
▁008
▁ann
▁012
▁share
▁007
▁Hier
▁Thi
▁Barreau
time
▁899
hème
bit
▁927
▁929
▁ultérieur
▁881
▁PROCURATION
▁Référence
enlèvement
▁Clark
▁évaluateur
▁Wells
4,00
▁070
▁939
rogation
▁090
▁804
▁823
▁DG
▁Min
-2018
▁962
▁Pharmaceutical
▁rét
▁av
hématique
▁013
▁952
▁741
▁944
▁972
▁affront
▁904
ori
▁Sal
▁Encaisse
▁GROUPE
▁PÉRIODE
bi
8,6
hal
▁023
▁961
▁postal
▁869
▁Sainte
CL
▁Maritime
OD
▁Institute
7,50
▁1973
▁AS
▁862
▁791
▁882
▁Water
▁891
▁923
▁prépare
▁014
FF
modernisation
▁979
▁Labrador
▁Denis
▁habilité
▁homosexu
▁876
▁Research
lérer
▁015
▁829
▁matrimonia
▁obten
▁BAII
▁récupéré
▁908
÷
▁011
▁974
▁Ben
▁économi
▁empreinte
▁Jack
▁Bernard
édic
▁débute
▁hectares
▁924
▁impartial
▁948
▁concours
▁918
▁922
▁806
▁organiser
▁Look
02
▁836
onnaie
▁889
navant
repas
▁mutuelle
ache
▁scol
LG
référentiel
▁Méthode
4,9
abil
▁838
▁921
▁977
8,2
▁Ver
▁788
za
▁959
▁Elliott
▁991
▁encadre
▁riche
▁fractionnement
▁Shell
▁Établissement
▁953
CB
▁826
▁absorbé
oit
ff
▁016
▁971
▁réinvestis
}
▁ASSEMBLÉE
▁Stewart
▁instances
âblodistribut
▁communique
▁Corporate
fo
▁Technology
tabli
MES
▁896
allai
▁Cal
IER
▁884
apres
rédi
▁reglement
▁Pa
▁positionne
orale
▁Wa
▁901
ish
teurs
▁894
▁plant
▁814
▁914
▁extra
ème
▁021
▁impliqué
aw
▁018
▁Encana
cal
▁Joseph
▁Donald
▁Pren
autobus
▁semi
IPD
▁modernis
▁Gauthier
▁probation
▁bat
éférence
▁chauff
lia
▁926
▁raff
père
▁gér
▁vacant
clé
muni
▁Moore
▁instauré
tat
▁009
▁Papier
nor
▁contrôleur
▁vi
▁correct
▁Ba
bra
▁Op
▁subject
nou
▁Products
pécialité
▁Ti
ilatéral
ù
▁indé
▁Blue
▁signataire
PH
▁Bâ
▁america
avou
▁6,1
▁instaur
▁sucr
▁919
AG
uler
▁vigour
haine
retraite
▁837
▁Tant
▁Actionnaire
▁Dow
▁Sept
MM
▁PowerShares
▁insertion
▁noir
produit
▁886
coll
dan
▁934
confort
▁sac
ico
▁cash
▁958
qua
ousse
▁019
▁Thomson
▁annonça
▁10,0
,38
ica
▁renvers
illon
▁0,02
rés
SM
niste
▁philosophie
▁contradicto
▁1975
▁Devise
7,9
▁neutralis
0,5
▁logistique
▁017
.00
▁détect
▁prescription
▁domin
▁024
▁employ
Transcontinental
▁065
érie
Gen
pan
▁échelon
journé
ût
▁reflété
▁portefeuill
▁répa
▁Réduction
▁931
END
▁028
▁7,8
▁045
rig
▁rou
▁mobilis
EP
▁téléphon
▁unit
▁represent
▁BILL
isées
▁Application
MAR
rac
mun
▁Combi
thèse
▁maître
hapitre
tection
Prestation
rlande
▁siècle
▁jum
▁evaluation
CF
dale
corp
▁indu
▁passion
▁Câble
▁Agreement
▁estim
▁rende
▁055
▁026
▁Data
▁découl
▁souveraineté
.02
▁Utilities
pond
▁illégal
▁travailleuse
van
▁095
▁MARCHÉ
▁survivant
▁8,5
▁sympt
los
ski
apte
cadre
▁Volume
▁Joe
▁inexacte
▁957
▁dissiden
▁méd
▁propriet
▁subsist
ling
▁go
▁doré
▁souhaiter
RES
▁corporative
0,2
aliste
▁chut
▁dissip
▁joueur
assi
▁022
neau
▁silence
▁pot
▁DEUX
▁moral
RÉ
▁App
▁apparaiss
▁VA
▁disparit
▁verte
nc
primée
▁McLean
▁http
0,6
▁032
▁042
▁Alcan
▁ÉQUI
FC
▁035
▁056
▁appare
▁Ford
▁NCM
▁hydrocarbure
▁évit
ET
▁7,0
▁défende
▁Multi
▁déplo
▁addition
▁052
▁AIM
SOURCES
▁DP
9,00
▁syndic
▁confirmée
▁aff
▁048
▁Jo
▁BR
▁indicatif
,33
▁Frank
▁Rou
▁porc
UE
▁Dollar
▁062
stra
▁Petroleum
▁TV
hy
▁088
▁accommod
▁034
ennie
iqué
truit
▁063
▁CANADIEN
▁encourageant
▁accumulation
▁bitume
▁troubl
9,2
▁Ernst
▁Présent
CP
▁clarifier
-47
▁torture
▁acquier
▁FUND
▁Hu
▁performant
▁president
▁souten
▁branche
▁068
▁solidit
▁format
ifié
rioration
▁Californi
▁Nomination
▁were
TM
▁0,04
-227
▁1974
▁greffe
▁058
lever
stitué
ésiste
▁096
RT
▁Tax
ulman
▁maire
▁versions
chés
▁réaménag
▁sépar
▁029
▁property
▁Action
miné
▁substantiel
▁mesuré
baiss
ck
▁réhabilit
▁Conditions
ki
ménager
PE
▁038
▁049
0,3
▁privilégi
▁bou
▁Bri
▁ME
lore
ria
▁FRAIS
INES
▁047
▁ponctuel
urri
£
▁Associé
▁Carstair
▁DESCRIPTION
▁sole
▁027
▁Che
▁froi
crite
Les
mat
▁fou
▁been
oxyde
▁revenue
▁6,9
▁assets
▁hockey
▁Crombie
▁031
pensé
▁exploit
▁tourism
ô
▁Paris
▁mélange
▁nanti
▁CIG
▁export
,16
▁074
charge
▁expuls
▁Examiner
▁044
AE
BOX
ATIVE
▁Émis
fu
▁6,7
▁LMC
duire
érée
TA
▁033
▁077
TC
▁099
▁SES
rio
▁036
lage
▁078
▁072
▁générée
▁glac
▁spéculati
▁chirurgie
viendr
▁permanenc
▁037
▁Empire
▁violations
▁054
9,4
▁traitant
▁vérificat
▁Tom
▁chauffeur
▁minute
▁043
teur
çoi
▁087
▁PRÉ
▁féminine
▁059
idi
▁capt
▁Sports
comité
oins
▁041
▁QUÉBEC
▁problématique
QU
▁encourag
▁067
NT
gon
▁066
efice
▁inefficac
triment
▁thermique
CHE
LV
réal
▁094
▁Cumul
▁DROITS
ouvre
bank
air
▁sentence
▁Ci
8,7
▁039
▁Express
▁Counsel
▁personnalisé
alt
▁051
ib
▁IL
▁approuv
▁Road
étourne
▁trou
▁091
fer
▁076
▁085
▁ENTRE
obstant
▁Brunswick
▁083
▁Jour
étéri
▁Cher
▁Directive
gan
▁info
tiendra
▁092
▁082
▁046
▁Main
pin
ral
▁Series
agé
Bas
▁invitation
▁deviendr
▁ingénieur
▁procéd
▁supervise
▁jur
-92
manie
rop
▁QU
▁Procédure
cro
▁073
▁086
▁Northland
tif
▁Associates
▁cycli
▁accessibilit
▁071
▁angle
▁Hall
usement
compatibilité
▁079
▁Tranche
▁elev
étude
ssin
▁Ivy
▁069
▁influent
ordial
▁fosse
▁corporel
conseil
uter
▁053
▁097
tape
▁Géo
▁Stanley
▁084
▁carotte
ick
▁Enterprise
▁destruction
▁canton
▁irrégul
▁INTER
▁avéré
▁mur
▁séparée
0,7
▁avérer
HA
art
▁dose
▁balance
▁ronde
▁098
▁COMITÉ
▁lots
▁Version
▁prim
▁excess
▁ENTREPRISE
▁abatt
PS
▁transmet
▁Realty
▁emp
▁Haus
▁Transat
vieux
▁Audit
▁061
▁Contrôle
joints
▁occasionne
igue
▁amount
cuni
▁081
▁successeur
▁093
▁averti
▁Ren
phi
▁Jordan
▁Mor
ast
▁Cools
▁Motif
UV
chemine
ray
▁suspendue
▁Baker
ore
▁café
,34
ICE
▁income
éral
ini
▁actu
▁développée
▁plaque
▁injustice
▁plomb
▁ports
▁concentr
▁vite
ieuse
Marie
ute
▁Nul
CT
▁tru
▁condens
OP
traire
▁7,2
ATIONS
▁Lin
▁057
▁Tu
▁subventionn
OB
elli
écla
▁FOR
▁résiliée
▁incite
▁dise
eilles
▁publications
▁Anderson
▁débar
▁stérilis
▁efficient
▁hebdomadaire
▁Gordon
▁lingots
0,8
hor
OQ
ek
âche
▁trente
▁intègre
idéal
UAI
▁carton
▁Cat
vol
▁SCR
▁Équilibr
▁Évalu
ado
▁ADMINISTRATION
VOI
▁Market
▁manutention
▁regroupé
CTION
obilière
▁guise
▁rep
vocabl
ssembl
▁corrective
diffusion
payé
▁certifiée
▁aid
▁Ph
dia
▁MOIS
▁fédération
uri
cre
▁artistes
-49
▁avenue
▁wagon
respect
▁objection
▁préc
CC
plat
rum
▁Euro
adi
term
▁Central
▁sujette
DS
FM
▁Luc
▁RH
▁transporté
▁vrac
▁Shoppers
▁développe
▁Remar
EZ
▁Regina
▁acide
▁dévoil
0,4
▁Falls
▁Nesbitt
▁axe
▁089
▁Mine
iels
▁ONU
▁Idem
▁Pass
cart
▁congr
▁Bel
▁Courriel
▁JUIN
1,00
▁ORDINAIRE
▁urbaine
▁diab
▁syndicale
5,50
0,9
▁0,30
▁regroupée
▁Rivière
▁prédécesseur
cerné
▁marginal
▁choisisse
▁CLOS
▁compassion
▁compl
▁marin
▁potable
▁grains
omp
▁uranium
yer
▁Tim
▁latitude
▁into
▁libérée
▁François
▁cong
▁surpass
▁résiduel
▁inconv
▁mou
▁gîte
▁3.1
▁dénonciation
▁Master
▁modes
DC
▁questionn
▁DÉP
▁course
ouche
éton
.12
▁Garde
▁suggestions
ambul
▁CL
▁spectre
IQUES
▁0,03
éloqu
▁Allied
▁Ross
▁PRÉSENT
▁persist
▁Pearson
▁plc
pellation
cédée
pect
UNIS
▁secour
rieure
▁7,4
omique
trouvai
ami
▁décomptabilis
Ordonnance
▁tradui
▁Rights
▁CONTRE
gué
épréciation
▁Monde
▁transformer
▁4.1
efs
▁Créanc
▁march
arallèle
▁Kinsel
▁interaction
▁sterling
▁Jeux
▁subit
compte
rim
▁léga
▁Étude
▁pompier
nommée
▁Bre
-180
CR
▁provoqué
volé
▁Kevin
issements
▁ER
▁pornographi
▁inadmissible
char
fédération
▁Marcel
OG
CSA
▁12,5
faste
▁Ensemble
▁IMPÔT
▁ended
▁Keystone
▁MEMBRE
chaud
▁métal
▁juill
ifiée
▁GL
BC
▁massive
▁sulfure
▁doubl
ffert
▁Roche
ID
▁quitte
▁Liban
▁PAPE
riture
▁Va
▁Vo
HI
▁PA
▁Mat
▁atteste
▁Markets
isson
▁Beutel
musique
olaire
▁Steel
▁boul
chôm
▁intérieure
EE
▁Lo
▁Chris
▁Lettre
▁FS
▁implantation
BM
IP
▁press
poli
gin
▁jeunesse
TH
TLET
▁Commissaire
▁Alpha
▁CCSP
▁NBC
▁quartz
-91
▁6,2
▁Ghana
uels
class
▁cinéma
▁Society
,12
tuer
▁basse
écho
▁Burnaby
▁amorcé
▁phases
▁Renewable
▁circul
▁Sou
▁mar
contrôl
▁immatriculé
▁allo
▁interprétée
▁Ham
▁inform
▁Guerre
▁confidentielle
▁organique
Sélect
▁Bob
ouv
ouverture
-99
▁infirmier
ionnel
▁1,50
▁vital
,28
orologi
▁Scarborough
▁rationalisation
▁MACKENZIE
ngage
pend
▁Cascades
▁Gagnon
corporelle
▁Post
▁QL
pris
▁NV
▁Salaire
▁Signé
▁cart
▁diplomati
▁front
hiffre
▁Six
▁tribun
tiere
▁auxiliaire
▁jalon
atic
▁surpris
▁Liquidités
▁Quebec
▁concern
▁Purpose
.03
▁DISPOSITIONS
▁encaissé
▁CD
▁Somali
▁aluminium
▁Shore
OUR
▁FON
▁provoqu
ALES
▁ratification
▁Men
ratifié
ISATION
▁exag
▁scie
affinerie
▁rat
▁syndical
103
entrée
▁GMP
▁privilegi
UP
▁Arm
▁macro
▁DIVIDENDE
IERS
▁52-110
100
fil
▁réévalué
▁déno
trave
▁Principa
▁duré
▁chev
EU
▁Couverture
▁génératrice
▁Rand
▁NOM
▁ordonne
IES
tex
▁gouverne
passera
▁Citation
▁accomplisse
▁via
▁aviation
▁Sp
▁Advisors
▁stipulé
bière
▁théori
î
▁Gro
▁Syri
▁PS
▁montag
▁Chili
leur
GF
▁électro
chement
ambi
▁Ann
▁Fr
▁Mike
▁Repris
erré
▁ACC
.13
▁accrédité
▁Mortgage
och
▁human
spèce
▁Han
LP
jet
▁Minerals
▁Divers
▁Silver
▁chercheurs
opie
▁SR
▁innocent
▁Restrictions
▁affecte
maladie
site
cla
▁mo
▁Fundserv
▁Inscri
▁ban
▁athl
▁exportateur
▁Land
NA
trui
▁OPTIONS
▁filon
▁management
▁Steven
▁Rob
200
▁contrôlé
compton
▁Ja
▁Ken
PG
▁PE
▁pierre
avertissement
▁durabilit
▁conseill
▁enregistre
▁Laurentienne
ètent
▁Nor
▁Property
EST
▁diagnostiqu
¢
-60
DM
nnelle
oeuf
▁0,06
▁Trudeau
loue
▁statements
▁Hi
▁qualitative
-98
▁compensatoire
ash
▁déli
▁Alain
▁Mitchell
▁Syncrude
▁VOTE
▁affilié
▁Cenovus
▁fonctionn
▁Regroupement
▁regroup
GO
▁DO
▁insult
▁Noranda
pha
▁IMPORTANT
remorque
▁2,50
▁EF
▁Imposition
haleur
œ
▁coin
ges
▁Saskatoon
EN
solvabilit
▁évolue
▁ambigu
▁boutique
▁RÉSULTAT
▁transporter
ssage
actifs
nière
▁verdict
▁pho
▁improbabl
▁incertaine
▁formée
▁INVESTISSEUR
gar
▁Sable
<
▁répartir
▁réparti
▁Année
▁technicien
loomberg
oma
▁Congr
LN
▁OSBL
▁exécutée
▁Moyenne
▁Marketing
▁prolongement
▁Sub
▁terrestre
▁1000
▁Cuba
▁trains
DVA
▁Card
lip
▁Merci
ova
▁améliore
▁ADR
▁Nu
▁Surrey
RS
court
nour
▁Hol
dépendant
▁Clarica
▁anomalie
▁films
▁Club
▁TROISIÈME
▁œuvr
▁Mercer
membr
▁Natural
▁PER
élé
▁Col
▁Conclusion
CENT
▁aéronautique
▁Sherbrooke
▁expenses
tch
aissés
▁verticale
GU
▁métallurgique
bout
▁MacDonald
-190
▁7,1
▁étroit
▁Adams
Ç
▁PROSPECTUS
▁Pens
stone
▁RA
▁confiant
▁inject
isent
▁GR
-003
▁Metro
▁adress
taché
liser
▁AE
▁TABLEAU
▁Super
▁enseigne
▁souverain
▁enregistr
▁ladite
▁Définition
▁PAE
cap
▁result
▁Budden
▁inutil
▁Dispositions
▁Norbord
▁décisionnel
rapeau
▁ATTESTATION
vité
MR
▁Agréé
▁Incorporated
ole
▁BA
imanche
▁déma
6,50
▁Fiduciaire
▁mod
mpl
▁recommandée
lite
▁observe
▁Pétrole
jonct
▁Documents
▁prev
▁appari
0,000
▁Fairfax
abri
guère
▁CONCERN
▁cube
▁productive
▁dumping
bail
ït
▁réservés
éli
▁département
▁expérimenté
▁Form
▁intent
▁Anne
▁épaisseur
laidoyer
TO
▁Semaine
LO
▁BASE
▁souterrain
▁capacit
fra
▁CR
▁apparen
PF
▁redressé
▁Im
chapp
▁ANALYSE
issai
▁ST
▁Vivendi
▁nécessit
ssée
▁rendez
▁flexibilit
▁refle
stér
▁clar
▁College
▁NASDAQ
▁rupture
itaire
▁8,0
▁Hills
▁enrichi
forcer
▁9,5
▁AGENT
▁armé
▁encouragement
▁convoque
bon
férer
▁Position
▁constitua
▁heur
étal
directeur
▁qualit
▁coalition
▁Del
▁stup
over
,36
PT
▁Human
▁cédée
▁opérateur
▁arri
▁CFA
monté
▁Aid
▁company
ailleur
▁Artis
ram
HV
LU
FT
▁ÉT
èse
▁VB
▁dentaire
▁phar
▁Paper
▁MOND
▁film
▁FA
ége
zi
▁Harbour
▁Inscription
▁imm
▁hydro
aff
▁FCA
▁ratifi
▁pér
GARD
▁Innovation
▁RELATIVE
MP
euve
▁Wal
▁portuaire
▁rechercher
▁off
LD
DF
ight
arch
▁sec
000
▁commerçant
chet
ura
▁Richmond
-94
▁8,3
apitalcorp
▁infirm
▁gas
chef
▁remor
xique
▁7,7
bl
▁FLUX
▁perturb
▁1972
▁définiss
▁habitat
EFP
actualis
▁marqu
▁Companies
▁Comptabilit
▁Eagle
▁assign
▁lésion
▁Molson
▁Singapo
lien
▁Phase
side
▁inappropriée
volu
▁PLUS
▁arbitral
mporter
▁cohabit
mard
truir
form
▁Couche
▁Secrétaire
▁prometteur
▁regarde
rendra
▁Éthi
▁abusive
act
eng
▁beaux
vée
▁Nation
ompu
MB
▁Kat
▁alarm
▁LQ
▁arrang
BA
▁Reg
alement
uit
▁RC
plique
▁contribuera
▁radié
▁Commercial
▁REC
Tard
▁SOU
▁This
▁Patrick
▁ext
gage
ieme
bain
roc
▁Jan
▁TM
FPC
-97
clav
▁Mary
TIDI
prouve
▁Comeau
▁corridor
▁valid
▁Gi
▁Tower
férence
3,00
▁Medical
istique
▁7,3
▁Care
SD
▁acqui
ELLE
▁CONTRAT
▁Gilles
▁mortalit
▁éloignée
-68
▁Mills
▁fair
ANQUE
TR
sécurité
▁club
▁Parcs
▁lég
▁Malartic
▁McC
ity
▁Communication
HD
▁impute
▁informati
immunité
▁AND
▁fiche
▁OT
▁11,5
thodologie
▁invent
juster
▁coordination
minent
win
▁time
mit
▁Scholes
▁Wi
Avis
4.1
▁renégoci
cieux
but
▁satisfaite
▁grille
ept
▁minéralisées
▁bleu
ennent
▁amorc
ndu
▁coupé
▁contractant
proché
▁GBP
▁Transactions
view
▁CBC
▁flow
▁opér
ousser
▁Boston
▁matern
▁olympique
▁MATIÈRE
▁Sha
▁dispens
▁Chemicals
▁COURT
▁accroît
▁novatrice
arbr
-2011
▁Roms
▁rattachée
AS
▁0,08
▁cultures
thyl
▁Her
▁RDC
▁ÉTAT
viser
▁PI
▁couru
aumon
▁Focus
▁Sélect
▁restructur
▁PM
▁realis
nommé
▁vire
LIBR
▁recommand
▁Pou
▁contour
▁accumulée
▁démar
▁0,40
▁occasionné
couvrables
0,60
-85
▁Mag
▁concili
verba
▁répercu
.4
ceau
teint
équilibre
lerai
édié
▁flexible
▁intensifi
▁Golden
▁PF
▁Trait
▁MI
▁continues
conciliation
ritage
▁Îles
ayée
▁0,07
▁ingénieurs
atériel
ott
▁Ku
▁sélectionn
II
▁Grey
▁supporter
TEN
tue
MIS
▁Supérieur
▁proactive
,27
VANT
▁ap
▁nationalité
▁dessert
▁thérap
▁viva
▁Haut
▁attire
▁grev
▁8,1
▁Growth
▁ventilation
nat
▁minéralisé
▁race
veu
CDE
▁Domtar
essor
▁PART
COM
▁supplement
▁Ça
▁Reclass
press
▁Cadre
▁fusionn
▁influencer
lie
▁rayon
▁Goldcorp
▁arrondi
0,09
▁proportionnel
sociétés
▁PROPR
▁5,75
▁Inclu
▁Mel
envoi
▁Tou
▁navigation
▁surprise
▁Tre
-59
issante
▁LIMITED
mond
▁ACQUISITION
aisse
▁puni
star
▁largeur
▁Exclu
▁catholique
▁téléphoni
▁Garantie
▁Touche
semblance
▁Tele
cou
sidér
parents
tour
▁bag
nale
timid
▁tourn
-96
cell
▁Heure
▁attaché
▁3,00
▁perquisition
▁following
▁tend
journée
ost
▁Aviation
▁Commandit
▁RRD
▁Simon
jan
▁descriptions
▁aim
▁quinz
fructu
ok
▁audits
gypt
▁comp
nda
ENCE
▁vérifiée
▁3855
▁doctrine
▁end
▁Shi
férée
▁Dieu
▁ultra
▁Inuit
DD
UF
jours
▁RR
▁impacts
Scholes
▁MARS
▁Phillips
neige
▁ProMetic
▁étiquet
ington
TRA
▁compilation
chan
▁POWER
421
▁Ki
▁Mulroney
AN
▁Out
ouches
IO
▁assassin
▁foncière
▁roulant
PVA
cules
▁LTD
mpé
odi
▁omnibus
▁repère
REIT
▁Private
▁Albert
▁CPR
▁Granite
▁barème
INSTRUMENTS
▁corr
▁radical
gal
▁juv
règ
▁Voy
▁25,00
NO
métrique
urner
▁Maroc
▁Committee
▁motivation
croît
gueur
rine
cycl
▁Hy
apatri
▁exemptions
▁And
▁Philip
▁ambassade
▁déboursé
▁immense
▁indien
gg
ical
▁diplômé
▁Générale
cations
-2013
▁devi
▁Hor
PV
ffichage
▁analytique
hen
.14
▁Hay
comptable
▁regrette
ella
20,00
shi
FO
▁Wellington
▁gang
▁Versement
RIT
▁Connor
▁blanch
▁Country
▁if
▁Résumé
.05
Gene
▁Wil
ocalisation
¶
▁billion
ng
MAN
▁conform
LT
nile
chien
agan
▁naval
▁survie
egorie
▁AV
▁War
aba
▁MBA
▁psych
RICT
bro
OW
▁activit
▁2030
▁synth
▁controvers
-83
0.00
▁issued
▁vér
▁contentieu
▁coura
▁operation
ordonn
engrowth
▁ISA
▁LIÉ
▁atmosph
▁Bu
omet
uis
▁finis
▁extinction
responsable
.15
Pacifi
TIN
▁Quatre
▁1,75
tract
awa
pla
▁Sands
▁Mutual
▁Certificat
UEL
▁NOVA
▁habilit
▁Art
▁cigarettes
of
ough
▁RS
fic
jugé
ésie
dépôt
▁impossibilit
▁empi
ker
▁BB
0,35
▁10-
unification
▁ACHAT
ules
▁1-800-
▁hybrid
▁Terra
▁mexicain
▁Plu
dron
héri
▁sécuris
▁aménag
bin
ntèle
▁toxicomanie
▁Recouvre
▁oriente
.0000
malh
otte
▁banc
itié
fit
▁8,8
lop
▁intérim
▁flagrant
ock
RIF
▁incertain
▁McGill
▁observat
▁qualifier
▁Chen
▁Semest
▁dég
▁Kar
▁catastrophe
▁PBR
burg
nique
▁rach
▁milit
DE
▁COVID
▁Cundill
▁Lang
▁gangs
▁GES
ew
▁Appellant
▁1867
▁dilutif
▁Jane
▁Kaur
▁Rouge
▁adept
▁reports
▁5,25
▁Ber
▁EXP
ébé
▁domicili
▁punis
▁Solution
▁piste
▁Approuv
othérap
▁immatricul
connexion
oral
▁Crédits
irconstance
▁trace
xigences
▁ascendant
▁sollicité
riat
▁one
▁pyrite
.16
▁bénévolat
▁cibl
▁positionné
-95
acé
▁7,6
▁Fargo
diffus
▁SS
celer
▁élémentaire
▁Intimé
bert
PAC
▁Composition
▁Déduction
▁ceinture
▁Rail
avé
▁magazines
alli
▁Rappelons
factur
▁SITUATION
▁records
▁Boeing
▁app
terri
vit
▁concrétis
▁exerçable
-69
▁Panama
ssais
rière
▁Formation
▁8,6
OMME
▁Sentinel
▁influe
▁quota
▁FARC
bours
▁protest
▁ridicule
▁promulg
Nevada
ction
HAR
DONNÉE
issez
▁ACTION
-52
▁ATCO
▁Dubé
▁sava
rubrique
▁extérieure
lubri
▁Entrée
▁finalisé
▁House
▁Télécopie
▁COMMUN
▁trésorie
nex
ush
▁anonym
otentiel
énu
▁Brook
▁Dia
▁Gill
▁FTQ
▁duration
bell
▁commercialise
▁voyag
-90
0,80
▁broy
compté
-82
ord
pli
▁dict
ech
issée
volution
▁totalise
-86
dommag
écem
▁PERSONNE
▁1971
▁Line
arabe
▁Banc
▁FSL
Ex
ONG
itz
▁PRINCIPALE
pel
▁négocie
▁June
▁magnétique
▁Certe
positive
▁pand
rappe
ATIF
▁0,12
▁Consult
▁THE
peau
nterdiction
▁recoupé
semble
▁optimiste
▁Pâte
▁ÉLÉMENT
GR
▁AAA
▁approximati
▁pause
héro
ANC
▁Vol
▁10,5
▁SEPTEMBRE
parentale
▁SECTEUR
achar
▁émet
-61
EANT
av
▁Provisions
mporte
▁retardé
umes
▁CFC
▁Mail
▁délégu
▁GMA
▁compos
cerie
nnuaire
▁August
stinataire
▁Nickel
▁sélecti
▁Énoncé
more
▁Obje
▁Partenariat
tourné
▁CM
▁assiste
▁transf
▁COGECO
▁véri
▁relie
▁Vérifi
▁strat
▁Gri
EG
▁standards
▁Second
GM
▁Avance
▁SOLLICIT
▁Paragraphe
▁certifié
pillage
rud
▁céd
▁manoeuvre
▁REN
ibilité
▁Assur
▁collabore
▁fournisse
Œ
▁itinéran
▁Dorel
▁JV
▁lobbyiste
▁Far
▁NCECF
▁résilié
2,50
cierie
▁absorption
▁hôte
AB
bul
NH
▁Genuit
▁Excellence
▁faun
ortement
chauffe
-150
▁concepts
▁concrétiser
▁formidabl
▁out
▁FINANCIER
▁Bor
▁collaborat
▁Région
▁prisons
MISSION
▁Considéra
Zé
ALI
▁OP
VIH
service
▁navig
▁soussigné
3.1
PM
▁Oliver
nocide
système
▁BTB
▁pouce
▁géologue
▁robuste
0,13
réparer
▁DIRIG
▁FASB
▁conserv
▁tiendr
gui
pac
udite
▁8,2
oeil
▁imputation
▁recueillie
TU
▁simulat
▁Carl
GP
▁condo
▁intitul
tec
▁Facebook
INS
arm
▁distingue
tem
▁Teck
▁event
acquer
cel
▁agroalimentaire
alloway
ize
organi
▁Ali
▁biotechnologie
.04
▁Brien
▁Center
▁Traitement
▁reproduction
FCP
TON
▁reclassée
▁Site
▁comm
bor
▁indispensable
situent
▁Côté
▁intimidation
▁expresse
▁PMA
▁SOMMA
▁explorer
▁Historique
auté
▁Quatr
IV
▁IFRIC
glica
▁constructeur
hol
Com
▁ASU
RAN
▁Sino
2.1
fou
▁Désign
▁suspect
▁imprim
erence
ouvernance
▁RUBRIQUE
▁Tech
▁Tor
-54
Mo
omett
▁Carignan
▁démonstration
▁substitut
▁promotionnel
oratoire
▁loss
▁prior
▁coins
▁recommenc
▁supra
▁transformé
ermiss
▁NQ
flamm
voi
▁inhabituelle
ome
▁Austin
ALE
tranché
NL
auvage
▁abolition
▁MISE
▁Brands
▁desservi
▁territori
▁Delta
PI
â
▁Florid
RÉSIDENT
▁CORP
▁pomme
bar
voy
cosse
▁débours
▁sauvegarde
▁Franco
wi
▁Wind
▁représentative
ouill
▁reserve
▁Bilan
pen
▁4,00
ictoire
▁8,9
▁Mill
▁VAN
0,70
▁assemble
▁Neil
FS
▁temp
▁résulté
AII
ë
▁Sc
▁libér
▁magnifi
▁Vidéotron
ISS
▁Call
▁6,00
tain
▁commenter
▁innoc
▁limitation
0,18
LEMENT
▁COM
fr
▁Taï
▁PROPRIÉTÉ
ÉRÉ
▁Kingston
▁My
▁Neptune
▁Tarif
voqu
▁consortium
▁DIS
▁typique
ND
▁EI
visage
canada
▁9,6
▁Remis
▁sélectionné
▁Arabi
▁termina
▁René
istage
▁Ten
▁Gazette
▁Hart
▁IRS
RR
cia
iée
SO
▁importateur
mélioration
▁Resource
▁touristique
▁Big
▁Foundation
nomb
▁GÉNÉRALE
mbassadeur
▁Bangladesh
▁facultati
volontaire
▁Gulf
▁mérit
conomiste
gy
haussure
ML
▁Churchill
▁calibre
▁prévisionnel
ulé
3,75
HW
0,14
WH
▁combine
▁camionn
▁dissuasi
▁Estimation
▁aggra
▁aérospatiale
Staun
Tech
▁CIC
clam
▁chevron
anne
▁Entit
▁Brompton
▁Lawrence
▁cpa
,37
rou
appe
▁Statut
▁Ya
▁pilot
7.1
OSS
▁far
evée
chères
▁Christian
▁catalogue
▁énergi
mate
ompétent
▁Arcti
nar
▁étrange
▁loisir
6.1
▁TCPL
ubrique
▁ARTICLE
▁vain
LANTS
▁accentu
LL
IENS
alise
-2010
▁RAD
vel
▁COURS
▁aéro
▁impliquant
▁abstraction
▁courtes
ANTS
▁Argentine
▁Dar
▁remerci
chir
lisé
▁REM
VENT
ondation
osa
portefeuille
TAUX
▁Project
▁2029
▁7,9
▁spécialise
tenues
▁LO
▁Laurier
▁optimale
▁Prise
▁Thunder
▁cuisine
▁Falconbridge
douce
justifié
▁CU
▁each
loi
▁Middlefield
▁recevr
Compétence
AVEUR
▁sportif
▁Government
érig
▁Renard
▁brill
▁kg
▁VENTE
▁Prépar
ilité
ETTE
▁IND
ançai
esente
▁PERTE
▁intensit
▁Établi
ikh
▁confession
gén
▁dissim
▁imminent
▁invit
▁SAIL
prenant
▁Collège
▁Diamond
BO
eriode
eureux
-2015
▁Tkachuk
8,50
lité
▁Chicago
▁conceptuel
▁ombudsman
▁partialit
▁introdui
▁surviv
▁Liberty
EAU
HER
▁GWh
▁constructive
ator
▁littéra
▁juil
ologue
▁Bowater
apper
trants
▁Dividend
omb
▁foule
just
gni
por
▁9,0
▁CAPIT
▁notification
RB
▁PD
▁Shares
▁rate
DL
▁2,25
▁Lloyd
▁partagée
▁Exposition
▁Serge
▁Dickson
▁Composante
▁propane
▁déménagement
gou
▁incorrect
-71
▁Principe
▁Ratios
▁FIRST
emball
▁Reuters
▁propri
Ma
▁Kelly
▁Wayne
▁Healthcare
0,17
▁intrusion
obi
▁préside
▁embar
▁Westminster
4,75
▁9,3
▁rehausse
▁compil
portent
▁9,1
▁soul
▁artificiel
▁caus
▁multinationale
▁VIA
▁neutral
écutée
▁Bouchard
▁fragment
▁hospital
▁whip
▁lentille
Un
▁8,4
-170
▁fine
▁Canoe
érées
▁2028
SPÉ
intégr
▁inaction
féri
ÉG
▁coordonn
illage
▁centralis
▁relev
▁spont
ky
0,65
LW
ERS
ÈRE
▁bibliothèque
IAL
▁Aimia
▁responsabilit
imi
▁socio
▁conciliation
▁densit
▁related
stitution
▁Effective
▁Microsoft
▁Gary
▁Québécoise
▁PASSIF
▁Ridge
CDI
▁issues
BN
▁new
VÉ
assaini
emun
▁Excédent
eral
xpérience
▁Exception
-74
AISON
EMENTS
▁INTÉRÊT
▁poursuivie
brouill
▁Gouverneur
▁Yu
CON
mus
OSE
esident
ÉT
▁Kan
visuelle
▁planifié
▁conf
vor
ératif
phé
ISE
ographie
▁CRH
▁rédacteur
▁Maurice
▁Federal
.20
▁5.1
▁Southern
▁fenêtre
bord
ilia
▁SFM
tré
▁Manufacturers
▁conv
▁Ze
NP
cessaire
cueil
▁Time
EI
clusion
9.1
bel
▁Recommand
▁traverse
▁Pages
▁timb
quent
main
▁quo
▁Okanagan
▁12,0
usée
▁6,25
▁Miller
▁absorber
approprié
registrement
▁Perspectives
▁proc
inder
▁Stratton
▁Absence
▁independant
bec
▁Term
▁2035
▁Joyal
▁massif
gate
onction
▁2.2
▁clôturé
AND
▁9,7
▁EEP
otés
▁Prairies
▁VII
▁jui
-88
▁Allan
▁GMi
▁systém
▁RÉSU
chissement
amine
▁Essenti
▁than
nic
▁CHARGE
▁synthèse
▁EXPLORATION
▁Aston
▁opt
clinique
▁Cie
RIX
▁catégori
uck
▁chirurgi
ê
▁9,8
▁Rick
▁détiendr
SPA
matique
▁ACI
▁exc
existant
▁Grè
ués
▁pompe
▁Hartford
▁Marine
ontrepartie
▁austral
▁Parkland
OM
traitant
uaire
aisie
▁grandissant
script
▁regret
▁Bois
▁Core
PORT
▁GH
▁Adven
▁escompté
ÉGI
▁Cré
▁cycles
▁BPA
▁Cam
▁licencié
▁cardia
MONDI
fond
▁modé
▁appos
▁concentrée
▁discute
▁grandi
▁Sherritt
▁grevé
▁lies
▁Dix
▁insiste
toile
▁0,16
▁Putnam
▁VIS
▁École
ollicit
IBLE
RC
▁FPA
▁Strat
▁rajuste
▁dresser
guiche
REEI
▁1968
motion
▁11,0
▁Micro
einture
▁Astral
▁Charlotte
ranger
-81
▁Huru
0,85
▁Good
▁conservée
vier
MAX
BCA
▁JOUR
▁1933
RF
▁catastrophes
▁their
ajustement
▁télévis
-53
trap
bran
▁coopérati
DEV
versée
▁Jud
▁matérialis
▁modificat
ELS
▁privil
ANA
IOL
pres
water
▁Talisman
▁Arrangement
▁coul
.5
▁Fed
▁data
▁9,2
▁planifiée
▁Initiative
▁Atlantic
▁novo
mique
-57
0,45
▁pur
SOLUTION
nai
portive
bande
▁Industrial
▁visitez
oyez
Autorisation
▁automatisé
▁major
torsion
▁Gatineau
▁militant
▁milli
NN
éraux
▁11,8
▁Mah
omo
evrier
▁contaminé
▁recevable
cri
▁désa
▁Capacit
▁Axcan
yne
HQ
ittératie
▁Council
▁Supra
8.1
▁Kin
RON
▁parcelle
▁Sobeys
suffisance
bâ
▁débuter
ANR
onze
RQ
▁means
dira
LY
stituer
▁TRUST
▁régle
Pierre
▁Not
▁Économi
▁States
▁emission
▁Delaware
▁Ian
▁Nature
▁Wright
loyal
fonc
5-4
oïde
▁Souscription
▁Chez
NOUVEL
▁homicide
▁interurba
▁DEX
ABLES
var
▁Boy
▁Côte
-76
▁NC
▁also
provincial
▁11,4
VA
▁PH
tournée
▁bureaucrati
▁lord
▁Rimouski
▁properties
REGISTR
▁GLOBAL
▁McDonald
ucie
▁SFAS
▁Work
▁méta
▁11,1
▁Entertainment
▁Immobilier
▁facultative
▁BO
▁Penn
.17
▁Knight
▁bond
▁palliati
érable
▁Consommat
▁fusi
VR
EDS
étail
▁FEC
▁MS
▁Pr
▁métallique
▁Coutu
▁act
▁compli
▁connect
▁quarant
0,11
▁Price
▁diminuera
▁respon
dame
▁cliqu
▁islami
dants
▁Chase
versa
▁qualifie
mobil
▁MacKay
▁trésor
En
▁MFC
▁BE
▁Leaf
▁Ri
▁Virginia
▁evalu
▁domestique
lieu
veloppement
▁Share
▁propice
▁Evolve
▁Steve
▁évite
▁Comp
stan
▁PROJET
vraisemblable
ovi
inter
▁Fourni
fort
▁abrégé
▁contradict
VOUS
quière
rite
-87
▁Parl
0,90
▁CRÉDIT
▁Souven
▁Journal
-2012
▁Imm
▁textile
▁ontarien
▁prometteuse
▁conviction
▁CPN
▁Directrice
▁Créditeurs
▁Liste
▁Za
adeau
premier
élécommunication
▁Decision
▁Low
▁forum
▁serré
▁Belgi
Ab
egi
▁entrant
RÉE
TES
40,00
▁LAB
▁mil
7,25
isseur
▁Chemtrade
▁endos
▁price
alco
▁Free
▁collection
ouple
haussé
▁CRC
▁Cable
▁breveté
▁compétiti
▁Harder
▁empir
ALEX
Ï
▁Marshall
▁Valene
▁occasionnel
▁anticip
▁rein
udaine
▁Local
explo
ink
ÉNERGI
▁Dallaire
▁menu
▁éditeur
▁facilitate
▁financi
▁STRATÉGI
-62
▁Aecon
▁Manning
verbal
berge
éposit
▁tur
▁ém
▁Morin
▁Sky
▁tables
▁cruel
NCE
ibi
▁Allocation
▁Fiscal
▁Conférence
▁francophone
▁Process
▁habitant
▁Richmont
▁TORONTO
▁classes
▁continent
▁magistrat
oux
▁Sar
▁réévalue
phy
▁AR
▁oral
▁socie
▁Cession
▁évènement
▁Authority
▁recyclé
NMM
▁CMA
génération
▁Prud
TY
eme
-84
ENS
GEN
▁Wajax
▁impliquée
UH
▁RÈGLEMENT
my
▁Watson
▁tester
▁poursuivron
fghan
IVE
▁number
cipro
▁Guyana
▁Synergy
▁sav
▁épuis
▁employe
uration
▁matérielle
tude
▁rénov
DAC
ologne
▁vétérinaire
▁It
MEX
minative
cept
▁hoc
▁limitations
▁Alt
▁anglophone
▁bilingue
gam
▁Mr
chargé
▁Fil
.1.1
7,75
▁District
rûl
Bret
▁1969
▁Cowan
élection
caiss
▁11,6
▁PAGE
▁pluri
TV
▁magazine
▁Diane
▁PRINCIP
▁NOTICE
duction
▁Installation
▁economi
chaland
▁Haute
▁piè
AO
four
résence
▁these
-160
▁décor
▁outrage
▁rencontrée
▁equity
▁couch
XU
▁Ga
▁rec
▁exp
▁recueill
-75
low
▁diffuser
▁ensuit
▁Pla
▁statutaire
▁coch
Breton
frère
élai
▁GGOF
OIT
▁Brampton
▁Preferred
▁4,25
▁GENIVAR
▁harmoni
▁mining
▁aigu
▁inspect
note
pour
▁McLachlin
SERV
▁Kent
texte
▁recherch
▁Funding
▁Mexico
▁MODIFI
▁during
▁10,6
▁Tra
▁Yield
▁Algérie
▁canal
gressif
lion
mex
▁Peace
-004
▁UK
▁Yves
kraini
▁suspens
▁group
egoci
icence
▁saurai
▁6,75
▁antic
▁SOUS
▁11,9
aquet
▁convoqué
▁Saputo
top
▁Financiers
▁8,7
▁boulevard
oudan
RY
ÉC
▁diagramm
▁exhaust
RAT
▁Duncan
▁log
▁Conséque
▁DÉC
▁PRIVÉ
▁affin
▁assemblage
▁fluid
oirée
▁Element
yez
▁11,3
▁Khan
UG
▁stérile
▁9,4
▁champion
▁intensification
▁method
FE
▁Mois
▁Deutsche
ave
▁paradis
Bro
DES
▁affection
▁repr
rose
élib
▁concurrente
are
▁analysée
▁inspire
▁Ve
▁mainten
▁psychologue
▁11,2
▁Kim
▁MWh
▁Expli
▁Particul
▁Petite
▁Roger
PEP
▁expropriation
▁Examin
▁espec
▁ACT
▁signatures
▁my
CVM
▁Acuity
VEN
▁minuti
.6
ttard
▁Loan
▁Strategic
▁cont
traîne
▁tube
▁chevauchement
▁Niagara
▁Vision
▁Norv
▁agreement
EO
oria
▁réalisera
mine
tax
▁1.2
▁plong
prouvé
érique
▁privatisation
Rivières
▁Airlines
▁Indon
▁81-107
ben
▁immobilis
▁sollicitée
ARI
▁intense
PO
FA
blissement
▁Débit
▁Timmins
ara
▁Aurora
▁Matière
▁Ron
vastat
▁Ram
bouch
▁modalit
▁INVESTISSEMENT
▁vétér
▁ASSET
▁extradition
▁gras
▁irrecevab
voisin
▁Neuf
▁Anthony
▁éva
Au
conventionnelle
ple
▁Minister
▁business
▁salon
▁Hat
▁SCP
▁Métis
▁SO
▁explor
▁composite
range
▁figurer
▁fonctionnel
▁inexact
▁AUC
▁Eh
▁JPY
▁visibilit
▁Occasion
▁Ryan
′
▁CONVENTIONS
▁Richelieu
▁Smart
▁Belle
▁Gerald
▁discr
▁ristourne
vil
▁subsidiaire
ESTIONNAIRE
▁oz
▁stagiaire
-2008
via
▁Gray
▁indexation
.06
▁vallée
▁Food
▁Gendarme
▁LIBOR
▁Ronald
▁guid
▁13,5
▁critiqu
▁Talvest
gout
▁Musé
▁Élément
-64
▁anxi
-56
CHÉ
▁gasp
IDE
▁1960
alphabétis
rill
▁Cash
▁Chorus
▁Keith
▁regrettabl
terna
▁croisé
▁extrémité
▁promett
gouvernementale
▁India
▁PROTECTION
▁2,75
▁minéralisée
▁Med
▁Spectrum
ELL
▁Pay
▁You
▁LONG
-58
▁Cahier
▁bovin
haut
▁approvisionne
LAC
VOIR
olabor
uteur
gr
oureuse
▁zon
brook
▁altération
endett
▁Morris
▁Très
▁cessionnaire
onge
▁affr
rnes
BOURS
▁noire
▁10,2
▁SRC
▁suggestion
oulée
▁IS
▁Best
▁Agnico
▁Revue
cott
ificateur
law
oise
▁JHN
▁Kitchener
.19
▁WTI
-2019
▁commandé
FAR
▁rég
ONS
▁Lou
-89
▁Alto
▁Apple
▁élimine
▁amplifi
▁taxi
-2009
▁Jaffer
▁Key
▁Performance
▁ambiti
▁pat
▁Ancienne
▁NA
▁Hypothè
▁Pipelines
tribution
▁virus
▁Motor
▁fix
▁tournant
graphe
oiseau
▁Administratri
0,22
ison
▁ponder
autorit
fié
▁locomotive
0,19
Agroalimentaire
▁CODE
▁SV
▁Drive
LF
▁pesticide
▁entreprend
ERG
▁Arthur
▁automatis
▁rapproché
tric
▁Expansion
▁bruit
▁psychiatri
ibliothèque
▁declaration
▁illiquidit
Gold
OUT
quant
WA
UC
▁merci
finir
▁Barry
▁SUITE
▁over
▁maternit
pargne
COMPTE
ÉNA
▁10,3
lera
▁solid
▁How
▁BT
▁Parties
-65
▁Imp
mobilisation
kel
▁11,7
▁Combatt
▁viole
▁Germain
▁Direct
proche
▁lithium
gh
▁ADN
▁Robichaud
▁traumatis
sphère
▁doctorat
▁patron
enonc
FER
ELLES
▁Hospital
▁13,0
nçon
▁GAML
conformit
▁Proposition
▁special
endrai
tier
0,24
▁years
croch
▁Eric
▁Lamer
▁Sport
▁energie
due
▁Radiation
▁rotati
▁rétro
-2017
▁Figure
▁September
▁Kinross
-140
JAN
▁Sudbury
▁lock
▁conventionnel
▁Farm
-2002
▁Stan
▁diesel
▁Value
diction
▁CONSOLIDÉ
aria
hon
▁QUESTIONS
▁souf
▁Mission
▁pacifi
▁Swaps
▁Tour
bury
▁Caroline
▁MANDAT
▁Saxon
▁conseillère
▁dilu
Maxxum
hill
tia
▁occidental
▁Av
▁Imagin
▁RPA
▁sanitaire
chasseur
▁Hudson
▁calm
▁ev
▁renonce
▁Équipement
tête
▁GM
BU
DB
▁BCI
▁mono
▁temporelle
▁Rouyn
▁ULC
-2000
onna
pose
▁Larry
version
▁Camp
▁CERTAIN
NY
▁Andreychuk
▁Mis
▁Stella
terni
▁Copper
▁coordonnat
▁Sand
▁diligente
▁Portugal
APER
caissement
missile
▁fich
▁résulter
▁implication
rayer
▁sports
▁absurd
thane
caution
▁her
méra
▁monument
▁subséque
HP
▁Evans
logie
QUES
▁référ
▁Light
▁SCHL
▁HE
rôle
▁TRIMESTRIEL
oll
▁PARTICIPATION
CSN
nan
▁Longueuil
▁illég
▁succ
bridge
▁Hub
▁TSXV
TECH
▁including
vasion
DW
▁2049
▁Base
▁Dirigeant
▁incorpor
▁proclamation
Demande
▁Nigeria
▁Sharon
▁imprimerie
rick
▁BILAN
▁BOR
▁CONSO
▁TRANS
uf
▁contingent
▁Brad
▁Nolin
▁PROGRAMME
▁artistique
▁PP
▁FINANCEMENT
▁Haw
FD
omi
▁contamination
NES
institutionnelle
▁donat
▁his
▁1,02
▁Financier
▁Glen
▁TSE
TÉ
▁implanté
IX
▁Ban
▁Symbole
égation
▁transform
démi
acca
▁adjacent
▁Compensation
ebec
▁ART
▁Pizza
DG
ISSEMENT
▁Atrium
▁Cook
▁mécanicien
▁russe
8,25
▁GTAA
AUTE
▁Disposition
affirm
president
▁Sam
annuel
▁CANADIAN
▁PO
OYEN
▁JPMorgan
▁Commissariat
▁FRANKL
▁horribl
▁GWL
▁Tembec
Acc
aga
fensive
▁Ap
▁ATTRIBU
canadienne
qualifi
▁admir
▁préparatoire
▁NOR
▁Surplus
semblé
▁diff
▁adapt
NS
▁10,4
mag
▁Chan
▁GARANTIE
▁Revenue
adéquate
▁Waterloo
▁Jay
TATS
▁NOUVEAU
0,95
secteur
▁Crown
9.2
▁séparat
hin
ull
oxyd
▁abrogation
▁tragi
▁Bow
▁prec
cule
▁Sho
▁fret
app
▁imaxx
▁Intégr
▁Sélection
trie
▁Formule
▁Observation
Quest
▁Geo
▁Terry
DQ
OINS
inuit
▁Colline
▁1967
▁Introduction
▁SFK
▁manufacturière
▁norm
HR
▁nomm
UA
▁7.1
▁Motors
ppée
▁descend
▁4,50
uni
▁amend
owell
gov
▁AFFÉRENTE
gold
-78
CAN
verre
▁diamantifère
ness
▁Dave
▁Corn
zz
▁Profil
▁quarter
▁bât
▁inculp
egime
▁10,1
▁Communiqué
▁Pol
▁Ward
▁cheval
▁expédi
-66
rk
▁dorm
opéra
▁15,0
▁CHANGEMENT
▁innovatrice
▁recrut
▁Doc
▁EXFO
▁8540
▁SIMPLIFI
rasser
▁Mari
▁incorporée
ball
gesse
▁agréée
▁DROIT
▁Portland
▁3.2
▁Char
▁Tinto
chem
▁12,8
▁Plc
▁coop
▁profitable
minée
riode
▁masculin
RCE
illo
ommissariat
8,75
KE
▁Salvador
ordonnée
Madeleine
▁Stéphane
cur
put
▁Dor
▁indivise
ogène
▁Carol
▁12,6
▁explicative
▁Tolgoi
ernière
▁privilégie
TT
STA
WT
ébut
▁sympathi
▁Kings
▁Plat
archandise
pondéré
▁Rep
USION
grad
▁Goldman
▁TransForc
eutique
vage
▁Dennis
▁Monte
▁préco
rian
étit
cipit
▁Sol
▁By
Mart
VALUATION
prix
assemble
rob
▁logo
▁validation
▁Cinq
0,21
irn
ors
▁Australia
▁rationalis
▁Etobicoke
▁accus
▁interruptions
▁12,1
lér
VUE
▁capitalisée
▁turbine
inal
▁product
▁Mario
Restriction
prime
▁culti
nal
odo
▁Cambior
▁Langley
▁DIRECT
▁tum
rouille
phéri
évalué
▁ontarienne
▁strict
AIR
▁procédera
0,55
paragraphe
▁PIMCO
abi
▁ASC
▁TÉLÉ
bouche
▁coïncid
vache
▁syndrome
Lévesque
▁Network
▁articul
▁AN
▁Cartier
bol
oke
▁clandestin
accorde
MOBILIÈRE
▁1,05
▁1,10
▁ISO
▁explosif
▁homologation
▁Husky
solvable
104
▁extraite
NX
chéant
▁DEMANDE
▁Bélanger
▁Table
▁NS
ergent
mini
ICA
▁XX
USE
▁capture
mill
onnée
▁grammes
roge
▁12,9
▁Rain
▁quantifi
▁reconstruction
,44
▁Eggle
cède
transige
▁FH
▁NOC
▁Échéanc
▁Harvest
bauche
▁amendé
▁Lévis
▁trac
0,50
TEL
titude
▁Karen
▁Phil
ichier
▁vena
▁Dane
▁Commonwealth
▁Occupation
▁uniform
▁Oak
point
▁DiagnoCure
pati
▁Barbad
▁Metals
▁réserv
9,50
▁Elizabeth
TF
▁Fête
leuve
trat
▁LRT
▁Fo
▁NSR
▁Oxford
▁1,01
▁4.3
▁SH
HIP
âtiment
▁Bancorp
▁6.1
▁APPEL
dommage
▁alternati
▁accounting
▁chronologi
FH
GH
IRC
▁Tro
▁curie
olo
▁3,50
▁Général
ulation
▁Acadie
▁VOTER
▁caractérise
▁fum
tta
▁Kelowna
▁Matthew
▁engrai
tablie
traver
▁pneu
ACC
▁10,8
▁PFP
politique
▁cadet
▁identifi
media
▁Conc
▁applaud
BD
lienne
▁intercept
▁transfér
▁Cart
PUC
TITU
▁Dessin
▁commodit
▁appar
.8
ATI
mal
▁Fairmont
VW
ffer
ava
LR
▁compétition
▁2036
iran
▁Johnston
▁Ventures
DIC
▁1,30
▁Gre
▁golf
ormis
▁Plaza
▁ventil
▁Rembours
▁Sceptr
▁créditée
tamer
▁Albani
▁Certification
▁Iron
▁13,4
TX
▁Mobil
▁Banking
▁coli
▁psychiatr
VAL
ifique
akh
ctualité
worth
▁prélev
rveau
▁Bear
▁Ray
▁développ
▁progresse
double
rès
▁12,4
▁spéculative
omme
▁Wild
▁implant
DO
ucci
▁Pet
▁copropriét
épartement
▁Yvon
ric
mêlé
romp
▁Garda
381
tuée
vah
éloign
▁insens
▁réussit
▁14,0
▁10,7
▁Sydney
▁abuse
▁attribut
▁costs
▁recoup
ifférence
▁Amaya
▁Deer
▁Sachs
▁14,5
gra
oz
érivés
▁élabore
élu
▁Pal
-63
▁Consolidation
cénario
▁commandant
▁transmett
▁Alimentation
▁Redevance
▁blanche
▁pensionna
.18
▁Gla
-2007
GB
▁mini
-70
▁Clarke
▁Concern
rimper
▁AH
▁douz
▁rectifi
▁répartit
Pargesa
kar
▁PRÉSENTE
KO
chose
▁ADF
▁CHA
▁Centrale
▁cost
▁rattache
▁convictions
▁tangible
.07
ERE
êne
▁DOLLAR
▁hyper
▁GT
▁industrialis
▁impatient
ménag
▁Guelph
igan
▁transit
licat
▁Condition
▁plénier
JA
▁CEO
▁President
▁Apport
fectu
▁Chemin
Maintien
▁géologie
aye
▁platine
▁1966
▁Lord
▁comprimé
▁12,7
▁EM
▁fruct
assa
longée
0,26
uir
érant
▁Instruction
▁1,03
EV
dien
med
▁DIFF
▁0,28
▁Alex
▁lixiviation
Indemnit
▁Hunter
arbor
▁Relative
munition
▁Bat
ésolution
▁hydrauli
aid
questre
olée
▁brochure
▁patent
▁rail
▁retran
mul
▁Lunn
volt
▁Prairie
▁Rod
ulée
conservat
▁Rép
▁Fox
azi
▁appellation
oi
IIF
▁15,5
▁Limite
▁Mpi
▁infect
▁VP
▁exista
▁mesur
▁Kosovo
▁MON
▁spectacle
▁Asia
▁rive
-67
HL
▁hospitali
abituelle
▁Davis
▁contraint
▁courses
▁maturit
▁Cotisation
▁antidiluti
ièce
nali
roy
urre
gradation
pri
▁Craig
yk
▁past
VISION
▁collect
▁1,33
▁Carleton
▁Oyu
observation
▁Aliment
▁pile
entendu
vert
▁DPA
▁engendrer
▁vérifie
wal
▁émergen
▁mobilit
ricain
▁FISCAL
▁Norre
▁ran
▁mutation
APE
▁text
semence
▁audaci
▁monopol
▁réalisable
AIS
▁univers
ition
▁Hughes
▁Software
Corp
gua
▁Summit
tourne
▁Segal
JET
STR
oyauté
▁MAI
5.1
▁plausible
anim
loge
▁reposition
-411
offre
rête
▁12,3
▁revêtement
■
▁51-102
▁intelligence
mani
▁expos
0,23
vid
▁Ribic
▁détecté
▁system
▁1,35
▁cache
▁join
chever
cy
gas
TD
▁Commune
▁secr
▁Consulting
▁made
▁redress
imité
▁Métaux
▁ORGANIS
▁optimism
Infraction
▁Citi
▁Module
chargement
graphie
▁MILLION
ake
ÔT
▁séquence
1.1
RANG
istan
▁FORMUL
▁Mobile
▁provena
▁System
▁notori
emises
▁Alexis
▁TCA
eglement
ryden
▁Village
▁diminu
sexuel
spatiale
▁just
écout
▁1,20
▁RCP
▁Montreal
œu
cision
0,99
▁filtre
▁OSB
▁grossiste
▁institut
hab
▁TRANSFERT
▁Force
▁ficti
▁CRA
bot
ort
écoule
▁12,2
▁Raj
sident
▁virtuelle
UDE
capitul
▁CONTRÔLE
▁Fu
▁Japan
mac
▁Syn
▁Normand
▁Police
▁Réal
pétition
▁Eastern
▁CG
▁Trade
▁Wha
ody
rich
▁PDG
-77
méga
▁Thaï
CD
EB
▁Leon
▁Lien
entrepreneur
mann
▁Pac
ressé
▁Beaudoin
▁Murphy
pouse
zer
▁Communauté
▁camps
▁Forum
ENCES
pathie
888
▁Major
ACI
▁qualita
▁POLITIQUE
▁puniti
▁Thornton
ENSE
▁MCI
Nova
▁Target
▁intersectoriel
▁CST
▁transférable
-2006
▁TECHNOLOGIES
▁déca
▁you
illant
tionnelle
SH
▁Chartered
▁dédié
▁1965
▁Luxembourg
▁annual
chen
war
TENUE
▁Crescent
▁McClellan
cord
MER
ject
412
▁Ivanhoe
▁identifie
▁douan
ook
▁Mid
utilis
▁changes
▁liabilities
▁prédéterminé
▁COMMUNIQU
ngle
▁Professional
▁Saguenay
▁descendant
house
far
.0.1
auto
▁caractéris
▁Greg
▁MONTRÉAL
Lantic
▁RCI
▁Imperial
▁Mall
▁Security
TIONNAIRE
rgie
▁corresponda
▁Mercier
▁Vincent
▁ép
▁Reid
▁dynamism
▁Langue
▁PUBLIC
citant
licitation
▁Burlington
▁galerie
▁EU
▁Jason
▁Jeff
lomb
évaluée
▁INCOME
▁Medicine
▁dissuad
lié
bral
heur
▁2.3
▁Cohen
▁cartographie
GL
▁Coll
▁UAP
▁accréditif
▁MIX
▁balle
▁SUB
EW
manip
▁Bridge
▁Compren
▁fragile
▁repren
ERA
ERT
NU
▁term
ACIA
location
logique
▁Cole
▁Algonquin
▁Clear
▁Jeffrey
▁Exclusion
▁Paladin
▁inaugur
MV
▁Lui
▁Remplace
surable
▁Control
SRA
VS
cheminée
▁PRÊT
orge
neuv
▁20,0
▁Banco
▁Filiale
▁Norman
▁Boudria
▁Moncton
▁internet
▁particular
▁impré
chin
prive
▁barrage
ITI
igner
xia
▁Building
chimie
▁grav
▁prostate
▁Azimut
prise
▁disa
sédimentaire
▁CAR
▁sismique
▁annexé
▁disproportion
▁10,9
▁Honduras
▁Simcoe
bourg
▁1,32
▁Dion
▁compt
citation
▁FB
ACTIONS
▁Aug
MBRE
TÉE
▁PROMOT
▁litre
▁LifePoints
▁Spectra
èche
▁Précis
DX
▁caractérisé
mation
▁Howard
Hébert
ense
examiner
▁amateur
▁8561-
céd
▁testament
▁Kh
▁Nat
▁fractur
▁objections
tionnel
▁boug
mpliqué
LAND
▁Bush
NER
▁TH
▁tô
oisse
xtrême
▁nerve
astre
ocateur
▁baie
échéance
▁Fire
▁particul
▁Chuck
▁SEMAFO
▁CFP
concurrence
▁miner
.22
DR
▁adjudication
▁Nov
onnaissance
▁risk
tempér
▁Bertrand
▁he
▁préva
trém
▁13,6
▁Gau
▁INTÉR
▁Serie
ETTRE
rosion
▁facie
▁annule
▁mena
▁Dub
▁Eldorado
▁Prestige
▁arm
▁OH
opérant
tell
▁Benoit
▁Peterborough
▁exclusivit
▁reseau
▁warrants
▁Amalco
▁Bennett
▁Nanc
berry
couru
montagne
thier
ctu
▁Portfolio
borough
▁EC
▁Nav
▁RETRAIT
ndue
▁Canam
▁sélectionnée
CISION
▁manger
▁vacance
elée
AW
▁Jaunes
▁CAA
Point
▁Fri
▁nécessiter
▁If
HY
-2014
licate
▁UBS
▁required
GRA
équitable
▁organise
▁renversé
▁sacrifices
IFICATION
▁would
Hubert
flo
Définition
raj
▁mg
TIC
had
▁ASSURANCE
▁Expert
COUVERT
▁FPE
rrach
▁conç
▁horizontal
▁loterie
▁syn
▁Liby
▁deposit
boni
▁Gon
ika
▁Cote
▁stimulant
alais
verse
▁Stores
▁portrait
▁13,9
▁Socie
▁réservation
Règlement
ku
▁schist
cifique
▁décr
▁100,0
▁VIII
▁engagera
LAR
vention
gare
▁potas
▁promu
▁Hal
▁condensat
▁Meilleur
remani
▁Gildan
▁rapprochée
OE
anna
groupe
▁infection
jit
▁DÉVELOPPEMENT
IENT
TIQUE
donné
▁Mutuel
▁Saanich
▁Francis
▁IQ
▁lobbying
▁ML
ido
▁Pen
▁Mad
ota
tache
▁Gomery
▁Grafstein
▁Matéria
quérir
Suspension
pré
NELLE
▁Sim
▁migration
▁PET
▁transformateur
cour
icole
▁NB
actif
cker
igna
igoureuse
▁plain
.21
0,32
nonça
cut
lourd
▁Davies
▁Gibson
▁reprendr
cras
▁TDN
▁aspiration
▁séque
fection
ambe
▁13,8
▁Drilling
▁Tony
appert
oy
▁1,15
▁Dofasco
▁Test
honnête
tino
▁Équ
▁successive
▁funérai
▁Maximum
OIRE
▁Henderson
odie
▁Dawson
▁FE
▁Yamana
nyl
pharmaceutique
‡
▁interprovincial
huit
▁Christopher
▁PLAN
▁palladium
-101
▁TROIS
▁ÉLE
▁Town
▁LIQUID
▁Maria
▁Transaction
▁pollu
Hyacinthe
reuse
▁Milne
▁Organisme
▁Szabo
cade
OY
max
▁Appar
▁Consumer
Franc
africain
▁invalid
élan
ONE
hr
▁Islands
▁AVANT
▁ENGAGEMENT
▁Community
▁Investi
Â
bou
versé
▁Martineau
cheminé
▁3000
▁Fabrication
▁Henry
▁Rev
courager
posant
▁Nelson
ÉÉ
LER
menée
partition
soup
Temp
▁Sprott
▁objectivit
crimin
▁debentures
▁assertions
▁alpha
▁0,27
▁Flow
▁INTERNATIONAL
TEM
-2016
dmissible
▁racism
▁routière
▁archiv
ORDRE
▁Cooper
▁Holdco
liant
▁14,4
TAIRE
aractéristique
▁Context
ANG
▁Nanaimo
▁Reed
POSIT
fusion
gne
▁MDN
▁mince
▁Explor
▁Godin
▁Médi
105
AEO
yna
▁caract
ALL
fugi
▁Pratique
▁Potash
▁préétabli
▁panne
Loi
▁Cara
WU
itatif
▁ACCEPT
▁Duffy
▁ACF
▁sombre
guer
nick
▁photocopie
garde
▁Para
avr
kan
INT
effondrement
▁tunnel
uch
dumping
▁Liquid
▁Will
DJ
lig
▁GAZ
▁manipulation
▁Planification
-73
ANDE
redi
▁Canal
▁4.2
▁Octro
▁SK
▁classifié
1,50
pente
ÈRES
▁Atlas
▁Los
mém
racine
▁Superior
FIN
jardin
▁Preuve
▁SAP
▁bala
market
▁13,3
▁Herb
▁oeuvr
gestionnaire
▁carc
▁désign
▁exporter
▁générateur
émence
▁interro
ISES
compétence
quette
▁Airbus
▁Joan
▁négociant
▁Internal
▁Équipe
-100
▁LRO
▁CMP
cription
▁13,7
▁Classement
lum
▁Rappel
.08
patite
LQ
▁Samson
▁Sorti
Témiscamingue
avan
soleil
▁Alta
▁Jackson
▁Midland
SANTÉ
champ
▁Dartmouth
ago
▁Effect
▁régul
▁set
110
nna
▁pipeli
▁2.4
▁17,5
▁TSO
▁transformée
scolaire
▁Chabot
▁Collins
361
▁13,2
▁Kenya
▁intra
▁racial
▁equip
Med
XV
▁outstanding
log
▁Regime
▁14,8
▁Rem
pisode
sec
▁Nota
éche
▁first
▁interlocut
▁CX
▁EFC
cér
▁corporations
casti
▁Alb
▁Alexander
▁divergen
▁14,7
▁Pool
▁coca
Noranda
othérapeute
▁Vend
▁Allen
▁Jersey
▁Matrix
▁Medi
▁souveraine
assurer
glo
ignante
CORP
▁magné
▁Kerr
▁2037
UALITÉ
mirat
rang
▁artisan
▁adjacente
▁embryon
▁Lakes
▁NORME
▁PROPOS
▁pursuant
GNE
omni
rison
▁LaSalle
▁Magna
vigil
éviation
▁Aurizon
▁choc
0,31
▁accuse
▁LME
▁Robinson
onnement
▁Sullivan
▁anticipe
▁effor
▁DÉCLARATION
▁Electronics
▁illicit
▁Venture
▁luxe
migr
oirie
▁Bathurst
▁Redwood
abopharm
▁Richardson
skin
▁prodig
▁3862
▁persiste
fumer
▁failli
alo
▁maximis
▁INDICE
▁aggrava
▁assum
▁festival
▁illustration
▁multitude
▁WSP
-2.1
tume
HG
tai
vacuation
▁Beta
▁Hunt
COMMUNICATIONS
▁Jov
▁Loyer
Obligation
▁Accountants
spectat
NONC
▁NAV
issance
▁Well
▁integr
vest
▁more
▁Mention
Heureux
▁Opsens
▁fraud
▁imprévisible
▁sanguin
phone
pondérée
▁Pétrolia
▁Spring
agh
content
▁Susan
▁recent
VRIL
umée
uvre
▁Stein
gawatt
propuls
▁autism
mari
▁MasterCard
▁January
OV
anga
plan
▁Bourassa
▁kimberlite
▁récréatif
▁Consolidated
▁Pine
▁OPG
60,00
▁Message
▁dyke
▁Oct
▁fossil
▁sacrifi
Droit
éfaut
▁australi
▁béné
cial
▁14,6
▁Strah
▁encourue
▁Réunion
▁assistant
▁prohib
▁AI
▁Morneau
CHI
aska
llemand
production
▁Investor
▁Pit
▁conc
adéquat
stauration
▁IMMOBILISATION
▁Sym
lèche
▁directors
▁Illinois
AZ
STAR
▁féminin
itch
NC
▁16,0
▁LIÉE
-2001
CHEF
LIC
even
▁Louise
iculture
ondée
▁continental
▁optimal
▁plag
▁rapidit
gerant
sistance
▁Premium
nav
▁Fla
▁appropri
▁irrégulière
MAC
dissoci
▁Owen
▁alumine
▁SW
▁boucl
▁Reynolds
▁casino
▁finan
▁Coast
courag
▁SmartCentre
▁consigne
▁écha
-2003
TENTE
chez
▁compromise
assignation
0,98
▁Adresse
▁STRUCTURE
▁stipulation
▁éloigné
globe
▁polluant
▁Manulife
BILITÉ
▁Sigma
▁alerte
aya
▁Abbott
▁Déficit
▁métropolitaine
▁propagand
-72
▁Rating
caisse
▁Philippe
favorable
▁Sk
ken
pic
▁Avocat
dier
tachée
▁16,5
ANN
▁successor
ritère
▁Jacob
▁plasma
entraide
ndi
▁prestigi
▁results
▁5.2
▁Department
▁Parent
3,60
RÈS
jour
égion
▁Mann
▁Kal
▁Vale
Louis
cote
▁Subvention
▁gai
heure
▁Categorie
SCRIPTION
▁Sheila
▁machinerie
▁securities
taille
ÉRO
▁Angu
▁Dean
▁variabilit
ÉPAR
▁Xstrata
SG
▁Elk
▁Phoenix
▁diligent
▁exploitable
ZA
éenne
▁Dick
EUX
▁Apo
▁Nino
▁favorit
cam
▁Kootenay
oratif
▁Retail
▁Sources
▁catastrophi
UAS
lab
▁détermin
9,25
▁tonnage
CAISSE
marin
▁Markham
▁Royalty
RIER
▁ICI
▁juriste
HE
▁kb
présent
▁Robertson
▁market
direct
▁1.3
▁DETTE
▁Caron
▁Roth
▁multilatéral
▁Plain
▁OSK
▁mati
▁3,25
▁Broad
▁Priv
▁Mirabel
vingt
▁13,1
NG
▁bombe
0,29
▁NSPI
▁depos
▁Fournisseur
QUEL
▁ATTEND
▁Athabasca
▁McIntyre
▁Aéroport
▁PROCÉDURE
▁claim
hou
SURES
VOCATION
iron
▁Bélair
▁10.1
-80
Wh
▁Hôpita
▁grade
intégrer
leau
▁Dollarama
0,74
gaz
▁organisat
face
femme
▁CAS
▁ouvrier
▁sauv
Dame
▁Brascan
▁brutal
▁Superfici
▁plaint
▁Ringuette
ourchette
▁1,04
▁Carte
▁IPC
▁radiée
Document
▁Bermud
▁Visa
▁purchase
uffle
▁offens
oh
▁indign
▁renou
roche
▁Other
▁Brandon
▁construct
▁litres
élicoptère
▁RESPONSABILITÉ
▁Téléc
abl
icaine
▁Var
▁spéc
0,25
TACH
rivilège
▁Mai
VO
▁Alan
▁Common
▁project
valeur
▁ENERGY
▁Industry
▁Agri
▁expir
DN
PRISE
filtration
▁AUTO
hier
▁visuel
OLOG
mplain
ÉTÉ
nemi
énitencier
▁margin
UALR
beault
▁CSA
▁Initial
▁Sh
brési
▁Ash
▁Parc
▁1,40
jou
rod
ister
▁REAL
▁humid
▁taxation
▁Dynamic
▁Manufacturing
▁Cage
CEE
scission
▁découvr
YS
féré
poux
▁Emergis
pot
icrocell
▁58-101
▁Dun
▁SICAV
▁Carter
▁relat
SCI
▁Maison
▁aspir
▁14,2
DH
IEN
▁14,3
▁invention
itique
‒
aterpillar
▁IX
▁conditionne
fund
▁DAT
▁architecture
Application
▁fiancé
▁sale
old
▁different
Cap
▁series
pain
▁Mason
VV
▁Band
façon
hot
▁soixante
▁Manley
▁boulangeri
▁golfe
isco
▁SPC
complète
▁escal
▁paid
ressource
▁Bru
PipeLines
émoire
▁somm
▁Dexi
▁rival
▁AltaLink
▁accou
▁frustration
aveugle
pell
▁Eaton
▁budg
alestini
avrix
disposition
▁Laboratories
Livre
OH
TEURS
▁short
iquant
pharm
▁Reports
▁Engagement
▁14,1
▁terms
▁accordance
▁caractérisée
physi
UGE
-005
ettra
oît
▁hygi
▁Advisor
▁Future
▁Gagné
GD
Sc
cipien
▁Proven
▁corrections
assembler
cru
▁prompt
▁sp
▁Xi
▁Rober
▁Tardif
120
125
ANTE
UELLE
rock
emme
▁Linda
▁Morningstar
cinq
première
▁Square
▁adju
caissée
tienne
▁Ménard
lanc
⁄
OÛT
ffectif
▁Alzheimer
▁Harvard
▁MDS
▁Venezuela
▁Wallace
▁Watt
▁souc
No
▁SUN
APR
oya
▁Commentaires
AUT
▁Mount
▁paralys
uma
▁15,6
▁detail
ombre
1,25
ULT
▁DTC
▁criminal
AK
▁médiati
iqu
▁Eli
▁Just
2,40
NF
mart
▁Hui
▁Max
~
▁amorcée
▁BCO
▁uniformit
rieur
Canadien
ood
▁GOLD
▁IMMOBILIER
Champ
▁Élite
national
▁1,28
▁after
annon
▁Rompkey
▁perturbat
COR
▁Croix
▁16,7
▁Hard
▁Matt
▁biographi
LIM
west
▁Nad
▁SOCIAL
▁Operations
▁Retraite
Link
Supremex
▁Gaspésie
▁Walker
ntérieur
▁gold
▁1,29
▁Top
▁fame
▁IAMGOLD
002
▁Harmon
▁SANS
▁électora
▁Hartco
▁obstruction
RV
complice
▁Kamloops
ward
111
communication
tenai
▁Bergeron
▁professionnal
DOC
▁Engineering
▁interactif
section
▁Wall
rica
trier
veillé
▁Mana
▁ski
ote
récupérable
▁14,9
▁Vérificateur
▁Respect
gné
▁DS
Possibilit
▁Oshawa
▁informant
conditionnelle
couvert
distribution
▁Trinité
▁enseign
▁repro
▁Terrain
▁passable
IALE
▁orphelin
IAN
▁PK
onde
▁2031
BG
arry
ppant
▁Lewis
nancière
▁Chemical
▁Kha
▁Railway
hai
▁NETTE
▁orientée
pproche
▁Taxes
▁Intact
▁outillage
burn
bilit
reault
▁Bonne
laine
▁Messi
emande
▁Design
▁Kit
0,77
group
▁redev
5000
▁Garant
▁Secréta
IRES
À
▁Walt
charger
▁1,45
▁Emerging
EXERCICES
▁PROSPECTI
▁esp
Loup
▁ASI
▁Tru
▁Legacy
▁nutrition
▁model
▁Harb
▁Catherine
▁Chap
▁VARIATION
DEM
bat
thanol
▁Plans
▁Year
▁QUATR
▁granted
afou
formateur
▁1,85
▁AVANTAGE
▁15,4
nterprétation
▁Tab
▁prostitution
▁DYNAMI
2,60
▁Assets
▁GDI
▁sédiment
aliban
AFFAIRES
▁contigu
▁More
AU
▁1,34
emblée
invalidit
nciation
▁sociét
▁théâtre
agiss
odeur
▁Blair
▁Modèle
▁Ocean
▁SUI
LAN
RIM
▁Milliken
▁Consultants
▁convergence
▁Pel
▁Skeena
▁investment
familiale
osh
▁consacr
ACHE
DEN
lôture
▁Ball
▁Wong
▁Jonathan
▁multiplic
▁verification
▁ÉVÉNEMENT
normal
WEST
▁Cliff
▁alternative
500
JUST
▁15,3
▁KL
PN
▁Education
▁orienté
pureté
▁Daimler
▁disséminé
HAN
ndre
▁15,1
▁April
▁Procur
▁Victor
onner
servir
ÉRIEUR
éreux
▁Chartwell
▁bill
titre
AIT
▁Coquitlam
Lab
▁SOCI
▁15,7
▁CERTIFICAT
▁tranquill
.23
.26
inqu
▁DISTRIBUTION
▁before
▁concomitant
aku
rate
▁15,8
▁inhibit
▁pain
▁Gil
▁Taiwan
▁COMPLÉMENTAIRES
▁Residential
▁mental
aventure
herty
matur
▁Horizon
▁alternatives
▁mobili
CV
▁COMPAR
assureur
QUI
▁Google
▁Héroux
FÉREN
▁Atkins
▁RELATI
▁Sarnia
▁disque
▁webina
▁MT
▁Pur
finition
lix
▁protect
ramas
triche
▁Mobi
▁Signal
MH
OO
jab
▁Sound
eck
ionnelle
▁Family
▁Cameron
▁Maine
▁ramp
Devtek
gran
▁Lethbridge
▁Regional
chand
puce
▁DR
▁SF
foli
▁liquidit
DEL
Pay
etti
num
▁BP
▁Cory
▁ABC
▁enrichissement
entreprise
▁Usine
▁XXX
MU
assemblé
copi
▁15,9
▁Beaufor
▁conduits
endance
sastr
VIER
WLRQ
▁tena
▁Ted
▁commencement
ameco
technologies
terminera
riété
étées
▁GOUVERNEMENT
LH
llah
lett
▁1,31
▁accro
mée
2,70
défini
▁Cross
▁LM
▁Etat
▁Blaikie
▁available
▁Cold
9,99
▁humili
génique
▁1,27
▁CAT
▁Institutions
▁Kilg
▁Michigan
▁NR
▁Tan
▁Témiscouata
▁poulet
vigne
▁PAY
▁cyn
▁édu
ussé
▁Kow
gressive
▁Impact
-00
▁Ami
▁CGA
▁Pty
▁provided
▁normalis
▁Digital
▁archive
DEC
▁1,12
▁colomb
KA
fonte
▁Forrestall
▁Grill
▁These
▁RTA
▁1,60
▁Comparative
▁between
▁Minière
▁Laboratoire
épendance
▁animat
▁neuro
▁Nettoye
▁angulaire
▁extraire
▁Turner
ATE
▁Indian
wick
capital
installation
ÊT
▁ASA
▁English
▁TRI
▁compagn
▁abrite
dina
AMI
▁Cris
▁During
▁Mobilité
▁Press
▁Fortis
▁ONTARIO
canadien
▁Bern
▁récréati
▁traf
▁Century
faisabilit
▁Mondial
▁NOVEMB
▁LIMITÉ
▁Senior
▁Short
ista
▁BV
▁Blake
Chem
DWLRQ
pêch
réglementation
▁ASSOCIÉ
OX
iva
▁Bulletin
▁Simpson
DT
aka
niable
▁BPI
Audience
Bay
petrole
▁3856
▁Esquimalt
▁Inco
▁différenc
rogative
▁upon
▁Dispense
▁Juan
BB
▁Licence
▁consequent
▁cosm
▁SSP
▁Yorkton
croya
gouv
ridge
▁transfrontali
Plett
ahn
gentil
▁Arch
0,76
▁Européen
▁Fred
.09
▁w
DON
Mégantic
▁Lalonde
106
▁ECT
▁Return
pagnol
▁Morrison
▁Ore
▁Questionnaire
0,48
médicament
▁Télébec
▁bicycl
-79
▁Housing
▁Teneur
0,42
public
▁Stornoway
▁Beck
▁Gér
Rapport
TG
bois
▁Conference
▁SUPPLÉMENTAIRE
▁architecte
omptoir
▁1,65
▁Hél
▁months
▁Confli
stock
9,75
egal
▁EXTRAORDINAIRE
3,15
▁Clause
▁dédui
Jones
désir
▁BNP
misse
▁Open
▁distinctive
OLI
exécuti
localisé
rationnelle
▁NATURE
▁strategie
quill
-201
lock
▁Notation
▁amass
lberg
▁encadr
Lorsqu
▁15,2
HQW
▁Newton
▁SERVICE
▁based
▁patronal
▁external
TOR
▁CONVENTION
▁Log
▁Whit
agon
ature
0,36
sionné
Îles
▁PJC
ibrek
▁Margaret
.50
▁1,06
▁Carr
atorz
▁Beauce
▁NOS
▁chiffr
▁song
▁Cliqu
▁RDI
▁3.3
yton
▁consider
concili
coulant
▁Beach
▁médic
pyrite
▁22,5
▁minéral
oulign
▁toxico
▁Pension
▁Ven
▁impatien
comb
▁Personnelle
▁Pembroke
▁martiale
▁suppr
351
ega
▁Gur
▁Parkdale
▁VERS
▁2033
source
▁FCPA
▁VÉRIFICATEUR
▁mackenzie
▁1.5
▁Girard
ravie
▁week
AGNIE
Claire
LÉ
▁Provident
▁disciplin
▁mineral
.2.1
org
▁50,00
▁concentrate
▁PAIEMENT
Paul
▁Genworth
▁bilingu
3,20
gulari
▁cisaillement
▁used
▁16,1
▁LL
▁Logistics
▁explosion
▁observ
ifférent
▁Tar
▁pleur
oentreprise
▁studio
▁Split
▁COMMIS
0,39
▁Rwanda
▁nullit
▁reunion
pêcher
TEC
gestion
Di
licit
▁Computer
▁Therapeutics
▁8.1
▁ONE
▁reconduit
▁use
beck
▁Flo
▁Lincoln
▁Normal
Rouge
rème
▁Algoma
▁instantan
▁triple
▁work
bil
outien
▁TRADUCT
bond
ü
▁Stuart
BE
▁McG
▁Mira
▁Nasdaq
▁restaur
otage
▁Duceppe
▁UTILIS
▁viré
▁Magasin
DCC
alta
igi
ring
▁photograph
▁appendice
▁multic
marque
▁annul
▁clan
NOV
incaille
▁COUR
▁Lise
VH
geons
▁Bert
▁Ever
▁numér
Bagot
gislation
Î
▁Wang
fondateur
mic
▁FINANCIAL
cast
major
▁OCTOB
▁sembla
0,43
AOÛT
403
▁PRIVIL
▁commut
▁reli
BER
▁Nunavik
UX
▁Dec
▁cpacanada
tachement
▁0,33
▁Boul
▁Manifest
▁collégial
▁incomplet
▁McKi
▁Ritchie
▁concass
.30
sacré
▁Mali
Comm
dom
généré
link
▁CONFORM
▁February
James
formation
reparti
▁Sierra
.7
▁Allegro
▁Case
▁Gateway
▁McMurray
Mont
▁Intel
▁feuillet
0,41
102
COMMAND
Inc
tyl
▁Minera
tek
▁BELLU
▁Employé
▁Hearing
▁Enerplus
▁1.4
chère
▁FACT
▁Rich
▁emis
embou
path
▁APEC
▁Contact
▁Rest
▁Simard
▁diversifie
Chrysler
ohn
▁61-101
▁Quantum
13597
2.2
François
VERTU
▁16,9
▁McCarthy
▁géochimique
▁reserves
PLM
▁Durham
▁Mul
▁corrélative
▁internal
▁stratag
occupation
éché
▁Drummond
▁Environmental
▁pyro
▁tortur
JUSTE
vierge
▁Adam
▁Agrium
▁Ak
▁FORMA
▁Yellow
VU
▁Energie
▁Francophonie
▁Restaurant
▁accuser
FFI
▁1934
▁Ye
RET
▁Nan
▁GS
▁Iraq
▁Surveillance
▁TQM
▁Macquarie
▁Telbe
▁edit
haï
▁MONTAN
▁Unit
▁strategi
▁végéta
▁Nisg
▁charit
▁Cassel
▁effracti
▁intermedi
▁1964
▁Congo
vancé
▁clandestine
OLD
reign
▁AMF
▁Fredericton
▁INVESTMENT
▁MÉTHODE
▁traversier
▁Éduc
▁ALL
▁Copie
▁Automotive
▁Fitch
▁prolif
IGN
▁18,5
▁GmbH
▁Sommet
▁decision
▁pât
Bruno
culturel
▁ASS
▁Transmission
▁losses
▁three
▁Appli
▁suc
2,80
zza
▁déform
▁1⁄
▁Treasury
.24
emmen
▁Macdonald
boit
iège
▁Iacob
GX
hand
▁16,4
0,52
0,97
pie
déc
hib
▁affiliation
OLE
▁Preston
CSF
alienne
chimique
nerie
▁Rôle
UNE
brasserie
chantillon
▁percée
capitalisation
linéa
pine
▁Nihon
▁Operating
▁Souris
▁Telephone
Net
gorge
▁Finland
▁Tenu
▁grippe
4.2
miel
▁banqu
IÈRE
Am
NR
SMO
rythr
▁Harvey
UIT
nui
▁Bev
hode
▁Pointe
erek
▁Kenne
▁Publi
▁Wireless
▁chimi
0,34
▁INTENTION
▁exercise
ritable
▁RÉFUGIÉ
▁intéress
NNÉE
filtr
titu
4,40
anche
▁Coalition
▁Hancock
▁IAASB
▁exhort
▁FIXE
▁instruct
ficient
imp
▁Brent
5,20
▁DFA
▁complét
▁contrast
▁vigilant
aractère
aïb
▁LeBlanc
dicat
kh
▁Pure
▁RAFI
▁équival
lect
▁OBJECTIF
▁Kennedy
▁simplification
nita
▁Fortin
▁Geoff
▁syri
voca
▁Moi
▁FÉDÉRA
▁Kenny
▁vest
-2005
Non
▁AUGMENT
▁Coal
▁Depot
estim
▁AUD
▁spectacula
BP
▁Fairba
▁pétro
▁Barrie
▁Pelletier
0,37
▁reconducti
.28
▁VAR
MED
▁DESJARDINS
▁Win
▁toilette
rna
▁Leroux
▁innocence
▁pape
Idem
KI
aro
▁25,0
▁Cochrane
2,30
vasive
ordi
▁Attorney
▁kilogramme
EMA
ILI
ory
page
vendra
▁Metal
0,96
ANS
▁Berg
BAN
essie
tablir
oyer
Chin
îner
▁CDN
▁rights
▁appro
scind
▁Cardinal
▁Cordy
▁Desmarais
▁cobalt
▁Arca
▁GLV
▁October
oda
rah
▁Lapointe
▁Vir
▁vertica
▁Hôtel
▁Transcona
¡
▁Pattern
▁DB
andis
ever
performance
▁Dumont
▁Municipalité
atixis
clu
renfermant
▁Anna
▁Trop
ondération
upermarché
▁pardon
3.2
flu
iden
▁50,0
▁stages
▁ferm
▁16,3
▁CPC
▁PU
▁Patricia
▁Up
ENNE
OK
unette
▁Equi
▁Import
▁Modern
AH
▁CHF
▁Chicoutimi
▁rayonnement
aver
▁Hochelaga
Basques
▁Station
▁VaR
▁stimulation
▁Ralph
FPI
nay
udes
▁CPG
pourv
▁Uranium
▁défen
enouvellement
▁dispute
▁popularit
work
Ô
0,78
combinant
▁Tobacco
NB
PROBATION
not
rame
▁bombard
▁empo
▁CVP
▁activities
▁saura
▁Énergi
amér
▁2040
▁RÉPARTI
▁SAS
▁Doug
▁Lambert
ISÉ
uteau
Fund
pliqué
▁BMG
▁NOTRE
▁Shop
SIGNÉ
▁Gui
▁antenn
▁pharmaco
Fi
▁Cambod
▁Wealth
▁Ingénie
0,46
▁Executive
▁branch
▁material
▁21,5
▁Legault
heim
ortho
▁clarification
flex
▁Ambatov
▁Houtte
brations
IDENT
fac
▁Hedged
▁peso
Logic
▁Annuel
REN
chuk
fricaine
satisfaisant
▁configuration
▁excè
▁16,6
▁loan
talon
yan
▁Box
▁XI
▁déducti
application
ignée
épine
ATÉ
sale
▁Volatilit
▁tourist
PENDANT
ÉCU
▁held
FAVOR
▁bij
▁passive
6,000
nam
pur
▁FERC
-2020
0,44
anchi
▁Registre
▁transpa
▁dépanneur
▁fluctu
OCT
▁But
▁polyvalent
▁Hope
▁affil
▁importer
▁mê
équence
▁Change
▁Marret
▁Petit
▁Zn
UTION
▁16,8
▁Fernand
▁Lassonde
▁arrondissement
stream
tenant
▁Trading
clos
rationnel
107
urateur
abine
ucier
▁POUVOIR
▁RÉSERV
▁Suzanne
▁ascens
▁télécom
108
2,90
▁Hotels
5,000
▁mut
▁Beijing
▁Field
▁Trinity
ACHAT
bull
mmédiate
ouch
▁Abbotsford
énon
▁Joliette
▁PwC
FN
▁Materials
▁Suppos
row
touff
▁rent
▁volatile
hua
▁17,0
▁CRJ
▁Ref
▁Sopink
▁retrac
type
▁through
▁EnCana
JO
▁Marjor
▁Yan
▁batterie
▁dispenser
▁reliqua
▁fri
▁myth
VOL
▁Houston
▁Laurentides
▁tapi
▁FINAL
▁trembl
▁Gerry
▁Inform
▁Warnex
8-001
▁Réalisation
▁deriv
isga
▁Diversification
400
ECT
▁Barr
▁Massachusetts
LIN
▁Aeroplan
▁Argent
▁métro
▁Dai
▁Directors
▁antiterroris
uage
▁réadap
0,72
vraisembla
▁Reporting
onia
▁Candidat
▁Passage
▁Rab
financial
lectrique
▁enzym
▁except
OTV
TRAIT
wich
▁continuation
rowfoot
▁Dur
▁alberta
▁assertion
DER
▁rigid
NEMENT
3,30
BH
▁Annual
asso
atch
▁Compton
▁FAC
helan
nkai
▁BHP
▁Zeller
▁Loub
▁Munson
▁hypocris
▁objectives
rm
▁17,4
▁APPLICATION
▁Gloss
Fon
erman
quez
▁Cott
▁mu
arney
▁Santa
▁Logiciel
▁Logistec
▁alcoolisé
▁comparabilit
invest
ultimédia
▁DÉBENTURE
▁two
▁Corus
▁MER
0,56
chu
2,85
▁décapage
▁using
411
trans
▁Shanghai
ficiaire
numéraire
pied
▁Axworthy
▁multiplier
4,65
▁Terminal
▁comportai
▁Lisa
▁prévisionnelle
0,62
0.0
REE
▁poign
éminaire
▁interview
▁sourd
▁Vermont
0,51
vice
▁Brock
▁structural
fact
fler
▁Consent
Bulkley
ouronne
▁Holland
▁bact
▁Abro
▁relu
▁Benoît
▁Oakville
▁Shar
cat
▁YPG
▁urban
uve
▁patri
▁July
▁hauss
▁retir
▁Cho
abo
▁Charlie
développement
reststreet
▁17,8
▁Complex
▁advers
▁only
goslav
owski
pertoire
▁Epp
▁REPORT
▁fleur
▁Marquest
▁incontestable
▁Peak
▁differ
CPA
0,49
ARGE
CRT
▁2034
▁BPO
▁Stingray
▁rede
SCEP
affectation
▁End
▁Hager
▁volaille
▁Casa
▁HYPOTH
VX
ansard
nium
▁COLLECTI
▁Continue
▁FOURNI
▁Sask
▁XL
▁décompt
▁tempore
GHV
109
ussi
▁imagin
▁Marleau
▁Moose
▁bapt
-006
▁CONSOLID
▁Interest
▁REMP
▁Sinclair
long
▁Wheaton
4,70
pendage
▁Nobel
▁traje
▁Nash
▁Cell
▁Cowichan
▁MINIST
▁dentiste
▁monét
BIT
stern
▁1,08
▁Exp
.25
4,000
centralis
▁CBL
Royal
espérance
▁Péri
▁effect
▁Bernier
▁Costa
DY
ORDONN
▁Trinidad
▁débutera
▁Downe
▁Via
▁pomp
faction
▁Kinder
▁NEX
2,65
▁GOUVERN
▁follows
bella
▁2.5
▁Fitz
▁Tricon
Conten
iak
▁1950
▁Beauport
▁irrit
planche
▁CCC
▁extracôtière
ESPÈ
Port
ossette
▁when
▁Colorado
UHV
▁Lim
▁confiscation
▁investigation
0,88
réact
35,00
▁Diversified
HC
placement
acre
▁récolt
ctor
enfre
▁applicabilit
berger
▁1,07
.29
Âge
▁Réglementation
▁agglom
2-3
tabag
▁Donner
▁Découverte
▁rub
▁Director
0,73
▁gloss
▁Coors
▁rencontr
FICI
▁shareholders
▁5,37
▁62.9
▁Carbon
▁Junex
▁Mun
▁borne
▁combustion
▁DOCUMENTS
▁Leadership
▁Rex
▁NATIONAL
▁cinquante
4,50
▁Presse
▁masque
▁nécessitera
Divulgation
Effet
▁SCT
horn
▁17,3
▁subdivision
igh
▁MMT
▁courts
atio
▁Alaska
▁Dal
▁Rive
▁préventif
▁Butt
▁regi
▁CW
core
eign
▁Cyr
▁Bioniche
▁included
0,66
BLE
▁Cadillac
4,60
nVest
▁Reserve
▁racist
▁bureaucrat
▁DÉPÔT
▁Marathon
▁joi
▁orthop
ÉMENT
▁Raza
▁increase
amendement
▁CONDITION
▁Légende
▁Mauri
▁SG
0,67
▁Ext
▁Laurin
0,47
5,70
science
▁Courtier
▁Noveko
▁bascule
▁17,2
▁Francisco
▁Nicole
▁Peterson
▁determine
▁earnings
▁interactive
▁Kirby
▁Lyon
▁arpent
▁consorti
▁reformul
▁valu
Edge
OSÉ
oyen
▁GBC
▁Warren
5,60
envest
▁Respons
Sep
pliant
▁Fellow
iga
▁bru
▁raf
▁17,6
▁Buck
▁compared
Guy
▁MCAP
▁Merck
▁cohort
0,58
▁NEUF
▁SEI
▁Shu
▁TECSYS
▁16,2
▁honoraire
.27
lectronique
voyant
▁humble
▁iA
▁Cullen
▁Félici
devance
▁hypo
couloir
initi
▁offices
▁Old
▁dictat
ertori
fill
▁financing
▁Julie
▁MMP
▁Mol
▁Pershimco
▁Papineau
▁Shepell
▁resolution
▁1,13
▁Activit
▁Proulx
▁1961
▁Landry
▁SPDR
PART
▁Acceptation
▁context
▁cert
▁falsifi
▁prob
▁répertori
▁Meredith
▁NW
▁promet
4,20
assuré
▁Delhi
▁debt
.31
.40
kpi
▁Patterson
▁analys
▁match
▁patien
cimet
gir
▁amounts
▁inspiration
0,54
évé
▁Lamoure
▁Sylvain
▁development
mot
▁Chu
▁chevauch
▁Fuca
▁Multiplier
▁Safety
▁cabin
▁equilibr
ccabl
▁PBI
Medicago
▁Discovery
PARA
band
▁impun
▁Fax
▁Walmart
▁within
▁egr
▁expérimental
0,53
microbi
vascula
▁Analyst
▁Goodwill
▁Mitec
▁usuel
Orléans
▁métallurgi
▁recorded
Registr
opter
vivo
criminalis
rbc
4,95
exploré
iq
▁IBM
▁Level
ingsway
▁dictionnaire
25,00
rib
▁Eng
▁Mahoney
▁carbonate
▁composa
▁iron
enberg
ivale
Beaupré
▁Pennsylva
▁escort
dentaire
▁1,16
▁Gilbert
▁Kamouraska
▁litig
▁Compos
▁Discipline
▁HCR
▁PURPOSE
Maurice
limination
▁November
▁Photo
▁basis
▁sales
Tel
UW
▁HAU
▁Distinction
▁Timber
4,10
TIF
▁Colin
▁Convertible
▁Harry
gag
▁OPR
▁BRP
▁NEI
1-4
GV
▁Andy
▁Book
▁Copps
3,50
idants
vell
▁0,38
▁26,0
▁Casey
▁Joyce
▁horre
▁secréta
▁18,0
Wearhouse
▁Doré
▁Savanna
responsabilité
▁1,55
▁Michelle
▁Restructur
▁Sector
approuvé
atta
▁CLIENT
▁ESL
▁OCC
▁causalit
▁fees
5,80
Form
ario
opté
▁Veill
▁récepteur
llégia
Star
rapper
▁Monique
▁indivis
3.3
SÉLECT
éma
▁Has
catégorie
▁Arctic
2-001
▁FÉV
dimension
gram
▁include
WI
▁Barb
▁Industriel
▁determin
▁who
0,68
▁Economic
VES
▁ACTIVITÉ
▁Mongoli
▁similitude
0,57
POND
UILLET
▁Boudreau
▁Location
▁sacrifice
▁SIGN
▁salari
Explo
▁18,9
▁deferred
▁Dream
▁Mass
▁McKay
PW
▁IMP
▁candidate
-391
0,75
hat
hic
▁Cab
égociation
▁Dome
▁brèche
apais
bien
▁Palmer
▁spiritu
IVR
▁SENSIO
▁Sault
▁noble
▁restitution
▁19,9
▁30,0
▁DISCR
▁Workers
Ch
feu
grade
▁Ker
▁Neo
▁portable
▁DAVID
▁Dyna
▁Antille
▁Citadel
▁McCa
▁ALS
▁Horne
▁2032
▁Orbite
OCIATION
▁Christine
▁consul
roupi
▁Dollars
▁payment
ENIR
oudri
▁9.1
▁Jennifer
▁Product
▁Buy
▁Tran
▁fortune
FORM
▁17,7
▁Criminal
▁incarn
pid
ular
▁CCD
▁SIC
▁381-0
▁FINANCE
▁Heritage
▁Tactic
▁participative
compens
▁1,70
▁brique
≥
▁CHOI
▁QCC
▁dramatique
MPL
TABLES
ugh
▁Beaver
▁Mineral
IÈRES
▁Currency
▁Wu
0,84
▁digital
OIS
verti
▁BIO
▁Vic
4,80
hang
hâti
▁1500
372
Strathcona
ussière
BEC
▁Add
▁meaning
ubi
▁1,24
▁experience
HON
TABL
▁Cli
▁Dale
▁Matamec
▁Obama
▁should
-2004
GG
▁1963
▁atrocit
OA
pir
taqu
▁SFR
▁finaliser
On
▁Machine
▁assidu
▁hostile
▁litho
▁Pictou
▁Review
▁loans
NELS
cisive
▁1,09
▁CII
▁PPP
▁Rad
3,40
DAS
stituant
▁1,95
▁Midstream
▁NAS
▁délictuel
▁MANAGEMENT
▁MRC
▁1582
▁18,4
▁CVTech
▁Debora
ducteur
▁19,5
indready
world
▁Jun
▁Mobilier
▁entity
▁those
▁1,37
▁Chambly
▁without
aTS
alien
rault
▁Sir
gri
▁1-866-
▁BFI
▁negociation
3,10
▁FGL
▁God
▁Sylvi
▁flou
▁Électrici
monies
▁Correspond
▁1,26
▁Reform
▁cod
post
▁embarcation
▁Lock
3,95
jeuner
▁INTERNATIONALE
▁SST
▁successif
lli
▁Nexen
REP
million
ride
▁Shah
▁Journa
▁Sara
▁Retirement
▁frontal
AGES
BRI
MONT
RÉAL
rust
▁Anti
▁Manager
0,94
current
asserie
autorisé
contractant
▁Nick
▁absorb
PUBLIQUE
iev
souri
▁Exxon
▁hind
key
▁Petti
▁junior
▁territorial
RHC
▁Barnes
▁Equipment
▁MP
feld
▁patin
umi
▁Fleet
▁Joy
▁Lithium
▁discern
0,69
Maisonneuve
Vi
ovic
▁See
▁petrol
▁Irwin
6,40
inématographique
▁Roo
▁Special
▁Thor
▁we
plication
▁ATL
CSC
ÉO
▁Kell
▁6.2
▁7.2
▁Balance
personnel
▁POSTÉRIEUR
▁Portage
neuf
struct
▁Cariboo
▁Swap
▁catalyseur
QR
▁private
▁vocal
0,59
ticorp
térin
▁christian
▁Vaughan
gérant
nua
▁CAP
▁graphite
▁vendetta
▁QB
▁2019-07-0
onic
▁Arianne
ally
umier
▁OBJE
4,30
▁Chieu
▁Nguyen
▁abstention
AMEN
otyp
▁1,90
▁Arts
▁confection
Cola
impliquent
▁Kam
▁Maheu
▁RIA
▁Arrangements
OHV
ORE
cleod
▁1,14
▁17,1
▁European
▁Live
5,40
AIN
Middlesex
WE
▁BONS
▁FRE
▁Simplicit
▁propagation
juin
▁AUTRE
▁conjecture
MSI
elon
▁ETR
▁Midwest
▁deduction
quivalent
▁COMMENT
▁CTV
▁Rosemont
▁Sales
▁Deere
▁JP
▁GÉNÉRAL
▁Poirier
▁Regard
▁Semiconductor
▁Twitter
0,92
Eagle
fluor
▁reel
▁Harold
▁expropri
▁BEN
▁Women
5,10
aillants
▁MX
▁Orbit
▁Irish
Solactive
Up
▁NUM
▁Harrison
▁acquiesc
▁volumi
▁Détenu
▁Travel
▁felsique
▁patern
prennent
▁INCIDEN
▁SMART
▁multiculturalis
▁Solar
▁coerci
▁forth
▁Essex
▁SGS
▁fortun
usinage
▁CIT
▁Identifie
▁embarrass
nostic
▁Transportation
▁affleurement
▁étanch
udra
▁EPA
▁Irving
0,79
ancière
▁Access
▁Gaspé
▁englob
▁Hervieux
▁Wendy
▁up
▁Tree
▁rainure
3,80
4-001
▁justificative
▁program
mbrilia
molybd
méliorer
▁provocation
allum
mmer
▁Finning
▁Social
▁veto
3-001
bris
▁Bain
▁DHC
▁Hotel
▁Jonquière
▁localisée
.33
Mar
run
▁1,36
▁ASSU
▁incl
▁intermédi
▁sodium
centré
ello
▁presentation
0,87
▁21,0
▁4.4
▁Barn
▁RNC
▁liquidat
▁CHANGE
▁Text
▁Tier
▁kilo
▁Brun
▁MTS
▁hymn
▁MAIN
6,25
atitude
feuille
guard
éronautique
▁Harcourt
▁Vin
▁had
oom
sud
▁Demers
▁Fisher
▁your
ouane
▁1,11
▁17,9
▁APPORT
José
amendée
▁Breit
▁Spécial
▁Teamster
▁Zimbabwe
▁curriculum
▁meeting
laborer
çage
▁18,7
▁Lavoie
▁path
0,82
▁Civil
▁Nicholas
▁Shin
▁prion
▁BAI
EnerVest
▁EMPLOI
ASE
▁Frontenac
▁Mega
ennit
fertil
gatoire
Dépôt
Worldwide
conducteur
enko
▁Manac
▁Tunisie
▁libell
primand
▁Kang
▁coloni
▁parental
nçai
▁3870
▁Precision
▁Sanction
An
Antigonish
SV
colonel
▁1951
▁universalit
étrang
▁Angel
▁Sprint
▁Statement
▁exacer
▁Comit
▁Visit
▁Waterhouse
▁intersect
▁islam
install
▁Invest
▁Adopt
▁Floor
▁expected
362
▁21,4
▁McWatters
▁itinéra
Myers
mpresse
▁18,1
▁21,7
▁Gérard
▁Binni
▁Nippon
uéri
▁Equinox
alogique
oignée
▁ADS
examiné
▁3.4
▁Pfd
▁Sackville
▁intercala
4,35
▁19,0
▁Constru
▁FRV
▁PRESSE
▁Perth
▁Swan
▁Yo
tray
▁Angeles
▁Rate
▁1,38
▁SECTORIELLE
▁2,35
RH
wer
▁Nicola
zen
▁1100
▁INDUSTRIES
▁TIW
▁Perron
▁Savaria
0,64
ITY
▁equivalents
URS
▁Collective
▁Relation
VG
mai
▁Souvenir
.35
6.2
oyau
▁11.1
▁Corbin
▁Deep
▁Innova
▁Chavez
▁Famille
▁there
▁18,6
auvr
▁maxima
▁respiratoire
▁19,7
▁Prior
▁Vêtement
▁clarifi
oisie
0.1
▁19,3
▁Goodal
▁Institution
▁Pickering
▁privatis
▁syst
▁ADM
▁Articles
▁Gran
▁AMC
▁MARCH
▁TOTALE
▁26,9
▁GLJ
▁granul
▁Westcoast
▁fracture
NET
▁Meridian
▁incorporation
traumati
▁1,17
▁21,8
▁Eco
▁additional
power
▁Particip
▁Way
ahi
moindr
oncologi
▁Guinée
9.4
GER
tors
▁500,00
▁CUSIP
▁Hull
▁réparat
Modification
avillon
pec
▁HEURE
▁Hum
Refus
izona
▁18,8
▁Hussein
▁OEM
▁Program
▁Rocky
▁disposai
▁tramadol
-06-202
Fonds
trust
▁ESTATE
▁PWF
▁WestJet
▁pirat
tina
▁chau
hétique
léonore
▁Willis
CIALE
mplacement
Ë
▁CLASS
▁Titan
appa
▁FAM
▁Highland
AMA
ccroisse
condition
flation
▁PPC
▁récept
▁Collen
▁clon
WL
pharma
▁26,5
▁fatal
viable
▁well
Charles
onstatation
▁BAM
▁Julian
Disposition
▁Deschamps
▁Trump
▁complication
0,61
0,93
▁Bako
▁Chirwa
▁impuls
▁taxable
Telus
▁Navig
▁possibilit
gard
▁Chief
▁Grupo
▁Little
▁jaune
testée
▁Burkina
▁MK
ARY
SEN
TAIL
▁hypothéqu
gime
venai
▁21,3
Mille
▁2045
▁81-106
▁Berthier
▁Magazine
▁EMPLOY
101
client
nué
▁Broadridge
▁Tang
▁hydr
▁relate
▁revitali
ism
▁PREMI
▁Yvan
▁dated
reclassification
▁Oracle
▁chat
-200
.1.2
CCT
▁Ivan
▁Offer
▁biomass
▁verifi
0,81
▁activation
▁provide
4,85
lga
onnell
thy
▁mamm
DIQUE
FU
Léonard
▁18,3
orbeau
▁1,22
▁Agency
▁Cumberland
3,70
▁5.3
▁BCT
impar
▁Advisory
▁Ameri
▁Ferguson
▁PROFESSION
▁hypothec
▁Arb
ATEUR
NRC
Wire
démarr
▁2047
▁COMMISSION
▁Watch
▁ANTICIP
▁Boivin
▁Partner
favoris
▁Bellemar
▁fat
▁inadmissibilit
▁simpli
haudière
▁XII
▁Job
▁ancestral
▁AUTORIS
▁structur
▁PRODUCTION
▁Sondage
▁confo
▁homosexual
▁recru
▁purification
▁IBEX
▁pè
3,35
Can
WR
▁Meeting
▁Sav
▁revers
INA
hir
▁floris
▁transfer
13595
▁Guay
▁order
▁Axiom
▁Indicateur
Michel
onnette
▁1,18
PSC
therm
▁Lachine
▁Title
érieuse
▁20,5
▁motor
13596
▁3863
▁Doyle
▁PRE
▁terminologie
6,10
▁respir
▁Hugess
▁Ordinaire
▁VAC
▁ambition
cadémi
cedent
▁Branch
▁LeBel
RX
ffe
▁Bab
▁Donnell
▁must
▁Resorts
▁Under
▁crypto
▁analogie
FTC
▁Chose
▁average
▁iniquit
life
▁1957
▁IRC
▁consideration
kio
ogi
▁2,05
▁Africa
▁Generation
▁Walter
▁otherwise
Mitsubishi
▁Conv
▁Earl
▁HM
▁Leaders
▁issuance
Montcalm
0,83
▁21,1
▁Airport
aki
aplan
▁CUMUL
▁Pap
▁moléculaire
▁pédagogique
wen
▁Pipe
▁excavation
▁Fortune
▁JOHN
▁Lebel
▁Virgini
▁fidéicommis
CORE
▁Jamie
▁exo
▁philanthropi
RBH
ociété
pensa
▁Addition
▁Cameroun
▁PLA
asco
ouvez
▁Initiat
▁McKe
▁Zhang
▁19,4
▁22,0
▁Georgia
▁Lambton
▁McLellan
9.8
manuelle
petit
▁LTE
0-001
▁Matoush
▁Maxim
▁nuance
wo
▁1.8
▁Masse
▁Terrebonne
▁synonym
▁cadence
▁fed
Dev
courci
▁3064
▁Faso
▁clarifie
etabl
isponibilité
parable
▁Advanced
▁Continental
▁Guatemala
▁Kir
▁funds
▁rallie
icton
illy
risque
▁1962
▁CCI
▁Marchand
▁musical
▁prospect
HPHQW
▁flamb
ema
▁Cerro
▁Of
▁Opportunities
▁Vim
0,86
insertion
▁impasse
▁Regulation
▁23,5
▁Davenport
▁Foster
lotte
▁Citibank
▁Dam
▁METRO
▁Topic
▁abattoir
▁asset
▁fantasti
0,89
ORD
▁Cypress
▁Sean
▁Thalli
america
État
▁CONVERTIBLE
▁Colombo
MET
▁Identification
▁stagn
OUTE
Or
onglomérat
▁Porter
Cartier
▁MHz
▁Sarah
▁perfectionn
-402
trésori
▁21,9
▁paper
0,91
CN
EUILLE
ogen
uga
▁Kirk
▁robin
▁CORPOR
▁confus
hèse
évrier
▁21,6
▁Cad
▁Dunsmuir
▁charpente
Antoine
▁BPY
▁Conception
▁Falco
▁LIFE
▁Maz
.32
artland
▁usiné
5-001
asp
ietnam
▁Small
▁Toyota
Renseignement
sentiment
▁Chevron
▁There
contamin
nge
▁Blais
▁Chibougamau
▁PWX
▁BAR
▁COMMANDITE
▁Children
▁DC
▁Dakota
▁Down
▁Shopping
▁Tokyo
▁habil
5,30
PONSE
ditorial
▁Charest
▁Subsidia
▁efforc
▁realisation
▁similar
HEN
Through
▁Pu
▁Urban
▁ancestra
▁Was
▁colle
gna
limit
▁Bravo
▁Fuel
▁eli
IVES
PDE
putation
▁Telecommunicati
Pack
▁1,80
loche
▁Ruth
Colombie
terrain
▁Baa
▁Guild
▁conséque
▁DEQ
▁Discussion
▁Honda
▁PARTICUL
▁Ave
▁pool
Blanche
mina
▁Exportation
▁Fortier
▁résult
▁Fluctuation
5,15
graf
xlsx
ographi
▁ABSTEN
▁Gregor
▁Storm
3,65
4,90
▁Hai
▁Jon
▁Leblanc
▁TRAVAIL
bust
▁Cineplex
▁massacre
▁received
▁NPR
▁Sel
vendeur
▁37,5
▁FAS
▁continued
▁subti
NSCRIPTION
▁Lessard
▁draconi
▁renferm
▁repo
▁Waste
▁ppm
grè
éjà
▁expense
▁servitude
collin
▁Classification
▁royauté
JOINT
▁12.1
▁GW
▁Ultra
giciel
journement
2-4
6-001
shaw
tronics
INTE
OAA
Solution
oopération
▁Aero
▁Brossard
16,00
tom
▁5,000
▁FILIA
▁GPS
▁Spin
▁Blanc
▁EAFE
▁Génér
▁Janvier
▁MONTREAL
▁Neuro
▁Vital
0,71
▁mitig
▁Fel
▁carott
▁located
parlementaire
▁inadvert
▁object
Chaudière
pay
rewal
▁CCN
▁Dhaliwal
▁Quadra
ECI
ike
▁Shareholder
▁interface
clair
▁Bolduc
AER
▁Plamondon
▁trienn
▁silenc
admi
ank
▁Bud
▁they
ABILITÉ
▁FX
▁Samuel
▁consolidated
▁stratigraph
▁23,0
▁IPL
Exception
cum
▁Jul
8,000
VOLUTION
oga
▁Franche
▁Lucie
OTRE
jar
▁AFFAIRE
.38
emption
rospectif
▁2046
ECG
morph
reuz
▁PERSONNEL
▁Partenaire
addam
▁contempora
dium
igny
▁CONSENT
Paiement
RIVÉ
▁19,1
-102
5,90
nze
▁familiarise
.3.1
▁20,1
▁Affidavit
iam
▁19,6
▁Liu
▁Renaud
▁multiplication
NZ
camara
▁APPRO
▁Charlesbourg
▁electric
▁extracôti
▁range
.34
3,55
▁calci
▁incurred
structure
▁Ahmed
▁Sportscene
loo
▁MODE
▁RÉGION
▁SpA
▁certi
▁Bachand
▁Shan
▁Velan
NTIE
abad
simil
▁Disc
▁EFT
▁supposition
VP
osco
▁QUEBEC
▁testamentaire
approché
dividend
▁Contre
▁Davie
▁current
▁hypotheses
▁items
phonique
▁Breton
nigr
Ê
▁18.1
▁19,2
▁verificateur
▁requirements
morbidit
▁18,2
▁Texte
▁appoint
▁réorganis
arge
▁Mot
6,20
TÉRI
ntitulé
▁transgen
4,15
Soft
▁2,15
▁Zi
based
▁Info
▁Osl
▁perform
3,90
connect
▁2,10
▁Nemask
▁25,5
▁EGRIFTA
▁TRANSPORT
bia
▁1,48
▁paradox
▁Marmani
▁palli
back
▁CHARG
▁Glengarry
▁Rome
▁complete
fiance
▁20,4
▁contraction
ador
oxy
ÉP
▁Michelin
▁enrich
29,3
PER
▁Aqua
▁INDEX
▁Ouellet
▁Radisson
intoxication
lina
Décision
GWL
transfrontalière
Plus
XQ
gul
▁19,8
▁Cape
▁Fish
iro
▁NOUS
▁Renfrew
▁Rica
▁Robin
▁Serv
FLEX
Tobag
epos
ghan
hart
▁Warner
▁Éric
LLI
▁CAM
▁Révis
▁hukou
Gobi
▁Sûreté
▁Grade
▁Tai
▁2010-1
▁Armstrong
▁DISTRIBUTIONS
▁Face
▁2050
▁AX
▁DÉBUT
▁Lieu
▁Rég
fract
▁24,5
▁Err
▁SOQUEM
▁resident
▁virtue
▁Sico
SEP
Ultra
▁Purchaser
fford
▁Nurun
▁People
▁ozone
ACL
patrick
▁Employ
▁Gin
▁Raf
▁Staff
▁arrogance
▁interception
lph
▁23,4
▁BISSET
▁name
▁Bédard
▁ravag
dge
▁Nordiq
▁prévisi
▁21,2
▁22,9
▁27,5
▁Jin
▁Kirkland
▁coïnciden
▁varia
auge
ophil
▁PPL
garni
▁Blizzard
6,70
OURSE
▁ConjuChem
▁enter
Tec
anchette
▁DIAGNOS
▁Kab
▁scrutateur
afi
zar
─
▁Ameritrade
▁McLeod
▁CALCUL
▁UNIT
TURE
▁Collectivit
▁Issuer
6,60
▁Kay
▁pathologi
▁remar
-007
▁COMMERCIAL
▁Canso
▁Siemens
lio
participation
▁Prospect
▁Range
▁incur
BERT
UDI
▁22,1
▁Carne
▁Optimum
▁Paradis
▁RÈGLE
▁polaris
▁22,2
▁Cancer
▁HR
▁Rid
▁granit
6,90
rina
▁Fibre
▁Mohamed
▁Pratte
▁canola
ACM
▁Dominic
▁Dunn
▁VÉRIFIÉ
▁ibid
RAM
èvre
▁Div
▁Patel
PRO
▁Emballage
▁Jocelyn
▁recalcul
For
▁reliant
urgeon
▁Archive
▁Bastar
▁Risk
▁colloque
RRO
force
styr
▁Folio
▁INDUSTRIE
▁NAL
▁Nexfor
▁SUIT
ffrir
▁2,20
▁BEP
▁Gamble
▁Tory
▁infant
▁Haye
▁Robe
LIV
▁Bad
▁Bryan
▁Gamm
▁Apr
▁Roctest
▁pav
NEL
perç
▁Dutch
MARK
▁reporting
Life
Wave
émoignage
▁Brothers
▁Choice
▁McCall
▁sulfuri
DUCTION
EUVE
ambo
▁Isabelle
▁Nepean
▁Prolong
▁Rousseau
▁GROUP
▁Reitmans
FOR
châ
raz
terminable
▁Crow
▁Mara
▁Selkirk
▁contrari
▁relief
.2.2
5,95
grew
guli
▁Britann
▁Concordia
▁McN
▁Adelaide
▁NORD
▁longitude
Ontarien
▁Gervais
▁categories
▁1,23
▁1-877-
▁20,3
▁Typho
▁payments
CART
▁exchange
▁obscur
▁retien
▁éligible
▁Clearnet
-377
ORS
chon
▁5.4
▁Exemption
▁IBI
▁MCC
▁Oh
▁dénonciat
▁Pin
▁SEK
▁card
South
▁Citizen
▁Cur
▁Prov
▁counsel
▁immun
▁real
cliff
▁Lucien
▁Orion
▁investments
Cast
▁Barbara
▁Château
▁Duke
▁estampill
ccroîtr
▁Primari
▁Transfer
1-3
bir
▁Legal
▁command
convenant
lévateur
tratégique
▁24,0
▁Frontière
▁attraction
▁music
-1.1
▁20,6
▁KEY
▁Kenney
▁Rayn
Occidental
ship
▁Gate
atale
▁Bolton
▁rura
ery
illard
▁espion
▁mail
▁DIVERS
▁EMPRUNT
▁Solid
2,26
inch
▁Appeal
▁Cloutier
▁INSC
▁ESTIMATION
▁GARDE
▁stupid
▁Fab
▁Lorne
▁PREST
▁Turquoise
TECO
▁CDOR
▁FICL
▁significant
NDIVID
▁Secure
arna
▁venge
4,55
TRANSCANADA
▁14.1
▁Rosa
Burton
5,65
▁22,4
▁Period
▁Tobin
Véhicule
▁24,7
▁Birch
▁Cisco
▁Khad
▁cardiolog
Autre
▁rebaptisé
égénér
-09-30
▁1959
▁Institutional
▁PWT
▁Schmidt
▁improvis
▁procedures
▁subordination
▁2003-1
▁Litigation
▁Minnesota
▁Portion
▁13.1
▁Domaine
▁EnerCare
▁Autoroute
▁Carton
▁Sumitomo
▁Sorens
▁general
▁right
ating
▁6.3
▁Provincial
MPO
jam
▁Pick
▁Sirios
▁dériv
▁1,44
▁20,8
▁Surge
▁certifie
▁Maw
▁Order
.45
HAM
cipitation
pap
▁accounts
YL
roll
▁Gru
▁bordure
vén
WAY
▁Consultation
▁Norampac
▁Poly
Maltais
paiement
▁3861
▁Recon
▁TELE
▁senior
,000.00
arros
▁20,2
▁McDon
▁Pyramis
ôle
▁Lefebvre
▁Karl
▁bizarre
▁20,7
▁Command
▁blog
▁rea
▁POSTE
▁Stelco
▁Tam
Prescott
Regan
bc
▁BLU
▁Déba
▁remblai
Neigette
▁SÉCURIT
iya
▁SCM
▁Situ
EQ
IUM
▁Dupont
▁Tétrault
eserve
panos
éricit
▁1,19
▁completed
largi
ZZ
raîch
▁Newfoundland
▁Vel
▁dilutive
▁22,3
▁Festival
▁Rule
-300
250
Président
▁Guimond
▁cuisin
▁patrimonial
budgétaire
▁2,55
▁Conway
▁SIX
▁migrat
▁CINAR
▁Sign
POINTS
VOY
▁rh
AID
Lloydminster
hiite
▁Dyck
-2021
centre
nell
▁Samsung
.99
Source
▁51-101
▁Pioneer
CLP
VIN
▁Amazon
▁party
▁perplexe
Boucherville
▁Rite
Prorogation
▁LIQUIDITÉ
▁TQS
0.2
ATA
Expert
▁Tool
▁arpenteur
ting
▁10.2
▁AbitibiBowater
hong
▁flows
▁FFR
▁Géant
▁NEW
ALISATION
▁chair
▁locations
▁valuation
▁1,39
▁22,8
▁PERFORMANCE
▁Redressement
▁tuyauterie
▁Pain
▁silice
oja
▁gallon
▁Winner
▁diplomat
▁region
ART
▁1,62
▁2041
▁transigé
HT
▁Por
▁below
▁3062
▁Audet
▁CRÉANC
▁plac
lectromagnétique
▁RÉGLEMENTA
▁Corridor
▁Hugh
▁mezzanine
constitutionnel
entaris
▁Alfred
▁Fry
▁consid
variable
▁Epoch
▁Flex
▁Ratings
▁PTF
▁Toy
Vacanc
rivative
▁1,21
-008
▁STATUT
1010
apped
other
soft
▁AUDIENCE
▁Fontaine
▁Janv
▁mutil
▁ruisseau
tendanc
▁Developments
▁Garden
▁fraîche
obo
tikeman
▁1832
▁Kurd
▁coroner
▁trust
▁2039
▁Compa
▁ENVIRONNEMENT
Claude
▁Devr
▁MGCD
▁SAB
▁Swiss
EES
démocratique
▁Verizon
-130
lom
nczy
▁23,6
▁Estey
▁Fundamental
▁day
▁résorber
remy
▁Gaglia
▁Ohio
▁Vodafone
▁fabriqu
oupl
poule
try
▁1,51
▁INDUSTRIEL
▁Northview
▁Picard
▁Rivard
▁Salle
▁Septembre
▁Serb
ermeture
ubordination
▁Blainville
LONG
▁Gazit
▁Sensibilit
▁affinit
▁pit
rvé
▁Dagenais
▁Zo
▁expériment
olite
▁1,57
▁Amerique
▁ESG
ional
wski
▁Relevé
marche
▁23,3
▁rose
rometic
5,05
TTP
▁reduction
SOLU
ful
▁absten
hun
▁Personnel
6,30
camou
constance
▁campus
▁synchronis
7,20
bloqu
▁Play
▁fatigue
empt
▁Clair
900
travail
▁24,4
▁géotechnique
7,10
PX
▁Each
▁Royalties
▁Coca
▁immunit
▁joy
Op
icthom
laboration
rouver
▁spa
eddy
▁Bail
▁Composite
fondue
ionnier
profitabilité
▁1602
▁counsell
ploy
▁22,6
intéressé
rendement
ustré
▁Brenda
▁Constitu
▁election
116
800
ROCHE
droit
▁Croati
▁HORS
▁additi
▁hormone
OTT
▁Charter
▁Party
pilote
scope
ties
▁Nouvel
▁Roll
articulier
ateriel
▁Cadman
▁Consol
▁Fast
▁infer
▁recognized
-03-202
medic
▁purposes
aft
▁examinateur
▁propag
▁refinanc
▁Hand
▁Rupert
▁Viterra
TIEN
▁Canbra
▁Huron
▁Rapid
▁Bullion
▁CCL
▁Labour
̄
▁Beet
▁Voyage
▁condominium
encier
légu
▁Image
▁Opportunit
hygiéniste
vê
▁Brison
▁Bristol
▁Lot
▁paramilita
▁Sole
▁intact
▁Huntingdon
▁Macki
1.2
year
▁Alexandre
▁Cont
▁PRINCIPAL
▁euthanasi
▁lobby
▁Altu
▁Leslie
▁reconstru
7,000
HK
abel
ciprocit
▁22,7
▁Brand
▁Pétrolière
9.3
projet
romenade
▁ROBERT
▁Statements
MX
▁Bailey
▁obst
▁until
CASE
Golfe
▁Adviser
▁Fanni
▁defined
utton
Æ
▁hydrographi
▁Éta
ganda
▁Marlen
▁intangible
▁sex
Marc
commod
▁Malpeque
▁Placer
Alberni
MTY
ndro
ouverain
-009
▁1,42
▁DÉTENU
▁Offshore
▁antipara
3,07
―
▁Glencore
▁Solomon
▁VÉRIFICATION
▁relating
bio
▁Music
METT
prov
▁Gaming
▁Practices
▁Safeway
300
GROUP
▁Pfizer
▁assassinat
Probe
▁1,46
▁Abstract
▁MARI
JM
erturbation
kwa
▁Chaput
▁Communique
▁ONCA
▁effluent
▁revenues
contour
▁Borden
UNION
▁20,9
▁Gross
▁Kla
▁TerraVest
▁crucia
▁rapproch
day
▁INFRASTRUCTURE
▁Legg
▁Mani
▁PLACE
▁QUOTE
▁companies
▁Montney
▁Petr
▁Wol
▁complicit
▁gastro
territorial
▁APPARENTÉ
▁Municipal
▁Organization
.80
XM
▁1,59
▁NORAD
▁adminis
▁strategies
QUOI
EK
▁2400
▁Goose
▁bid
▁interrogation
.36
HDV
MOR
▁24,8
▁421-01
▁Bradley
▁CryoC
▁codification
Cool
aza
▁Commodity
▁JURI
▁homog
POSITIONS
▁Dairy
▁pig
▁robot
PGD
vacu
▁account
OUS
SEMBLE
efficient
escient
▁Langlois
▁equivalent
0,15
0,20
▁Burke
centile
▁FORM
▁forest
▁CENTRE
▁artist
▁presented
TIVE
boro
mail
▁Chop
▁Siou
▁Sugar
▁FUTUR
▁IMMEUBLE
▁gradu
▁31,5
▁Ablo
▁Glenn
▁excus
▁Contribution
▁MODALIT
▁OPTI
▁métropolitain
▁unions
▁Trail
▁aggr
▁distill
▁foll
4.4
kw
▁XXI
▁arthrit
2,46
molition
natal
rix
fessionnel
iscine
▁Dorval
▁vertical
ology
registr
▁Benson
▁Substitution
▁employees
▁prototype
ICK
forma
▁Block
▁CLRB
▁Nano
front
▁MOTIF
▁could
FK
▁Danforth
▁Payne
vari
▁20-20
▁benefit
-04-202
7.4
gislature
▁Opinaca
ulat
▁1530
▁AGFiQ
▁Haemacure
▁Intermediate
CIAL
igno
▁Dol
▁Gabriel
▁consula
▁Cycle
▁Lacroix
▁Simmons
1,75
Hathaway
hole
mbo
unk
▁Hodg
▁MINIÈRE
▁determined
▁végétale
III
KP
▁Pearl
2,49
▁1,52
▁Engineer
▁HNZ
▁NORTH
onfl
0,30
Hila
UTES
vac
▁Supply
▁execution
▁line
sunlife
▁2048
vast
▁Olson
▁Snow
▁RAPP
SW
cali
made
niobium
▁2006-1
▁Interactive
lonnage
▁23,7
▁Concept
▁Lafleur
▁Money
▁inestimabl
▁BUREAU
▁Villa
amée
▁COP
▁His
▁Jenning
▁Lemieux
▁affli
clench
ugg
▁Spadina
▁construi
gene
▁DVD
▁Dundas
▁Mathieu
▁Volatility
.37
aribas
eurochem
▁surcharge
▁Myriad
▁TSA
▁Clare
▁Financing
▁Independent
▁royal
étenteur
▁1958
▁25,9
▁Ladder
▁cope
▁1,49
▁California
▁Consultant
▁Novo
♦
7.2
9,30
Trust
iocre
ibrairie
▁Ghislain
▁PERSPECTIVE
▁Timothy
▁accession
▁contaminant
▁stipul
▁1,43
▁1,58
▁Packaging
▁SCA
motif
Responsabilité
URG
arth
▁Double
▁Naturelle
Avril
faut
▁Tanguay
Annonce
melior
▁Concentr
▁Conséquence
▁Methyl
▁garage
prof
▁Alder
▁DOCUMENT
CAP
assur
▁Abcourt
▁mélang
▁Instrument
capacité
natur
▁oxyg
112
IDENCE
Sessional
▁4.5
▁MF
▁MINES
7,40
IRET
▁SANCTION
.60
▁Castle
▁Electro
▁better
▁technologue
SPECT
‰
▁Afghan
▁Arn
▁discord
▁soccer
▁23,2
▁Anglo
▁Français
5,35
▁Modifi
▁Procyon
▁Wo
OF
▁Dauphin
▁Optimis
▁individual
▁tram
RAIN
TW
space
▁aquati
-05-202
▁Newco
▁TFI
▁silo
CNA
représenté
▁ARM
KY
hariot
▁Villani
▁sessions
▁utilit
▁Slate
▁porphyrique
chel
uyer
▁FIDELI
▁Glacier
▁Héri
▁Paquette
▁SPS
▁Tommy
Fourniture
UME
▁MEG
▁Tem
8,40
Guir
▁23,8
▁QUANT
7,95
ady
kk
pension
▁24,9
▁Archambault
▁Chapter
▁depend
Boniface
▁1949
▁physiothérap
2,74
list
▁Mistral
brun
lim
▁1,47
▁CONSI
▁temple
▁thermo
aht
oran
sensible
▁Wine
▁above
▁Allard
▁legal
2,67
ako
oop
▁Gab
▁PROVIS
.43
érienne
ACCORD
▁24,1
-2022
▁Carswell
▁HOLDINGS
▁Wallin
EMI
▁Westmount
▁funéraires
afe
divulgation
▁VGS
moration
▁compensat
▁retenti
▁Éli
▁2,45
▁Indigo
grove
productif
▁Grain
▁RESTRICTION
▁Schedule
Vote
▁Facil
▁Mercato
▁consultative
▁3.5
▁Rosebel
▁ZoomMed
▁liability
▁uranifère
2,39
▁CIVIL
▁LDC
▁Labelle
▁Northwest
▁Seven
▁foreign
2,77
6,65
▁Leader
▁mosqu
▁scepti
3,85
▁Storage
▁peptide
▁1601
▁Nestl
▁accroiss
▁désinfect
▁ruin
▁réfrigérat
▁Néo
▁Pier
▁adverse
▁does
▁official
▁tampon
▁PSP
arrow
▁add
▁make
conjoint
iculteur
month
bey
employé
▁Denison
▁Plant
▁IMR
▁being
Meadow
head
▁CDPQ
him
▁CHN
▁Get
▁Melco
▁pragmati
chrome
▁EGD
▁approximately
▁intensif
▁Kruger
▁Meighen
▁slogan
constitutionnali
copia
take
▁BANK
▁Pontiac
▁TRANSACTIONS
Ag
▁Kraft
▁Shawinigan
▁approch
▁From
▁Person
▁plants
0,10
▁complement
2,19
▁Battle
6.4
▁25,6
▁Gallant
▁AECO
▁Sleep
▁activist
56,00
carburant
▁Pigeon
▁Disclosure
▁Enerca
▁Store
▁nutriti
iuk
▁collision
▁neurologi
-06-01
WG
gnon
hiterock
logist
▁CONSULT
▁Glo
7,60
CY
▁MIDDLEFIELD
▁compati
▁Casino
2,99
6,35
▁1,41
▁Kandahar
contin
▁Perry
imon
▁sentences
8,60
▁CTC
▁Champion
▁Peel
▁REPRÉSENT
▁ardu
▁colon
▁implications
▁intragroup
▁refil
▁1,67
▁Wolf
▁1,54
▁1956
▁NETTOYE
▁convivial
▁grant
gli
▁Kor
WX
affecté
parquet
▁Lagos
▁STEP
▁Television
Nomination
bilat
▁5.5
▁FPSL
▁sic
▁ÉQUIVALENT
▁Chip
▁Dorman
▁Lynx
redco
▁23,9
▁Dominique
▁Lakeland
▁Valeri
▁commander
.39
▁Caldwell
▁Liquor
▁Todd
▁chemise
▁drilling
▁recharge
▁securit
Canadian
PEUT
▁Extension
▁Scientific
▁Airways
▁Brexit
MW
▁25,4
▁Crawford
▁DIGIT
▁NYMEX
▁chalet
▁integral
▁silicifi
TOUS
▁Cornwall
▁EDGAR
▁Herman
▁Sandra
itter
▁RATIO
▁Head
▁Planning
street
▁Concurrenc
▁Emission
▁TCI
▁contribute
ZE
manche
▁Frontier
▁cardiovascula
8,20
▁Commissioner
▁Content
▁Peer
▁Romanow
▁défavor
5-01
Act
ahan
board
▁Optimal
6,80
ADD
Yves
hold
vènement
▁Transition
▁gouvern
KK
ouk
▁dénominat
equent
119
6-01
Foy
adh
new
▁Oli
▁chao
▁huissier
2,25
▁ACQUISITIONS
▁EDC
▁Vit
-392
▁Apartment
▁Arrow
▁Officer
▁STONE
iki
▁aquaculture
-01-17
RAY
déclaration
▁Easter
▁operating
▁vein
oid
▁Bonavista
Appel
samor
▁Disney
▁Hants
▁Interpretation
▁till
solid
▁Balanced
▁Diage
Consolidated
IK
▁1940
▁Alasd
▁GJ
ièvre
ual
uro
▁Trustee
▁scan
JSF
▁Dain
ARACT
▁Chang
▁Francine
9,40
Integrated
▁Spencer
▁hostilit
▁rajust
▁Fujian
▁carcass
▁cyan
2,59
625
mesuré
ologist
▁1955
▁Wisconsin
▁units
wave
▁Charro
▁Clement
▁Highway
HILL
Multiculturalism
▁AMP
▁Chantier
▁Dufferin
▁French
▁Indépend
▁PPA
▁TRANSITO
Inter
oscopi
▁4,45
▁Intelligence
▁Leonard
▁Charlevoix
▁Erin
▁Garcia
▁appli
enny
▁ACTS
0000
than
▁Alternative
▁Avion
▁CCM
▁Next
▁Word
NGX
▁Brazeau
▁Kris
▁Marcoux
▁Progress
▁Veresen
▁Zar
▁lumin
aze
▁3,05
▁Inspection
▁pessimis
2,69
VILLE
fel
▁24,6
▁BNS
▁Baytex
▁Detour
▁NOK
▁Technique
▁absti
▁excit
▁Unifor
▁amended
▁area
▁orchestr
▁Orientation
LEA
117
Richelieu
▁CLAR
▁INITIAT
▁Nectar
▁Zinc
▁potential
▁vitro
▁ÉCONOMI
9,20
WAL
fro
ounty
▁Marco
▁Scud
▁brand
structuration
3,13
fév
▁Grayd
▁Vachon
▁execute
▁INVEST
▁RIC
▁Studio
▁Tanzani
▁EVC
▁visual
2,29
traction
▁Helen
▁PÉTROL
▁immediate
glu
▁411-0
▁Bird
▁CONTINU
▁REQU
▁intensive
▁Éventualité
4,99
7,500
ARB
▁FAI
▁Malone
▁Upper
▁against
▁camouflage
▁frivol
▁paras
2,47
mérite
▁CANDIDAT
chloro
lague
▁Haldimand
▁Islam
▁Shannon
▁Spa
▁best
▁pulmon
3,24
ediagrif
▁DKK
375
▁Belt
satisfait
state
▁Joint
.41
7,90
9,90
▁Greff
▁Receivables
▁simplicit
▁1535
▁Battleford
▁Valeant
▁candidates
2,76
ized
▁Arce
▁PEN
▁Sproul
8,10
apprenti
▁412-4
▁destin
valence
▁ATS
LIGNE
▁Sandhu
▁portfolio
2.3
▁Plazacor
▁Trader
▁pivot
▁WANTED
▁XP
▁signed
logic
publique
▁1952
▁421-00
ted
▁Beauchesne
▁Hezbollah
▁director
union
▁Christina
▁Confront
▁Lemaire
▁Lynn
▁Over
▁Affect
▁Losier
▁Vine
▁gravimétri
▁nominati
▁2,95
▁CONSTITU
▁DIVERSIFI
▁Fix
▁Tera
▁liass
-02-202
9,70
▁Croinor
▁KWG
▁Sparrow
▁Thibault
▁process
▁1,53
▁Assad
▁Leisure
adian
base
▁Brant
▁Palm
▁Pulse
▁SAM
▁discretion
▁traducteur
-01-202
9,95
▁Catharines
▁Emerson
▁Aggregate
▁Beth
▁orange
▁trim
157
ily
trocession
▁1930
▁Édition
▁API
▁Argument
▁LifeMap
▁Maryland
7.9
plex
▁solidifi
121
▁Montrusco
▁Octob
▁Strateco
▁forward
▁holder
vérifi
▁COMPANY
▁Rota
oxi
▁Couture
▁Freedom
▁Massé
▁attrition
UAL
care
duct
▁GBL
▁Matheson
.46
Moulin
how
truch
▁jurisprudenti
▁Dynaco
▁HKD
▁Hua
▁Miss
▁control
▁imagination
MAY
asset
oïs
wright
▁Brewer
▁Film
versus
▁3,45
▁Jiang
▁consensu
▁pistol
-230
0,40
HVW
ission
▁Holocaust
▁Orange
▁Vern
▁momentum
▁simplifi
1.3
IQ
▁2038
▁Baird
▁agreements
CAL
RIE
croissant
▁Sharpe
▁whether
cipation
▁1,56
▁2,12
▁Republic
astlerock
▁Bloom
▁Valid
▁regain
Produc
product
térêt
▁Bol
TIER
dict
▁generally
▁longitudinal
cMillan
tarlight
▁Argenteuil
▁legislation
6,67
9,24
leg
≤
▁Metropolitan
▁Nathan
▁Sherwood
▁described
Baptiste
▁PARTNERSHIP
▁Portneuf
▁bravo
8,80
stabilis
▁Fat
▁acquire
chute
▁Affi
▁Bourque
▁Brick
▁Foot
▁Robi
▁concerning
▁formal
Sébasti
▁equipment
▁Brasil
▁rectification
operators
▁Closing
kov
▁Arbour
▁Donna
▁Dragon
▁Minimum
▁RSI
▁did
Energy
▁Dimensional
▁TEMPLETO
2-02
OLO
Part
AUR
PROPRI
cusation
plast
▁VOLUME
▁Vector
exploitant
place
▁AHL
▁Addend
▁Graph
▁Halton
▁Pépin
▁Read
▁intend
enco
▁Berkshire
▁PPI
▁conduct
6.00
trol
▁16.1
▁Off
▁mercur
7,70
ultiv
▁8.2
▁Confirmation
▁considerabl
▁Beauharnois
ampala
▁1,88
▁barbar
▁volcano
265
TERM
zhou
▁2.0
▁Acadiens
▁Debt
▁rev
YR
cassette
▁Combin
▁Mirand
▁Myron
▁GAIN
7.3
9,60
ERC
▁1,68
▁PDF
▁Units
▁constitut
9,10
hak
rata
▁Billiton
▁Housakos
▁TAX
▁Wacho
▁2044
▁acquired
▁shareholder
▁stigma
-10-01
320
▁Schwartz
▁includes
2,66
▁Interlake
▁True
BCCA
Group
▁LiONS
▁Wasyly
▁COMPOS
▁Multiple
▁carrying
▁1,87
▁FFS
▁Living
▁Milton
share
▁Lafarge
▁Lower
▁Seigneurie
▁animation
▁Carolyn
▁Catalyst
▁Sandy
▁increased
▁redistribu
6,500
imultan
▁Works
▁release
▁Church
▁Davidson
▁Yellowhead
▁globe
▁Certificate
▁Origin
XX
▁Bruxelles
▁resources
2,75
5,88
6,95
métr
▁QF
▁Zhu
▁receive
REG
▁3.6
▁scrup
ninsul
▁Butler
▁Kidd
▁Kul
▁biodiversit
▁branches
▁corporate
▁indicative
▁muscul
▁Culture
▁GREAT
▁SOLUTIONS
▁Sunstone
▁Drouin
▁sporadi
edge
lucid
surg
▁2,62
▁Entrepreneur
6,55
Julien
▁Staples
5,625
Immunit
Oro
ider
▁Advance
Chat
bow
uadravest
▁1,000
▁Buffalo
▁Pathway
ATH
▁1.7
▁Seattle
▁admirabl
9.6
aradigm
viv
▁Advantage
▁CNH
▁Omni
beau
hémi
▁acqu
4,500
▁Spirit
▁transplantation
Lambert
Leis
PAR
▁Agents
▁Spivak
▁receivable
▁subside
9,80
Health
▁Lipp
▁Nadeau
▁Trou
▁quartile
llar
▁Opinion
▁Vaudreuil
8.3
▁Accent
▁Channel
▁Hav
▁Marketwire
▁PIPELINE
▁Scotland
▁codifi
▁Michaud
▁Salt
▁Santo
▁Utility
WV
▁Hansen
▁fan
▁further
Terre
▁Flat
▁blind
5,25
▁Say
▁arthro
Date
rank
shirt
▁Buchanan
▁Foreign
▁ROU
▁hydrologi
nsfield
▁APPLICABLE
▁Cove
▁born
migrants
▁Award
,550
Colchester
▁Falcon
▁Homburg
▁Merger
▁clientele
▁third
AUG
postage
▁rates
LAI
MART
anmar
dominanc
▁1947
▁Majescor
▁Montana
ASF
INC
▁Circle
▁HONO
▁Microtec
▁Oklahoma
▁Phénix
▁Charbonneau
▁Jerry
▁anecdot
quisition
▁Bécancour
▁Four
▁Spence
▁cases
▁introduc
▁gramma
Greenwood
modul
plus
▁2,37
▁Equal
▁MULTI
▁Shaughnessy
▁superflu
Patrie
xtendicare
▁Connecticut
▁Dawn
▁Limitation
▁prohibition
DQW
▁Challenger
▁maîtr
▁Gravel
▁Kil
▁STOCK
sorb
▁2.6
▁Employees
2,79
Contin
▁Lady
▁accredit
3,25
▁OBT
▁motive
oil
▁3465
▁982-7
▁Laflamme
▁Rowe
▁Chamber
▁Clean
▁Natcan
▁Number
1,60
UK
▁Benjamin
▁Doyon
▁Exel
▁acadienne
▁compact
▁investors
1,20
▁Foothills
▁Qatar
▁Refugee
▁infini
▁FTE
▁Find
▁concev
▁spirit
dominant
▁inactive
2,87
Power
Lac
▁Ramsay
▁sperm
▁GATT
▁Hud
▁LOGi
▁Wan
3,96
RQW
barrass
ware
▁AST
▁Brunet
▁Doucet
▁Shermag
▁last
-61.1
BSK
CPC
▁7.3
▁persistent
▁seize
▁tenure
.62
▁Alamos
▁ECN
▁EXERC
▁Kok
▁Medisys
▁concurre
▁reconstitution
▁1,74
▁attach
▁products
330
▁placebo
POINT
▁Bid
▁Conservation
▁SECURITIES
▁plateau
Jacques
Service
bmo
hydrat
▁Kai
▁QUESTION
▁album
▁ambulance
Anne
astra
hip
salarié
▁Roberto
▁SIM
▁Three
▁cigarette
VD
▁CHC
▁Grover
▁MUNICIPAL
▁Novartis
▁restrict
filiation
rbanimmersive
▁1948
▁2043
▁UTILIT
▁View
▁fiasco
▁CHARTE
▁Elder
▁Jeanne
▁rid
branche
▁1,63
▁Johanne
▁Lundin
▁tacit
futabl
▁1400
▁Automobile
▁roman
▁1,66
▁PROVINCE
▁1.6
▁Lease
▁formula
cibc
▁Alexa
▁COS
▁Novik
▁Santander
▁Tyle
▁multidisciplin
0,125
▁2,08
▁52-109
▁Mini
▁Miramichi
3-01
▁succinct
ark
▁Verte
wyn
▁TDB
▁Temple
▁confrontation
▁pulp
9,000
famation
▁Collect
▁Huang
▁Provencher
2-01
ISH
▁Grenad
.44
4-01
7,625
mitism
▁Important
▁Bull
▁Nixon
▁Policy
▁Bahamas
▁Jury
▁Méta
▁estimated
ENG
LECTION
acy
pugn
vote
▁Biotechnologie
▁TRIBUNAL
▁compétit
7,30
Lamaque
through
▁1,61
bidem
ears
▁CONSTITUTION
▁Comptable
▁Protég
▁Séguin
COMMUNICATION
film
▁Heather
▁PEG
▁some
smith
▁PCL
▁thereof
open
▁Osborne
▁kimberliti
▁Concentration
▁Dictionary
▁DISTRIBU
▁Elgin
▁Robill
▁Vanc
▁escala
▁excell
ucc
▁given
207
GY
audore
2,89
quip
▁Canyon
▁Montreuil
▁Spider
▁nil
ROM
benz
▁Burundi
▁McGraw
▁stati
▁ADOPTION
▁Arnold
▁Mock
▁Coupon
▁Omar
▁Yonge
▁GSM
▁HISTORI
▁Lakeshore
▁Route
6,125
7,80
vapor
ouvem
▁Fletcher
3,99
700
emafo
▁1954
▁Biotech
▁NOT
▁OPTION
▁necessary
▁written
▁3865
▁Jose
physiologi
valu
▁Camco
▁Gander
▁Hearn
3,17
8.6
TRUCTUR
fontaine
▁Checklist
▁Contract
▁Lazard
▁RELATIONS
▁Tourmaline
▁toxicit
▁BELL
▁Facult
▁Sale
▁Yang
▁Zurich
▁1,69
▁NorthernTel
▁Techni
KIN
▁Ajax
▁Nathalie
5,500
Albert
NCI
▁MOBI
▁McDougall
▁Munro
▁presence
LEY
vigno
▁Broker
▁Champagne
▁statement
340
▁ameliorati
5,750
Gel
Invest
▁Barrett
▁Boulevard
▁JEAN
▁Pech
Par
▁Bakken
▁Broadcasting
▁CRE
▁Fasken
▁converge
▁4.7
4,13
▁Seller
▁develop
▁tenants
CHEM
mble
▁Ahmad
▁Châteauguay
awi
halla
▁CRCD
▁Massicotte
▁McCain
Appelle
INGTON
▁GLP
▁OPT
active
▁Berlin
▁Citicorp
▁Singapore
hav
▁2.7
▁Constellation
▁IPSAS
▁ROYAL
▁vii
▁Leasing
▁MTN
▁TML
▁dispers
▁reform
▁Child
▁Crypto
4,87
ALTA
▁Aerospace
▁Had
▁Third
▁extrajudicia
▁Employee
▁Neufeld
▁Teranet
▁where
3,29
▁Justin
▁Lindsay
▁Amend
▁Fournier
▁Glass
mouth
unshine
▁2,33
▁gala
▁PNG
▁Quality
2.5
▁Martel
▁inapplicable
6.3
7000
Certificat
▁Elmwood
▁HCA
posa
▁Rath
▁Sterling
mato
▁BRIC
▁Bellechasse
▁Pascal
information
▁Accept
▁Rona
▁Tecumse
▁humour
5,26
8,70
▁1,99
▁CONTRACT
▁Cummins
▁Dianor
▁Newport
▁RESOURCES
AIL
ITT
winder
▁Dallas
habaab
▁request
7-01
HOR
▁COO
▁Ricard
▁resili
▁Admin
▁Lilly
▁respectively
.70
1000
▁Hutchi
▁Memorial
▁Moldav
cardi
▁Allison
▁CHEI
▁herein
▁Cyber
▁Walsh
charme
▁1,64
▁Dell
▁Electronic
▁Excellent
7,05
Canexus
undance
▁Pond
▁Sagard
7,35
Communication
FINITION
Line
Norfolk
ptilon
▁CanWe
▁Shepherd
▁Ship
3,84
6,88
TTE
uba
shore
▁1,73
▁15.1
▁Rocmec
▁WGL
▁QMI
▁Antonio
▁Cheryl
▁Embraer
▁Rico
▁Windows
down
ural
▁Jardin
▁Laura
▁PNC
▁Vegas
▁Virgin
12-15
▁Gustafs
-525
▁Dingwall
▁Grace
▁différ
▁Décar
▁Lawson
▁Progressive
isch
▁specified
268
9.7
ADE
▁412-5
▁Finlay
▁GCC
▁asphalt
▁AEG
▁Sarbanes
▁acquitt
2,97
Go
290
Tek
orative
▁Polar
▁tuberculos
▁Current
▁1953
▁Labatt
▁Sanofi
▁1,82
▁76.1
▁Feuille
▁SPI
pshire
▁1,72
▁416-6
▁Hockey
▁Reference
▁holders
1.5
▁2,38
▁3400
▁Difficult
▁LOCATION
▁Trilog
▁connection
▁reasonable
▁routine
ICS
cKenzie
▁Any
▁Cominco
▁Fraze
▁return
dophile
▁1,76
▁Carrier
▁selection
8.00
▁Carrefour
▁Gord
▁INNOVA
▁Love
visible
▁Blackburn
▁Diagnostic
1-01
XF
√
▁Columb
▁JAMES
▁Rodriguez
▁amylo
▁faci
WD
contract
▁Dalhous
▁Ellis
▁Expiration
▁Hanger
3,74
Luc
opportun
▁Comcast
▁EPCOR
▁MEGA
Stanstead
Vest
▁EIPLP
▁Evaluation
▁HEC
8,90
chang
cussion
perform
ronsac
▁Freewest
▁MacAulay
▁McMaster
▁Russel
▁Winter
7,15
PLP
inski
▁Hardisty
LAURENT
pts
▁colorecta
bay
▁certificate
▁evolution
▁illusion
2024
arn
▁BofA
▁Mainstreet
▁STREET
▁Skype
▁That
▁Wynn
6,85
erflex
▁2,57
▁Extenway
▁Polytechni
▁Wyom
▁alter
▁méthod
card
▁Bak
▁Crossing
ACH
▁27,7
▁Technical
▁offensive
Olivier
▁Train
.49
ampton
▁laws
4,97
▁1,98
▁Devon
▁Guang
▁Let
▁rebut
NK
▁Ainsworth
▁Darre
▁FRONT
▁SOR
▁1,92
▁England
▁GAM
6,75
▁immersi
JSC
▁Woodbridge
▁interim
▁intranet
McCoy
▁Concord
▁Hang
209
▁Oakes
▁Spark
witt
▁Lockheed
▁officers
▁prestige
-203
1901
▁Grenville
▁board
Porcupine
agilit
4,25
▁2015-2016
▁BOMBARDIER
▁entrepreneurial
▁fill
▁SUPER
▁confuse
▁hereby
ARDS
▁Host
▁OMERS
etermin
tenable
▁Baxter
▁McB
▁Odyssey
▁TERMIN
▁reference
3,14
▁obli
▁tape
3,18
▁Abdul
▁federal
▁turbulence
▁Blanchard
▁Cancor
▁Palliser
.42
.75
Montmorency
SST
▁Newmont
▁comes
▁investor
▁officer
▁1945
▁Connection
▁Fayolle
▁SUPPL
▁Spar
○
ulliden
▁Bacon
▁dosage
RRI
▁1,84
▁Lamarre
▁Minto
▁Mohammed
▁RMB
▁1,78
▁Lemire
▁1.0
▁2,27
▁Courville
▁FORMATION
▁Mitsui
▁Richter
▁SEE
▁Supervis
▁hypertension
▁list
Busch
Ivoire
▁Norton
3,11
▁1600
▁Canton
▁Exemplar
▁communist
▁see
8.4
Arc
inistre
▁Brett
▁Correction
graph
▁FSC
5937
Muskoka
▁7.4
▁Lauren
▁Manicouagan
▁user
WICK
▁Galla
▁Hoskin
▁Standing
▁cut
▁impairment
1,40
▁HBC
▁Samira
▁bingo
▁efficac
4000
ACK
urling
▁4.6
▁Federation
▁Fitness
▁Rothschild
▁universal
3,67
Chutes
▁Aveos
▁Know
▁Pag
▁deemed
▁pipe
André
Work
▁Associated
▁Fee
▁Simm
▁Suit
▁days
Wolfe
▁Crest
▁Ireland
▁Weyerhaeuser
▁entitled
▁miracle
3,77
4,19
rgex
▁Horn
▁nor
appelant
▁Limit
▁NCC
▁PHARMA
▁butane
▁cognitive
▁syndication
iii
▁Cargo
▁Some
▁iWeb
▁quotient
724
JUN
aker
box
▁3,12
▁4,37
▁Klein
▁corpu
▁football
▁radiologi
▁DIVISION
▁Montign
▁Rim
▁Securexam
▁exorbitant
▁since
▁vitamin
5,75
7,65
uka
▁6,15
▁Carme
▁Update
Direct
▁AXA
▁EPI
▁Rental
▁Shareholders
▁Strong
▁philosoph
2,20
▁Circuit
▁NWH
▁geographi
Diefenbaker
zel
▁Frum
▁Lisgar
▁Merchant
▁Overseas
7,375
concert
egion
▁19.1
▁2,13
▁Golf
.48
aught
iggar
▁Empress
▁Madawaska
▁THC
▁Wilkins
ated
▁Cut
▁Dialogue
▁Style
▁considered
▁punitive
▁GGP
▁PCI
▁Proct
▁Zimmer
3,23
8,15
Beaudry
▁transborde
▁Andrea
▁Clearwater
▁Lehman
▁proxy
4,18
▁Afri
▁Dalphond
▁Olsen
▁appropriate
lange
monstr
▁Active
▁Matagami
▁Monarque
▁dispersion
roadband
▁BROOKFIELD
▁authorized
▁full
3,39
▁DuPont
▁Hedge
LOO
▁ECO
Pacific
▁Full
▁Promot
▁STERIZON
▁mix
akehead
▁28,8
.65
▁Momentum
▁intermittent
light
ulin
▁2016-2017
▁Sunrise
▁baseball
▁registered
pher
▁2,24
▁Build
▁Chantal
▁Stoffe
EMCO
▁10.3
ahl
▁Analysis
▁transatlanti
2.4
4,09
▁Berardi
▁Iroquois
▁Paramount
▁SLA
▁Sure
▁Tamp
▁Twin
▁Viking
6.9
Box
▁Futures
▁bitcoin
▁tab
Hill
diorite
▁Ranch
▁contestant
▁hereof
▁6.4
▁OTC
▁collusion
600
Goldfields
▁Exerc
▁FUTURE
▁GRI
▁Gay
▁2,28
▁patriot
▁FHR
▁Stinson
▁put
▁Rothmans
▁Sep
▁Tourism
Ho
▁Melkior
36,00
LINK
evic
▁intim
▁most
▁Freddi
▁NWI
9,98
SOURCE
▁Locat
▁beginning
▁trading
▁2,01
▁2,36
▁Eastmain
▁GMAC
▁Grad
▁Lemay
▁Nicholson
3,76
▁Survey
MOBILE
POT
▁Darrel
▁Export
▁HUN
▁Kenora
▁TERRITO
arian
fibro
wind
▁Banff
▁Altamira
▁Bachelor
▁MacKenzie
▁Swee
▁29,8
▁Currie
▁KG
▁Nokia
▁conflict
▁usurp
▁Back
▁Rideau
3-002
3.5
6,63
portation
▁2013-2014
▁Bagn
▁Tonnes
▁aggregate
▁member
æ
▁AMR
▁Kipawa
.47
▁5,38
Care
amende
▁ARRANGEMENT
▁Awards
▁Earth
3,57
CSM
Hamel
LINE
ecurit
▁Blu
▁FirstCaribbean
▁Nevs
▁working
YJ
▁Impression
▁STE
▁AMORT
9.5
NEY
person
▁multifamil
▁vitae
▁Duhamel
▁Opco
3.4
MEDIC
Tremblant
▁Profound
▁WCS
▁Webb
▁XIII
▁banni
▁border
▁drill
3,56
rial
▁1,96
▁2,88
▁CCS
▁Loyo
▁Speed
▁TABLE
4,29
7,45
▁4,05
▁Hastings
▁Maure
▁Polaris
▁Douay
▁Pepsi
▁accounted
▁Éole
4.3
data
▁5,85
▁Bourg
▁Employment
310
Min
home
martin
▁1,79
▁ENTIT
▁MMF
▁Restigouche
▁Silva
▁Tap
4,96
8,30
▁2,09
▁Cost
▁Forbes
▁2,16
▁Niko
▁definition
▁equal
▁ferro
8.9
numer
▁Dodd
▁ECM
▁Rahim
▁agree
bill
▁Brome
ICAL
NAT
social
▁2,02
▁Brewing
▁Hassan
▁Than
utter
▁Federated
.56
.59
Bank
▁focal
▁1,77
▁Métropolitain
▁Schul
▁invasion
.54
clips
lid
▁0.5
▁intermodal
▁Nielsen
▁Stantec
▁implore
▁402-0
▁Transit
▁acronym
GRF
▁Curtis
▁Middle
▁Vehicle
2-002
4,74
elestica
▁both
tourmaline
▁2,04
▁Alban
▁Sloan
▁graph
4,46
azine
deep
▁Benefits
▁Indication
▁Lumenpulse
▁Schroder
▁confinement
▁paternit
▁Gem
▁Hilton
▁LIFECO
▁Matapédia
▁Pierid
▁Welland
▁suicid
3,59
fication
pdf
▁Ashton
▁CanWest
▁FVT
▁Fresh
▁Large
5-6
▁ACCI
▁Comtois
▁GSF
▁Savoie
▁high
▁Finley
▁TOP
▁Yama
Aventi
▁1.9
▁Latin
▁stop
7,125
Elliot
WKH
yrtech
▁Basin
▁Proclamation
▁Sidh
.55
4,39
Action
Alliance
BRIDGE
ancy
total
▁Fanshaw
▁Lauzon
▁Loans
▁Morguard
▁Nil
▁Suez
-1402
3,87
▁Name
.85
▁Atlanta
▁Chart
▁Meta
▁Ngo
▁Stage
▁historie
orari
▁Applied
▁ensu
▁Accu
▁Cedar
▁Chatham
▁Expo
▁GAAP
▁Specialty
3,49
bid
▁Affiliate
▁Tennessee
▁CarswellN
▁MICHAEL
▁intrusive
9,45
▁Advitech
▁BNY
▁EXCLU
▁Record
.67
Plan
▁1,71
▁Griffin
▁Hewlett
▁because
▁tail
EAS
ocenor
▁Clari
▁Genesis
▁Platinum
▁economic
3,79
ccl
hoo
huana
▁12-
▁2,63
▁HEXO
.53
3,69
KER
unda
▁Bright
▁HandySide
3,97
bird
ization
labo
▁Managed
▁OPPOSITION
▁SIGNATURE
▁calc
▁explore
8,88
Mark
NUITY
▁Hanna
▁OneBeacon
▁PROFIL
▁Ruby
▁Stanton
.95
▁Basic
▁purpose
.91
▁McKenna
-09-19
swap
▁Korea
▁Savings
-2023
9,85
▁brave
rola
HAL
▁CONVERSION
▁Nag
▁Vermil
JUL
▁Support
8.5
▁Mexican
▁cigar
1,70
▁Hldg
▁INVESTMENTS
▁Lavallé
▁McDaniel
▁interests
▁security
7,85
ddle
▁Coreco
▁Once
▁Perrin
▁percentile
4,94
▁Vincor
amba
▁Fifth
▁Kansas
▁copy
4,14
crest
▁2,03
▁Statoil
▁perfection
uspice
▁8.3
▁Mohawk
▁Verchères
▁deposits
5,99
▁2,53
▁Broadview
▁MTL
4,07
IGHT
▁Pep
▁Savoy
7.5
urisprudence
▁2,43
▁Nair
▁proceeds
0.3
4,26
html
truction
▁1,83
▁Acceptance
▁Protect
▁Qwest
▁Universita
▁crab
▁measured
▁river
shley
▁3,62
▁Citizenship
▁Demand
▁Prudential
▁Schneider
▁Sharma
▁Anheuser
▁Eglinton
▁Learjet
ency
▁Northumberland
▁Otish
▁gabbro
4,54
Valentin
8565
▁Universe
-24.2
Noverco
▁Cunningham
▁refer
8,05
9,35
▁hedge
5,19
gun
▁2,56
▁AEZS
▁Cormier
▁Gemini
▁Toromont
3,68
▁DHX
LAY
VENTION
▁Benedett
▁COMPOSITION
▁Hugo
▁Satellite
▁Truck
▁topographi
habilitation
nya
▁2,18
▁Bioxel
▁Profession
▁Techno
3,500
9,96
▁BLC
▁Pauline
▁Scandi
▁Population
Prescription
▁STANDARD
▁Witt
exxlink
▁4.8
▁PATRI
▁Shipp
▁Video
0.9
ZW
▁3,37
▁Ericsson
▁Letter
▁console
▁vandalis
2,500
Oxy
WN
▁2,07
▁Abuja
▁Deepak
▁Games
▁Summer
▁bit
▁deficit
1,80
¿
▁2,06
▁Regulatory
▁francophonie
▁recyclable
▁2,58
▁Lachance
▁MacLean
▁POSITION
▁Paquin
▁10,000
▁Certified
▁Frère
▁Pharm
North
yshyn
▁Kingsda
▁boy
andeep
▁However
▁Parex
▁top
KH
▁chocolat
□
hik
▁Gosselin
▁item
NOR
▁Deposit
▁Meech
existence
▁2,48
▁Clinton
▁Ouellette
Félicien
hap
▁BLF
▁Borrower
▁Sauv
▁Whitby
3,89
HUV
▁Liquidation
▁Chouinard
▁algorithm
6-002
lisa
▁Appendic
▁Assessment
▁bank
▁next
EEN
▁Amos
▁Goodfellow
▁Hir
▁Rii
▁crack
9.0
▁1,97
▁Bishop
▁FCR
▁Moto
▁NFI
▁fertilit
haven
▁Duvernay
▁Greater
▁Nutrition
▁skinhead
5,49
inta
phosphor
▁2,44
▁Bonnie
▁CanniMed
▁Hbc
▁energ
Constant
born
▁Fraction
IND
Imaflex
¬
▁2,17
▁Cayman
▁Fjord
▁Furniture
▁Marina
▁grades
8.7
atrix
▁Miles
▁Rankin
▁Calder
▁Denver
4,59
reunder
under
▁CaPre
▁Flan
▁Israel
▁abrupt
▁them
▁warrant
▁2,52
▁Hibernia
Capital
mackenzie
▁Dolphin
▁transcend
4,23
diac
fall
▁Arar
▁Bedford
BRA
GIM
istic
nhance
▁CTR
▁competence
▁trapp
2009-1
anny
▁Pratt
Patriote
▁Arthabaska
▁VIX
▁periods
▁sell
06-15
▁5.6
▁Alma
▁Koma
▁LaRonde
▁Randgold
▁mass
▁reconfirm
1.4
osley
▁0.1
▁Monster
▁Wheat
▁With
▁0.00
▁ERP
▁GDP
▁Savage
▁Wagn
▁immuno
TENTION
▁Secretary
▁contracts
5,77
aglan
▁Cleme
▁IESI
▁SQ
▁arrogant
▁conspir
▁drag
FEB
gist
▁Hyundai
▁Yellowknife
▁life
▁promise
▁sach
3,66
Humboldt
▁Brassar
▁Catter
▁Turcotte
VY
nathan
▁2,32
▁58-201
▁Game
▁accrued
▁fixed
4,49
4,69
▁Dufresne
▁IAM
▁Promotion
▁government
1410
hurst
▁Alcoa
▁Endeavour
▁Fun
▁Mile
▁Paschin
▁Salomon
▁4,62
▁Granby
▁MXN
▁Stoller
▁offset
bourne
hrysotile
▁Dubois
▁antibioti
▁radar
ZY
▁1,94
▁AICPA
▁Angela
▁GlaxoSmithKline
▁Koninklijke
▁Mancha
▁Peso
▁obtained
▁policies
▁robust
▁Norte
▁approval
▁4,12
▁Amnes
▁Pinnacle
Duplessis
Growers
▁iUnits
elman
▁Amendment
▁Annie
▁FV
▁MESSAGE
▁Saks
.61
WATER
▁Joha
▁Linden
▁fit
▁Costco
▁Online
▁Transformation
6.5
▁Vézina
▁phosphate
9,36
Gloucester
igras
umble
▁Concession
1,000
5,69
5.2
▁Dutil
▁Italia
▁PAUL
▁Training
▁kraft
Geneviève
ONALD
SEC
▁Beatty
▁Lodge
▁congestion
▁fibromyalgi
equence
▁1,91
▁EXPERTS
▁propulsion
Missisquoi
▁Dodge
▁MAAX
▁SECTOR
▁cadastr
8,35
illian
kmaq
▁AlphaDEX
▁Kapuskasing
▁UNIVERSAL
▁estimates
▁habe
▁insulin
8,85
9,65
▁11.2
▁Mohammad
3,86
▁2,64
▁Cover
▁Synchroni
▁declar
▁1,81
▁GAS
▁Vior
7,88
▁Dumas
▁benefits
5,09
9,88
Callidus
king
nish
▁IsoTis
▁PWFB
▁Tonk
▁fund
▁tumor
octane
rchitectural
▁Kathle
▁decisions
▁thereto
▁withholding
5,27
Robert
roo
▁Amalgamat
▁McLaughlin
▁Parizeau
▁Trilo
▁capsule
▁values
.79
dding
▁Claudette
▁Devonian
▁Randall
▁Réjean
▁payee
Redwater
food
style
▁African
▁Helm
▁Reli
1135
Series
anaz
hman
▁5,45
5-002
▁2003-2004
▁Propane
▁cultivat
▁dividends
4,64
▁2,54
▁Bufete
▁Developed
▁Fuji
▁Guangzhou
▁illiquid
▁sauce
9.9
ASSE
▁Missouri
▁TYPE
▁disput
bag
▁Boulanger
▁Drummondville
▁box
▁dress
▁rata
▁triparti
5,17
‚
▁1,89
▁6.5
▁Fixed
▁MINING
▁SmartREIT
▁intelligibl
7,13
9-002
ligibilit
▁2004-2005
▁evaluate
▁CAPREIT
▁Casgrain
▁ExxonMobil
▁FATCA
▁Westwood
4,56
Pharma
▁Carlos
▁Payments
▁poker
OPE
udbay
▁Alvarez
▁Must
▁Roman
▁Vista
▁approved
▁now
9,15
▁Our
▁obtain
5,76
ogo
▁Leclerc
▁Subsidiaries
▁Whistler
▁unless
4-5
gang
▁Copernican
▁regulatory
▁typograph
4,250
▁Frédéric
▁Lead
▁Nikkei
▁Voyageur
▁decrease
FAX
MSA
▁Hawkin
▁List
▁ZONE
▁media
lake
taboli
▁Gundy
▁agenda
4,79
▁Chester
▁Dog
▁Ortho
▁Runci
▁Segment
▁Sheppard
▁Vein
▁limited
5.0
6000
Lynne
Rivière
▁21.1
▁SoftScan
borne
eposit
▁Companhia
▁BlackBerry
▁Clément
▁Renault
▁embargo
▁paternal
4,84
▁Allianz
▁Boisvenu
▁growth
andmark
▁1,93
OGRAPHI
TEK
▁2,22
▁Luki
▁Nyst
▁Ski
▁Thornhill
▁UNESCO
▁adjudicat
▁err
hrai
▁Are
▁PAN
▁Sauvageau
▁diverge
5,74
9,67
▁Dhil
4.5
last
▁3,04
▁cellulose
6,750
consolidation
▁Alter
▁HAF
2014
▁2,68
▁Bermuda
▁Olympia
1,10
Schreiber
▁Savard
▁Show
1,90
▁Aquil
▁Maintenance
6,99
▁ZAR
▁krill
7.7
▁Tidewater
▁pegmatite
▁reported
latin
magog
trade
▁Framework
▁colonial
onah
▁Aylmer
▁Georg
▁Strategy
▁creation
▁disclosure
Hedged
computershare
otide
▁3,000
▁Mattel
▁Sunny
▁Wholesale
.63
hall
▁2,82
▁Manitoulin
▁Ramirez
▁concise
5,22
BDO
Sophie
ify
▁2,42
▁Blackstone
▁Frederick
▁Godfrey
▁Lumber
▁Ogilvie
▁Peru
2013
5,07
Senza
World
▁3.8
▁Enter
▁Naz
▁apply
▁cast
MOA
▁2,72
▁Southam
0.90
MBNA
▁2,51
▁Administrative
▁Wool
.52
2,000
peak
▁1,86
▁Hollis
▁Minh
▁Tube
▁Unilever
▁carried
ability
▁Calpin
▁Exhibit
▁Wona
▁Alithya
▁Coupons
▁Tak
▁Villeneuve
▁captur
▁2000-2001
▁Theatre
▁natural
▁spodum
SEAMARK
arkett
▁Heinz
.87
brand
▁Lorus
▁NuVista
.51
▁Diluti
▁MORNING
8,55
askiw
ymox
▁2,31
▁Duval
▁Pulp
▁Thetford
▁become
▁hall
2012
MFL
-4050
ebercan
imco
▁411-2
▁Adv
▁Attention
▁Dublin
▁Matters
▁Maxi
OME
PLUS
entered
▁Borduas
3,000
LAVALIN
▁urine
9,05
▁OFFICI
▁Quinte
▁Run
▁resum
.89
5,29
PIF
▁3.7
▁Barker
▁Janus
▁Take
▁obsc
▁Evidence
▁currency
▁microscopi
.88
5.3
BEAU
▁Berry
▁Countrywide
▁PNGTS
▁testimonial
▁Quick
5,46
BOT
iophage
▁Capri
▁Criterion
▁expenditures
▁extent
5,24
▁2,84
▁Habitat
▁execut
▁preparation
4,68
6,24
WAN
ittance
read
▁2,92
▁COUPON
▁FACILIT
▁ROC
▁Wadd
5,250
leaf
▁Escrow
▁Magne
▁Pierrefonds
▁Pinar
▁Rodger
▁risks
▁sum
▁Chile
▁Team
▁evidence
0.4
Lumsden
axis
ctivision
▁2,34
▁Plourde
▁Sukh
▁12.2
▁2,61
▁Deferred
▁FinishMaster
▁GIC
▁ScotiaMcLeod
acqua
aries
▁interchangeabl
.68
4-002
7,63
▁7.5
▁Nine
▁17.1
▁9.3
▁baby
▁reasonably
.64
6,250
8,45
▁4,88
▁Dufour
▁Kentucky
▁PSA
▁key
06-30
7,24
8,95
ORGAN
zyme
▁Eeyou
▁Newspaper
▁assumptions
▁lease
8,13
lissa
▁14.2
▁Chek
▁Proportion
▁Purchase
▁RBF
▁Sheridan
▁divert
BAL
▁Flight
▁Strategies
System
Wentworth
daltis
ities
▁Vigil
▁sandwich
▁unaudited
rench
▁Gloria
▁Mitis
▁Utah
▁Venne
▁viii
▁Supreme
▁review
▁unilingu
.69
▁CPP
▁PARTNERS
▁good
▁negative
.73
9,55
ATT
Dubé
WVP
erono
▁2,41
▁2,73
▁BioSciences
▁Celtic
▁Trend
4,89
5,18
8,63
▁FRANCE
▁GrowthWorks
▁toxin
0-002
▁Chalk
▁Florida
ankCo
▁Australian
▁Helicopter
▁Potter
6,17
INSTRUCTIONS
oulange
yard
̈
▁Amsterdam
▁ironi
cost
▁Gowling
▁Rolland
▁Sham
▁Stéphan
▁Supervision
▁adopted
▁Carson
▁Mint
▁draft
▁rhyolite
▁take
.66
06-02
▁BluMont
▁CEP
▁Informatique
▁interrupt
▁navigat
Similkameen
▁4.9
▁Cauch
3053
81.19
▁13.2
▁Furey
▁Opto
▁journalist
IRA
UZ
▁NHC
▁oppression
5,06
luvial
▁3.0
▁Achieve
▁Avalon
▁Banknorth
▁CSR
▁Contributions
▁RESPONS
▁replace
7.6
anmarc
demand
▁2,78
▁Aurion
▁Participant
▁0.01
▁INDICAT
▁Step
▁figures
▁Betty
▁Livingston
▁Lyle
▁Trenton
.77
▁Lortie
▁Netflix
▁Novicourt
▁Payment
.74
Trican
▁2,21
▁Catholic
▁UNIVERSITA
▁Winston
▁currently
▁Alabama
▁Material
▁interchange
7,98
Témiscouata
▁Montmagny
7,14
CWS
Georges
TEST
rail
▁Azur
▁MEDIA
▁Scotiabank
▁Swift
▁comprehensive
.86
9,97
▁2,98
▁Collection
▁Hogg
▁MPI
▁Mazarin
▁Pamel
6,69
▁ARRANGEMENTS
▁Forzani
▁Gastem
▁Kiena
▁Pedia
▁mortgage
1407
2.0
‟
▁Starbucks
▁Subco
▁calculated
▁incrimina
▁instigat
6,19
▁Academy
▁Raven
▁Tibet
▁Welsh
▁subsidiary
5,59
PACIFI
nah
▁RICHARD
▁Yen
▁regions
calcul
wear
▁Crosb
▁Warehouse
▁lucrative
▁Ladn
1,15
Lankin
▁Freeport
▁Warrants
satisfaction
▁Actual
▁Esso
▁QUB
▁Tata
mmunotec
▁54-101
▁AMERICA
8,65
▁CIM
▁PEA
▁2,11
▁statistic
6,48
▁Goldring
▁Governance
▁Proctor
▁Rules
heung
▁Beaureg
▁CDNX
▁CHUM
▁JJ
▁KIACTA
▁exercised
9,84
WELL
▁Bonaventure
▁Deliver
▁Model
▁Practice
▁Tucker
ascana
elec
iocan
standard
▁ARE
▁Elsi
▁GEO
▁Kearl
▁Ogilvy
▁cross
▁proposed
▁sheet
▁suggest
craft
opoulos
▁Changes
▁Sobey
▁Device
▁Dilawri
▁ECL
▁Graphic
▁Gérald
▁Kamoa
▁Lotbinière
9,48
▁Firm
▁Kumar
▁Lanark
.57
▁38,8
▁MAXXUM
▁McGuinty
▁YMG
BSH
Brandywine
▁2,81
▁Evergreen
▁MAV
▁Sustainable
▁corrosion
▁offer
.84
2,15
ERO
IBOR
ILE
Media
own
▁10.4
▁Madagascar
▁Reliance
▁SCOTIA
▁Wetmore
▁referred
9,82
▁Beauséjour
▁Conestog
▁Crevi
▁Succession
▁prepared
▁regional
7,78
consult
inestone
▁2,14
▁Affairs
▁Guidance
▁Harri
▁Karachi
▁Speaker
▁associated
▁projects
▁regulations
6,58
▁Algo
▁Weather
▁Zealand
▁month
▁Age
▁Giroux
▁Precious
▁What
▁fun
4,47
9,87
audit
jection
urban
▁Factor
▁McFarlan
▁Verdun
▁Zhou
▁weighted
0,07
5,97
▁Uruguay
5.5
7,99
9,69
tinu
▁accepted
0,500
9,81
Public
RELP
▁Goodfood
▁Laws
▁1.01
▁Hernandez
▁Penguin
▁SUNCOR
▁Snider
▁caribou
▁details
4,93
▁IFC
▁Innergex
▁Last
▁Summary
▁WLR
▁sexual
6,96
Thérèse
global
▁Coffee
▁Guzman
▁Mwana
▁Sum
▁confer
▁level
▁paragraph
RTF
▁LGBT
▁PENSION
▁hereto
▁lower
▁primarily
-2025
7,96
9,92
IOCAN
▁3,32
▁GECC
▁Parkinson
▁immoral
▁promises
Aberdeen
▁ISIN
▁Limoilou
▁Novelis
All
ecessit
▁3,19
▁MQM
▁smog
2,10
Keefe
▁Right
▁WILLIAM
▁credits
7-002
▁5.7
▁Donoh
▁Liang
▁Miami
▁Vari
▁dial
▁partial
APCo
▁COSO
▁Isaac
▁Manhattan
▁Petroleo
▁Sphere
▁events
Quévillon
▁Extra
▁Farrell
▁Maldonad
6,49
REALTY
▁2.8
▁Mahovlich
▁PROFIT
▁Tea
▁altercation
▁interven
▁nuisance
▁provides
9,54
DWOOD
▁Loomi
▁UNANIM
▁applied
case
▁Arsenault
▁Hoffman
▁Sponsor
▁commenc
▁3,31
▁Krev
▁Kru
▁Personal
▁Publishing
▁Rural
▁WEB
▁Webster
▁Woo
▁designated
mile
▁Boutique
1,05
chewan
▁LinkedIn
▁McArthur
▁Two
bach
▁Alouette
▁DIRTT
▁Giant
▁Honeywell
▁LSEG
▁nine
iglio
kill
▁Cargill
▁Chamberlain
▁Jarislowsk
▁Oregon
6,21
agami
▁Bulgari
▁CASCADE
▁Cree
▁Student
XYZ
▁Facilities
▁Norsk
▁distraction
8,77
▁Check
▁Weight
▁equitable
5,89
6,04
8,29
unit
▁Chatters
▁Lacasse
▁Pino
▁five
▁redistribution
9,77
Jérôme
▁MLP
▁classified
▁employee
▁receivables
quot
▁3,38
▁4,38
▁Martha
▁iPerceptions
▁SPE
▁Tasia
▁descriptive
▁principles
▁Judith
▁Measurement
▁Milltown
▁Roland
ists
▁Laplante
▁able
▁filed
ANNE
Bourgeois
pola
▁Caribou
▁Ensign
▁HOME
▁Turn
9,21
Abitex
DOMINION
Mel
esverlogix
pressive
vintiv
▁Jaguar
▁metres
RANDA
▁Color
▁Desjar
▁clinic
▁popul
05229
ponent
▁ASX
▁Nicaragua
▁Pollard
▁contained
▁Alfonso
▁Registrar
7,23
9,46
▁Chilliwack
▁Ivey
▁LICENCE
9,37
Assiniboia
lief
▁Caledon
▁Methanex
▁Week
2017
9,26
▁Dorothy
▁Feb
▁Region
8,500
9,04
FLO
▁3,09
▁AO
▁Coastal
6,68
8,89
logy
▁Communities
▁Giguère
▁Kathy
▁Prentice
▁Stable
.78
bog
ughey
Érable
▁Asselin
▁Celsi
▁Medtronic
▁Talbot
0,04
▁2,86
▁IFA
▁OSC
▁Zheng
▁behalf
▁victim
5,56
WIN
▁Collier
▁Madison
▁Million
.83
cGregor
▁LGBTQ
▁Maskinongé
▁Shirley
▁reviv
lead
lith
ulvihill
wicz
▁5,13
▁Corby
▁care
▁kilowatt
▁owner
5,66
Steel
lita
▁Anjou
▁Logan
▁McNeil
▁Pennington
▁journalism
9,74
▁Regulations
▁matters
.81
5,87
6,29
Brems
▁INVESTORS
6,59
7,21
date
▁39,3
▁Carroll
▁amounting
hawk
▁Nichol
▁closing
▁insurance
6,26
Globe
▁Lombard
▁Method
▁Patry
▁rotat
7,77
DOM
▁ACTIVIT
▁Hammond
▁Harm
▁Member
▁OTCQX
Transfer
▁BLACK
▁Carrie
▁Grassland
ddington
ging
organism
▁Additional
▁CCA
▁Saturn
▁taken
.92
currence
liti
▁Bosc
▁Mauricie
▁compliment
Holding
▁Beattie
▁Brink
TAIN
▁361-0
▁CONSTRUCTION
▁Jugpal
▁Kimberly
▁matur
▁panel
▁Cruz
▁Mumbai
▁PETER
▁ROGER
▁Tetra
▁isolation
▁paclitaxel
▁power
▁Duration
▁Email
▁Gould
▁Township
▁either
7,07
Clark
ified
▁Architect
▁Humber
▁emissions
▁owned
5,57
7,74
Destor
EVA
▁Contramid
▁Célin
▁Hollinger
▁proceeding
Share
chlorite
▁ConocoPhill
▁GOOD
▁Hopkins
▁Millennium
▁Panda
▁Stratos
▁reportable
9,76
▁established
8,74
Eustache
▁Castro
▁Dieppe
▁RECOMM
▁Roma
6-02
9,44
ETT
▁Bangor
▁BioChem
▁Mercedes
8,59
Doo
▁Batters
▁Recyclo
administr
▁11.3
▁Dalton
▁instinct
lligan
▁EFFECT
▁Gunn
▁Karakat
▁RFP
▁Tessier
▁Trudel
▁fiction
▁holding
202
8,76
▁100,000
▁Dionne
▁Jessica
▁PROPERTIES
8,99
▁CREDIT
9,86
Lama
▁scale
▁socialist
Cloud
intuiti
▁6,05
▁Herbert
▁Wilfred
▁Defence
▁accommodation
▁actual
5,78
6,76
jack
▁Beverl
▁Domco
▁Saunders
▁audited
BY
▁Beacon
▁existing
4.6
9,32
Benz
▁Alexandria
▁Cinema
▁Eugen
▁Kimberley
▁Metco
FORD
Sibbeston
otsik
▁Area
▁Rachel
unicipality
▁Attend
▁Harrington
▁MacPherson
▁Willow
▁voting
9,09
▁Draft
▁Magistra
▁Pélade
Denis
dorf
▁Now
▁Triple
▁Variable
▁analysis
▁polyester
2.00
6,22
7,69
9,58
▁Anticosti
▁Brantford
▁Guille
▁Hoare
▁SLM
▁Sheldon
▁members
7,46
Potvin
▁2,83
▁Innisf
▁Pomer
▁royalty
▁survey
7,76
7,92
▁Cathy
▁Hold
▁Kangaroo
▁Kildonan
▁please
8,57
8,87
▁3,36
▁Ahuntsic
▁BY
▁Boomerang
▁Forget
▁InSite
6,54
energy
▁2,96
▁372-0
▁AldeaVis
▁HYDRO
▁Sherman
▁regarding
7,09
8,46
Confidential
gatonne
halkos
‹
▁25.1
▁Gaudreau
▁Handbook
▁Telekom
▁Tenant
▁prices
3.9
8,26
watt
▁Erskine
▁Omid
▁Volpe
▁niche
Select
SureFire
▁Arcelor
▁Devco
▁Enviro
▁Keep
▁Palladium
▁ramifications
8,21
ped
▁Arena
▁GENERAL
▁HPQ
▁OFFER
▁Puerto
▁indemnit
▁INTERNET
▁Stearns
▁difference
▁difficult
8,54
8,84
▁Beverage
▁Hatch
▁Vezza
▁3,03
▁Atlantis
▁Learning
▁Supercentre
▁print
6,47
▁Alcock
▁EXPRESS
▁Jasper
▁Why
▁cathode
▁Kohl
▁Maj
▁estimate
5.4
6,62
quibb
▁Contracts
▁Flag
▁obsolescence
fish
▁Brazil
▁Kyle
▁TransGlob
6,46
9,89
incrimination
▁Aircraft
▁Marsh
▁decide
7,19
7,68
▁3,27
▁Integra
▁Medicare
▁appreciation
▁listed
▁previous
5,86
6,86
6.7
Stone
▁AESO
▁Sabia
6,57
9,83
Geo
meter
▁Adrian
▁Simple
▁amalgam
▁authority
▁explosive
▁minor
▁represents
uzzi
▁DOREL
8,82
Advantaged
Aug
▁Desrocher
▁Fleming
▁Occel
▁Subsidiary
▁extract
▁galvani
.93
9,17
DQG
▁Loss
▁Marcott
6,03
McCormick
Term
▁3,22
▁Gurman
▁Sutherland
▁Vaillancourt
6,56
7,03
9,19
Bujold
│
7,26
CANACCORD
Ltd
arga
▁Custom
▁Puebl
▁Trevor
▁familiar
▁state
6,09
▁Brasileiro
▁Gilmour
▁aggravat
6,44
8,48
▁Tellier
▁cure
.76
▁Cushing
▁Jantzi
▁Schlum
7,57
LAW
▁Buzzard
▁Lalibert
▁core
▁derivative
▁translation
3,750
Haliburton
Xplore
▁Corona
▁Depositary
▁Tamarack
▁Teachers
Groep
reakwater
▁Journey
▁Solidarit
▁discontinu
▁marital
▁Svend
▁exercisable
6.6
HSI
▁Extraction
▁Merrifield
▁Primary
▁endure
▁require
9,07
▁GCM
▁Monsanto
▁noted
Aurèle
NeuroBioPharm
border
▁Chalifou
▁Delphi
▁Stephanie
▁Turk
▁privilege
▁subsidiaries
ious
▁Kindersley
▁hydrothermal
6,02
western
▁Fraud
▁metal
61-501
9,22
9,59
XXXX
▁Assistance
▁Cause
▁Dolbeau
▁Nacional
▁Timiskaming
▁Tracy
9,13
ayden
▁Accessibilit
1.9
ket
▁3,06
▁Ancaster
▁NMG
▁Semi
▁having
7,17
9,49
9,94
Blackmont
▁Daily
▁Documentation
▁Girl
▁score
▁Mississippi
▁ending
▁multinational
▁prohibit
7,79
8,78
gible
▁4,27
▁Louisiana
▁Salmon
▁various
.94
4,750
7,87
8,69
Juan
▁DeWa
▁Intrawest
1029.8.36.
7,86
BlueTree
Peace
▁2,71
▁Antamina
▁Attawapiskat
▁Brochu
▁Caccia
▁Laframboise
▁Probable
▁Rubber
9,29
▁KING
▁Nextel
▁Turp
5,82
▁3,01
▁8.4
▁Andersen
▁Brief
7,04
Boundary
RDT
▁4,44
▁Maxwell
▁NWT
▁consequence
▁integration
examine
investment
▁Marquis
▁VMS
▁alert
▁residence
▁3,21
▁500,000
▁Alphinat
▁Amherst
▁Annuity
▁Dealer
▁dividend
▁holes
▁resource
8,24
Chilcot
Russell
uster
▁3,33
▁Alphabet
▁Immuno
▁Native
▁Past
▁address
store
▁Activities
▁Fabric
▁Optical
▁Velvet
▁diamond
▁subsequent
ogibec
▁ALLIANCE
▁Kellogg
▁SearchGold
▁Youth
▁differences
▁industry
6,89
7,73
8,58
lstrom
mud
▁3,78
▁Charlton
▁Indonesia
▁Salv
▁cocktail
▁configur
.96
▁Automation
▁Panel
▁Peggy
▁duly
▁partnership
6,39
9,41
9,42
▁Omega
▁Same
▁Vegreville
ask
▁3,88
▁Horse
▁LCBO
▁Merg
0.5
7,49
dollar
▁23.1
▁Claims
▁ImmunoCyt
▁Resolution
▁Therapu
▁read
▁trade
ileen
▁20.1
▁Flyer
9,93
▁10.5
▁Pilot
▁Southwest
▁radiat
.97
8,67
▁Half
▁toll
8,86
▁Bolivar
▁Bread
▁Crew
▁Junior
▁mainly
▁resulting
▁title
▁Nfld
▁UI
▁write
▁3,02
▁FAIR
▁Merit
1,3,
6,18
8,09
8,17
Islet
▁tabl
6,87
construction
▁3,16
▁Average
.71
▁CFO
▁DIVIDEND
▁Lopez
▁Seal
8,81
9,57
▁Mercury
▁circumstances
km
▁Interior
▁invest
8,07
9,23
9,78
▁Ambros
▁Expertise
▁OPERATIONS
▁injure
▁interconnect
▁prepar
▁several
8,49
▁2,000
▁Booth
7,18
7,97
▁Blvd
▁TRANSACTION
▁determination
7,72
eadowbank
foot
looking
▁radioactive
iah
▁Sell
▁Supp
▁backup
8,72
carbonate
▁Align
▁GCIC
▁allow
▁policy
corruption
▁Events
▁NGL
▁Patent
▁Statutes
▁agreed
7,06
▁MARKET
1,65
genuity
▁Payable
9,39
Galaxy
optic
will
▁Angola
▁Search
▁speci
8,83
▁2,91
▁Heavy
▁auditors
8,03
rigg
▁Response
▁manner
☐
7,71
▁3,44
▁QuantShare
▁minus
▁0.6
▁Viol
▁Zon
▁adhere
▁resid
▁Analytics
▁Bankruptc
▁SBT
▁complex
9,14
▁Crystal
▁Event
▁Quorum
▁SYSTEM
8,18
Limit
▁Graphite
▁License
▁Near
Fortin
▁24.1
▁sector
7,59
8,06
9,68
9,73
▁Telefonica
▁raid
▁redemption
immediately
inning
▁Container
▁hedged
▁mutual
1.90
8,73
▁Issue
▁delivered
▁forego
7,94
▁CASH
▁Space
▁Warrant
▁2,94
▁4,16
▁OPINION
▁emerge
6,72
7,29
away
book
speed
▁2.9
▁Equitabl
▁Hardware
boomer
▁3,34
▁amendment
▁persons
6,79
84-96
▁Accident
▁Simulation
▁Tiger
▁apart
▁measurement
9,27
eparation
▁tap
NESS
▁Climate
▁HEALTH
▁Holder
8,53
OFF
OVER
▁INITIAL
▁PROCESS
▁Safe
▁cell
.82
6,06
7,66
8,96
▁3,93
▁Quarter
corporated
province
▁3,28
▁Plastic
▁together
2,05
HOLD
▁3,63
▁Settlement
▁Shield
▁declare
zard
▁4,33
▁Grass
▁Track
▁14.3
▁3,42
▁Insight
▁Participants
▁default
8,08
ATED
▁Your
▁bonus
▁job
▁remuneration
▁3.9
▁Cannabis
▁Employer
▁Residence
▁assessment
8,79
9,63
▁Processing
▁basket
▁writing
9,52
▁Visible
▁samples
3.6
5,94
omy
▁2,93
▁4,17
▁MILES
▁Release
.58
7,44
9,43
▁previously
,925
frac
matic
▁toxic
May
▁3,08
▁4,24
▁Cascade
▁Registration
▁Secret
▁mean
▁professional
▁status
ease
odium
▁Reinsurance
▁entities
,680
5.9
9,18
9,53
9,66
TIES
▁later
▁very
8,22
led
ping
▁7.6
▁EIC
▁eligible
▁focus
Request
▁Consortium
▁EQUITY
▁Improvement
▁SECOND
▁approach
▁representation
7.0
▁COMPARATIVE
▁amendments
▁cetera
1,99
Mid
▁Ground
▁Liability
▁Madacy
8,32
▁4,32
▁Border
▁CFE
▁exposure
▁land
9,56
rincip
wh
▁hedging
▁Due
▁Found
▁TMA
▁appropriation
4.7
8,04
▁Audio
▁adjustments
▁EXCHANGE
▁Railroad
▁directly
▁study
.72
Û
▁Clinic
▁Colombia
▁Through
▁contemplate
▁donation
67,7
8,19
cycle
▁3,98
▁archa
▁expect
▁fully
Ordre
trinsic
▁Cite
▁Distributor
▁Equities
▁fide
▁4,34
▁Operator
▁occur
▁pellet
▁rot
▁DEBENTURE
▁Still
▁own
9,06
▁4,04
▁home
▁prove
pplicable
▁ability
▁constitute
▁give
▁Animal
▁Presentation
▁specific
2.7
7,93
▁PROVISIONS
▁RSM
▁Such
▁higher
▁13.3
▁15.2
▁3,72
▁Conduct
▁Oversight
▁appointed
▁fines
,470
▁ENDED
▁estate
▁revision
General
exploration
operative
▁flat
▁investigations
9,33
ipple
wall
▁Sheet
▁Tlicho
2.6
9,47
̊
▁Holiday
▁Navy
9,79
▁contractual
▁recognition
twist
▁0.8
▁kidnapp
6,64
▁Bankers
▁Centennial
6,14
8,97
9,11
▁Substance
▁permitted
first
▁22.1
▁3,43
1,09
▁EBITDA
▁jobs
1.6
7,62
▁controlled
,975
idnight
▁Confirm
▁diluted
▁fellow
▁termination
hearing
▁3,83
▁Accounts
▁Break
▁committee
▁guidance
▁3,26
▁4,72
▁Capstone
▁diversion
1.7
▁Chair
▁Opposition
▁elimination
LING
claim
▁4.0
▁Interim
▁Represent
▁distribut
8,42
▁3,54
▁Crime
▁WORLD
▁residents
7,89
8,43
haran
▁CALL
▁Hog
▁Owner
▁balances
▁mature
▁MCQ
8,39
▁LNG
2.9
▁6.6
▁Study
▁holds
▁settlement
7,64
Possession
▁Costs
▁need
,220
.98
▁4,21
▁trip
,970
olar
7,39
7,53
▁4,11
▁Indenture
▁Related
▁Respondent
8,62
Eng
▁Elite
▁Ms
▁PRESENT
▁SURPLUS
▁identified
Financial
wing
▁Calculation
▁debenture
▁employment
,890
Exemption
¥
▁Account
▁INSTITUTION
▁Resort
7.8
9,91
▁4,63
,940
7,32
8,23
▁Asbestos
▁Liabilities
▁Outlook
▁Use
▁adjustment
▁meet
▁reception
,720
osis
▁8.5
▁bad
▁factors
▁hold
▁programs
firm
ool
▁5,48
▁Heart
▁NPI
▁appeal
▁interpretation
▁Basis
▁4,08
▁Environment
▁purchased
▁Monarch
▁Want
9,02
IBA
▁Evolution
▁Privacy
▁Surface
▁access
▁procedure
▁4,67
▁PERIOD
▁TAXES
▁designation
cash
▁GROWTH
▁Outstanding
▁amortized
▁requires
▁3,46
▁Arab
▁Subject
▁underlying
▁while
▁Five
▁LTC
8,66
▁Constitutional
▁according
▁reflect
▁terrifi
6,23
▁0.10
▁money
▁remaining
The
exercice
▁oil
8,56
tuna
▁allie
▁incapacit
9,64
▁ICD
▁Monthly
Hospitality
▁Observ
▁Parks
▁age
,475
0.6
▁AIP
▁BOND
▁Fiduciar
▁Freight
▁SWP
▁Terms
▁discontinue
▁even
▁precise
patria
▁Auditor
▁band
LED
genic
▁shown
,660
1,67
8,47
▁ESOP
▁venture
6,08
▁CICA
▁Virtual
▁ADMINISTRATIVE
▁Chairman
▁among
2,750
dicia
▁50,000
▁Emergency
▁LEADERS
▁commitments
▁partner
▁problem
8,51
observable
▁Guidelines
▁Nurse
▁modern
▁independent
▁spiral
commercial
▁auditor
▁least
▁markets
human
▁Exposure
▁PLANS
▁arrange
▁competent
▁customer
▁facility
1,26
ective
ological
▁Weighted
▁permit
▁reduce
TRADE
▁Alarm
▁Raw
▁attached
▁ensure
▁reclamation
▁CDO
▁Laboratory
▁way
metro
▁VoIP
▁When
1.0
refore
▁4,03
▁Econo
▁Summa
▁awards
,610
▁Milestone
▁agri
▁customers
▁Earnings
arlene
▁Registered
▁video
1,77
▁3,82
▁Amount
▁Silicon
▁said
▁1,500
▁26.1
▁Hedging
▁Procedure
▁Session
1,19
1.00
5.7
obility
▁Bulk
4.9
▁3,48
▁responsible
▁tweet
Fields
▁Results
▁constable
▁reinvest
▁NEO
▁activity
,110
commerce
drew
▁Mentor
▁Rational
▁YOU
▁Derivatives
▁Electrical
▁Implementation
▁Print
▁country
▁free
room
▁SHARE
▁combin
▁pill
▁scal
pm
▁SLF
▁firm
▁rock
investor
▁Apparel
▁Northeast
▁another
8,71
▁12.3
▁VALUE
▁derivatives
▁open
▁Commons
▁Details
▁Self
▁initiation
▁whose
Based
▁3,47
▁Recovery
▁distant
▁leases
▁Polymer
▁allowance
▁prepare
Ù
▁Provide
▁compliance
▁conducted
LQJ
▁3,92
▁Issues
▁deductions
▁Facility
name
▁Valuation
7,47
AML
▁delivery
3,250
8,64
▁Consul
▁Supplies
Profit
▁29.1
▁3,58
▁After
▁Most
▁Tank
▁ago
forth
▁200,000
▁0.4
▁Caution
▁attributable
▁township
1,39
CURRENT
tries
▁Textile
arose
▁4,57
▁OIL
▁Original
▁mineralization
▁rules
2,09
COUNT
▁CWB
▁DATA
ordinat
sector
▁PRIOR
▁Principles
▁sufficient
TED
▁Entities
mount
8,14
liquid
▁4,77
▁Develop
▁PRODUCT
▁economies
▁north
▁organization
,810
Object
alive
▁Arbitration
▁jurisdiction
carbon
▁CEE
▁Tactical
4,400
▁Aboriginal
▁fourth
,510
,870
▁3,73
1,49
toxic
▁ACCOUNTING
▁Worth
▁manufacture
▁AMERICAN
▁Acadian
▁Picture
▁disposal
▁elect
chip
▁4,42
▁Copyright
▁health
▁him
▁judgment
▁qualified
gainst
▁Macro
▁Vendor
▁Violence
▁excluding
▁Franchise
▁view
inquiries
▁offering
▁stated
▁summary
▁trauma
1,250
▁4,31
▁IMPACT
▁registrar
▁1,000,000
▁4,01
▁reserved
1,32
▁Aluminum
▁Restricted
3.7
7,54
→
▁3,52
▁5.8
▁compensate
RSO
▁0.15
▁FLOW
▁4,02
▁Proceedings
,760
cular
▁9.5
▁basic
door
▁Italian
▁consequences
▁geological
▁majority
▁coach
health
▁PAYABLE
▁Walk
▁decided
,944
etty
▁Offset
▁RCM
▁bearing
▁duties
,237
▁Addendum
▁FIGURE
▁down
▁Ergoresearch
▁They
▁quality
▁transferred
Pursuant
bak
▁Governor
▁book
▁salarie
3.0
▁4,06
▁Guarantee
▁Outfitter
▁representing
▁ROI
▁back
▁technical
9,28
homme
▁3,51
▁RESPECT
▁facilities
▁update
aero
▁continuing
▁personal
▁she
itic
▁5,39
▁Request
▁WM
▁favor
4,700
▁1.00
▁Collaboration
▁Imaging
▁Map
▁Voting
▁how
▁4,98
▁argu
▁many
,447
▁3,41
▁PWC
▁assess
▁technologist
8,61
87,7
▁Inlet
,103
▁3,91
▁AASB
▁21.2
▁Caribbean
▁Unlimited
lastic
▁3,53
▁Agenda
▁definitive
▁recommendations
▁3,64
▁3,71
▁Agricultural
▁Appendix
▁Forward
▁Mix
feasance
▁Mauriti
▁RSP
▁registration
▁18.2
▁7.7
▁Floating
▁Have
▁Ministry
▁Proprietary
▁Superintendent
▁combined
▁link
▁resume
,288
THE
amounted
▁CONTRIBUTION
▁Forma
▁historical
▁known
scale
▁Occu
▁Trustees
▁Judicial
9.90
▁PCS
▁fast
▁low
0.7
5.6
▁4,78
▁Operation
▁however
,645
immersive
▁Benefit
▁CONSERVAT
▁Hole
▁Trademark
▁disclosures
,523
signed
▁ETFs
▁matures
▁substantially
▁prospects
✓
,812
▁3,94
▁Since
▁Taxation
▁Trial
▁Visual
▁announced
▁maturity
,631
▁Depositor
▁Fall
▁Jew
▁Printing
▁actuar
▁6.7
▁Milk
▁Termination
8,750
lew
▁Beyond
▁Traffic
▁random
1,750
ories
▁Please
▁RECORD
▁Status
,976
REMUNERATION
fresh
nomic
,938
▁4,22
▁Critical
▁Netherlands
▁carry
▁inefficienc
▁inherent
▁performed
▁Additions
▁call
▁consumer
▁easy
▁percent
,032
▁COMBIN
▁Discover
▁Officers
level
▁3,61
OMI
commission
▁3,81
▁Match
▁preferred
New
▁Proxy
▁amortization
▁eventual
▁instructive
▁11.4
▁Compliance
▁OFFICE
▁geo
,674
Sustainability
▁Close
▁Convert
▁Sunday
▁email
▁Circular
▁Comprehensive
▁FILE
▁letter
▁narrative
▁qualify
▁POST
▁charitable
▁done
▁responsibility
Protected
▁MBS
crypt
▁13.5
▁sample
▁Offering
▁possess
▁targets
▁updated
▁vibrant
Assign
▁About
▁Edition
▁along
▁indicated
▁matter
▁whole
pack
▁EPS
▁contributed
holder
▁EDT
▁Goods
▁Knowledge
track
▁inflict
▁4,48
▁Anchor
▁contention
▁patronage
emia
resident
▁Reserva
▁files
Bill
ntrepreneurship
▁EMEA
,474
▁poll
▁terror
,635
1,69
body
▁Except
▁arising
▁treatment
,419
,613
1,79
2,17
▁4,43
▁broker
▁excavat
▁monthly
▁0.9
▁ITA
▁world
,083
,434
,714
▁Accountant
▁discovery
▁subsection
,987
1.8
atory
udge
▁Compilation
▁FROM
▁Kingdom
▁RSC
▁technology
,910
Monitor
▁4,58
▁5.0
▁Economist
▁component
▁fee
▁near
,066
,835
▁conclude
,637
,948
▁Minor
,668
OST
▁Electricity
▁Permanent
9,500
▁13.4
▁Underwriters
▁cannot
,546
7.50
▁Clinical
▁Investigation
▁controls
▁labour
,143
,792
lift
▁0.7
▁Pref
▁whi
▁authorities
▁block
Backed
deli
▁Blood
▁CPD
▁Losses
▁found
▁target
,315
THROUGH
▁Cheese
▁EQUIVALENTS
▁Sample
▁stores
hour
▁Recognition
▁businesses
▁classifie
▁ethnic
,552
,734
▁Derivative
▁Disclosures
▁deliver
▁measures
,171
play
,684
▁1.10
▁Casualty
▁SOP
▁Taxpayer
▁collaborative
,134
,234
1,86
▁Agreements
▁Photograph
▁THIS
,432
▁Congress
▁die
▁marriage
▁representative
▁supplie
,526
,622
,759
,974
stead
▁Amendments
▁geolog
,081
,318
,681
▁Acadia
▁Billings
▁OAS
▁maintain
,267
,287
,716
fraud
▁11.5
▁Organic
▁govern
,438
,689
▁Crisis
▁Perpetual
▁meters
▁retained
,568
▁completion
▁providing
▁published
▁research
▁useful
¤
▁Working
,178
▁Courier
▁EXCEPT
▁Persons
▁funding
▁half
▁receipt
index
▁OCI
▁Studies
▁reduced
▁works
,148
,728
Synthe
▁Individual
▁Seaway
,119
,197
,687
2.8
▁FOCUS
▁Impairment
▁NBF
▁imperfect
▁recovery
,064
,816
▁Carolina
,077
▁Activity
▁early
,231
,713
,805
gone
▁ITS
▁League
▁MUTUAL
▁Reserves
▁areas
▁greater
▁sampling
▁separate
,736
,832
▁Accordingly
▁concur
,532
2.90
▁0.02
▁elements
▁failure
,647
,729
,786
2,250
ATOR
SELECT
design
▁4,82
▁Substitute
▁acid
▁adequate
▁composed
▁knowledge
▁team
,097
,644
▁Course
▁Friends
▁Olympic
,183
,253
,429
,576
,823
ought
▁Museum
▁Put
▁RESOLUTION
▁boss
▁collateral
▁replacement
▁single
,464
,535
▁Amalgamation
▁CARE
▁guarantee
▁showing
,542
,566
,905
ORY
▁0.25
▁Write
➢
,476
,534
,691
,712
,878
Jul
▁ITC
▁summarizes
,306
,585
,614
,932
,941
gging
▁MINERAL
▁building
▁capacity
▁website
,316
flow
mbudsman
▁Acquir
▁Pharmacy
▁Toll
▁adjusted
▁recoverable
▁remain
▁strategy
Call
▁17.2
▁Leverage
,298
,743
4.8
▁Geophysic
▁RESOURCE
▁pricing
▁reviewed
▁shale
,063
,774
▁Army
▁Declaration
▁show
▁systems
▁what
▁5.9
▁Sikh
▁mark
▁sh
,451
ifying
▁0.05
▁Count
▁GLA
▁Intangible
▁Representative
▁TRANSITION
▁terminated
,426
,621
,791
interest
▁Increase
▁ownership
,156
,224
,781
▁making
,422
,472
,664
lash
▁restricted
,186
,238
,849
▁GDR
▁depth
,089
,141
,184
,409
,912
TING
▁duplication
,521
,718
▁Eye
▁Machinery
▁Upon
▁adult
▁corresponding
,519
EVER
child
▁Issuance
▁Need
▁STATEMENTS
▁valve
,113
,326
,488
,881
turn
▁Following
▁MAY
▁banking
▁comply
▁minister
,295
▁Blend
▁FY
▁benefi
,192
,266
,584
▁Pennsylvania
▁TEAM
▁get
▁liquidity
▁modified
,562
,733
FUL
▁ACCESS
▁Issued
▁PROPERTY
▁generated
,599
,935
LESS
,569
,648
,901
,913
▁Prosecution
,314
President
▁Approval
▁Customer
▁Minutes
▁NDP
▁Nuclear
▁charged
▁damage
▁secured
,942
▁Install
▁Problem
,102
,223
,856
hopper
▁Even
▁environmental
,898
6.8
▁0.20
▁300,000
▁6.8
▁believes
▁hub
▁relationship
,564
anning
,211
,539
,623
,866
5.8
tting
▁Acquired
▁Expenses
▁covering
▁yet
,086
,638
,692
expo
fidelity
▁Compris
▁Lucia
▁accompanying
▁closed
▁hard
▁likely
▁trustee
▲
▁Legend
▁allocated
▁mineralized
,233
,611
TERMINATION
▁10.6
▁25,000
▁AFS
▁Preparedne
,308
,351
,705
,837
,865
1,200
▁Asian
▁Combination
▁Make
▁Result
▁Whole
,557
,919
5,800
▁4,66
▁FUNDS
▁Hour
,907
3.8
lude
▁cargo
▁executive
▁medical
▁thermal
call
▁AcSB
▁SPECIAL
▁architect
▁environment
▁occurred
▁OTHER
▁POLICIES
,541
,574
▁Judge
▁Typhoon
▁detailed
▁realized
,794
▁hole
▁issuer
,241
,392
,698
▁Effort
▁Liquidity
▁appointment
▁profile
,717
,783
OUND
,796
4,200
▁Contractor
▁Disease
▁Malaysia
▁Room
▁commitment
▁longer
▁retirement
4.0
▁4,76
▁Callable
▁contain
.90
▁Cdn
▁Entity
▁PhD
▁Redemption
▁managed
▁outside
▁prairie
,517
,655
,853
laws
scab
▁Amortization
▁Challenge
▁Furthermore
▁Webinar
▁causal
▁dependent
,418
,831
5,200
▁Household
▁example
▁success
,579
,839
,937
,955
chemical
▁150,000
▁Defense
▁disclosed
,498
,512
,766
,914
▁Assistant
▁DCA
,616
creased
▁Crude
▁dog
,469
,656
,658
,868
,917
,931
road
▁Clearing
▁Threshold
,391
,458
,643
▁Confederation
▁Incident
▁Indirect
▁represented
,751
Jan
credit
▁SAGD
,404
,662
,789
▁Designated
▁Leases
▁Phone
▁like
,191
,594
,887
elve
▁Basket
▁Galler
▁identify
Off
metric
▁Perform
▁breach
▁comprised
▁host
▁times
,471
,799
,858
GAAP
▁Author
▁Violation
▁metals
,841
3,600
▁12.4
▁Linked
▁premium
▁still
▁temporary
▁west
,500,000
,673
ocket
▁Broadcast
▁Fail
▁category
▁18.3
▁Fisheries
▁manipulat
print
▁Comfort
▁HAS
▁Holders
▁poison
Dec
Europe
▁came
▁contains
▁therein
,758
Disciplined
▁preceding
,755
5,600
First
gged
management
▁0.2
▁Here
▁vehicle
▁0.30
▁Did
▁Ethics
▁big
▁going
▁impair
▁16.2
▁DESIGN
,706
5,700
ascribed
tewardship
▁Advertising
▁Help
▁materially
▁measure
,727
▁Cooperative
▁candid
▁filing
▁Reduction
,602
▁strong
,803
8.0
Acquisition
▁bus
▁repercussion
▁terminate
,291
Tax
▁Christmas
▁Commodities
▁water
,592
▁19.2
▁AGREEMENT
▁Election
▁GOODWILL
▁SME
▁come
▁intended
▁methods
quantum
▁EVENTS
▁length
▁resulted
▁small
,893
,906
,962
▁1.02
▁earlier
▁expressed
▁practitioner
▁BUSINESS
▁CONTACT
▁Interests
▁Requirements
▁reason
,809
Law
▁added
▁agency
▁committed
▁covenants
▁find
▁giving
▁sponsored
▁tandem
▁tell
,852
▁Default
▁Lender
▁accumulated
▁hedges
,263
,993
eligious
wash
▁250,000
▁Chain
▁Enhanced
▁Exercise
▁conference
▁quarterly
▁side
,927
▁Consequently
▁History
▁Operational
▁electro
▁partners
▁zero
,711
risk
▁Deficit
▁Hindu
▁Slide
▁electronic
▁energy
6.0
▁7.8
▁Comput
▁German
▁affected
▁practice
▁Attach
▁Structured
▁factor
▁vesting
▁Receipts
▁field
▁boom
▁revise
4,800
MOUNT
budget
▁gener
▁guy
▁repayment
tooth
▁Dubai
▁GIS
▁UCC
▁body
,302
,503
FTA
Jun
▁0.50
▁Guarantor
▁Loyalty
▁MORTGAGE
▁Parliament
▁processing
▁variance
▁reflected
▁statutory
,492
with
▁Daylight
▁Easy
▁drilled
4,300
▁1.75
▁Bargain
▁GST
▁INDUSTRIAL
▁Lending
▁Medal
▁Qualifie
▁WAS
▁insert
,911
▁Item
▁JUNE
▁Mental
▁assay
,507
▁already
̨
▁Czech
▁PSAB
▁Treatment
▁campaign
related
▁5.00
▁DEFERRED
▁NHA
▁every
Reasons
▁6.0
▁Classic
▁Russia
▁fax
▁primary
▁repay
▁uses
,008
Omnibus
▁Competition
▁Exempt
▁Securitization
▁binding
▁governance
,871
▁elected
▁exceed
▁goods
▁quoted
▁revolve
▁tolerance
,892
4,600
▁Chinese
▁Dealers
▁Norway
▁WARRANT
▁approximate
▁12.5
▁follow
4.90
mining
▁components
▁CONSOLIDATED
▁Debenture
▁EXPENSES
▁Input
▁EVP
▁Strip
▁developed
▁strategic
▁Physician
▁prescribed
▁subpoena
▁Indemnity
▁acting
▁revised
▁Bench
▁Continuing
▁Disposal
▁ITEM
▁WITH
▁bisexual
▁Manual
▁Start
upon
▁Parliamentary
▁Revolving
▁Specific
▁award
▁bath
▁called
▁discount
IFRS
wide
▁15,000
▁DEPOSIT
▁furnish
▁kilometres
▁needs
▁palpabl
▁retain
▁sheets
▁wholly
▁bear
▁meetings
▁participate
▁piece
▁spent
hipbuilding
▁DEVELOPMENT
▁Engage
▁Switch
▁communicat
▁refrain
DAY
free
▁Automatic
▁Benchmark
▁Much
▁PROJECT
▁Profile
▁Sexual
▁VENTURE
▁manager
▁Commitment
▁Task
▁effects
▁mere
Continuation
▁industrial
▁rise
Food
▁0.03
▁Collateral
▁Elect
▁Senate
▁copper
▁securitization
.125
4,100
▁20,000
▁chain
▁percentage
0,000,000
ference
izing
ssigned
▁DRC
▁Embassy
▁ordinary
▁significantly
▁silver
3.90
named
▁discontinued
▁overall
2,600
▁ASSETS
▁FFO
▁Inflation
▁community
▁confidence
▁geophysical
▁opportunities
PRESIDENT
≠
▁Bonds
▁Intellectual
▁edition
▁extensive
▁permits
▁successful
▁Licens
▁corpo
▁reputation
▁selected
▁start
▁supplier
▁veins
▁yield
▁Members
▁Pricing
▁Resolute
▁promptly
▁retail
▁space
▁undertake
▁valued
larity
▁warrantie
▁0.3
▁mid
Brien
▁Also
▁FEDERAL
▁SOUTH
▁cheque
▁reductions
▁BOARD
▁NAME
▁hand
▁offence
▁repurchase
Secured
▁Column
▁Expir
▁authorization
▁consulting
▁desire
▁here
▁materials
▁planning
maker
▁calculation
▁mandate
▁people
frame
▁14.4
▁EMERG
▁Enforcement
▁Preventi
▁advance
▁detention
1,900
Ü
▁Aeronautic
▁HIGH
▁Incorporation
▁miles
▁restated
▁self
▁today
▁Assume
▁Fourth
▁cover
▁help
▁lockout
▁Significant
▁black
▁0.07
▁Debentures
▁exposed
▁road
2,400
▁Argentina
▁Definition
▁Tamil
▁argue
▁opera
Kind
Report
▁COMPENSATION
▁Fees
▁Proceeds
▁accelerate
▁check
▁depreciation
▁investigat
▁proceed
▁surveys
,000
▁Matter
▁changed
▁highly
▁monitoring
▁reclassified
5,100
held
volving
▁30,000
▁Discrimination
▁Exchangeable
▁PRC
▁conjunction
▁establish
▁redeemable
rotherhood
▁Workplace
▁brokers
▁soon
▁treat
1,500
FCCL
▁7.0
▁Administrator
▁calendar
▁response
quality
▁Customs
▁Former
▁Germany
▁Jurisdiction
▁bonds
▁Farmers
▁Strike
▁Turkey
▁Wildlife
▁indirectly
5,000,000
▁Biotechnology
▁determining
▁lunch
▁phone
2.50
▁earn
▁toward
1,800
3,200
▁ANNUAL
▁Single
▁Stress
▁YEAR
▁forecast
▁Customers
▁Relevan
▁deductible
▁old
▁stand
▁words
orrectional
terrorism
▁Conservative
▁PRICE
▁SHARES
▁irrevocabl
,000,000.00
2,100
2,900
̃
▁15.3
▁Martial
▁Think
▁appear
▁instalments
▁professor
▁survive
5,900
▁Laurentian
▁volcanic
driven
▁8.8
▁DISCUSSION
▁declared
▁individuals
▁specifically
Nov
most
▁13.6
▁Candidate
▁Existing
▁Geological
▁influenza
▁volatility
▁Adjusted
▁Historical
▁Inventory
▁consisting
▁investing
▁Drill
▁Punjab
▁Where
▁requested
3,300
▁Excess
▁Immigrant
▁WITHHOLD
▁beneficial
▁entire
▁favour
▁median
▁might
▁returns
3,800
American
Quebec
▁14.5
▁returned
▁Friday
▁Neutral
▁Revised
▁attract
▁involve
dilutive
round
▁HIV
▁family
▁respondents
▁solely
▁Auditing
▁ISIS
▁Refining
▁escrow
▁levels
▁regular
▁trusts
converted
▁Notwithstanding
▁UNITED
▁guarantees
▁reasons
▁Claim
▁Includes
0,400
▁Doctor
▁Literacy
▁Majesty
▁Official
▁ballot
▁look
▁0.12
▁17.3
▁Earn
▁circulat
▁confirmed
▁east
▁kidnapping
▁loose
▁powers
▁schedule
▁smelter
▁supply
5,400
etanor
▁OPPORTUNITIES
▁child
▁lines
▁live
▁pursue
▁Reconciliation
▁Revenues
▁cancelled
▁mall
▁relax
aging
load
▁DEFICIT
▁draw
▁great
▁redeemed
Oct
▁MARKETS
▁Selection
▁9.00
▁Adjustment
▁Proposal
▁banks
▁epi
▁true
▁Dividends
▁Marriage
▁hot
▁register
ctivewear
gligence
▁0.40
▁400,000
▁Advocate
▁Stockholder
▁Subsequent
▁decid
▁pending
▁persuasive
▁presid
quite
▁8.0
▁fail
▁imposed
▁mortgages
2,800
▁Ambassador
▁Conflict
▁Registry
▁Sentenc
▁Subscription
▁Success
▁lead
▁online
▁regulation
▁royalties
0,200
▁Lieutenant
▁precision
2,200
ivity
▁CSAE
▁Domestic
▁Statistics
▁taking
MONTH
▁Incentive
▁TRANSLATION
▁Years
,002
1,700
3,400
Duty
profit
▁10.7
▁10.8
▁DIVERSIFIE
▁GRANT
▁affair
▁carrier
▁designed
▁effectiveness
▁owns
▁pop
▁produced
▁Discount
▁LOSS
▁Servicing
▁ever
▁reverse
▁unrealized
controlling
▁0.75
▁Experience
▁GIR
▁GOVERNMENT
▁across
▁avoid
▁food
▁spin
▁11.6
▁Patient
▁plausibilit
5.90
cultural
▁Based
▁Borrowing
▁Egypt
▁Facts
▁Spain
▁created
▁remains
▁strike
▁Held
▁announce
▁believe
▁expectations
▁holdings
▁prevent
▁publicly
▁scope
▁thousands
▁throughout
▁Maturity
▁Sold
▁Sovereign
▁engaged
▁few
▁preserve
▁pupil
▁wish
1,600
3,900
▁0.06
▁Although
▁Southeast
▁credited
ography
word
▁16.3
▁Emirates
▁Russian
▁improve
▁invested
LFC
▁Approach
▁Competitive
▁REPRESENT
▁increases
▁itself
▁manage
▁salmon
▁vary
4,900
▁Amended
▁Library
▁Secondary
▁selling
ATING
▁SUPPLEMENT
▁anniversary
▁applying
SERIES
owned
shell
shop
▁Agencies
▁Deputy
▁Who
▁disregard
▁opportunity
▁remove
▁treasury
,003
1,100
3,700
▁Consideration
▁distributed
▁exhibit
▁guaranteed
▁leading
▁light
▁ongoing
generation
▁claimant
▁planned
▁NUMBER
▁criteria
▁recently
▁reflects
2,700
entry
▁6.9
▁Twenty
▁dissolv
▁donations
▁engineering
▁involved
▁raise
▁twelve
▁0.18
▁15.4
▁PRODUCTS
▁YOUR
▁head
▁keep
▁school
▁users
▁Annex
▁Returns
▁combination
▁doctor
▁enable
▁map
▁paragraphs
▁Amounts
▁Military
▁announcement
▁network
▁taxpayer
6,400
hood
process
▁``
▁rocks
3,333
▁0.35
▁cease
bound
rated
▁LOAN
▁TDAM
▁recognise
▁round
̶
▁Auction
▁External
▁HUMAN
▁collectively
▁fairly
▁monitor
▁role
Reclassification
▁Components
▁advisor
▁decline
▁ground
▁Adverse
▁Today
▁annually
▁dislocation
▁suburb
fee
trial
▁AMENDE
▁Provider
▁approvals
▁circum
▁operational
▁requirement
1,400
▁Completion
▁Early
▁Feedback
▁Items
▁POOL
▁Postal
▁Proposed
▁allowed
▁covered
▁earned
▁error
▁expressly
▁incentive
▁relay
▁rental
▁representatives
▁residential
▁subscribe
1,300
▁5.75
▁Concurrent
▁Zero
▁relationships
▁renovation
▁tough
▁waiver
business
ending
▁Assay
▁Quarterly
▁Translation
▁Welfare
▁consecutive
▁properly
▁satisfied
▁size
▁understanding
7,600
Corruption
▁Considerations
▁Formula
▁Political
▁Relief
▁alienation
▁degree
Year
▁0.08
▁Juvenile
▁Only
▁discharge
▁revocation
▁suspicion
storm
▁Assess
▁Govern
▁Grow
▁Relationship
▁Yes
▁indicate
▁label
▁translated
▁Assignment
▁Barrier
▁Flows
▁Monitoring
▁12.6
▁Gift
▁filings
▁indebtedness
▁practices
▁tutor
7,200
▁Auditors
▁Austria
▁CMBS
▁Focused
▁anticipated
▁construed
▁deal
▁makes
▁offshore
▁partially
▁story
▁timing
,200,000
inches
ntegrity
trained
▁0.04
▁Filing
▁Guard
▁Underlying
▁inventory
▁software
2,300
▁3.00
▁PREFERRED
▁advances
▁applies
▁coordinat
▁reaction
▁understand
▁won
▁0.13
▁RELATED
▁attorney
▁failing
▁fire
▁ounces
▁reservoir
▁retrospective
▁search
▁step
kind
▁20.4
▁Receipt
▁Redeemable
▁SHAREHOLDERS
▁Unitholders
▁coming
▁recommend
▁rents
▁sulphide
segment
▁Designation
▁Eight
▁define
▁legislative
▁manufacturing
▁reflecting
▁released
▁servicing
▁unlimited
Equity
hibit
money
pulse
▁Independence
▁PURCHASE
▁Sheets
▁VOTING
▁agencies
▁gentleman
▁notify
▁penalty
▁processes
▁recognize
▁testing
step
vival
▁1,500,000
▁Adjust
▁Determination
▁Jewish
▁pull
▁south
▁2.00
▁extend
▁implement
▁offered
0,800
3,100
officio
▁1.03
▁Component
▁coast
▁experiment
▁participating
▁steps
▁Combined
▁Estimate
▁Role
▁UNHCR
▁assumed
▁element
▁facts
▁obstruct
▁shows
▁traded
▁vendor
haul
improved
▁Commitments
▁Privilege
▁Saudi
▁TECHNOLOGY
▁buy
▁characteristics
▁domestic
▁heading
▁initially
▁inputs
▁preliminary
owing
▁21.4
▁Both
▁Telesat
▁education
▁Atomic
▁Extend
▁FRN
▁GTA
▁Geologist
▁NPV
▁Neither
▁create
▁laid
▁particularly
▁tender
BACK
iding
▁2,000,000
▁Families
▁Own
▁STUD
▁Symbol
▁Underwriting
▁faith
▁feedback
▁halt
▁listing
▁moved
▁CHANGES
▁Ended
▁Regulator
bearing
itting
▁IPO
▁Volunteer
▁Wares
▁confident
▁feasibility
▁formerly
▁penal
▁settled
▁square
25.00
▁13.7
▁Absolute
▁Load
▁Receivable
▁cable
▁comparison
partisan
▁CLAIM
▁Forecast
▁alternate
Commerce
RESEARCH
adjourned
▁affiliates
▁entitles
▁license
▁repayable
▁safety
▁ticket
,500.00
▁Positive
▁discussed
▁names
▁uncertainties
encing
▁1.25
▁Ultimate
▁assessing
▁complie
▁pledge
5,300
Information
▁12.0
▁Hungar
▁Israeli
▁Numero
▁PERSON
▁Pursu
▁QUARTER
▁SUBSEQUENT
▁Unless
▁disclose
▁grab
▁hearing
▁hereinafter
▁lands
▁penalties
▁political
▁underground
75.00
▁Overview
▁SCHEDULE
▁Website
▁developing
▁instead
▁restructuring
▁retroactive
0.8
▁11.0
▁4.25
▁Address
▁Ask
▁BOC
▁Every
▁Policies
▁followed
▁merger
▁precedent
▁utilize
Class
ality
▁Canadians
▁Responsibility
▁Territories
▁bbl
▁blue
▁communicate
▁delay
▁fault
▁language
▁maintained
▁proper
▁protein
▁raised
▁substantial
ably
claring
▁Specified
▁Talk
▁affecting
▁approve
▁generate
▁kind
▁rule
leasing
▁Dissent
▁applicant
▁numerous
▁references
▁unanimous
▁wide
▁Between
▁Cumulative
▁Recent
▁Supplement
▁considerations
▁ministr
▁rich
▁10.0
▁17.5
▁ALLOCATION
▁Complete
▁Democratic
▁duty
▁framework
▁scheduled
▁specialist
▁things
party
▁Divorce
▁THREE
▁adjournment
▁chief
▁clear
▁cool
▁corroborative
▁dissent
▁separation
Time
melting
▁Geology
▁Implication
▁borrower
▁bulk
▁death
▁largest
▁spiritual
▁sponsor
6,800
ibility
▁ANY
▁Essential
▁PARTY
▁Signed
▁appellant
▁briefing
▁thereafter
▁Assembly
▁Better
▁Democracy
▁INTERIM
▁Practical
▁Starting
▁amalgamation
▁implementation
▁operator
▁unsecured
ferred
▁Dear
▁Namibia
▁Offered
▁floor
▁magnetic
▁reached
Limitation
▁Accumulation
▁Those
▁fuel
▁litigation
▁operate
▁outline
▁training
passu
▁ADVISOR
▁AFFO
▁PMO
▁Territory
▁signing
▁vested
▁12,000
▁Allowance
▁Gather
▁Preliminary
▁SHORT
▁certified
▁exhibition
▁parallel
▁refundable
backed
enacted
▁11.7
▁600,000
▁BALANCE
▁Draw
▁advanced
▁considering
▁enclosed
▁leave
▁lending
▁occurs
▁reimburse
▁trigger
▁4.00
▁COMPLETE
▁Platform
▁Renewal
▁indemnification
▁proposal
▁staff
▁11.8
▁Teleglobe
▁explained
▁liable
Chief
Out
▁AIF
▁Accumulated
▁CORPORATE
▁ISSUE
▁Procedures
▁Workshop
▁choice
▁confess
▁memo
▁timely
surface
▁14.6
▁Deposits
▁RISK
▁WHEREA
▁acknowledges
▁alteration
▁cow
▁know
,400,000
advisor
▁DECEMBER
▁Physical
▁aware
▁counterpart
▁groups
Feb
portfolio
worthy
▁0.60
▁Making
▁Preference
▁Separate
▁Unaudited
▁interval
▁mentioned
▁Contingent
▁DNA
▁Pound
▁WILL
▁acceptance
▁governmental
▁subsequently
6,200
▁Jamaica
▁None
▁Solicitor
▁lives
▁relocation
alone
▁Decrease
▁Month
▁Register
▁Very
▁achieve
▁begin
▁bring
▁focused
▁repair
▁succeed
▁CONTROL
▁Feature
▁Package
▁tag
Offence
ofar
wares
▁Constituent
▁Dispute
▁Tender
▁contrary
▁separately
▁sets
▁Execution
▁Reflect
▁YIELD
▁brought
▁funded
▁judicial
▁residual
▁standing
▁validate
▁ASPE
▁Listing
▁economically
▁judicata
▁notional
▁Adjustments
▁MRFP
▁Managing
▁SIGNIFICANT
▁accuracy
▁complaint
▁discovered
▁expired
▁expiry
▁hydrogen
▁marketable
▁statute
▁thus
▁women
purpose
▁12.7
▁4.50
▁Discretionary
▁Elimination
▁Should
▁charter
▁establishes
▁feature
▁submitted
brief
▁6.00
▁75,000
▁Commencement
▁STATEMENT
▁Thailand
▁Yet
▁around
▁increasing
▁judge
▁managing
▁recover
▁Many
▁Matur
▁affairs
▁financed
▁forms
▁interact
▁letters
▁purchases
ccountancy
▁10.9
▁REVENUE
▁correlation
▁much
While
hear
▁Facilitat
▁Hansard
▁Movement
▁Possible
▁dynamic
▁stockholders
▁unpaid
▁western
6,667
responsibilities
▁40,000
▁750,000
▁CONSIDERATIONS
▁Difference
▁Peninsula
▁SEGMENT
▁Staple
▁conceptual
▁determines
▁onus
marks
▁5.25
▁Brokerage
▁Further
▁Leave
▁PORTFOLIO
▁Thousand
▁countries
▁establishment
▁expects
▁pertain
▁reconciliation
▁scrap
▁straight
▁transitional
iopharmaceutical
▁DSC
▁HRC
▁Measures
▁convert
▁covers
▁grants
▁impaired
▁run
▁seek
▁select
▁soil
▁subscription
▁whom
earning
riving
▁1.15
▁Appointment
▁Dominican
▁PREP
▁certify
▁circular
▁exposures
▁salary
▁savings
▁secure
ௗ
▁Switzerland
▁arise
▁flash
▁issuable
▁seven
▁spot
Monetary
▁12.8
▁Defined
▁Restated
▁satisfy
▁tested
clined
evaluation
neither
pleased
▁Background
▁Legislative
▁THAT
▁coverage
▁evaluating
▁improvement
▁native
▁orders
digit
heels
▁Flexible
▁RESULTS
▁UNDER
▁Without
▁borrowings
aving
nounc
tabled
▁0.11
▁CERTIFICATE
▁Deduction
▁Ethical
▁Overall
▁Permit
▁RESERVE
▁User
▁geochemical
▁sectors
▁studies
▁telephone
▁thank
AASOC
reating
▁Given
▁OPERATION
▁PRESENTATION
▁PRIVATE
▁column
▁late
,250,000
,300,000
▁13.8
▁4.75
▁99.9
▁Disability
▁Integration
▁Italy
▁Legislation
▁Minority
▁Unrealized
▁computer
▁deploy
▁marks
Symmetry
▁Forestry
▁Revision
▁Veterans
▁Videotron
▁illustrat
▁provider
▁ultimate
voting
▁5.50
▁Therefore
▁UAE
▁doubt
▁exam
▁medium
▁remedie
End
▁Assisted
▁Length
▁Treasurer
▁accurate
▁institutional
▁principle
▁secur
▁store
▁trial
,800,000
Apr
▁1.50
▁Purchased
▁RECEIVABLE
▁RIGHTS
▁commercially
▁containing
▁singular
▁transfers
▁typically
▁waive
minute
registry
∑
▁Approved
▁Creation
▁Lack
▁PRESS
▁conditional
▁gay
▁municipality
▁often
▁rathe
▁transplant
▁webcast
Colonel
Sponsored
▁Elective
▁IRPA
▁Practitioner
▁chairman
▁counterparts
▁move
▁rape
▁requir
▁sediment
▁travel
▁treaty
▁whereby
electric
▁Authorities
▁Vertical
▁addressed
▁annum
▁send
excluded
nomaly
▁acquiring
▁advisors
▁became
▁doing
▁defense
▁jail
▁looking
▁prepayment
▁recovered
▁replaced
▁serves
▁strip
▁trademark
▁Depreciation
▁FLOWS
▁Fear
▁Present
▁YEAS
▁fulfill
▁fulfilled
▁northern
,600,000
bility
▁15.5
▁Before
▁EARNINGS
▁Economy
▁INSURANCE
▁Investing
▁PROVIDE
▁VIEs
▁bribe
▁harm
▁proposals
▁prospecting
▁recommendation
▁thereon
▁voted
EACH
solvent
▁ACAF
▁Kuwait
▁Scheme
▁WHO
▁dealer
▁favourable
▁kit
▁resignation
lease
lived
▁12.9
▁2.25
▁PIF
▁acts
▁books
▁consolidat
▁mapping
▁perverse
▁recession
access
mailed
▁0.16
▁Custody
▁Islamic
▁Korean
▁Memor
▁broad
▁frank
▁magnitude
▁rational
▁spread
▁validly
▁virtual
9,600
▁Agree
▁Fairness
▁PFIC
▁Paragraph
▁Reach
▁Reorganization
▁Restructuring
▁Taliban
▁advantage
▁comments
▁hours
▁seniors
▁smaller
6,600
▁ACB
▁Diluted
▁Selling
▁achieved
▁acknowledge
▁alumina
▁bore
▁fabric
▁incorporate
▁interpretations
▁seller
▁track
▁undertaking
▁webinar
,100,000
▁14.7
▁Editor
▁Simply
▁destroy
▁producer
▁trends
▁125,000
▁CUPE
▁Campaign
▁Finally
▁Judgment
▁Monday
▁Polish
▁STRATEGIC
▁Tanzania
▁covenant
▁defensive
▁denominated
▁observed
▁organizations
▁speculative
▁summarized
▁summer
Removal
balance
consisted
fold
▁Accountability
▁COMMON
▁Dated
▁Gender
▁IRB
▁blank
▁exists
▁guidelines
▁managers
▁surrender
Wealth
▁16.5
▁Factors
▁Failure
▁assumption
▁enterprise
▁enterprises
▁needed
▁presently
▁raw
▁waste
chief
used
▁18.5
▁ADDITIONAL
▁Controlled
▁Death
▁Indebtedness
▁NINE
▁Treaty
▁adequacy
▁bankruptcy
▁commodity
▁confidential
▁constitutes
▁derived
▁mandatory
▁operates
▁submit
thereby
▁20.5
▁Associate
▁IIROC
▁arbitration
▁beneficiary
▁caption
▁chart
▁competitive
▁concerns
▁entitle
▁facsimile
▁roads
▁AUGUST
▁Excluding
▁authorize
▁preference
▁receiving
▁setting
▁uncertainty
8,400
IRB
▁According
▁Expense
▁Ownership
▁Pools
▁administrator
▁blocks
▁device
▁drug
▁entirety
▁necessarily
▁passed
▁platform
▁serious
consolidated
▁13.0
▁Cultural
▁Example
▁Freedoms
▁SEPTEMBER
▁advice
▁frequent
▁stream
Asset
employee
transfer
▁1.05
▁Contributed
▁FIXED
▁Memorandum
▁assert
▁department
▁inconsistent
▁instrumental
▁integrated
▁trillion
▁white
performing
▁Geographic
▁MEETING
▁Mean
▁Stay
▁coal
▁implemented
▁largely
▁passing
▁selective
▁took
▁twenty
ENCY
▁0.09
▁Alcohol
▁Concentrate
▁Eligibility
▁Facsimile
▁Inquiry
▁Recommendation
▁assignment
▁enforce
▁engineer
▁perfect
▁reimbursement
▁warranty
▁0.17
▁0.45
▁60,000
▁Clerk
▁LEGAL
▁YEARS
▁bears
▁beyond
▁clay
▁embedde
▁opening
▁prejudice
▁produce
➜
holders
tatutory
▁Consist
▁Historic
▁Maybe
▁Subordinate
▁Supplemental
▁manages
▁relatively
▁reproductive
▁started
▁word
newsletter
▁Arabia
▁Hazard
▁RIR
▁Replacement
▁buyer
▁employed
▁enforcement
▁entitling
▁exceeds
▁inspector
▁notified
▁reach
▁spend
sheet
▁HOW
▁individually
▁limits
▁love
▁pressure
▁revisions
▁served
▁want
talled
▁Available
▁Barrister
▁merge
▁priority
▁remained
▁roll
adversely
chase
forward
▁AIDS
▁Assumption
▁BALANCED
▁NAYS
▁accrual
▁author
▁council
▁extended
▁rating
▁sequence
▁suppliers
▁vacanc
ewsprint
▁AcSOC
▁Classes
▁EBIT
▁Indigenous
▁Reset
▁Subordinated
▁Tuesday
▁affiliate
▁assessed
▁green
▁membership
▁rely
▁satisfactory
▁steel
▁structured
▁transact
▁10.00
▁Correct
▁Enhancement
▁Insider
▁Risks
▁SECURITY
▁Welcome
▁advisory
▁expedite
▁gives
▁invoice
▁mitigation
▁models
▁rank
▁realize
▁specification
▁states
▁territory
7,800
attributed
▁35,000
▁ACTIVITIES
▁Bonus
▁Bought
▁PROXY
▁Payout
▁Permitted
▁Responsible
▁Selected
▁Skills
▁adjust
▁consummati
▁deem
▁features
▁geologist
▁granting
▁island
▁magnet
▁misstatement
▁portal
▁profitability
▁releases
reserve
▁0.22
▁Estimates
▁RELEASE
▁addresse
▁capitalization
▁children
▁consummate
▁gave
▁master
▁minority
▁redeem
▁rendered
▁substantive
▁supplemented
▁tank
▁waived
8,200
Free
security
week
▁0.21
▁1.85
▁15.0
▁Beginning
▁LTTE
▁Nothing
▁dismiss
▁initiated
▁manufacturer
▁origination
▁refund
▁reside
▁stimulus
▁awarded
▁bomb
▁daily
▁enhance
▁expenditure
▁plaintiff
▁renounce
apping
▁DSU
▁Disruption
▁Ending
▁Enhanc
▁Muslim
▁Quantitative
▁Retrieva
▁Setting
▁accountants
▁ask
▁depending
▁divided
▁modify
▁negotiate
▁precious
▁specify
▁telecommunicati
▁trend
eastern
seller
▁Including
▁NOI
▁conclusive
▁defend
▁designate
▁input
▁laboratory
▁valuations
▁verify
▁DISCLOSURE
[...]
