<blank>
<s>
</s>
▁
▁the
▁,
▁.
▁of
▁to
▁and
s
▁in
▁a
▁that
▁is
▁The
▁for
.
-
(
)
▁on
▁be
$
▁by
▁as
▁are
▁or
▁with
▁not
▁at
▁was
▁this
:
▁I
ing
▁from
▁have
▁will
’
▁an
%
'
▁it
▁has
ed
▁Canada
d
▁its
▁which
;
▁we
▁million
▁Fund
e
▁In
▁our
▁other
▁1
▁any
▁were
▁A
▁would
▁may
▁Company
"
▁31
▁he
▁his
▁all
▁Mr
/
▁year
▁their
▁been
▁under
▁financial
▁Canadian
“
”
▁This
▁also
▁they
▁government
▁We
▁no
▁2
▁appellant
▁time
▁It
t
S
▁had
▁such
▁December
▁30
▁value
ly
▁these
▁one
▁period
▁C
▁income
▁her
▁de
▁who
▁there
▁about
▁Corporation
▁3
▁As
▁information
▁than
▁if
y
▁more
▁do
▁per
—
–
▁Inc
▁can
▁but
▁Series
▁assets
▁following
▁Board
▁years
▁Act
▁you
▁net
▁tax
▁quarter
▁over
▁interest
▁investment
▁shares
▁first
▁ended
▁into
▁when
er
n
▁securities
▁should
▁c
▁new
▁management
▁S
▁each
r
▁made
▁4
▁cash
▁out
▁business
?
▁capital
▁she
▁market
▁5
▁Speaker
▁risk
▁respect
▁member
1
▁statements
▁Minister
▁amount
▁10
▁He
▁Class
▁Shares
▁did
▁For
▁could
▁U
▁does
▁some
▁June
▁what
▁only
▁before
▁evidence
▁share
▁must
▁those
▁March
a
▁my
▁date
2
▁during
▁up
▁No
▁number
▁same
▁two
▁after
▁rate
▁well
▁people
&
▁costs
▁including
▁fund
▁through
▁so
▁2013
▁because
▁price
▁2014
▁2012
▁6
▁2015
▁2011
▁Financial
3
▁them
C
▁units
▁2010
▁services
▁very
▁expenses
▁CanLII
▁members
▁B
▁work
▁2016
▁15
▁non
▁There
▁three
▁September
▁increase
▁due
▁Committee
▁compared
▁v
▁based
▁If
▁On
▁order
▁between
▁total
▁case
▁applicant
▁make
5
▁shall
▁section
▁related
▁performance
▁2017
▁7
▁Trust
▁operations
▁Management
▁12
▁being
▁F
▁support
▁us
▁issue
▁2009
▁months
▁your
▁paid
▁used
▁certain
▁long
▁credit
▁P
8
▁provide
▁where
▁R
▁plan
▁sales
▁un
▁part
▁These
▁2018
▁cost
▁common
▁result
▁11
▁Bank
▁8
▁M
▁9
▁fair
▁provided
▁January
4
▁issued
0
▁available
▁future
▁subject
▁Units
▁bill
▁2008
▁That
▁Appellant
▁company
▁Notes
▁person
▁Canadians
▁basis
▁operating
▁within
▁said
▁2007
▁use
▁annual
▁decision
▁required
▁results
▁House
▁2006
▁portfolio
▁change
▁second
▁last
▁agreement
▁since
▁20
▁However
▁report
▁public
term
▁loss
▁impact
▁They
▁Portfolio
▁held
▁appeal
▁debt
▁find
▁May
es
▁2005
▁investments
▁now
▁equity
▁am
▁Income
l
▁fiscal
▁approximately
▁significant
▁Net
▁end
▁question
▁increased
▁see
▁October
▁return
▁how
▁like
▁13
▁current
▁right
▁whether
▁growth
▁US
▁2004
▁know
▁set
▁changes
▁day
▁property
▁committee
▁April
▁both
▁les
▁take
▁terms
▁outstanding
▁fees
▁Index
▁activities
▁2019
▁received
▁additional
▁him
▁14
▁important
al
▁forward
R
▁development
▁16
▁XXXX
▁country
▁application
▁earnings
▁want
▁fact
6
▁d
▁pay
▁Date
▁need
▁addition
▁Manager
▁position
▁Note
▁place
▁many
▁E
▁funds
▁Funds
▁General
▁25
▁United
▁Quebec
▁T
▁billion
‘
▁process
▁service
▁against
▁most
›
▁O
▁At
▁18
▁claimant
▁Bill
▁2003
▁purchase
▁directors
▁Group
▁November
▁prior
▁include
▁foreign
[
▁options
▁program
▁companies
▁February
▁term
▁asset
▁OF
▁consolidated
▁liabilities
▁July
▁compensation
▁upon
▁included
▁documents
A
▁17
able
▁Securities
▁means
▁D
▁system
▁receive
▁review
▁without
▁law
▁payable
▁re
▁applicable
▁third
]
▁further
▁expected
▁conditions
▁products
▁rights
▁panel
▁below
▁me
▁family
▁She
▁2002
▁Senator
▁exchange
▁continue
▁average
▁way
▁L
▁19
▁Common
▁August
▁Investment
▁Directors
▁accounting
▁Immigration
▁See
▁President
▁Capital
▁form
▁hearing
▁industry
▁Ltd
▁28
▁table
▁primarily
▁own
▁rates
▁above
▁employees
▁2001
▁accordance
▁legislation
▁Total
▁Court
x
▁CA
▁effect
▁benefit
▁economic
▁Plan
▁given
▁follows
▁present
▁States
▁stock
▁federal
▁short
▁minister
▁get
▁revenue
▁ensure
▁Officer
▁until
▁purposes
▁note
▁balance
▁21
*
▁shareholders
▁fee
▁expense
▁taxes
▁Equity
▁higher
▁money
▁stated
▁just
▁general
▁Chief
▁To
▁amounts
▁provides
▁material
▁During
▁help
▁p
▁Ontario
▁risks
▁considered
▁24
▁When
▁days
re
▁All
o
▁Executive
th
in
▁circumstances
▁Global
▁cannot
▁22
▁described
▁Corporate
▁back
▁principal
▁board
▁Ms
▁27
▁sale
▁today
▁requirements
▁six
m
▁Section
▁high
▁determined
▁working
▁think
▁using
▁effective
▁acquisition
▁good
▁meeting
▁G
▁losses
▁An
▁health
▁parties
▁J
▁while
▁Our
7
▁pursuant
▁production
▁RPD
▁another
▁testified
▁recognized
▁account
▁revenues
▁la
▁2000
▁IFRS
▁29
▁level
▁subsection
▁23
▁Other
▁say
▁past
▁why
▁New
▁N
▁lower
▁believe
▁option
▁particular
▁going
▁Agreement
▁put
▁issues
▁consider
▁AND
▁recorded
▁party
▁factors
▁trade
▁policy
▁able
▁children
▁point
▁even
▁officer
▁notes
▁Government
▁International
c
▁benefits
▁dollars
▁found
▁markets
▁26
▁five
▁contracts
▁hon
▁THE
▁notice
▁every
▁series
▁transactions
▁decrease
▁50
▁Honourable
▁record
▁security
ment
▁statement
▁Limited
ation
▁plans
▁best
▁equal
▁distribution
▁currently
▁document
▁page
▁unit
▁full
i
▁prices
▁different
▁here
com
en
▁What
▁completed
▁control
▁appropriate
▁le
▁corporate
▁potential
▁life
▁matter
▁dated
▁Share
▁ETF
▁instruments
▁provisions
▁payment
▁Federal
▁l
▁Exhibit
▁H
▁reasonable
▁marriage
▁asked
▁go
▁gains
month
▁100
▁care
▁directly
u
▁Annual
▁regarding
▁reasons
▁Tribunal
▁world
▁fixed
▁specific
▁periods
on
▁equipment
▁established
▁investors
▁Cash
▁come
▁Vice
▁protection
▁give
▁Toronto
▁apply
▁purpose
▁Information
▁legal
▁independent
▁Reference
▁meet
▁motion
▁sector
▁necessary
▁Corp
▁much
▁allow
B
▁interests
▁portion
▁generally
▁exercise
▁Prime
▁paragraph
‐
▁prospectus
|
▁currency
▁gas
▁consideration
refore
▁next
▁Q
▁Report
▁TSX
▁includes
▁Return
▁access
▁vote
▁filed
▁taken
▁claim
▁Co
▁offer
▁insurance
▁obligations
▁IRB
▁budget
▁granted
▁measures
▁Services
▁having
▁presented
▁Division
▁key
▁down
▁Tax
▁First
▁analysis
▁relating
▁Director
▁policies
▁product
▁North
▁relationship
▁trading
▁individual
▁project
▁Partnership
▁done
▁area
▁exposure
▁senators
▁Level
▁various
▁example
▁National
▁Hon
▁clear
▁continued
_
▁across
▁group
▁Business
▁W
ies
▁employment
▁distributions
▁entitled
▁customers
▁gain
▁financing
▁Re
▁contract
▁action
▁relevant
▁experience
9
▁reporting
▁agreements
▁dollar
▁payments
▁40
▁properties
▁referred
▁transaction
▁office
▁opportunity
▁1999
▁otherwise
▁proposed
▁debate
▁flow
▁testimony
▁request
▁private
▁name
▁power
▁director
▁course
▁sold
▁indicated
▁real
▁proceeds
▁strong
▁class
▁amended
▁view
▁responsible
▁previous
▁four
▁beginning
▁child
▁oil
▁registered
▁You
le
▁REIT
▁become
▁act
▁still
▁charge
▁making
▁Senate
▁Value
▁together
▁things
▁address
▁officers
▁Statements
▁defined
▁facility
▁invest
▁base
P
▁associated
▁employer
▁Parliament
▁Québec
▁major
▁least
▁regard
▁look
▁en
▁trust
▁Risk
▁situation
▁possible
▁liability
▁approved
▁b
▁Offering
▁counsel
▁estimated
▁acquired
▁ability
▁Non
▁again
▁accounts
▁national
▁read
▁pension
▁dividends
▁regulatory
▁Offer
▁data
▁home
▁resources
▁Asset
▁Appeal
▁reference
▁loans
▁community
▁loan
▁sur
▁reported
T
entered
▁approach
▁month
▁Growth
▁Code
year
▁standards
▁special
▁opinion
▁several
▁Stock
▁better
▁Commission
▁similar
▁needs
▁cause
▁determine
▁returns
▁met
based
D
▁Exchange
to
▁written
▁programs
▁limited
▁mutual
▁nine
▁line
▁great
or
▁Public
▁des
▁strategy
▁police
▁Liberal
▁already
▁Preferred
▁Energy
▁bank
▁Under
▁Interest
▁exploration
▁invested
▁letter
▁reduce
▁Resources
▁agree
▁ask
▁facilities
▁Applicant
▁flows
▁hold
▁approval
▁connection
▁among
▁La
▁Refugee
▁times
f
▁few
▁affect
▁questions
▁understand
▁existing
ity
▁SCC
▁Mackenzie
▁Consolidated
▁greater
▁international
▁Investments
▁deferred
▁claims
▁Unit
▁laws
▁except
▁reason
▁objectives
▁prepared
▁items
▁respectively
▁either
▁however
▁offering
▁applied
▁With
▁submitted
▁provinces
▁Rights
ent
E
▁appear
▁leave
▁employee
▁nature
▁K
▁obtain
▁court
▁provision
▁PS
▁matters
▁RAD
▁Home
▁refer
▁initial
-1
▁behalf
▁large
▁segment
▁natural
▁amendments
▁American
▁Price
▁Life
▁global
▁state
▁colleague
▁standard
▁rules
▁noted
▁conclude
▁businesses
▁Regulations
▁low
▁dividend
▁personal
▁called
▁60
▁establish
▁capacity
▁minimum
▁executive
▁job
▁economy
▁Finance
▁doing
▁regulations
▁investing
▁pre
▁closing
▁audit
M
▁et
▁countries
▁assessment
▁calculated
▁obligation
creased
▁provincial
▁Bond
▁event
▁i
▁35
▁underlying
▁concerns
▁incurred
p
▁2020
▁small
▁responsibility
▁never
▁status
▁www
▁Each
▁objective
▁quality
▁require
▁fourth
▁Audit
▁environment
▁permanent
▁call
▁Shareholders
b
▁Meeting
▁land
▁might
▁women
▁deal
▁positive
▁One
▁areas
▁response
▁majority
▁open
▁manager
▁complete
▁mainly
▁located
▁research
▁voting
▁announced
▁China
▁gold
▁direct
▁events
▁estimates
▁du
▁cases
ive
▁levels
▁commercial
▁Credit
▁EBITDA
▁redemption
▁sub
▁affected
▁conduct
▁Principal
=
▁Development
▁serious
▁percentage
ized
▁problem
▁persons
▁role
▁sell
▁subsidiaries
g
▁carrying
▁lease
▁off
▁customer
▁meaning
▁St
▁jobs
▁close
▁visa
▁corporation
h
ness
▁ratio
▁transfer
▁projects
▁later
▁technology
▁involved
▁Assets
▁Valuation
▁entity
▁senior
▁attributable
▁offset
▁Compensation
ra
▁speak
▁unless
▁pages
▁cent
▁amendment
▁election
▁aggregate
up
▁taking
▁Operating
▁Since
▁method
▁values
▁Prospectus
▁gross
▁n
▁charges
▁By
▁adjusted
▁concerning
▁accept
▁plant
▁around
▁safety
▁Citizenship
▁social
▁criminal
▁Senior
▁maximum
▁demand
▁answer
▁Conservative
▁negative
▁Party
▁adopted
▁procedures
▁providing
▁Maturity
▁free
▁agreed
▁interim
▁Any
▁sufficient
▁longer
▁signed
▁outside
▁...
▁opportunities
▁disclosure
▁internal
z
▁holders
While
▁manner
▁CPA
▁heard
▁administrative
▁impairment
▁medical
▁Montreal
▁details
▁final
▁reflect
de
▁Amount
▁remain
▁De
▁whole
▁came
▁previously
▁something
▁communities
▁jurisdiction
▁fully
▁took
▁authority
▁funding
ary
▁returned
▁extent
▁believes
ant
▁Record
▁reduced
▁purchased
▁45
▁decisions
▁try
▁committed
▁energy
▁TD
over
▁obtained
▁assumptions
▁CAD
▁profit
▁retrieve
▁mother
▁Alberta
▁NDP
▁told
▁Option
▁overall
▁contained
co
▁Le
▁consistent
▁32
▁British
▁maintain
▁activity
▁offered
▁m
▁listed
it
▁Health
▁opposition
▁proceeding
▁goods
▁reports
▁discussion
▁always
▁little
▁Market
▁former
▁province
▁condition
▁tell
▁actual
▁shows
▁left
▁36
▁respondent
▁wife
il
▁Therefore
L
▁team
▁issuance
▁Form
▁show
▁recent
▁America
▁treatment
▁reduction
▁mining
▁finance
▁34
et
▁ago
▁protect
▁realized
▁subsidiary
▁once
▁expenditures
▁certificate
us
▁bring
▁human
▁1998
▁force
▁age
▁earlier
▁shareholder
▁local
▁Payment
▁recognize
is
▁half
+
▁receivable
0,000
▁live
▁resulting
▁TO
▁assurance
▁political
▁Liberals
▁33
at
▁consist
▁deemed
▁kind
▁Circular
▁Paper
▁remaining
▁organization
▁states
▁g
▁summary
I
▁rise
▁actions
▁requires
▁test
▁Chair
▁appointed
▁grant
▁talk
▁facts
ic
▁knowledge
▁focus
▁represents
▁monthly
la
▁strategic
▁compliance
▁Chairman
@
▁authorities
▁administration
▁stay
ar
▁problems
▁represent
▁range
▁intend
▁Dr
▁known
▁grievor
▁joint
▁Closing
▁V
▁yet
▁owned
▁Lib
▁families
looking
▁Human
▁education
▁CIBC
▁thank
▁individuals
▁measure
▁lack
▁co
20
▁positions
▁Acquisition
Q
▁particularly
▁likely
▁authorized
▁contact
▁clearly
▁raised
▁IAD
▁X
▁1,000
▁Insurance
▁Service
▁GAAP
F
▁systems
▁expect
K
▁efforts
▁After
▁successful
▁principles
▁too
one
▁holder
▁operation
▁submit
▁plus
▁39
▁Revenue
▁Unitholders
▁really
▁went
▁comprehensive
▁identified
▁resident
▁continues
▁accepted
▁environmental
▁file
▁meetings
▁Columbia
▁amortization
▁added
▁move
▁parents
▁lives
▁determination
k
▁workers
▁single
▁construction
▁start
▁clients
▁Order
▁actually
▁school
▁words
▁copy
▁ongoing
▁create
▁alleged
▁training
▁justice
▁improve
▁pro
▁auditor
▁38
▁rathe
▁mentioned
▁contribution
▁week
▁release
▁nothing
▁shown
ating
▁simply
▁early
▁From
▁participate
▁derivatives
▁changed
▁Conservatives
▁representing
▁visit
▁specified
▁makes
▁derivative
▁client
▁father
▁investor
▁judgment
▁agent
▁acquisitions
▁Part
▁lot
▁Investors
▁37
▁judge
▁wish
25
▁trial
▁often
▁keep
▁consent
▁How
▁credibility
est
▁forth
amounted
▁More
▁network
▁relative
▁Power
ance
▁contains
▁thing
▁Debentures
▁designated
▁Special
immediately
▁generated
▁allowed
▁target
▁reviewed
ate
▁proxy
.00
50
O
▁selling
▁professional
▁commitment
▁ownership
▁throughout
▁concern
▁firm
▁90
▁BMO
-2
ling
▁side
te
▁continuing
ur
▁post
▁maturity
▁nor
▁riding
▁represented
▁achieve
▁Respondent
▁bonds
▁developed
▁Protection
▁list
an
▁difficult
▁sheet
▁refugee
▁allocation
J
▁according
▁normal
▁young
▁Year
▁yield
▁moved
▁external
▁far
▁Governance
▁Accordingly
▁intended
▁brought
▁RBC
▁concerned
▁seem
President
▁auditors
®
▁study
▁Dividend
▁water
▁supply
nt
▁practices
▁valuation
▁light
30
▁aware
▁reserves
▁margin
▁discretion
▁looking
▁son
▁hope
▁model
man
▁performed
▁develop
▁Property
▁retirement
▁face
▁discussed
▁history
ci
▁eligible
15
▁sent
▁acquire
▁My
▁degree
▁whose
▁USD
▁Notice
▁recommendations
▁Pool
▁living
▁explain
▁definition
▁quarterly
▁IN
▁Security
▁equivalents
▁criteria
ce
▁managed
▁leader
▁difference
ion
▁Standing
▁main
▁worked
end
ous
▁old
▁context
▁recently
▁husband
▁Gold
75
▁MD
▁preferred
ING
▁LP
▁Foreign
▁comes
▁type
ter
▁Rate
▁rating
▁remains
▁building
▁II
W
▁hard
▁accrued
▁Air
▁taxable
▁charged
▁practice
▁hours
▁failed
▁Redemption
▁Council
▁website
▁41
▁structure
▁assistance
▁factor
am
▁Partner
▁Additional
▁hand
▁Day
▁FOR
▁Investor
▁created
▁toward
▁42
▁infrastructure
▁Sales
▁retail
▁largest
▁FINANCIAL
▁measured
▁f
▁comments
▁points
▁Underlying
▁enter
▁suggest
▁representative
▁2019-07-1
▁Although
▁Why
▁Some
▁Manulife
▁Over
▁55
▁genuine
▁submissions
▁deposit
▁immigration
▁CEO
▁prevent
▁finding
▁carried
▁44
▁success
▁CI
▁coming
▁duties
▁Counsel
N
▁decided
▁fall
▁marketing
▁saying
▁Province
▁offence
▁designed
ry
▁1997
▁itself
!
▁partnership
▁applies
time
corporated
▁consult
▁favour
▁John
▁explained
▁recovery
▁ground
▁became
▁Such
age
▁commission
▁annually
▁Scotia
▁adoption
▁buy
▁increases
▁Operations
10
▁amend
▁speech
▁Secretary
▁à
responsibilities
▁According
▁liquidity
▁seen
▁elected
▁equivalent
▁advisor
▁significantly
▁West
▁estate
line
▁compound
▁original
▁groups
▁identify
▁limit
▁partner
▁satisfied
▁FUND
▁along
▁dismiss
▁weighted
▁manage
▁Certain
▁adjustments
#
▁hear
▁Balanced
▁excluding
▁relate
▁His
▁Advisor
▁warrants
5,000
V
▁intention
▁direction
▁society
▁union
▁ending
▁cited
▁error
▁Change
ca
▁honourable
▁43
▁ID
▁comply
▁contributions
▁conclusion
▁Holdings
▁constitute
▁competitive
ED
▁complainant
▁Performance
▁World
▁Private
▁primary
▁thousands
▁specifically
▁Centre
▁Final
▁Review
▁region
▁accounted
▁permitted
ton
▁enough
▁Bell
▁Fidelity
é
Y
▁holds
▁Fees
▁resulted
▁sectors
▁whom
▁Justice
▁served
▁organizations
▁Commons
▁Short
▁Adjusted
▁High
.1
▁mine
▁description
▁se
▁daily
▁attempt
▁70
quite
▁deposits
▁content
▁India
▁needed
▁relation
▁materials
▁exercised
ne
▁resolution
▁seek
▁lead
▁Let
▁classified
▁site
▁treat
▁Department
▁pricing
40
▁Distribution
▁rule
▁presentation
▁stand
▁sets
▁dealer
pleased
▁says
▁Balance
80
▁80
▁complaint
▁Analysis
▁active
▁failure
▁decline
▁Europe
▁replaced
▁married
▁65
▁spent
▁leases
▁determining
▁mortgage
▁expressed
▁crime
▁unaudited
▁travel
▁settlement
▁weeks
▁INC
▁recognition
▁away
▁true
ated
▁prescribed
▁Project
▁follow
▁Employment
▁completion
▁credible
▁telephone
▁basic
▁48
▁passed
▁pp
▁Accounting
▁debentures
son
▁partners
▁Markets
▁excess
▁SOR
▁talking
▁implement
▁govern
▁Fixed
▁permit
▁strategies
▁separate
▁colleagues
▁contributed
▁drilling
▁o
▁FC
G
▁volatility
▁occurred
▁collective
.2
▁entities
▁leading
▁wanted
▁Where
▁Regulation
▁Period
▁interview
▁corresponding
▁receivables
▁Mark
▁Affairs
▁Madam
▁01
▁index
▁giving
▁Mutual
▁registration
▁Long
▁detailed
▁governance
60
▁issuer
▁please
▁regular
▁add
▁University
▁Motion
▁labour
▁File
▁500
▁remove
▁raise
▁conducted
▁Number
▁holding
▁requirement
▁Furthermore
▁subsequent
▁75
▁Based
▁European
▁Pro
▁involve
▁Term
▁evaluation
▁relief
▁spending
49
▁52
▁initiatives
▁introduced
▁combined
▁staff
▁book
Sessional
▁leadership
▁South
▁adverse
▁Trade
▁arrangements
▁assist
▁component
17
▁privilege
▁fundamental
▁controls
▁qualified
▁top
▁Schedule
27
29
▁Callable
▁termination
▁Statement
▁certainly
▁regulation
▁percent
▁uses
▁paper
ization
▁Real
▁salary
▁unitholders
▁couple
▁committees
▁Royal
▁Debt
99
▁historical
▁respective
▁Voting
▁food
▁discuss
▁1996
began
▁commissions
▁substantially
▁resource
tic
▁46
▁conversion
▁intangible
▁serve
▁Options
▁herein
▁division
▁hedge
▁planning
▁explanation
▁Earnings
▁So
▁earned
▁audited
▁accompanying
39
▁Desjardins
▁depreciation
▁LLP
▁occur
▁volume
▁disclosed
▁Initial
11
▁advice
▁adjustment
▁repurchase
▁Holders
▁medium
▁consequences
▁considerations
▁49
▁Ottawa
ons
▁absolute
▁department
▁warrant
▁Reg
▁implementation
▁declared
▁institutions
▁perform
▁themselves
specially
law
▁grounds
les
▁dis
▁house
▁mineral
▁beyond
▁Deferred
▁differ
▁Au
▁attention
▁lost
▁design
▁item
▁Please
▁Prior
▁convertible
36
▁Bloc
▁partially
00
▁Changes
▁advantage
▁par
16
▁00
▁thereof
▁Sun
▁discount
▁para
▁manufacturing
▁Program
▁residence
▁appointment
▁progress
▁principle
▁Cite
67
▁Agency
▁Not
▁Mar
▁death
▁mandate
▁solutions
▁gave
um
▁proposal
▁square
▁operational
▁Discussion
▁maintenance
▁indirectly
▁Alliance
18
▁IRPA
▁proceed
12
▁47
▁NAV
▁000
▁understanding
▁commitments
24
▁expects
▁indicates
28
▁comprised
▁thought
▁sections
79
▁delivery
▁French
▁records
▁anticipated
▁Nova
off
for
77
▁estimate
▁Les
▁Holder
▁differences
▁carry
▁51
▁allocated
▁qualify
▁requested
▁Shareholder
▁diluted
▁increasing
▁damage
▁vary
▁language
H
▁Of
▁goodwill
▁58
▁seven
▁recommend
▁substantial
▁City
▁refusal
19
▁63
▁indicate
▁millions
▁supported
▁--
▁sense
improved
▁daughter
▁step
▁53
▁expectations
▁Criminal
▁comparable
▁Charter
named
▁incentive
▁though
▁duty
-15
▁thereto
▁Facility
▁outline
▁And
▁weight
▁consumer
▁official
▁dates
▁seeking
▁reached
▁self
▁Effective
▁almost
▁heading
▁Association
▁Internet
▁reflects
▁Treasury
▁evaluate
▁But
▁although
▁inventory
▁cut
▁Your
▁works
▁Transaction
▁turn
▁clause
▁cross
14
▁spouse
▁entire
▁takes
▁transportation
▁delivered
▁bid
▁assess
▁core
▁ten
▁Safety
▁citizens
▁Second
▁85
▁Loan
▁ever
▁stores
13
▁technical
▁Can
▁proud
▁Agent
▁head
▁reading
▁highly
▁au
-10
▁fuel
▁produced
-12
▁Office
▁translation
▁lines
▁alternative
▁Fee
▁contractual
▁size
▁Standards
▁attend
▁military
▁awards
▁MANAGEMENT
▁valid
▁writing
▁powers
▁deficit
▁Member
▁transferred
▁Quarter
▁Leader
▁licence
▁restrictions
▁Crown
▁supporting
▁Her
▁Gas
▁Supplement
▁Page
▁witness
▁removal
▁savings
▁collect
▁dealing
▁Properties
▁deliver
▁steps
▁Social
-11
▁started
▁LLC
▁Y
▁retain
▁guidance
▁importance
▁drug
▁calculation
▁reasonably
▁benchmark
▁67
▁remained
▁hedging
AL
▁framework
▁bargaining
▁car
▁Vancouver
▁begin
▁invests
▁Standard
▁regional
69
▁selection
▁properly
▁build
▁IAS
59
▁stage
▁Expenses
▁orders
▁housing
▁Street
▁anything
▁components
▁Un
▁operate
▁types
▁parliamentary
▁representation
▁candidates
▁word
▁banks
▁mind
▁1985
▁industrial
▁supplement
related
▁Call
▁taxation
46
X
▁Oil
▁investigation
▁contain
▁Trustee
▁generate
▁fear
▁mis
▁association
▁Partners
▁h
▁lending
▁Warrants
▁allowance
▁reflected
▁correct
▁State
▁applications
▁asking
▁domestic
▁Fair
▁focused
▁closed
▁retained
▁engaged
▁Those
26
▁56
spite
▁wants
▁considering
▁sources
▁chair
▁holdings
▁exceed
ability
▁witnesses
▁documentary
▁secured
▁play
▁recommendation
22
▁arising
▁getting
talled
▁1995
▁Further
▁54
▁amortized
33
▁air
▁restructuring
▁fluctuations
0.00
▁defence
▁Distributions
21
▁relationships
▁Opponent
▁57
▁volumes
▁refused
▁Underwriters
▁owner
▁REPORT
▁findings
▁institution
▁card
U
▁argument
▁Communications
▁Pension
▁decide
▁challenge
▁absence
▁grade
▁Purchase
▁maintained
▁growing
▁Jean
▁employed
▁temporary
▁traded
▁courts
▁East
▁Cap
▁advisors
47
▁population
▁inception
89
▁Coupon
▁credits
▁processes
▁Yield
▁confirm
▁disposal
▁extend
▁goes
▁wrong
▁accused
▁brand
▁cover
▁strengthen
▁confirmed
lived
▁assume
▁guarantee
85
▁presence
▁Companies
▁friend
▁undertake
▁doubt
▁Supreme
▁Deputy
▁processing
▁Policy
▁suffer
▁1990
▁purchases
▁Sub
▁experienced
▁campaign
▁expansion
▁victims
ac
▁effects
▁late
▁implemented
▁ways
▁join
▁combination
▁materially
▁statutory
▁Subscription
▁transition
▁conflict
▁agency
▁schedule
▁EN
ty
▁exposed
▁probabilities
▁candidate
▁corporations
▁length
▁Also
▁segments
▁farmers
▁mean
un
▁200
▁1993
▁Results
▁operates
▁useful
of
▁grow
▁encourage
▁Technology
ir
▁targets
▁achieved
▁measurement
▁Current
▁letters
▁body
▁feet
▁influence
▁remember
▁Per
▁surplus
▁respond
Pursuant
▁ON
ve
▁award
▁receipt
▁aircraft
▁negotiate
▁variable
▁capitalization
informed
▁publicly
▁himself
▁source
▁acting
driven
▁limits
▁64
▁stop
▁broad
▁advance
4,000
▁wholly
▁redeemable
ism
and
▁chart
45
▁1.5
▁approve
▁Every
▁appreciation
▁Manitoba
▁developing
▁critical
▁communication
▁brother
▁improvement
▁equities
▁personnel
▁multiple
▁extended
suring
▁forecast
▁selected
nd
▁Sold
ted
▁eight
▁attached
-13
con
▁reserve
▁Lake
-3
adversely
▁citizen
▁Table
▁run
▁English
▁comment
▁Will
▁physical
▁engage
▁Fiscal
▁pursue
▁born
▁parts
▁elements
▁Mortgage
▁97
▁opposite
▁export
▁breach
▁receiving
▁distributed
▁press
37
▁store
▁argue
▁safe
▁pas
▁mark
▁River
▁honour
▁threat
▁feel
▁delay
ever
▁scheduled
▁addressed
ical
▁Forward
▁Independent
▁oral
82
▁disposition
ch
▁identity
▁stocks
▁affidavit
▁burden
▁instrument
▁redeem
the
▁minutes
▁engagement
▁sponsor
▁realize
▁Research
▁Bought
▁expertise
▁instructions
▁centre
▁followed
▁comparative
▁Average
ize
▁Client
▁choice
▁Description
70
44
▁Z
▁grievance
▁imposed
▁send
▁default
▁Inter
▁vehicle
▁Calgary
▁near
▁extension
doc
day
ian
ally
▁Reporting
▁instead
▁unrealized
▁thus
▁59
▁bond
▁code
86
▁chance
▁patient
▁man
▁update
▁61
▁reform
▁dispute
▁exist
▁Industrial
▁write
▁humanitarian
▁Trustees
▁redeemed
.8
▁representatives
▁indebtedness
88
▁Interim
▁extreme
▁forego
▁priority
ator
▁Attorney
6,000
▁SC
▁standing
▁Brunswick
cash
▁Brookfield
▁sentence
▁Administration
▁assumed
\
▁ultimate
▁Does
▁1994
▁Before
▁denominated
▁Given
▁dependent
tax
▁paying
▁0.5
▁Many
▁ETFs
▁York
▁media
▁pressure
▁Russell
▁68
▁field
▁reviews
▁TM
▁nations
8,000
▁premium
▁contribute
owned
▁owns
▁Do
▁96
▁Saint
▁friends
▁soon
ting
▁interpretation
▁Saskatchewan
▁rest
▁saw
▁happened
▁essential
▁coverage
ish
▁placed
▁Convention
-19
▁acts
▁Media
▁establishment
▁Increase
▁participation
▁Finally
▁covered
▁platform
▁violence
▁men
▁scope
▁disability
▁possibility
▁Issue
▁balances
▁commodity
▁constituents
▁Small
▁abuse
▁calendar
▁sexual
me
w
land
▁Now
▁automatically
pe
▁sister
▁timing
▁charter
▁Dec
▁allegations
▁62
▁discussions
-20
▁senator
▁integrated
▁produce
▁anti
▁category
▁ex
▁En
▁Dynamic
▁95
▁bills
▁Panel
v
23
▁effectively
▁proper
▁released
▁examination
▁knows
▁challenges
▁issuers
▁mention
▁metres
▁66
▁Trading
▁forms
▁Declaration
▁Due
▁placement
▁simplified
▁producers
▁72
▁function
▁CDS
▁advised
▁planned
-14
▁favourable
▁managers
87
▁Officers
▁sitting
▁Arrangement
▁Three
▁software
▁Mining
▁arrangement
▁Consequently
▁names
▁Union
▁reach
▁venture
▁appreciate
▁adequate
▁alone
▁choose
▁guidelines
▁gives
▁happen
▁aboriginal
▁Registered
▁Time
versus
▁everyone
▁legislative
▁students
▁Pre
▁initially
.3
▁currencies
▁classes
▁trustee
▁Products
▁voted
▁Currency
ATION
ors
▁assessing
▁figures
▁competition
▁studies
▁avoid
▁track
ro
▁tonnes
▁ordinary
▁bad
84
▁Offeror
▁Paul
▁seeks
57
▁guaranteed
▁mix
▁rely
▁quickly
▁expire
▁Revenues
▁Estate
▁monitor
▁largely
▁Sector
▁Accounts
▁civil
▁parent
▁SA
▁tribunal
▁earn
▁enhance
▁solution
mark
▁front
▁advisory
▁profitability
▁sole
▁knew
▁STATEMENTS
▁residential
▁regions
sedar
▁skills
▁simple
97
▁complex
▁worth
▁Indian
out
▁Commissioner
▁war
▁inquiry
▁Nations
▁effort
▁symbol
▁appoint
▁banking
▁Both
▁consultation
▁agencies
ssigned
▁Post
▁relatively
▁subsequently
▁proof
▁wide
▁terminated
65
▁110
▁highest
▁documentation
▁Following
31
▁strength
▁crisis
▁pipeline
▁mid
▁Even
▁Strategic
▁Factors
▁Institute
▁declaration
▁necessarily
▁initiative
▁filing
▁classification
1,3
▁promote
7,000
alt
▁culture
▁industries
▁council
▁adopt
▁Subject
▁carefully
▁Loss
▁preparation
advisor
ti
42
-5
▁affairs
▁nation
▁officials
▁David
▁published
▁restricted
▁Reform
▁judicial
▁coast
▁goal
▁affiliates
▁Parliamentary
▁Summary
▁chief
▁space
Z
ial
▁controlled
▁sign
▁mill
▁Decision
▁tables
▁stable
ably
reating
▁confidence
▁generation
▁conference
▁derived
▁willing
▁Future
▁Exploration
▁big
▁switch
-01
90
▁Bay
▁claimed
▁faith
-16
▁chapter
▁05
▁Proceeds
▁spend
-02
▁email
▁tender
▁Resource
▁ratings
▁procedure
▁creation
▁extensive
▁Rules
▁Once
▁talked
volving
▁assessed
▁Variable
▁arrest
▁profile
▁version
▁Consumer
▁nil
▁aspects
rgued
▁compassionate
▁Members
▁enable
▁Appellants
1,0
▁regularly
ure
78
▁People
▁perhaps
controlling
di
▁protected
▁Proxy
▁contrary
▁1981
▁communications
35
61
▁06
▁Application
▁III
▁IRC
▁propose
▁Law
3,0
▁rental
▁premiums
▁spoke
▁dealers
▁diversified
▁1992
▁Unitholder
▁harm
▁renew
▁search
▁prepare
▁Western
▁chamber
▁numerous
▁dossier
▁demonstrate
▁replace
▁calls
▁formal
▁Auditor
▁anyone
▁constitutional
clined
▁inter
▁2021
▁summarizes
2,0
▁Barrier
▁annualized
▁border
83
▁Cost
▁Jun
76
▁seniors
▁executives
▁Upon
▁99
▁AGF
▁got
▁improvements
▁1.1
-03
38
▁France
▁uncertainties
▁exactly
▁valued
▁Atlantic
▁bar
▁regulate
▁strike
▁Because
▁behaviour
▁multi
▁idea
▁Third
▁passport
3,000
▁Chartered
▁everything
▁150
▁Natural
-18
▁owners
▁denied
▁69
▁bearing
34
▁managing
▁mortgages
▁lose
▁RCMP
▁demonstrated
▁unique
▁inform
▁Individual
▁starting
▁piece
▁98
im
▁suitable
63
▁expand
ine
▁functions
▁conjunction
▁Issuer
▁room
▁completely
•
1,1
▁Name
▁integrity
48
▁paragraphs
▁Gross
▁w
▁preceding
way
▁Position
▁collateral
▁monitoring
▁INFORMATION
ap
56
▁Industry
▁secretary
▁city
▁variety
▁president
▁relations
▁Montréal
▁INCOME
▁PLC
▁prove
▁une
▁Relations
▁climate
▁express
▁Robert
▁grants
▁disclose
▁Mexico
▁detail
▁interested
▁rent
▁Governor
▁sought
9,000
▁SEDAR
▁intent
5,3
0,0
▁discontinued
▁location
-17
tion
73
▁reality
▁Certificate
▪
▁advertising
▁phase
mp
▁remind
▁methods
▁unsecured
1,4
▁composed
▁AT
▁votes
▁effectiveness
▁draw
▁stakeholders
▁71
▁accumulated
96
▁impaired
▁Instruments
▁Claimant
▁Professional
▁preliminary
▁Great
▁NI
1,8
09
▁suggested
43
0.0
▁2.5
▁transfers
▁solid
▁title
▁namely
▁reverse
ner
▁84
converted
▁Money
▁Most
-4
▁offices
8,3
ory
▁cumulative
▁300
▁goals
▁Al
▁twelve
▁broker
ge
▁maintaining
▁Se
▁Last
▁phone
▁emerging
▁bear
66
6,3
▁91
der
▁awarded
ley
▁hardship
ut
▁Commercial
▁Labour
2,3
▁reinvested
▁clinical
▁typically
▁drill
1,000
▁trusts
▁Event
▁waste
▁81
1,2
▁Select
▁CPC
▁Related
▁elect
▁0.6
▁else
▁reside
▁testing
▁communicate
▁exists
▁Pricing
▁jurisdictions
▁Be
2,000
▁sound
au
▁73
▁09
▁reducing
▁attack
▁Amortization
▁behind
▁sa
▁offences
▁Subsection
▁Con
▁guarantees
▁Plans
▁register
▁fine
72
discretionary
▁inc
▁online
▁Today
▁Black
▁discrimination
▁technologies
▁wind
▁Newfoundland
▁mail
ma
▁allowing
▁secondary
▁repayment
▁linked
▁pool
▁92
▁categories
▁Venture
ful
▁93
▁membership
▁sum
ring
▁forces
▁municipality
▁execute
▁moving
▁ANNUAL
▁residency
▁formerly
▁margins
▁youth
4,0
▁revised
▁summer
▁Transfer
neither
▁depending
▁sponsorship
led
▁Franklin
▁Martin
▁break
▁subscription
▁draft
iv
▁Signed
▁opening
▁applying
▁74
68
▁Refer
▁Despite
▁efficiency
▁central
▁consumers
▁heart
▁minor
▁road
▁incident
▁select
▁76
▁participating
▁IT
▁Thus
▁Asia
▁exception
▁accurate
▁03
3,4
▁Hill
▁wrote
▁cuts
▁proposals
▁BCE
▁computer
▁calling
▁rendered
▁secure
▁fulfill
▁1.2
▁actively
▁pays
▁System
▁Transport
▁tools
▁Bonds
▁sponsored
▁quoted
▁regime
▁London
ow
▁Queen
▁commenced
▁Legal
▁consolidation
7,3
▁Control
▁remuneration
▁Ended
▁94
▁Foundation
▁attended
▁Right
▁77
▁bonus
▁negotiations
▁Use
1,9
▁posted
▁setting
▁07
▁survey
-04
▁targeted
▁disclosures
▁depend
▁Payments
54
▁Details
▁2022
DA
▁bit
▁annum
condensed
▁birth
.10
▁Flow
▁electronic
ou
▁immediate
4,3
▁comparison
▁Risks
▁entirely
▁probably
▁text
▁Defence
▁facilitate
▁situations
mo
▁excellent
▁0.8
▁built
▁territories
▁taxpayers
▁Dividends
▁83
▁moment
▁78
▁beneficial
▁sustainable
▁introduce
.50
▁democracy
▁entry
ard
▁persecution
▁mandatory
2,1
izing
▁opposed
▁02
55
ville
▁changing
▁revolving
▁drugs
▁Société
ill
▁enjoy
▁Pierre
▁Letter
▁prime
ver
▁integral
▁residents
▁examples
▁transport
▁accordingly
▁existence
▁Economic
81
▁authorization
by
▁100.00
▁territory
▁inherent
▁Organization
ite
ho
▁vested
usually
▁con
▁participants
adding
ette
▁08
excluded
▁EI
▁yesterday
ler
▁1991
TM
▁Dealer
▁covenants
1,5
▁Or
▁timely
▁larger
▁speaking
▁forma
▁statute
▁clean
▁indirect
▁ministers
▁message
▁mission
op
▁arise
07
bringing
ence
▁indeed
▁meets
6,1
▁Emerging
▁swaps
▁gone
.01
▁Disclosure
▁allege
▁Infrastructure
ub
▁mental
▁Hav
▁vehicles
▁Environment
▁aside
if
▁Hydro
▁Master
▁recoverable
▁Loans
▁BC
▁uncertainty
▁modified
▁Pacific
▁Subsequent
▁Appendix
▁satisfy
be
▁characteristics
▁crude
▁James
Term
▁ahead
▁acceptable
▁Accountants
▁distribute
▁integration
-05
▁Winnipeg
▁municipal
▁north
▁HSBC
▁shift
▁redemptions
▁kept
▁GD
▁perspective
▁improving
▁answers
-7
▁veterans
▁tried
-6
▁88
▁AG
ship
▁Enbridge
▁showing
3,3
▁TELUS
▁Island
▁reconciliation
ES
▁Indenture
stood
▁directe
▁leaders
▁CO
▁straight
32
date
▁considerabl
▁SAI
▁cease
▁invite
ig
▁Banking
▁actuarial
▁Emergency
▁sometimes
▁Convertible
▁Unless
▁DE
62
▁117
▁renewal
▁2.1
▁developments
▁collection
▁determines
▁86
▁restated
▁Incentive
▁82
ties
▁felt
▁save
▁Data
▁availability
▁joined
▁hands
▁learned
▁Transactions
▁cancelled
▁reclassified
▁concentrate
▁emissions
▁mitigate
▁surface
▁article
▁freedom
-06
▁retire
▁FCA
▁0.4
▁Technologies
ell
▁efficient
▁Mine
▁electricity
▁anticipate
ri
▁leverage
▁penalty
▁1.0
▁closely
▁79
▁career
▁1.00
▁recall
▁lawyer
▁wait
▁petition
▁Phase
▁assault
71
▁middle
▁quote
▁GST
▁MER
▁enforcement
▁drawn
-21
▁pointed
▁story
▁replacement
▁Clause
▁OR
▁traditional
▁wonder
▁Are
5,0
▁utilize
▁vesting
▁ce
95
ph
▁exclusive
per
▁locations
tro
do
reliable
▁Managed
-26
64
▁indication
▁Their
▁check
▁views
6,0
▁arguments
▁outlook
▁sites
▁accountability
▁87
▁suppliers
GAAP
▁terminate
▁Monthly
▁operated
▁wage
▁Retail
▁admitted
▁interesting
▁independence
ip
▁04
no
▁ounces
▁lender
▁royalty
▁Peter
▁drive
▁putting
▁Me
▁Outstanding
▁Financing
▁sit
▁tru
▁ratios
▁brokerage
▁USA
▁listing
▁Costs
▁execution
▁Low
▁affecting
▁Pipeline
▁rose
▁attractive
▁cultural
▁inputs
ger
▁oversight
▁1.3
▁ii
▁count
▁impacts
▁listen
▁semi
ie
old
▁element
▁happy
▁consulting
5,4
▁89
▁reflecting
▁permits
▁Includes
▁task
-07
▁zone
▁solely
▁arrived
▁digital
▁Ref
▁100,000
▁vision
▁acquiring
▁hedges
▁shared
▁fraud
▁CONSOLIDATED
▁art
2,5
▁rated
OR
leaving
▁urge
▁Australia
▁Considerations
▁voice
interest
ha
▁Again
▁RE
▁2023
▁enterprise
▁minority
1,7
▁rejected
▁farm
▁calculate
▁0.7
▁fairness
▁separately
▁cancer
▁helping
▁George
▁impose
▁poverty
▁advanced
▁slightly
7,4
▁Support
▁Ma
▁Science
▁agents
▁Basic
▁IASB
1,6
▁patent
ni
▁background
▁profits
▁refuse
▁Japan
ascribed
▁poor
▁maintains
▁submission
▁discharge
▁Marketing
▁UN
▁Unfortunately
▁Core
▁examine
▁floor
▁merger
4,4
▁Agreements
▁contingent
ach
▁trend
▁pour
▁student
▁incur
▁settled
▁Yes
▁formula
▁reject
▁Production
▁circular
.20
▁matur
▁serves
▁articles
▁borrowing
▁elsewhere
53
▁Sched
▁Preparedne
▁peace
▁woman
▁priorities
▁operator
▁users
▁accident
▁divided
▁Education
▁QUARTER
▁complaints
qui
▁democratic
▁replacing
▁0.9
CO
tabled
▁practitioner
▁exemption
▁Northern
ul
▁promise
▁Joint
▁hundred
▁trends
▁cast
▁funded
▁swap
41
▁acceptance
ious
▁launched
▁holes
nstead
▁1989
▁conviction
▁collectively
▁pertain
▁wedding
▁aim
▁carbon
▁outcome
▁Michael
-23
▁Significant
▁futures
▁involvement
▁samples
▁provider
▁Indeed
▁unanimous
▁Grant
▁rural
▁undertaking
▁Book
IN
▁victim
work
▁withdraw
▁Edmonton
▁est
6,7
2,2
▁commit
▁Only
▁AS
4,2
▁BQ
▁nearly
▁disease
▁don
▁Jan
▁forced
▁foundation
▁Two
▁Systems
94
▁essentially
▁expert
▁finally
▁injury
ice
▁Amendment
2,9
▁instance
▁hereby
°
▁Weighted
▁ruling
▁Agents
▁1.4
▁exceeds
▁occurrence
▁geographic
▁returning
▁scale
▁unlimited
▁Premium
▁centres
▁false
▁duration
▁eliminate
min
▁Si
▁Personal
▁depends
▁Ex
▁Care
▁DSUs
▁Who
▁fairly
▁buying
▁storage
▁balanced
.40
▁Land
▁constant
▁depth
▁organized
▁Administrative
▁inspection
ight
▁tariff
-09
▁institutional
▁describe
ities
▁Park
▁Registrar
▁seriously
The
▁approximate
▁difficulty
▁Basket
▁inconsistent
▁performing
ER
▁afford
▁None
▁Through
-25
▁400
attributed
▁CANADIAN
▁Free
▁Mc
▁convicted
▁crimes
▁designation
▁Internal
▁liable
enacted
▁compare
oc
▁Account
he
▁supra
▁announcement
▁inflation
▁proportion
2,4
-22
>
▁television
7,8
▁possession
▁agenda
▁define
▁flexibility
▁via
▁identification
▁fight
▁hospital
▁Deposit
▁liquid
▁qualification
▁rank
▁exempt
▁reputation
▁PC
▁Kingdom
▁learn
▁1988
▁granting
▁concept
income
▁plants
▁NEO
▁affiliate
▁Key
▁hedged
-08
▁SCR
▁Constitution
▁exercisable
▁requir
▁occurs
▁drop
our
▁consisting
▁acknowledge
5,1
▁insufficient
▁divorce
▁succeed
▁summarized
▁negatively
▁fire
▁sample
▁RSP
▁convert
.60
▁Liabilities
▁thereafter
▁becoming
7,5
▁reimburse
Series
▁Sa
8,9
▁deposited
▁Man
▁Dealers
▁facing
erred
▁514
▁evaluating
6,8
▁Hearing
▁Mac
▁experts
▁adjust
▁fix
▁Chinese
▁station
▁watch
▁aspect
▁contemplate
▁misrepresent
▁Mineral
▁El
▁prospective
ck
▁MSCI
ier
▁Solutions
▁Amounts
Named
▁manages
nother
▁CICA
down
▁proportionate
▁DIVISION
▁foot
▁cell
▁prohibited
▁vest
▁undermine
▁photograph
▁driving
▁female
▁Invesco
▁Republic
men
▁proven
74
▁waiting
▁Employee
.15
▁120
▁Handbook
▁composition
▁CRA
€
▁stronger
▁bottom
▁morning
▁borrow
▁municipalities
▁announce
▁remarks
▁iShares
▁Dis
lin
▁books
6,4
▁align
▁spread
▁10,000
▁defend
fi
body
▁potentially
▁protecting
▁meaningful
▁tests
▁Green
▁establishes
▁closure
▁emergency
▁borrowings
▁launch
5,5
▁cap
,16
×
▁Here
▁Superior
▁grew
98
▁believed
ak
-24
▁advise
thereby
▁Depositary
▁complie
▁Calculation
▁Auto
▁Large
▁TA
▁video
▁ready
▁km
▁Plus
wishes
▁employers
▁approvals
▁withdrawal
▁references
▁brief
▁link
use
ue
▁repair
ative
▁rail
2,8
▁deals
52
▁suspension
6,9
▁Central
▁passenger
▁competitors
▁keeping
▁innovation
▁substance
▁serving
market
▁truth
▁acted
▁copper
▁belief
▁etc
▁Retirement
▁conditional
▁license
▁engineering
▁2024
.30
▁penalties
▁Budget
▁Excluding
▁2.0
▁Vol
51
▁250
▁Aboriginal
▁pain
ath
▁NOTES
▁Minimum
▁telecommunicati
ect
▁traffic
▁equally
▁abandon
▁deducted
▁boards
▁nominees
▁constitutes
▁privacy
▁BY
Co
▁Prince
4,8
io
▁western
▁Strategy
▁taxpayer
▁happening
▁subordinated
▁CANADA
marks
▁Liquidity
8,1
▁Opposition
▁unemployment
▁pending
▁NET
▁Eastern
▁Gain
laws
▁buildings
▁producing
▁Merger
▁Simplified
▁Qu
.25
▁occasions
▁fails
▁Port
▁0.00
▁Du
▁Depreciation
▁steel
▁northern
9,0
▁1986
▁vessel
▁adviser
▁aid
▁FT
▁Environmental
93
▁workplace
▁unchanged
▁1.6
-30
leting
▁certification
▁danger
▁limitations
▁Target
▁huge
entering
▁Richard
▁qui
▁Forces
EL
▁input
field
ST
▁violation
,38
▁CAPITAL
▁hereof
▁cheque
▁publication
▁1987
chosen
▁Reserve
▁Article
▁innovative
ast
▁Contracts
▁CQLR
▁religious
▁firms
▁raising
▁School
▁relied
▁commissioner
▁purchaser
-9
▁Unrealized
mer
▁continuous
▁onus
▁Diversified
▁examined
West
▁south
▁host
▁compete
▁Charge
▁deserve
j
▁Warrant
LY
▁Fraser
▁guilty
▁formed
▁mature
▁wireless
▁monetary
party
▁CLASS
▁CN
▁illegal
free
▁deduction
08
▁expired
▁recover
▁Consider
▁night
▁occasion
▁sharing
▁Mines
▁functional
▁enhanced
▁Industries
ol
▁Additionally
,34
▁Conversion
▁easy
go
▁Restricted
▁features
▁failing
▁somewhat
backed
▁citizenship
▁faced
▁copies
▁worldwide
▁congratulate
4,5
▁Subordinate
.11
▁purchasers
-31
▁repeated
▁reductions
.80
▁showed
▁admit
▁Instrument
▁Authority
▁cabinet
▁fit
▁Nos
back
-8
▁dangerous
▁substitute
▁threshold
▁floating
▁3.5
▁Wealth
▁lands
▁strongly
pa
▁Offered
▁prospects
▁IA
▁Issued
▁Contract
▁parliament
▁Access
4,7
▁difficulties
▁latter
▁initiated
▁Holding
▁2.2
▁probable
▁assuming
▁salarie
▁transparency
ju
5,6
ide
▁attendance
▁Guidelines
▁Specific
▁1.8
▁IMM
▁Dollar
▁Material
▁flight
▁Commerce
▁payout
▁male
▁Rule
▁Africa
▁responded
▁science
ung
▁ANALYSIS
▁load
▁stress
▁litigation
▁expiry
em
▁promised
▁k
▁purchasing
▁125
ka
▁regardless
▁Percentage
▁Universal
3,2
▁Maximum
▁y
.13
▁sort
▁Signature
▁desire
▁Base
▁park
▁Complainant
RE
▁Valley
▁2025
7,0
wa
58
▁zero
▁Paragraph
▁generating
▁Afghanistan
ham
▁SST
self
▁stands
side
▁session
▁Yet
▁About
▁obviously
▁securityholder
▁productivity
▁Young
▁Pakistan
▁Di
all
▁Selling
▁alcohol
▁validity
▁addresse
pro
▁severe
▁trip
▁UK
DI
▁display
▁round
5,8
▁package
▁containing
▁Mo
▁Early
we
.70
▁abroad
▁scheme
▁12-
▁fail
▁premises
▁extra
▁Conduct
▁OTHER
▁Gaz
▁hour
▁metal
que
▁Benefits
▁yes
▁Issuance
▁driver
▁movement
▁Acting
01
▁gun
eau
▁jury
▁diamond
5,9
▁translated
▁pilot
tain
tive
▁certified
▁understood
▁marks
▁thereon
▁custody
▁Caisse
▁mostly
tech
▁updated
▁Loblaw
▁pleasure
▁caution
cor
▁Labrador
▁restaurant
▁acknowledged
▁ventures
▁RSUs
▁1982
▁ve
▁0.3
▁repay
▁judges
▁3.1
▁transmission
▁Am
▁counterparty
▁brokers
registry
▁smaller
IC
-27
▁1.7
▁manufacture
▁implications
▁Smith
▁justify
▁tend
▁covering
▁Drug
▁looked
▁agriculture
▁grain
▁dedicated
.05
▁Ibid
▁Composite
▁CPP
IM
▁partnerships
▁repaid
▁practical
▁tenants
▁Six
▁concentration
sale
▁models
▁Regulatory
▁listened
lo
▁participant
▁surrounding
▁Could
▁Except
▁preparing
▁eliminated
▁withholding
▁0.1
▁departure
▁rising
ations
▁yields
adjourned
▁Advisory
ag
▁reserved
▁Water
▁capable
▁profession
tracted
▁Resolution
through
▁authorize
▁subordinate
▁Should
04
va
▁wealth
▁Transportation
▁notional
RI
▁trademark
▁love
▁cancellation
▁conversation
▁settle
▁nuclear
▁conclusions
▁ENDED
▁Example
▁Floating
▁4.5
wood
▁commenc
▁perfect
▁Solicitor
▁144
▁agricultural
▁Cdn
ron
▁underground
▁Awards
IL
rate
▁Sch
▁declare
▁Allocation
▁mineralization
▁Obligations
▁INVESTMENT
▁seeing
▁Ne
▁Unaudited
▁town
▁ne
▁personally
▁ADR
▁suspended
▁achieving
▁refund
▁Comprehensive
▁murder
▁departments
▁2.3
▁homes
ack
●
.6
.12
expanded
▁Head
▁university
Allotment
des
▁Construction
▁CORPORATION
▁IV
▁projected
▁Hong
▁cards
▁600
▁0.2
nce
▁Red
▁Ownership
▁Exercise
▁Women
▁2.4
8,0
cent
ten
ought
▁normally
▁ethics
,28
▁leased
specialized
IA
▁Quebecor
▁Overall
▁turnover
▁Measures
▁chose
ik
▁vulnerab
▁Goodwill
▁rehabilitation
▁block
parliamentarians
▁Bombardier
▁chain
ink
▁prevailing
▁welcome
▁treaty
▁Québécois
▁unreasonable
▁capabilities
▁Imperial
▁Trans
▁5,000
▁Item
▁Equities
▁entirety
▁Tel
4,6
▁Did
▁800
▁``
▁superior
dicating
▁unusual
▁Savings
▁providers
▁Termination
▁Society
ITY
lu
aught
▁advances
▁tool
▁manufacturers
▁IS
-28
fin
SI
▁Managing
▁toll
▁Horizons
▁silver
▁attract
▁rang
▁issuable
▁guide
▁Lifeco
▁blood
▁accountable
▁Utilities
▁Chapter
.45
▁assure
▁Impact
▁Bar
duc
▁inventories
▁successor
-07-09
▁ch
▁associates
▁exceptional
▁Materials
▁Kong
▁supposed
▁Up
▁anniversary
▁originally
▁investigate
▁Compliance
met
▁Assessment
▁professionals
▁5.00
▁supplier
▁Police
▁AD
▁130
▁credited
▁lumber
▁Past
ise
▁latest
q
▁schools
▁consultant
▁Par
▁arbitration
▁exposures
vi
3,5
▁compensate
▁accelerate
RO
▁White
▁Derivative
▁Medical
▁MW
ang
▁PART
▁valuations
PP
06
▁beneficiary
▁zones
▁physician
▁Zone
▁Enterprise
▁calculating
▁moderate
▁recording
▁Regional
▁Assurance
era
9.8
▁consultations
▁double
▁specialty
par
▁Opportunities
▁installation
▁recovered
▁diversity
.65
▁calculations
▁EQUITY
▁terrorist
▁gap
▁Eligible
▁door
▁whatever
▁inspector
▁War
▁airline
▁touch
▁ignor
▁older
.75
▁subparagraph
▁substantive
IS
▁Ethics
▁Clarington
▁entitlement
▁ideas
▁CAE
ward
lic
▁Germany
ko
▁Nominating
▁trailing
po
▁minimize
hether
▁Suncor
▁happens
▁lowest
▁raw
▁west
▁graph
▁variation
▁Food
gen
▁ounce
▁consultants
▁nominee
▁conform
-29
▁Aliant
▁figure
▁Alternative
,27
▁PRO
▁Multi
UR
▁legitimate
▁workforce
▁Rath
▁marry
wi
tes
▁introduction
▁offenders
▁Go
▁varie
▁Would
▁Edward
▁bought
part
▁Reports
▁sensitive
▁registrar
▁resolve
▁therein
▁Semi
9.4
▁Van
▁counterparties
▁CASH
▁Bio
▁indicative
MENT
▁arm
▁Effect
▁undue
▁consecutive
▁treasury
mail
▁secret
▁clarify
▁pharmaceutical
4,1
9.2
AR
▁Val
▁disagree
▁repeat
▁deductible
▁Family
▁exhibit
▁suite
▁discipline
▁airport
▁eligibility
ped
▁assessments
▁50,000
▁certainty
,33
ome
▁1.9
91
▁wood
▁insured
▁connected
▁vendor
▁Provide
8.6
▁increasingly
▁Deliver
▁accuracy
TS
▁proprietary
▁sex
▁observed
▁CON
▁slow
▁twice
▁remedy
▁unitholder
istic
▁refugees
7.9
IT
▁minimal
▁inference
▁partly
▁End
▁highlights
ification
▁Continue
▁Sri
▁healthy
▁subscribers
▁exclusion
▁vice
▁weigh
▁royalties
▁listening
▁prohibit
▁DISCUSSION
▁Quebecois
▁manufacturer
▁producer
▁comprise
▁respondents
IES
▁consumption
▁inclusion
▁meant
▁weather
▁4.1
killed
▁legally
▁Work
▁SECURITIES
▁worst
▁alternatives
▁Employees
▁maturities
▁Just
▁Perhaps
▁opened
▁Exposure
▁bodies
9,1
mon
▁gender
▁educational
▁Fiera
▁Bo
▁laid
▁expression
▁MA
▁scientific
▁Don
▁NBC
▁pulp
▁animal
.14
▁red
owing
▁Amendments
ium
Within
▁ourselves
▁binding
9.6
her
▁Sea
▁Currently
▁seasonal
rig
▁fish
▁Scott
▁dans
▁2.6
▁Rogers
▁Métro
▁highlight
can
▁Provincial
cap
▁CNW
▁SI
▁Ni
9.7
▁Iran
▁assumption
lor
▁oversee
.4
▁telling
▁AutoCall
▁structures
▁emphasis
▁bears
ux
▁languages
▁methodology
ERS
▁district
ency
.16
ists
▁debenture
▁RESULTS
▁assignment
▁Orders
▁diligence
ology
,12
▁Local
.35
▁cycle
▁Impairment
▁addressing
▁networks
▁obvious
▁stations
3,8
8,4
▁counter
▁learning
OW
▁Nov
▁ethical
ign
▁fluctuate
▁Receipts
gate
consisted
▁3.2
▁Heritage
Canada
▁frequently
▁worker
▁heavy
▁500,000
▁peer
▁suffering
▁Euro
▁Lac
,36
▁stating
▁Line
▁chemical
board
▁tobacco
▁stream
▁accord
▁totally
Through
▁stability
▁exceeding
▁Front
SU
▁expenditure
▁Derivatives
cities
▁accomplish
port
ual
▁delivering
▁weighting
▁sending
▁occupation
▁hotel
▁marketplace
5.0
7,1
▁feature
▁adult
▁construct
bb
▁Des
registered
load
▁voluntary
▁Without
▁cannabis
▁1980
▁Sale
▁attempted
8.7
▁Years
▁techniques
▁specify
▁HST
▁Pay
▁knowing
▁identical
9.0
.95
▁intervention
▁VI
▁virtual
▁recommends
.02
▁season
▁Tire
aw
▁diversification
▁politics
▁elections
▁illustrates
»
▁distinct
▁household
9.9
▁intellectual
▁borrower
▁marine
mi
▁Area
dit
▁Civil
▁CRTC
−
▁picture
▁Hedged
reaching
▁Aeroplan
▁Bid
.19
▁discounted
▁ship
▁died
▁confirmation
▁incidents
▁SHARES
▁Mid
▁101
▁securitization
▁TransCanada
▁presently
▁species
▁organic
▁processed
▁AC
▁Ho
▁marked
▁renewable
▁unpaid
▁tenant
ions
▁fault
▁conflicts
▁3.0
▁predict
▁files
▁Highlights
▁416
▁distance
▁Actual
▁GP
▁pursu
▁solicitation
▁push
▁suit
8.9
▁4.3
▁bridge
ney
▁AcSB
▁reinvestment
▁east
▁10-
▁satisfaction
▁pound
▁Document
▁ASSETS
▁Thank
▁repli
point
pre
▁Brazil
.04
gi
▁Quarterly
cu
▁tomorrow
▁Renaissance
▁threatened
▁device
▁auto
class
▁preserve
▁illness
▁sides
▁consistently
ement
▁omission
▁confidential
▁AIF
▁Equipment
▁NOTE
▁Facilities
▁motor
▁running
▁merits
▁reorganization
▁shelf
«
bo
▁detention
▁Ke
▁offender
▁complet
▁sensitivity
ified
making
▁forest
▁pledge
▁Neither
mm
▁machine
▁TMX
▁railway
▁tolerance
▁overweight
▁harassment
▁urban
ug
▁mobile
▁narrative
▁quantitative
▁sustained
▁102
▁Web
▁Focus
▁Represent
▁allegation
▁resolved
▁speed
▁signing
▁channels
▁budgets
LA
▁profitable
7,2
UN
Pro
▁2.7
3,9
▁tested
▁Federation
▁pattern
▁Cable
▁administer
▁roles
▁trades
▁Halifax
▁cancel
▁truck
▁weak
Templeton
▁financially
.17
▁turned
▁easily
▁web
▁satisfactory
▁arises
ay
▁Nor
▁prison
▁electoral
▁Card
▁sheets
▁withdrawn
▁thinking
▁licensed
▁bio
▁broader
▁caucus
▁Mountain
▁describes
▁Forest
▁distinction
▁confident
▁kilometres
▁promises
▁Purpose
▁incentives
▁orientation
▁Product
▁unrelated
br
.5
US
▁reply
▁Continuing
▁Decrease
▁periodically
▁Question
▁Nigeria
▁compris
▁immigrant
pp
▁fell
▁awareness
cy
▁leasing
▁equality
▁Placement
▁indicators
▁label
▁BE
▁whereby
▁pick
▁Telecom
▁Com
▁misstatement
▁Building
▁promotion
5,7
▁imp
▁PORTFOLIO
▁structured
▁retroactive
▁180
▁exceeded
.55
▁terminal
atory
▁Request
▁mechanism
▁unacceptable
▁Agriculture
examination
▁fashion
▁partial
▁port
▁style
IFRS
ush
▁reimbursement
▁economies
proved
ible
▁SAR
▁unions
spoken
▁challeng
▁metals
▁Provisions
▁impossible
▁Assembly
▁admission
▁doctor
▁indigenous
▁King
ble
▁1984
▁covers
▁vital
▁aux
Annual
▁Je
stone
▁separation
▁Design
▁explanations
▁pit
▁consequence
▁Colombia
▁Vote
▁invoice
▁supplie
▁spirit
▁3.3
▁issu
▁Major
▁commencement
▁700
▁assign
2,500
▁master
▁Fort
▁presumption
▁Lynch
▁belong
LI
▁coal
`
▁Oct
▁borne
tal
▁PERFORMANCE
▁passage
▁Michel
▁confusion
▁path
▁adequately
▁analyze
▁Redeemable
▁supervision
▁whereas
▁Source
tel
▁reliance
▁Sep
▁Historical
▁achievement
▁beneficially
▁remainder
▁eventually
▁7.5
▁0.01
▁Friday
▁TB
▁train
▁Avenue
▁AB
▁concrete
▁incremental
▁roll
▁Boralex
site
▁projection
ON
▁FUNDS
▁Notwithstanding
▁deadline
▁SEC
▁origin
▁apparent
-38
merely
▁plaintiff
▁reliabilit
▁2.8
▁Suite
▁narrow
.03
▁accompanie
▁deem
▁band
▁modest
▁match
▁revoke
▁Staff
In
▁insert
▁concession
▁que
▁Sentry
▁Registration
▁Procedure
▁111
ana
cul
▁Gains
.06
▁devices
▁referring
-35
▁greenhouse
BCA
▁tough
▁5.5
▁cable
ash
▁tremendous
▁historic
▁commence
▁dispose
▁Taxation
▁designate
▁Direct
7,6
▁qu
▁grand
▁inappropriate
▁Feb
▁Fisheries
▁recession
▁radio
▁200,000
▁independently
▁teams
profit
.38
uk
▁drilled
▁employ
SA
▁Telecommunicati
TER
▁Settlement
▁Ka
▁restrict
▁user
▁Autocall
▁RSC
▁Tri
▁retrospective
▁105
▁heritage
mb
▁DBRS
▁highway
▁Community
▁audits
▁Available
▁hole
▁bound
▁Lease
▁limitation
MC
act
▁tonne
▁distributor
cal
▁ET
▁Reserves
reunder
▁instruction
▁Renewable
tru
▁Ra
▁Ce
▁Jul
mate
▁resignation
▁maximize
▁prevention
▁exclude
▁signature
▁Returns
▁2026
▁convention
▁hit
▁NYSE
SE
▁disposed
▁recogniz
▁preference
house
▁Payable
▁Former
▁merit
wares
ral
▁unfair
▁defendant
quality
▁CBSA
▁Custodian
▁creates
▁likelihood
ration
▁bi
▁correspond
▁exceptions
▁inconsistencie
▁133
▁Add
▁Sheet
▁Status
▁talent
▁Acquisitions
▁trustees
▁Gu
▁visits
AT
ook
▁Christian
▁honest
.85
▁discovery
▁waived
▁Dundee
▁feedback
▁Resident
▁Nine
sta
05
og
▁Fonds
▁FIRST
▁statistics
▁4.2
▁PSUs
▁voter
ot
LE
▁volunteer
▁Months
▁administrator
▁Estimates
▁uncle
▁Dominion
▁discovered
▁firearms
kin
tre
▁customary
▁Wind
du
▁CFO
▁Petroleum
ple
▁retention
om
▁ACT
▁testify
▁accommodation
▁Privacy
▁Monday
ping
▁Similarly
▁Jones
▁sells
.18
ber
▁travelle
▁sentences
▁accessible
▁thousand
▁Official
▁IIROC
▁vast
▁fi
▁Subordinated
▁causes
requesting
val
▁outperform
▁missing
vis
ference
▁District
▁TV
▁fill
03
star
▁Marc
▁CGI
5,2
.28
▁celebrate
inability
▁backlog
▁jointly
▁spring
▁unfavourable
▁College
▁respected
▁collaboration
▁lesser
▁EPS
▁Partial
▁volatile
.22
▁Out
▁Good
▁possibl
▁SNC
▁Gar
▁Th
▁Advantage
▁Transmittal
▁green
▁character
▁discrepanc
.07
▁petitioner
▁box
▁attitude
ick
▁delays
▁separated
▁Segment
▁Arm
aging
▁Citation
▁Well
service
▁offerings
.08
▁Presentation
▁losing
▁INTERIM
▁Ro
ENT
▁Messrs
▁Top
▁Housing
▁print
ITT
▁5.1
▁DIRECTORS
▁regulators
▁reinsurance
▁branch
▁familiar
▁custodian
▁careful
▁enclosed
▁Railway
▁licences
▁trials
▁Singh
▁RioCan
▁affiliated
▁arrival
▁TOTAL
▁Administrator
secondary
-32
▁Held
▁forget
▁disciplinar
▁propos
▁territorial
.24
ries
che
▁meters
▁choices
▁shortly
▁Amended
▁Korea
▁fishing
▁newly
▁hurt
▁auditing
lia
▁Investing
▁Exhibits
▁Included
▁Ab
▁140
▁aimed
▁103
▁opponent
▁monitors
▁animals
▁underweight
▁transparent
▁fleet
▁possess
▁Osisko
2,6
▁spot
▁2,000
.26
exclusively
▁Funding
▁approving
2.5
vin
▁opinions
ran
▁broken
▁AIC
▁winter
▁subscriber
▁RRSP
SC
▁dropped
▁Bi
▁motions
▁installed
▁anywhere
.29
▁cutting
▁Proposed
9,6
ong
▁wording
▁recourse
-46
▁uncertain
▁contributing
▁Condensed
▁notify
▁Approximately
▁engineer
▁115
MI
▁reconsideration
▁CP
myself
▁expensed
ven
▁108
▁Policies
▁walk
▁adjournment
ici
ab
OC
▁PIF
▁duly
bu
hi
▁Mont
▁justifi
▁4.4
▁won
▁856
▁Network
▁Yukon
▁adequacy
▁modifications
▁104
▁ballot
▁kill
▁exit
cre
▁repealed
▁Creek
▁3.6
ock
▁movements
AP
▁mixed
▁sampling
▁CDN
▁column
TI
▁FFO
▁operators
ez
▁360
▁valuable
▁Americans
▁terrorism
▁6.5
▁finished
▁Institutional
▁mistake
▁Lanka
▁Choice
▁GE
▁carrie
▁transit
▁readily
▁0.15
▁1983
▁Goodman
▁10.00
▁apparently
▁encouraged
▁attending
▁Repayment
IP
▁signal
▁CBC
▁Owner
rolled
▁demonstrates
▁3.4
▁Stephen
▁cents
▁Airport
▁Type
▁chairman
▁maybe
▁rebate
.27
▁Laval
gun
001
week
▁Apr
▁worse
▁Tab
▁Louis
▁competent
▁450
▁object
rop
▁supervisor
▁4.8
▁2.9
▁Lead
▁TMOB
▁reward
third
▁procedural
▁extraordinary
▁Electric
▁exemptions
-33
▁tangible
▁Activities
▁administered
▁San
▁inmate
▁Place
rain
.23
▁CORPORATE
▁imprisonment
▁bankruptcy
▁Canaccord
computing
▁PER
▁Participant
▁negotiation
▁Na
▁MPs
▁hazard
▁split
gu
▁evening
▁FTSE
▁advocate
▁prefer
▁convictions
▁stopped
▁expanding
current
▁accommodate
▁Wood
Secured
▁hierarchy
wear
▁Metals
▁identifies
▁allowances
92
▁CT
anc
▁TRUST
▁severance
▁horizon
▁succession
▁ou
▁technological
▁holiday
▁Li
▁Case
▁servant
▁prudent
▁Vietnam
▁IG
▁assert
-45
▁SHAREHOLDERS
4.1
▁passing
▁Bureau
▁Ste
▁Nortel
▁amounting
▁André
▁associate
▁mines
▁receipts
ai
▁Trimark
▁procurement
▁Brian
▁sick
▁leads
▁Combined
▁franchise
ient
▁teacher
Canadian
capital
▁attribute
,37
▁medication
▁Star
▁obligat
▁deep
▁usual
▁Wheat
▁deductions
▁Brown
▁Tuesday
ANCE
▁Lieutenant
▁aggressive
well
▁cousin
▁declining
▁Between
▁SHARE
CH
tract
▁geological
▁accrual
▁Expiry
▁safeguard
▁pe
▁residual
▁deduct
▁deportation
▁forestry
▁PLAN
▁hiring
▁Intangible
SP
▁causing
water
▁gift
▁enforce
7.5
▁mineralized
OL
▁graduate
▁tel
▁incorporate
-36
▁Mal
▁bulk
▁Estimate
▁Approval
▁rich
▁appointments
pi
▁4.6
▁inadmissible
▁oppose
.34
▁periodic
▁existe
▁Provision
▁observable
▁diverse
▁Evidence
▁unemployed
▁objection
.7
▁Mississauga
▁350
balance
gre
▁Taxes
▁Plant
▁virtue
▁hired
MO
▁Measurement
-37
▁recipient
▁Petro
▁controlling
▁Country
RA
▁violent
▁107
▁Po
▁trouble
▁Road
9.5
▁attorney
▁CH
▁deputy
▁physically
▁suspend
ki
▁scenario
▁Morgan
bank
▁Cor
▁Rock
▁Cha
▁Diluted
mber
▁relie
▁Competition
▁j
▁sentencing
▁5.0
ke
▁Computershare
evertheless
▁encounter
▁Networks
▁Pan
▁4.0
▁Tier
▁zinc
▁AltaGas
▁Debenture
▁Uni
▁3.8
▁repayments
▁Adjustments
▁feed
▁109
▁qualifie
▁tradition
▁subjective
▁Hamilton
bit
▁Quadrus
▁CGU
▁Nation
▁format
▁Rating
▁Matters
ari
gy
▁internationally
▁handling
▁MB
▁nominal
▁Thursday
▁comprises
EA
▁Engineering
▁paras
▁situated
▁grades
▁0.25
cher
▁Study
▁deleted
▁Realized
▁persuad
▁PR
▁Point
6.9
used
▁instances
▁vague
▁Daniel
▁excessive
nc
▁FundSERV
rie
▁expressly
.33
likely
▁surrender
3,6
▁feeling
▁contacted
PA
▁Documents
▁IGM
▁Clearly
▁neutral
hor
▁Blue
▁Wednesday
▁Highway
▁EX
▁intervene
▁barrels
▁Ko
▁1979
-42
recurring
▁Customer
▁Aug
▁consensus
▁incorrect
▁upgrade
ION
▁WITH
.88
▁Noteholder
▁interpreted
▁Ta
6,5
▁Receivables
▁Supplemental
▁reconcile
▁vacation
▁handle
▁Among
▁Award
▁modern
▁hire
HO
state
▁BOC
▁FORM
6.4
SL
▁Silver
ins
▁sont
▁CAS
-44
▁5.2
▁Raymond
▁Bachelor
▁incorporation
▁Kyoto
7.4
▁LTIP
▁contrast
▁assay
▁Excel
▁notwithstanding
▁enterprises
▁massive
▁Groupe
▁employs
hen
▁fifth
upplementary
▁author
▁106
▁Northwest
▁investigations
▁Coast
pen
▁apartment
6.7
▁remote
▁Cogeco
▁image
▁1,05
▁GLOBAL
3.3
▁Person
▁exchanged
▁punishment
▁affordabl
▁Like
^
▁sands
▁Auditors
▁game
▁Unsecured
▁3.7
▁deducting
▁20,000
▁underwriters
▁packaging
▁Lawrence
▁financed
.31
▁Look
▁QC
▁compelling
▁Observation
▁divorced
▁Su
▁NGL
▁Terms
sky
▁Bur
▁declines
▁decid
▁black
▁cooperative
ault
AD
▁Recent
▁church
▁elimination
▁variance
▁jail
▁Iraq
▁commend
.36
▁drivers
▁iii
▁easier
tained
GI
▁VALUE
▁occupie
▁Ch
mar
qua
▁protocol
RP
▁occurr
▁trans
▁founded
ail
ani
▁instruct
▁signs
RU
▁exhaustive
▁imports
theless
▁Claude
▁misconduct
▁commodities
3,1
▁pensions
OS
CT
▁channel
3.1
▁Beneficial
▁segregated
ba
4,9
▁Cominar
.09
▁predecessor
▁HR
▁dismissal
▁Purchases
▁focuses
▁lists
tandardized
▁DU
▁reversal
▁shipments
▁Employer
▁Lower
▁Incorporated
▁instalments
▁Premier
2.1
▁rejection
▁Customs
viewed
IF
-34
▁Tactical
▁retailers
▁Reconciliation
meter
▁AM
▁thanks
gue
▁afraid
uck
hand
▁123
▁licensing
ME
AM
,
▁1,00
▁Ac
ves
▁AA
▁Statistics
ily
▁flat
▁GDP
▁NOT
adopting
UM
king
▁YEAR
▁Element
▁religion
▁Deloitte
▁variations
▁fabric
tant
▁IP
▁25,000
▁′
▁1,02
▁Grand
▁appropriately
▁allocate
▁rock
.37
▁apart
ga
▁interpret
front
▁decades
ali
▁promot
END
▁Response
▁Technical
▁papers
▁expectation
▁grown
▁unfortunately
▁AO
▁landing
▁fellow
▁Moody
▁Interests
▁street
▁licensee
TH
▁1,01
Coopers
▁Fourth
▁Op
▁4.7
▁interfere
▁proxie
sized
▁Regarding
▁Representative
0,000,000
▁occupancy
art
▁Cu
quarter
▁prejudice
▁focusing
Cap
exercising
▁expir
▁5.6
▁Ministry
TERM
▁breakdown
▁underwriting
8,2
half
▁Associates
ford
▁referendum
ibility
▁Telephone
Lavalin
▁soldiers
▁payables
▁KPMG
▁Purchaser
▁prosecution
town
Class
.99
▁spouses
▁legislature
▁insurer
app
▁BUSINESS
▁parameters
ceased
▁clauses
arose
aries
▁expensive
▁DATED
▁individually
edge
▁160
CA
▁Foods
▁combat
▁ban
▁shopping
.63
▁EBIT
·
▁Repurchase
▁dynamic
▁shut
▁stages
▁112
▁cont
ji
▁compromise
▁marijuana
▁render
▁ceremon
▁arranged
▁Bou
▁Superintendent
▁excludes
▁formation
▁ma
inquiries
▁TDAM
rom
▁Release
▁probation
5.9
annual
▁courses
compliance
▁Rose
▁Mon
financial
▁NOI
7.1
02
▁explicit
▁Obviously
▁trigger
▁absent
▁delegate
▁Asian
▁Profit
▁win
▁tank
ET
▁village
▁Working
▁175
▁CAN
ABLE
▁1,04
urs
▁correctly
▁Participation
7.0
▁topic
▁EUR
▁spreads
EC
▁Cambridge
MA
▁Victoria
▁Pharmaceutical
▁ACE
▁Poor
operation
▁Accumulated
ans
▁Car
▁Steel
▁rapidly
▁EURO
▁sp
chi
▁Elections
▁engine
.21
▁AP
8.4
▁Advisors
▁Falun
▁Region
7.6
▁underperform
3.5
▁5.3
▁Sponsor
▁Jim
ARY
▁inclusive
▁Assuming
▁Opinion
▁PSLRB
ris
▁Take
▁Neutral
▁Losses
▁troops
▁Title
6.6
ID
ano
7.7
characterized
9.1
▁113
▁Jacques
traded
▁Emera
▁precedent
ough
▁Multiple
wide
▁6.1
▁Basis
▁governmental
▁prohibition
▁exhibits
▁Drilling
burn
grade
▁Complete
▁implied
▁MFS
rated
▁fresh
▁Process
▁buyer
▁Planning
▁Acceptance
▁foster
▁wonderful
▁ran
▁Shaw
▁Latin
▁convenience
shore
▁Repeal
▁critic
▁Ratio
▁conventional
▁Quebecker
▁IFA
▁Futures
6.1
▁strict
▁pipelines
▁190
▁Israel
▁discusses
▁disaster
har
▁sessions
▁Pools
▁Expense
▁attacks
▁retainer
▁unknown
▁trafficking
▁Harper
▁fast
▁Comp
Reasons
-43
▁118
▁gradual
▁Volatility
▁widely
▁recoveries
▁inside
SM
▁bias
▁jurisprudence
▁Radio
▁frequency
▁RISK
▁Claymore
▁Da
▁5.4
▁FROM
▁Grade
▁Pricewaterhouse
▁William
alities
▁adduce
ria
8.1
▁GROUP
▁Express
.39
▁128
▁145
▁biological
▁Assistant
▁significance
▁enables
5,000,000
▁Tele
▁ticket
low
▁1,03
▁flexible
GA
▁organizational
-40
▁waters
▁bus
▁playing
▁900
▁fears
▁contend
▁structural
▁shelter
▁disabilities
▁Failure
▁Recognition
8,6
stra
▁complement
▁earning
▁43-101
▁flaw
▁Pharma
▁Contingent
tier
▁Haiti
▁encouraging
▁perceived
▁patents
▁ignore
.67
▁Philippines
▁feasibility
2,7
▁0.20
ef
▁Conference
.44
▁disabled
▁Commodity
▁reveal
▁prescrib
▁Veterans
▁subscribe
▁owed
▁quantity
▁introduc
▁Dan
▁helpful
▁servicing
▁Guardian
▁dissolution
▁arrear
▁disruption
▁4.9
▁NAFTA
▁automobile
eration
▁sports
▁suggestion
▁weapons
▁college
▁score
rac
▁Sands
▁enhancement
▁sufficiently
▁connect
▁parole
▁GROWTH
held
▁121
▁programm
cle
▁NO
▁clerk
▁sustainability
VE
▁Chrétien
-41
view
▁constituent
IVE
▁constructive
▁petroleum
▁distributors
▁comfortable
▁114
▁6.3
▁Conditions
▁visitor
▁Designated
uff
8.0
▁Fax
▁Guaranteed
ATE
▁170
▁Scotiabank
▁embedde
▁Ed
▁Far
OP
▁legacy
fold
▁LIMITED
bre
▁arbitrator
▁LA
▁pocket
▁Beginning
▁Abitibi
allotment
▁contracted
▁generations
-48
▁Volume
▁utility
0.9
▁JJ
eur
▁unfortunate
▁ACCOUNTING
▁TFSA
▁Johnson
▁DSU
ense
▁manufactured
▁outcomes
▁Works
▁vertical
operative
▁AN
▁qualitative
▁Ask
bor
▁3.9
▁metric
†
▁Best
▁Statutes
▁122
ging
being
▁Thomas
▁0.10
▁lock
▁Action
▁minute
.46
▁fraudulent
▁throw
▁limiting
top
▁Bruce
reclassification
IST
▁wine
▁1,12
▁MFC
▁armed
tri
▁Week
▁psychological
▁Main
▁automatic
oriented
net
▁distinguish
▁Russia
▁119
▁prett
▁seal
▁confidentiality
OUR
,000.00
Monitor
fit
▁Aggregate
▁transitional
▁civilian
▁sincere
-51
▁0.05
▁memorandum
▁debat
▁Hospital
▁1,07
▁die
▁licenses
▁supervise
drew
▁supersede
▁screen
▁lies
trained
▁MI
▁discriminator
▁Maple
lock
▁Five
▁MP
▁Transcript
TION
6.5
issenting
▁Team
absorbed
average
▁partisan
▁illustrate
▁1970
▁prosperity
.48
▁inadequate
▁1,15
▁135
▁skilled
founded
▁lawyers
▁loyalty
▁société
▁warning
▁torture
▁Issuers
▁OPERATIONS
▁Gong
▁England
▁5,0
▁divisions
resumed
▁1,09
▁Consideration
vo
▁Invest
▁philosophy
1.5
▁poll
▁escrow
apped
▁determinative
▁enabling
▁delegated
▁container
.49
▁soft
4.5
▁Citigroup
▁convinced
▁Wireless
▁Strong
sible
Scholes
▁ASSET
▁Agri
▁300,000
.43
▁emphasize
3,7
▁stake
2.0
▁Che
▁super
▁robust
.56
CB
▁volunteers
6,2
▁module
▁bbl
▁affirm
▁conservation
▁1978
▁été
NI
▁surprised
▁Democratic
ker
▁BOARD
▁creditors
▁briefly
▁7.1
▁0.50
▁TC
▁interpreter
cha
▁fighting
going
▁speculative
1.0
.47
▁liquidation
han
worthy
▁differently
▁Extraordinary
▁race
▁Roy
▁Developments
▁Proposal
9.3
ommercialization
Several
fund
▁Chi
product
▁mechanisms
▁endorse
▁Secondary
▁Weston
▁Advance
▁synergie
▁weekend
▁Classes
▁wall
▁steady
▁recurring
▁approaches
▁delayed
▁disorder
▁Judge
7,500
▁Medium
▁moral
▁pace
▁basically
▁printed
▁Majesty
▁Farm
▁gather
8.5
media
▁imagine
SERIES
Qualifying
VI
ture
ose
▁frame
▁129
ov
▁laboratory
▁Higher
9,7
▁barriers
▁California
▁merchant
▁Ukraine
▁Liability
▁biggest
▁deferral
▁economically
▁parking
▁decade
▁Accrued
▁Has
▁Australian
▁wholesale
▁universal
▁petitions
▁Murray
Advisor
▁refine
store
▁Processing
▁contradict
▁envelope
▁white
▁Bridge
▁identifiable
▁unanimously
▁analyses
▁healthcare
IR
▁entitles
▁116
▁8545-
▁Ha
▁Cumulative
ib
iz
fully
▁didn
BC
Based
pecifically
▁Expected
▁Broker
▁Williams
▁Flows
No
▁124
van
▁Royalty
▁crucial
▁finish
▁MEETING
▁mere
▁Middle
,000
▁Turkey
▁voluntarily
▁prescription
▁repayable
cur
▁30,000
RM
▁250,000
▁plu
▁Wells
▁globally
▁Exchangeable
▁quorum
▁Para
ori
▁Potential
8.00
bal
▁immigrate
▁thorough
▁Keyera
AG
▁1,06
MS
9,5
▁terribl
called
ob
▁lift
▁shop
wing
▁Subsidiaries
▁imported
▁Windsor
mont
▁analysts
▁168
▁Texas
▁TransAlta
▁financiers
▁3,000
▁continuously
4.4
▁exact
▁AL
▁caisse
MP
UP
tation
▁Diamond
▁restriction
▁theft
▁Residential
▁milk
▁Events
2.4
▁Entities
▁STATEMENT
▁offshore
▁ext
▁produces
▁Sears
▁alter
▁Roma
́
1.9
▁Restated
.87
BI
▁evolve
▁Manufacturing
▁deny
ama
▁Election
AC
▁Municipal
▁Har
▁Oceans
▁AFFO
▁Mi
-50
▁Thi
▁Items
▁Japanese
▁brothers
▁fl
▁mass
tie
▁combinations
▁metrics
▁Ag
▁kids
▁Gen
▁Bra
▁Original
▁hypothetical
▁Persons
▁greatly
▁Globe
▁welfare
IG
▁construed
ew
▁FI
▁enhancing
stein
▁insist
▁Greater
▁Nex
.59
▁Bisset
▁0.75
resident
wan
▁2027
▁Islands
▁misleading
▁1,16
▁assisted
▁1,13
▁SIFT
▁contributor
necessary
▁reaction
▁annuity
FL
▁List
▁adapt
▁measuring
▁speaker
▁whatso
▁Was
bearing
▁capture
▁Guy
▁softwood
FI
level
.68
jo
lan
▁root
▁126
▁Revolving
▁arrive
▁custom
3.0
▁attest
are
▁filled
▁Fin
▁Next
pan
HI
▁Articles
▁Listing
2.2
avi
zz
▁ranking
▁spectrum
aud
▁utilities
▁Washington
▁INVESTMENTS
▁PWGSC
CI
▁CPR
▁Counterparty
▁sustain
▁THIS
.57
HOLD
▁BBB
▁printing
▁OFFER
-39
▁Overview
▁historically
ball
▁upcoming
▁Quality
▁dilution
▁internet
▁scandal
▁adjudicator
▁internally
▁restore
▁repurchased
▁lieu
▁seller
▁tab
air
▁Until
▁acceptances
▁fisheries
▁complexity
oli
▁Discount
§
▁younger
▁underway
▁Dated
3.4
▁arrange
ich
▁newspaper
▁waive
▁Participants
▁Ver
▁relatives
▁utilization
▁CC
while
▁Universe
▁Underwriting
▁Pembina
▁automotive
▁overcome
▁extending
▁harmoniz
hold
gram
▁Wilson
onsequently
▁taxed
oxi
▁somehow
▁1977
studied
▁finalized
▁progressive
▁corruption
▁TR
▁SCHEDULE
6,6
▁supportive
▁Appointment
core
▁Lord
▁Il
▁Sp
▁clarification
.74
▁150,000
RRQ
▁averaged
▁DECEMBER
▁carrier
▁Adjustment
▁127
▁Framework
SO
▁Conflict
▁CU
tions
▁fibre
▁Democrats
▁gained
▁notified
PR
RS
▁SSTAD
▁2.00
2.7
▁Excess
▁Restructuring
▁siblings
ost
▁SR
▁TAX
▁emerge
pousal
tar
▁inconsistency
dicat
▁1,20
za
▁Thompson
ng
▁assesse
▁Minerals
elle
▁worrie
▁releases
▁subscriptions
▁amalgamation
ache
▁striking
▁eastern
▁diversify
4.7
▁nomination
▁suspect
▁warehouse
▁Update
▁carriers
▁Barrick
.84
▁Ru
▁constantly
yer
▁NEW
relevance
▁persuasive
▁Mount
.64
▁expiration
▁seat
▁outset
▁1,08
PS
▁5.7
▁Requirements
▁continually
pect
▁Discretionary
▁optimize
▁emotional
light
▁factual
cut
▁memory
▁acres
▁LE
▁permission
▁filings
▁Structure
▁Stone
▁negotiating
▁Strategies
av
3.9
bi
iev
▁realizable
7.8
▁Border
.66
▁BA
▁LTD
▁tied
ix
med
▁Pi
-93
ported
▁impression
▁Benefit
.69
bel
▁crop
▁divid
▁Force
wh
▁Em
▁Pulp
pression
▁Ca
▁Cross
▁doesn
ek
▁quick
.77
▁downturn
▁drinking
▁marketable
▁pollution
▁1,10
▁Jazz
▁Italy
▁Merrill
EN
▁stories
▁routine
▁Parties
▁Freedoms
▁assured
▁shortage
eng
larity
▁Bal
▁corroborate
▁si
▁viable
▁eye
▁dairy
ica
inc
win
▁refus
▁1,11
▁afternoon
▁merchandise
▁Mart
▁weekly
4.6
▁RONA
EX
▁electrical
▁Douglas
▁5.8
▁tonight
▁elder
.79
Dominion
▁143
▁Ti
▁explore
▁Amalgamation
▁Fuel
▁sanctions
TC
▁Bonus
▁STOXX
▁blame
▁renovation
▁Concern
▁crown
▁positively
▁Margin
risk
▁Innovation
▁tape
ferred
▁Conseil
▁Jamaica
▁138
▁apologize
▁insight
Gen
DS
▁Circumstances
▁curve
-55
▁premier
▁Experience
▁achievements
▁verify
▁customs
▁offsetting
fer
children
4.9
ological
▁TVA
▁Charles
▁1,000,000
desirable
3.2
▁surveys
▁15,000
▁transcript
▁permanently
3.6
▁defeat
TO
▁Mill
▁notion
▁146
entry
person
gg
▁RRIF
8,5
posed
▁Block
▁revealed
▁tranche
▁bonuses
▁Gal
▁Mor
PL
▁lengthy
2.6
4.0
▁Objectives
▁PSB
flow
▁Pat
.86
▁6.2
▁GENERAL
▁Procedures
▁supplemental
▁colour
.78
▁Candidate
▁Taiwan
TY
▁commonly
▁DO
▁modification
▁É
▁Read
▁Graham
▁screening
▁134
ANT
▁132
▁heavily
▁rata
EST
▁BlackRock
▁lawsuit
▁judgement
sol
voting
AF
▁supplied
▁drawing
▁remedie
▁8.5
▁Hall
▁solve
▁productive
▁cooperation
▁1.25
▁Rio
▁resign
▁Draft
▁Residence
.42
▁shape
BO
▁Frank
▁Press
Voting
▁Andrew
▁adjacent
▁payroll
.89
▁BANK
▁1,14
▁COMPENSATION
.62
▁PT
▁Tim
qu
▁recognise
wo
ATED
▁precisely
▁stipulate
▁Ba
▁Nunavut
▁Realty
▁1,27
EF
▁Sur
▁indicator
▁indices
▁feels
▁stem
▁barrel
▁equalization
hy
▁suicide
▁database
▁measurements
▁Maritime
▁contractor
▁Focused
Symmetry
▁5,5
4.2
▁electric
-2018
▁Languages
▁seats
AND
▁Practices
▁violations
▁Supply
ult
▁Same
3.7
▁acknowledges
▁Hy
▁contravention
▁intelligence
ques
▁mandates
▁Healthcare
▁CERTIFICATE
▁NV
▁Gulf
▁Barclays
▁pose
▁efficienc
▁integrate
Com
▁assistant
▁Reinvestment
▁Present
▁positioning
▁indefinite
.76
▁131
▁injuries
▁cre
6.0
▁closer
.73
Mellon
▁weakness
▁Bel
▁film
EP
▁Bor
▁Guide
mailed
▁heat
▁Taylor
▁accountant
1.7
▁Shi
▁Copper
▁Moderate
▁Pipelines
pr
▁corner
▁6.4
▁Wa
▁destination
▁Test
distributable
▁observe
▁Hungar
asi
▁Old
▁helicopter
▁Arctic
▁prevail
▁consolidate
LP
roll
▁Child
▁rapid
▁1,17
▁750
▁Maybe
▁Ireland
▁Step
▁evident
▁Leases
▁daughters
▁fields
▁euro
▁Relationship
oved
▁Clark
▁twenty
▁1,21
▁Computer
▁specification
TV
▁1-800-
▁136
▁Arrangements
▁Have
▁pride
▁Transition
▁oath
▁camp
▁constituency
▁rewards
mic
▁investigator
▁route
▁interpretations
▁equitable
2.9
atch
▁6.0
▁prepaid
▁admissibilit
▁fines
▁Lock
.97
AN
▁Parent
▁Ph
▁7.2
▁139
▁81-102
▁promptly
room
▁continuity
▁convey
car
▁struck
▁harvest
▁1,24
▁Jack
▁Terminat
▁7.3
vision
zo
▁Dow
▁shipping
▁usage
lip
▁Burns
life
▁CHAPTER
▁Chemicals
▁Children
▁Eligibility
▁intervener
▁suggestions
▁Southern
ja
mentioned
CE
▁Elliott
ull
▁resume
take
▁audio
▁entertainment
FC
▁Consolidation
▁Increased
CC
▁substances
PT
▁Indigenous
▁reasonableness
▁Harris
▁preclude
▁refundable
.32
BOX
▁camera
▁correspondence
nov
▁tribute
▁CF
▁guard
▁Hedge
▁micro
▁Tariff
▁LeBreton
▁revise
▁Nothing
▁NB
▁POWER
▁Professor
▁nickel
▁broadcast
▁literacy
▁excellence
▁confront
RY
▁137
▁Analyst
CL
▁DIS
▁Campbell
▁reportable
nish
▁precious
ctor
▁proactive
▁Joe
▁dignity
.96
▁Encana
▁examining
▁banner
arian
ended
▁Marie
▁boe
▁typical
▁mergers
▁descriptions
▁forum
▁competitiveness
▁exchangeable
▁fundamentals
acy
▁destroy
▁DNA
,44
▁tolerate
▁sharp
GC
IRB
▁investigat
▁Certainly
.41
▁hid
▁147
▁sport
▁stamp
▁spaces
▁exploitation
7.50
▁bag
▁Fi
▁questionnaire
▁nurse
annually
▁1,19
berg
▁Baker
ancy
TA
▁perception
▁capability
OD
▁Previously
▁publish
▁gr
▁Lo
▁Territories
▁shortfall
▁injure
▁Anti
▁Shell
▁essence
▁Contact
▁engaging
tric
▁Hu
▁SUB
▁intersect
▁Joseph
Ma
▁141
▁1,18
▁solicitor
MB
aff
▁Sports
▁falling
▁Export
▁op
▁freight
▁Relating
.92
▁games
-47
▁analyzed
▁reversed
▁Mail
▁deeply
▁Memorandum
▁PowerShares
▁subsidi
Laurent
responding
adjusted
Produc
▁priced
▁spin
▁music
▁DR
▁SERVICES
▁billing
▁ramp
▁rare
▁defer
▁map
▁Goods
▁travelling
OU
specific
▁modify
▁temporarily
▁1976
Year
ati
▁strip
▁Gri
▁Min
▁Stewart
holders
▁NOTICE
▁Restrictions
FO
▁IPO
▁RESP
.83
Ex
▁academic
oke
▁poly
▁Geo
▁1,33
▁Principles
▁166
▁CFA
▁App
pal
▁phrase
pha
1.1
Con
▁diseases
▁Drive
▁foreseeabl
evolving
wave
▁African
▁resale
▁plays
▁guess
▁External
▁pure
▁dispositions
OVER
©
▁urgent
6.2
▁407
▁appearance
BL
▁ROC
.94
▁indenture
▁STOCK
itting
▁Strip
▁Contributions
▁furniture
▁sorry
▁overhead
▁Center
cho
▁Tremblay
▁surprise
NCE
▁interference
▁chronic
▁proposition
▁Inuit
▁Staples
authorized
TU
▁Digital
▁owe
▁Thomson
▁Figure
▁LIBOR
▁CHF
Saint
▁RSU
ada
EM
war
▁Pri
▁scientist
▁hydro
▁interval
vested
▁License
▁Model
5.5
appearing
▁Cal
cial
.98
▁Lang
▁Bernard
▁1,35
▁FDA
▁roads
▁Moore
▁1,28
▁girls
▁0.02
▁1,25
▁Rail
TE
▁Peru
▁Denis
ines
▁Occupation
aid
▁Mexican
▁parallel
▁Bri
▁assertion
pol
▁sisters
-227
▁161
▁Netherlands
DC
▁Forma
▁Supplementary
▁1,22
▁Quebecers
FT
▁gang
cker
▁142
▁Shore
gar
▁stabilize
,500,000
▁Autocallabl
▁40,000
▁struggle
▁authoriz
ify
stan
▁glad
.54
▁5,6
▁contractors
WA
▁Metro
2.3
▁sworn
▁CS
▁Pass
▁competence
▁generic
▁weaker
▁evidenced
-49
▁Extension
▁soil
wer
▁Benchmark
▁MANULIFE
▁Respect
Transcontinental
▁Gauthier
▁Defined
▁Four
▁ED
▁Proceedings
GE
▁Securityholders
▁coordinate
▁evidentia
▁1,34
▁Metal
ski
▁criticize
▁sovereign
▁Retained
▁Donald
▁155
rial
▁Ben
▁1,32
▁Full
lon
▁gasoline
yard
▁Previous
▁violate
▁experienc
▁pipe
▁Harbour
▁Guarantee
▁EXP
▁compet
▁pu
nom
▁ST
AIR
▁defect
▁clothing
▁protest
form
▁rid
▁Condition
▁tour
▁Ford
▁tourism
▁Alcan
▁Chamber
PO
standing
▁alliance
▁Ten
▁therapeutic
bra
▁159
hole
▁Qualifie
hol
▁faster
▁artist
▁questioning
▁Operational
▁165
▁Bre
▁allie
els
▁slowdown
.93
▁covenant
arch
▁DES
▁cat
▁definitive
▁exp
MAN
▁disappear
▁COMPANY
▁TMA
▁deceased
▁Ernst
▁1,36
▁upper
▁hereto
▁scenarios
▁ont
▁220
▁MBA
▁Travel
▁1975
▁1,26
▁SPECIAL
▁throne
▁1,37
▁enormous
▁SE
▁Alpha
▁contravene
▁lie
▁window
▁225
▁EARNINGS
▁frequent
▁210
▁boat
▁149
tan
▁appraisal
pressed
▁import
▁uniform
AGE
▁Empire
▁slight
▁notification
▁extract
▁il
▁Tower
▁broadly
▁undergo
SD
ram
▁southern
trusted
▁Ventures
-92
▁Complaint
▁flag
▁152
▁everybody
▁DESCRIPTION
▁Electronic
▁ses
▁streets
▁lessee
Throughout
▁Software
▁marital
▁157
▁pregnant
▁Age
▁McLean
dia
OE
mal
▁cold
▁deficiency
▁placements
▁unlawful
SON
▁5.9
.72
▁headquarter
▁incredible
▁elector
▁treatie
▁Crombie
▁Authorized
▁God
fired
▁trustworth
▁Speech
▁Million
▁equippe
▁Subsidiary
OG
▁OPERATING
▁detect
dale
▁Load
▁ITS
seemed
▁mal
▁dry
▁deployment
▁Jordan
▁powerful
7.3
▁conservative
▁revision
▁6.6
▁log
▁http
▁Sha
▁differential
▁momentum
GO
.91
▁Workers
▁Electoral
8.3
▁scar
▁demonstrat
▁postponed
bin
▁transformation
▁repeal
▁Active
-98
▁insider
▁Vi
▁resigned
▁1973
KE
▁171
▁0.04
nic
▁Package
▁Notional
▁err
▁paint
▁Facts
▁resid
▁beneficiaries
▁Golden
▁disciplined
▁studying
▁satellite
▁730
tem
▁Disruption
▁hide
▁Paris
6.3
▁Interpretation
▁shot
▁NATO
▁Tom
▁Peace
-60
row
hu
▁Allowance
▁fulfil
.125
▁expose
▁Seller
▁ren
▁Falls
ais
▁efficiently
▁computed
▁branches
force
▁Singapore
▁prima
▁attain
ounty
▁criminalit
4.3
ILL
▁1,29
▁Implementation
▁observations
CON
blended
pin
▁deficienc
▁waiver
£
▁promising
▁fishery
head
▁1974
▁Carstair
▁Nickel
vide
▁151
chair
tex
▁1,38
▁Light
hr
▁indemnification
▁Transat
HIP
▁History
▁shorter
▁Laurentian
▁merged
gin
▁Allied
▁boundar
▁messages
signed
▁ENERGY
ova
▁dilutive
▁subscribed
▁Revised
▁Sal
▁accountants
▁debtor
▁Associate
▁lifetime
▁doctrine
▁uranium
1.3
▁hectares
▁escape
▁disregard
mit
▁148
▁Existing
▁Northland
1,200
▁ethnic
▁PSU
▁Art
▁quota
prov
esterday
▁mailing
▁Lending
▁registrant
▁continuation
▁empower
▁Chairperson
▁Firm
▁UNDER
▁167
▁AASB
▁realization
▁Fundserv
▁incumbent
employment
▁855
▁Specialty
unicipality
▁ships
▁temperature
▁contest
OB
▁gathering
▁guided
▁ROE
▁hydroelectric
▁violated
▁army
▁row
▁CIG
▁deliveries
▁proxyholder
▁scrutin
▁240
election
HA
▁output
▁400,000
▁admissible
▁Definition
▁facie
▁Open
▁SUMMARY
AW
▁Bu
▁Prospective
▁doctors
▁8.1
▁TSE
,550
▁sovereignty
▁Develop
▁Son
▁strive
▁junior
pack
▁Coupons
ima
▁MARKET
▁plain
▁broadcasting
▁Had
appointing
▁charitable
fill
▁doors
5.1
OM
▁Commitments
▁Ki
▁Mean
{
▁circumstance
▁Stanley
▁ease
▁CHANGES
▁COMMITTEE
▁punish
▁finances
▁dialogue
▁Tr
▁absorb
▁Regina
▁logical
orrectional
▁pull
▁subjected
▁sums
UT
▁BR
▁trips
▁players
▁rationale
▁Acquired
Jean
▁politicians
ugg
▁PROXY
▁Pearson
▁assembly
▁negligence
▁Christmas
▁Student
▁opt
performance
▁excuse
▁minorities
▁contributors
▁doubtful
▁5.75
holder
▁intersection
▁Shelf
▁quantiti
▁consistency
place
▁Additions
}
▁Customers
▁Maintenance
▁Consulting
▁OSFI
BA
▁403
▁valeur
ake
▁7.4
▁Gordon
fo
▁SO
▁Selected
▁1,44
▁visible
round
▁Town
▁postponement
▁REAL
▁donations
▁Anderson
▁vein
▁AU
▁Ivy
▁PM
▁trailer
▁extraction
▁intermediary
▁arriv
▁Shoppers
IE
ition
▁7.6
▁Nu
cam
under
mount
book
iversities
▁RES
▁resort
▁156
▁Pa
▁RRSPs
▁pump
▁Big
▁Franco
▁GLA
▁overview
lib
▁7.0
▁Guideline
▁CM
▁courage
▁230
▁Zealand
lot
▁158
▁PERIOD
▁Communication
▁Leaders
▁committ
▁Cools
▁UNITS
LB
▁NON
WE
▁Distributable
▁Beau
inal
LG
ida
▁straightforward
▁GL
▁hospitals
▁1,500
▁Cover
▁Nesbitt
▁153
Entry
▁Cape
▁native
▁recruit
fa
MR
OQ
▁Responsibility
ALE
▁Ghana
▁VP
▁accrue
▁adults
▁DIVIDEND
writ
▁innocent
▁machinery
▁1,30
▁rolling
president
▁meat
dding
▁Establish
▁erroneous
-99
▁switches
▁Enhanced
▁FR
▁evolution
▁plead
ric
▁unsuccessful
▁Nil
▁9.5
▁convincing
▁unclear
▁Unlike
▁Write
▁footnote
▁Jo
▁nancial
ray
3.8
▁sugar
hill
▁probative
▁AIM
▁criterion
los
▁visual
5.7
▁Combination
▁iron
▁optional
bar
▁Marine
▁competencies
▁surgery
▁engagements
▁slip
nying
▁lots
▁Sustainable
▁Wal
ically
▁Chris
▁prolonged
▁absorption
▁dedication
▁Rand
burg
▁occupational
▁Back
▁Parks
2.8
▁freedoms
-91
care
leg
▁Laws
▁0.30
▁Throne
▁411
▁1000
▁Bob
▁alteration
▁162
▁Reduction
PI
▁summarize
▁Keystone
listed
lie
▁Sunday
▁approached
▁exam
▁Indebtedness
▁derive
cept
▁contradictions
shi
▁nice
▁Broadcasting
BU
hal
▁1,31
▁Ross
▁Nord
▁Switzerland
▁6.8
▁tragedy
▁estimation
▁hypothec
▁Club
▁Ordre
▁eliminat
▁ARE
▁liquids
-180
gan
▁Fr
COM
▁1,23
▁boy
▁8.0
▁Hol
▁Pol
▁OP
▁complicate
▁5,9
▁billed
cost
▁disappointed
▁wheat
▁Repayments
▁Rental
▁Training
▁prompt
000
▁motivation
▁1,45
4.8
5.4
nor
▁COMP
nominated
5.6
▁syndicate
▁Luc
▁boost
▁Artis
▁SECOND
▁Mills
▁mode
▁indemnity
cast
▁Adviser
▁skill
▁HE
▁altered
▁contradictor
ELL
▁complementar
tom
DD
▁comp
▁1.50
▁entitle
▁Kevin
▁Questions
ular
▁Activity
▁COMMON
▁warm
▁EF
ICAL
like
▁clinic
▁conjugal
▁reinstate
▁Deposits
▁1,48
iff
▁Proposals
▁saving
▁CSA
ARD
makers
▁5,4
▁cyber
9,9
consolidated
▁Practice
▁adjudication
▁Citi
▁Concurrent
▁0.03
▁Buy
▁Administrators
weighted
▁Rob
▁promoted
▁revocation
▁Issues
▁212
▁Lin
▁homeless
▁unprecedented
▁concepts
OUS
▁bankers
▁ocean
▁popular
▁Serge
▁Col
▁medicine
▁unlike
▁remov
1.4
▁weaken
.82
▁154
▁viability
▁killing
other
corp
▁Receipt
▁directive
CP
▁blue
tage
hat
▁Olympic
dated
HER
▁8.3
▁hardware
▁Mat
▁di
▁Entertainment
▁1,49
DM
MIN
▁Chile
▁contradiction
▁Muslim
▁battle
▁endeavour
mis
try
ken
▁Attributable
2,70
▁Affiliate
▁Kinsel
▁1,39
▁enactment
200
LD
▁AR
▁distinguished
▁reinvest
▁Preference
▁Consultant
▁aerospace
▁THIRD
▁novo
▁probability
▁FVTPL
depreciated
une
▁Receivable
▁isolate
ivity
vent
▁destroyed
▁commented
▁generous
▁wondering
▁Ham
▁Start
rum
▁acid
▁warranty
▁Depositor
▁Clarica
▁Mike
▁dumping
▁newspapers
DER
▁Box
MONTH
▁LTTE
▁Journal
▁conferr
ployed
▁hot
▁418
ANNOUNCES
▁10.1
▁AGREEMENT
▁GBP
▁Priv
▁Vivendi
▁4,5
▁rents
▁Translation
3,15
▁Mag
▁vacanc
▁clearing
RG
▁verifi
retirement
▁manual
ait
▁Which
▁Honour
ini
▁Band
▁German
▁Han
▁worry
▁410
bell
▁Adoption
▁6.7
▁CIRCULAR
▁prosecutor
An
LL
▁ideal
▁oz
▁transform
1.6
NE
▁frankly
tribu
▁Saturday
▁Trudeau
Marie
▁prepayment
▁combine
▁geo
▁precise
▁Linked
▁Marcel
▁preservation
▁Fed
▁asylum
▁dé
▁necessity
BM
▁guest
▁celebration
▁Lakes
▁OFFICERS
▁sleep
▁federation
▁hate
▁journalist
▁secur
EB
amortized
▁creditor
▁interaction
bl
▁ABCP
RT
▁overseas
▁solicit
▁inspect
▁Tech
▁shipper
▁1,41
▁Scarborough
▁Aviation
▁365
▁PSAB
103
▁Threshold
▁Remain
▁adjourn
▁OT
▁Including
inder
▁farms
▁blind
▁shipped
▁Regular
▁prospectively
▁Del
▁1,40
▁Lebanon
▁promoter
▁Burnaby
added
▁consume
ery
▁Syncrude
▁enabled
▁Indice
▁react
▁Privilege
▁tight
▁163
▁injection
▁recommending
▁Hi
▁magazine
▁reopen
▁1,46
solicited
▁QL
▁Prov
▁6.00
3,20
tte
cat
nie
▁centrale
▁mon
▁restrictive
▁teleconference
▁practicable
RC
avail
LAND
▁1,42
▁warranted
loomberg
▁3.00
ordinat
▁GMP
▁Ken
iel
producing
▁correctional
▁2.50
▁Yellow
▁Wi
-85
titled
▁Sheets
▁rec
▁Cascades
▁Fire
▁rigorous
▁diagnose
9,99
▁summons
▁dead
▁Put
pel
▁impos
▁blank
▁Beneficiar
▁delegation
▁recruitment
▁Payout
-97
▁anchor
coll
▁prisoner
PE
▁bilingual
IRE
▁eyes
▁nevertheless
itch
tat
Resident
▁surprising
ICE
▁Subscriber
EG
skin
▁depletion
▁Classification
friendly
▁refinancing
▁quotation
gel
▁tracking
▁NA
▁po
▁Steven
▁fax
▁MS
▁rhetoric
TF
▁Calculate
▁guideline
6.8
▁mes
graph
▁transmit
▁Gagnon
▁club
▁Comment
▁plastic
mile
2,26
▁4,8
▁Lien
▁Tu
▁52-110
▁desired
▁installment
▁abolish
▁justification
-94
▁Sure
▁fruit
▁Syria
▁Terminal
100
▁practise
ffer
▁dissolve
Québec
▁Collateral
▁similarly
FA
▁restatement
2,77
▁entail
▁RESOURCES
▁Saskatoon
▁25.00
▁Institutions
more
▁defensive
▁Identify
▁mayor
▁advertise
▁dream
▁neighbours
bul
▁173
▁Contribution
▁remarkable
▁teaching
gro
▁marginal
▁Disclosures
7.2
2,74
▁CD
▁9.1
▁placing
▁bullion
▁lawful
yield
-003
working
▁Guarantor
acre
▁0.06
▁Equivalents
▁PF
2,60
2,99
▁phases
generation
▁Sometime
FR
▁Noranda
▁reminded
▁topics
▁6,9
▁fractional
▁rape
▁Spain
1.2
▁overlap
▁rocks
▁164
Gene
▁650
▁0.12
speed
▁catch
apitalcorp
▁broke
▁copyright
▁unilateral
▁Fa
▁Mary
▁contempt
▁dial
▁Liquid
▁205
▁crossing
▁SP
▁Inventory
▁Mitchell
▁demonstration
▁pupil
▁5.25
▁Motor
EAS
▁Alain
▁restoration
2,39
ok
▁immovable
2,49
É
‟
▁Albert
▁Approved
ole
▁Surrey
▁forfeit
▁stimulus
▁ingredient
▁neglect
name
▁185
▁REC
▁Catholic
▁wire
rian
zi
▁GAM
▁Recently
2,46
gni
▁Adams
▁anomalies
¢
▁1,43
activ
tors
▁proportional
▁DRIP
▁INTEREST
▁plate
▁Reported
▁edge
2,67
▁replicate
▁Mercer
▁investee
rib
▁submitt
Law
UAL
▁cubic
▁Sherbrooke
▁Hills
▁Recovery
▁crew
▁corrected
▁rational
with
▁Expert
REIT
▁Expenditures
▁excit
▁hereinafter
▁bitumen
▁promotional
.61
▁river
▁tragic
▁quartz
-190
▁survivor
DU
oul
▁Budden
▁DSC
▁Nominee
▁Fairfax
▁earth
▁mentor
▁scholarship
awa
band
▁Import
▁uphel
EI
▁FY
▁bail
▁PROSPECTUS
▁MacDonald
▁Mel
▁diagnostic
▁hence
▁Rep
▁cours
▁Basel
▁motivated
▁Fairness
▁coupon
EW
-59
▁François
▁supporter
▁Job
▁permitting
fr
▁Reorganization
▁fin
▁lowered
▁362
▁geophysical
▁neighbour
▁circulation
▁oblig
▁jet
▁Ja
▁SW
Up
note
▁capitalize
▁profound
osis
unk
▁denial
▁189
▁breache
▁Airlines
▁vi
▁favorable
▁smoke
▁Norbord
▁SECTION
▁Virginia
▁miles
FP
▁Breton
▁1,50
▁4.00
2,65
▁Completion
▁JUNE
HU
▁EAP
▁impugn
-68
ution
▁vaccine
▁178
▁royal
▁Collection
▁initiate
▁pan
▁Documentation
▁criticism
▁earlie
▁tri
▁Paid
▁peak
▁symptoms
-90
ale
▁Bear
Reclassification
▁slide
2,19
ico
list
▁Claim
▁Ve
▁unexpected
▁Eagle
▁realistic
regulate
▁Ethiopia
▁Keep
▁applaud
abilities
gui
▁Generation
▁choos
▁verification
nda
▁Hedging
▁Assistance
▁PA
▁constraints
AS
▁NASDAQ
▁reinforce
3,13
definitely
▁enact
ood
▁Stores
▁Patrick
▁tree
splitting
winning
▁STIP
▁Aerospace
ady
▁policyholders
▁10.5
▁staffing
INE
▁neighbourhood
ami
developed
▁INVESTOR
fu
▁aforemention
▁pornograph
▁prescribe
▁strongest
▁Philip
▁SPR
matic
▁readers
▁sustaining
▁169
▁app
▁packages
▁Content
▁baby
▁mechanical
▁10.0
▁12.5
▁Boston
▁grandmother
▁VA
▁uphold
▁412
▁Precious
▁describ
▁reader
-96
▁3,00
ction
▁outsourcing
▁endanger
▁193
▁Molson
▁lump
HAR
▁176
▁systematic
▁172
▁solar
don
▁Aggressive
▁Preliminary
UL
petit
▁1.75
▁destruction
ord
▁Men
tine
▁counsell
▁remediation
▁Branch
▁confused
▁rescue
TRA
▁Kat
▁divestiture
gam
▁turbine
▁pi
▁onto
▁6.9
▁inflows
▁presid
▁hockey
than
▁YTD
▁Legislation
▁Richmond
pic
▁ITEM
▁selective
▁174
▁mistakes
-2011
government
tres
▁coalition
▁purport
conformity
▁5,1
▁Range
tewardship
▁fought
▁GM
▁ascertain
▁multiplied
▁Anne
▁impartial
▁privately
▁421
▁predominantly
▁440
▁EXECUTIVE
vert
▁UNITED
2,85
FM
▁plc
▁propriété
▁reservation
▁181
▁183
RB
Tard
▁TI
2,40
oid
▁century
▁irrevocabl
▁memo
▁trucks
Food
och
▁Month
▁disagreement
▁OAS
▁Ville
▁Instruction
▁Cooper
▁dissent
GU
▁Tender
▁statistical
▁Couche
▁Off
lop
▁5,7
mor
▁Claims
idi
▁6,4
▁crack
adly
▁cargo
▁Make
▁Nature
▁advisabl
▁Recommendation
▁Sept
tatutory
▁ALL
▁bread
▁categorize
▁confer
▁seizure
ATIVE
▁blocks
▁Cuba
▁Leverage
▁LOSS
ality
Application
▁champion
▁anybody
long
▁BTB
▁Florida
▁ski
crimin
▁8.8
▁Vehicle
share
trading
▁revaluation
URE
▁HIV
▁duplication
▁McC
▁arms
▁grandparent
▁Together
▁NSR
2,29
stock
▁Replacement
born
▁Hotel
―
▁DC
▁Rou
igh
▁stick
▁1,54
EEN
▁CR
▁timber
flu
▁comfort
2,30
-2013
▁Egypt
▁wound
pend
ura
▁351
▁correlation
▁comparing
▁guns
oma
▁Royalties
▁publications
▁omnibus
▁Gro
LO
onic
▁60,000
▁Domtar
▁Phillips
TED
▁museum
▁deprive
▁prospect
▁201
▁Comeau
2,59
million
mission
▁invalid
consum
open
▁concur
▁fat
WH
▁0.40
▁Somalia
▁parental
▁PPA
▁Russian
▁airports
▁bankrupt
▁Char
▁Institution
▁CAIP
▁Treatment
eral
▁diagnosis
▁Accountant
▁fraction
▁bps
stituted
rich
▁361
▁VB
▁turning
▁geographical
▁reception
▁213
4,99
-52
▁1,58
power
▁1972
▁Progressive
▁analyz
▁strictly
serv
▁mandated
3,17
▁CV
ington
PC
▁BO
branded
▁Patent
utter
▁Micro
▁TSXV
▁webcast
▁Stan
ella
▁Middlefield
▁Outlook
▁Confederation
▁demande
▁counterparts
▁reconsider
▁broaden
▁Beutel
▁Grey
▁gaming
▁accomplishment
▁adhere
.0000
▁sentiment
chan
▁Achieve
▁Gilles
EV
▁Indonesia
▁advertisement
▁Demand
▁Ku
▁ratified
3,96
▁Ordinar
▁donor
▁survive
▁1,57
▁GR
lite
▁8.2
CHE
▁6,7
▁reset
▁weapon
Di
2,76
▁0.07
▁1,55
▁milestone
-54
▁Est
▁furnished
▁7.7
▁therapy
3,35
▁Way
▁advis
-95
▁su
▁void
AB
II
audit
▁beverage
▁heating
▁landfill
▁ultra
▁1,59
▁204
arry
▁Panama
▁insult
▁Assess
▁meal
▁1,52
▁Goldcorp
5.3
▁oversees
▁transact
mobil
USE
conscious
▁209
bat
▁corridor
▁sulphide
▁POLICIES
gene
▁Fargo
▁Guard
▁6,3
▁GWL
food
▁strange
▁Brands
▁truthful
▁SLF
▁mitigation
▁THAT
▁census
3,500
▁syn
lement
▁fundamentally
▁horse
▁demanding
▁CSC
▁cite
▁deviation
▁busy
▁Smart
▁Later
▁condemn
PH
▁FISCAL
1.8
ENCE
▁260
3,10
▁compliant
▁confusing
▁requisite
▁Down
▁threatening
BD
▁Ber
▁addiction
▁irrelevan
vel
▁ISA
3,24
▁lien
IO
▁Inventories
▁188
▁completeness
▁disadvantage
-83
avec
▁Controlled
▁objects
▁Saudi
▁1,65
▁5,2
▁Touche
▁Charges
▁SQ
switching
▁4,9
▁demographic
▁footprint
2,69
421
▁1,60
▁somewhere
risen
▁Tak
▁MACKENZIE
▁Solution
▁Site
vol
uri
▁Address
ontingency
▁Amalco
operating
▁subheading
▁0.08
▁Va
▁parcel
▁Ratings
▁ProMetic
▁marketed
roughly
▁Seven
▁Swiss
▁furnish
engrowth
▁grave
▁fulfilled
▁recycl
ique
▁ACB
▁developer
handled
▁Hay
▁Default
▁NOVA
claim
Pacific
▁veins
▁Toll
▁versions
GM
▁Entity
▁191
NY
▁Compared
▁player
▁electronically
▁fide
▁Wholesale
▁hunt
ugh
▁Simon
▁1,53
▁Jane
▁diligent
owners
▁habitat
▁constitution
▁Determination
▁protein
▁1,62
cla
▁1,67
▁Earlier
-86
▁1,51
▁Written
▁Field
▁Wil
▁posting
fending
▁Im
▁RIGHTS
▁550
▁coffee
▁Mobile
3,74
uit
-69
▁exercice
▁sh
HL
▁breath
▁325
▁Mulroney
▁duplicate
▁mined
▁CORP
▁delight
provincial
▁10.2
ALL
▁RFP
scale
▁195
4,15
▁commercially
3,95
▁indications
3,77
▁Switch
.71
took
rio
▁184
west
▁revisions
▁surveillance
▁institute
.53
Power
▁Ap
▁Perpetual
▁Wellington
▁extinguish
▁Cenovus
▁fiduciary
▁Régie
▁compil
8,60
-61
▁Eng
cum
▁BNS
pur
LT
▁Université
▁aviation
▁3855
▁defining
RIT
▁impair
metric
▁snow
▁NCIB
known
▁Permitted
▁enrolment
STR
▁Terra
hour
key
pass
▁regret
▁summari
▁safer
4,20
▁179
▁Arts
▁photo
depth
nounc
▁Brook
.81
Notice
own
▁Email
OUT
▁BB
▁CSIS
▁throughput
3,60
▁undiscounted
je
fs
▁diploma
▁Leadership
RES
RR
▁Looking
▁struggl
,680
▁Variation
▁177
▁Super
▁command
▁compatible
▁homosexual
▁analyst
▁Cundill
col
▁186
▁1,47
▁informal
▁2,2
▁forthcom
phy
lion
▁Boeing
nomination
▁ineffective
EE
itz
▁Clerk
2,80
▁187
▁resell
spread
▁beautiful
▁firearm
arm
how
▁TRANSACTIONS
▁scene
▁420
▁Membership
▁DISTRIBUTION
▁Answer
▁Borrowing
▁Delta
▁thirty
▁192
▁Distributor
▁bidder
▁matures
▁reflection
▁sanction
valued
▁McGill
▁analytical
▁theatre
▁improper
▁spill
▁plausible
▁Method
LF
▁1,56
▁3,1
▁warrantie
▁appropriateness
▁ministerial
4,95
▁7.8
▁Granite
▁Hole
▁Supp
-82
▁Communities
▁reclamation
▁winding
▁Equal
monetary
▁presumed
Le
▁194
ante
lum
▁Determine
LU
vote
▁GHG
▁brain
Announces
▁refinance
▁6.25
▁Ridge
▁penetration
▁unaware
▁waivers
▁aged
▁gar
CR
capitalization
ave
oy
▁bona
▁Dia
▁Carrying
▁variances
RF
▁Inspection
▁correction
▁lend
▁reiterate
▁Afghan
▁undivided
▁Malartic
bert
▁stimulate
hin
▁EM
▁NS
▁352
▁dog
clu
▁Ensure
▁imbalance
▁ratification
▁passe
nex
wal
▁RESPECT
hearing
▁Economy
▁dramatically
▁Sample
▁postal
▁Required
▁Kar
▁elaborate
▁rescind
cro
▁convince
value
Nevada
▁Church
▁Floor
▁MANAGER
▁retailer
▁downward
▁Pages
3,84
▁weaknesses
▁Evaluation
▁promissor
ontingencies
▁Gi
Select
▁hop
▁unobservable
ease
▁deliberate
hedging
▁Cam
▁publishing
▁Excise
▁rush
PAC
▁intrinsic
▁stored
▁Converse
▁Ultimate
▁EXPENSES
▁11.1
▁320
▁Weight
▁wrap
▁GOLD
▁infringe
▁1,70
▁stabilization
mpl
▁arguabl
▁alternate
▁Broad
▁sixth
▁warn
▁SG
▁composite
▁Canoe
employee
▁ASU
▁EU
▁verbal
ban
▁width
▁Objective
▁steam
▁suspected
▁1,63
▁Dollars
▁modernize
▁abused
▁Miss
▁plea
▁ASPE
▁ensu
▁upset
established
ulat
▁broadband
,760
3,99
▁imposition
▁Associated
▁Cree
▁proving
wife
▁Found
▁VOTING
▁invitation
▁COVID
▁smart
▁2030
▁founder
▁Tor
▁9.3
▁Climate
▁Teck
▁pursuit
▁Debate
▁1,99
▁Tre
▁francophone
▁simulation
▁metre
▁FARC
credibly
▁NEB
▁SHORT
▁omitted
▁BALANCED
▁MEMBER
▁conclud
▁insurers
▁minus
2,66
ogen
▁PROVISIONS
▁Survey
▁ports
,470
▁tissue
▁INTERNATIONAL
▁arbitrar
▁farmer
▁logistics
▁referral
chem
▁Capitalization
-2015
itic
▁ATCO
Pay
▁182
FE
▁MAY
▁bilateral
page
ption
PUC
▁227
▁1867
▁OECD
▁median
▁optimization
3,07
▁Kaur
▁outweigh
▁outflows
▁Copie
▁Chen
▁freely
▁proximity
7,25
▁Bon
storm
▁Gill
refining
thyl
,720
Call
▁leak
▁ci
▁recreational
▁ART
▁Carl
▁1,69
▁Consultants
gged
▁DB
▁Cat
▁guy
▁Sainte
▁Leave
recognized
▁Fundamental
▁farming
▁CAP
▁OCI
▁Rivière
▁Adopt
▁Medicine
NT
stream
IAN
▁5,8
▁securitized
therwise
▁aluminum
▁translate
▁1,66
▁Comparative
3,67
▁yourself
▁DEVELOPMENT
▁Profile
▁discover
▁unexercised
5.8
▁5,3
.52
▁NBI
▁commerce
▁Get
pac
▁restructur
▁1,77
▁Summit
3,18
▁AAA
▁TH
▁diminish
▁interrupt
DEC
▁HRC
▁1,74
▁COGECO
alone
counted
▁transferr
▁frais
▁Mandate
coupled
AML
Month
Tech
▁214
▁Yu
4,96
▁4.25
▁Supra
FF
▁EQUITIES
▁emission
currency
▁Steve
even
8,25
IGHT
▁1971
cia
3,65
denominated
▁Genuit
TIES
▁takeover
▁Constitutional
▁PRE
▁UNAUDITED
ECT
▁Relevan
,660
0,60
▁Iron
▁drink
▁6.75
▁domain
▁breaking
▁entrepreneurs
▁alarm
▁lessor
,940
▁FASB
▁Opening
case
distinctivenes
▁Registrant
▁belonging
▁incidental
Dec
▁deterioration
▁6,8
▁Advanced
LV
ore
▁Jud
,110
▁fluctuation
my
▁Clear
▁Youth
due
▁5.50
vival
▁215
▁Maintain
▁specifie
▁Normal
▁tailings
Looking
ependant
▁infringement
investment
▁cru
alloway
▁270
▁Primary
▁Township
LIC
▁conceded
8,10
▁Exception
▁Difference
▁integrat
▁mortality
▁Oliver
oil
▁commissioned
▁BOND
adi
▁whip
▁Critical
▁330
▁Opportunit
-150
▁Visa
▁MARCH
▁Sentinel
▁Trinidad
▁caregiver
Monetary
Corp
▁LIABILITIES
▁Liberty
▁8.4
▁intense
▁11.5
▁CIC
Integrated
▁Engineer
▁RC
▁Treasurer
▁subsidy
▁Accept
TIN
▁Author
▁grid
▁movie
▁abandonment
▁EAFE
▁switched
▁Boy
▁SEPTEMBER
▁problematic
▁Television
▁thermal
,288
-53
7,40
▁motive
curring
▁Initiative
forma
▁Purchased
▁metallurgical
ues
PW
▁QUÉBEC
▁Capitalized
▁center
encing
▁Cut
▁Facebook
TAIN
▁Neptune
▁PP
duct
equity
otential
3,40
cular
▁Assumption
ilia
▁logic
▁reproduced
MAR
▁cyclical
▁RESPs
▁exporter
▁stolen
▁INDEX
▁Assume
ND
ambi
gold
▁craft
▁formulation
rk
▁Dorel
▁SH
3,39
8,70
approved
▁AMENDMENT
▁Evolve
3,70
▁1,61
Duty
▁MUTUAL
▁DS
▁announc
▁persecute
▁ni
▁pyrite
▁ESTATE
3,14
ncillary
▁coach
box
▁collaborat
▁orally
9,40
▁600,000
▁Holdco
Fund
▁1,76
located
gov
▁donat
char
ben
▁235
▁Cont
Duties
▁DATE
▁Hand
pay
3,30
gainst
management
▁dental
glica
▁VIA
▁educated
▁enrich
▁incomplete
▁dozen
▁overwhelming
hear
mond
▁196
▁milestones
▁Aircraft
▁remorse
9,70
▁alignment
TOR
hang
-2010
▁401
▁Arabia
▁Caribbean
▁391
▁distress
ky
▁Bangladesh
RD
substantiate
▁rebalance
▁2,01
6,70
▁lake
▁legislator
▁aggravat
-74
▁forgotten
▁cpa
▁Knowledge
▁RELATED
▁Ye
▁standby
▁verdict
pli
▁tenure
▁Operation
9,10
▁CL
▁bl
▁Cas
▁FX
▁dominant
▁isolation
▁legislate
GR
▁bargain
atic
hum
▁7,5
▁LAB
▁timelines
▁Austin
▁premise
5,20
▁Falconbridge
▁Sir
▁10.3
▁2.25
▁cure
3,76
▁APPEAL
CHRT
pit
▁advancing
▁authentic
▁trace
▁Kingston
▁PO
▁Participating
economic
▁Chicago
▁Tamil
,610
0,10
7,10
trust
▁275
▁FIN
4,09
▁1,95
▁Coal
3,11
▁Carignan
Temp
▁Actuarial
▁ME
▁Ship
effective
clock
▁supplemented
nous
AA
▁202
▁1,73
▁Argentina
,510
DG
▁Improvement
▁Mann
▁Sc
▁float
▁relieve
-57
disputed
obi
▁IFRIC
▁Hart
▁consequential
▁nominating
Registered
vor
▁optimal
4,13
▁1,82
▁contention
▁meantime
▁ref
▁Depending
▁certify
▁gay
▁NQ
▁VOTE
ORE
▁Laurier
▁Granted
▁Synergy
▁bottle
▁detractor
▁208
dra
▁Crude
▁workshop
▁Below
AMI
▁Limitation
ables
▁Que
▁everywhere
▁Scholarship
▁counsellor
▁communicat
▁TCPL
▁4.50
9,98
▁disclaim
,066
▁206
▁7,0
,810
▁Georgia
▁embarrass
▁instant
digit
▁avenue
6,10
Inc
hot
,714
▁199
▁Ze
COUNT
▁Lot
▁ca
▁liquidate
0,25
▁entries
▁Appelant
Reviewed
NL
▁Domestic
▁Intact
▁matching
▁smuggler
▁Dissent
9,25
IV
PM
nction
▁flood
-71
▁1,84
▁advancement
step
▁1,72
▁Churchill
▁IND
▁hybrid
▁install
ule
▁Approach
▁Imm
▁observation
INSTRUMENTS
▁Disclose
▁cheese
2,79
employed
▁1,64
▁hall
▁predictable
run
▁ULC
chip
▁Bowater
▁Engagement
ont
0,70
▁Disposal
▁PURCHASE
,064
▁7,4
▁Provider
▁disseminated
,476
▁indefinitely
▁MPI
▁norm
▁harmful
▁wildlife
▁EST
▁CREDIT
▁federally
FG
▁12.1
▁decreasing
▁info
▁Sherritt
▁subdivision
Staun
▁conven
Sc
adviser
jurisdictional
▁galler
▁persist
▁concurrently
▁fortunate
▁upward
▁distinctive
▁265
▁ER
▁Kelly
,970
▁Excludes
▁BOR
▁Congress
deliberations
▁deploy
6,20
ifying
▁Factor
▁validate
9,95
▁maritime
▁207
▁Transmission
,890
▁tempore
▁Category
▁indemnify
far
▁cohabit
counter
▁Medi
ado
forcing
mat
STA
▁rein
▁concert
▁dark
▁Thunder
▁triggered
iste
▁Parkland
new
▁deteriorate
▁unionized
▁STATES
▁Brand
▁blend
7,96
Bro
▁alert
nar
▁Gazette
▁passion
,081
▁technician
kel
▁Lloyd
▁ob
pec
▁Reuters
,648
3,29
▁rebalancing
▁Leaf
▁Exp
▁Oversight
otted
▁balancing
▁1,68
▁Subscribers
▁smoking
.58
▁Readers
▁injustice
bury
ien
▁2,05
▁Brokerage
pond
▁Games
▁Resum
▁Promoter
▁tactic
,083
agne
▁lifestyle
▁disbursement
▁Microsoft
▁Phil
▁Swap
haul
▁mo
▁Ore
0,20
▁odd
trap
▁caring
▁être
put
tention
▁2,04
,197
ESS
ech
read
▁Qui
▁1,98
▁jump
▁0.13
rim
rod
,832
,664
-88
▁Guidance
▁Hor
▁Investigation
▁shame
▁controvers
court
money
▁1,92
▁Corn
▁vigorous
,237
0.90
▁Spectrum
▁preferential
▁franchisee
,267
▁Daily
▁Ratios
2,90
pplicable
▁6,1
,910
▁Dickson
▁Sho
▁197
▁pollut
ATIONS
▁Albania
▁Morocco
ML
▁1,96
7,70
▁Storage
4,70
5,24
▁Brazilian
▁owning
GEN
▁photos
NO
flo
▁Compound
▁Nisg
▁circuit
▁leveraged
3,59
tch
▁340
jan
▁Mis
▁Tkachuk
▁Westminster
▁Permit
▁dictate
▁immunit
▁montant
▁PH
▁THREE
▁boundary
-81
▁inaccurate
PV
segment
▁deliberately
Link
▁threaten
FS
▁1,85
,566
▁Wayne
pher
▁salmon
▁accretion
TON
▁MC
▁TABLE
Out
▁Vested
dge
ister
udi
▁2,000,000
▁Renard
0.7
▁safely
HD
▁PROPERTY
,032
▁6.50
▁Helicopter
▁Selection
▁accessibility
9,90
price
▁Components
▁apparel
▁convenient
▁Obtain
▁AutoCallable
▁Guyana
▁Shar
equent
▁Attention
▁Servicer
▁pertinent
888
▁Gary
▁Introduction
▁2,02
▁dying
amalgamated
▁Formation
▁flee
,576
mouth
gle
▁Roche
,835
▁Tobacco
,287
▁answering
,637
zer
▁Charlotte
▁Geographic
,937
▁315
▁Exemption
,668
2,87
▁Hartford
tries
▁Disc
▁Owned
8,40
▁prosecute
▁10,0
▁harsh
PG
▁248
,519
ff
▁Much
▁download
8,20
cembre
group
▁IRS
▁grocery
4,60
▁Chemical
▁PAR
▁bench
-170
▁centers
,432
lacked
▁Indicated
,063
▁dwelling
CF
▁contacts
▁Location
▁kick
PSC
▁magazines
▁refrain
▁0.09
▁222
▁Jurisdiction
▁girlfriend
,119
▁Permanent
▁Aimia
4,500
ott
▁Ground
▁polling
▁Brompton
Bill
▁fun
4,35
GD
▁280
▁collaborative
▁Knight
▁firefighter
▁turnaround
▁Dossier
ois
▁HIGHLIGHTS
,143
▁198
▁pillar
,097
‖
,238
,532
,944
▁resist
cou
had
▁imperative
▁6,0
▁enforced
▁Côté
▁Disposition
3,49
▁kg
,438
▁detection
por
▁cautious
▁cr
▁relocate
▁1,81
▁Reinsurance
▁333
▁preserv
ept
▁ample
▁prominent
-75
,734
ddle
▁Bouchard
▁Skills
ody
▁CEE
▁MM
▁Self
-62
▁grab
▁pandemic
▁clearance
▁Ya
▁doubled
▁sacrifice
abl
▁1,88
▁Track
▁incapable
▁unrecognized
▁Dairy
▁funeral
company
▁sens
▁relocation
▁beaten
▁2,00
gua
,568
▁Imp
▁Station
▁computation
▁Discuss
▁Fil
▁specialist
▁Dubé
▁sudden
0.1
▁AI
,635
,429
▁DEX
▁Miller
▁immun
▁Mah
,564
▁Conv
▁Kan
▁cattle
▁silent
,426
riving
,912
range
-76
yne
,647
,156
▁researchers
,870
bec
▁Aid
▁sophisticated
7,20
▁Turn
▁variabilit
,113
,935
1,20
▁1,78
▁1,87
▁View
,616
TR
▁Aston
▁stringent
,220
▁Okanagan
▁Scientific
,224
▁Complex
alive
written
▁organ
▁mitigat
▁beef
▁differentiate
▁specialize
▁technique
▁temp
,523
▁EXPLORATION
▁0.35
▁Rick
Offence
▁noon
7,99
sponsored
▁203
0.5
▁211
▁dislocation
0,15
▁centraliz
▁responsive
▁2,6
▁Attendance
odo
▁Stratton
▁forfeiture
,266
0,13
cours
▁346
▁Delaware
▁carryforward
0,21
▁0.18
▁Blvd
▁VII
▁Contractual
,687
-87
▁224
▁Joyal
,584
▁Chan
▁leas
,086
,234
▁shipment
,178
,419
commerce
▁Allan
,474
▁Axcan
tia
▁Waste
▁Ren
tected
▁Kin
▁valu
▁intercompany
▁novel
▁regulator
▁6,5
▁silence
,184
▁cheap
,326
,938
▁grading
▁Italian
▁scan
▁Putnam
-56
NESS
,987
-58
▁Sy
4,10
▁223
▁1,86
,976
▁Ali
▁Adv
▁Huru
HY
aba
▁Count
▁Tra
▁conc
▁Grain
▁alleg
▁devoted
▁DEPOSIT
▁GMi
9,30
▁Hat
▁Spring
▁genocide
▁optimistic
▁237
3,80
▁fled
▁Examin
▁FA
7,9
UC
▁downtown
,796
ike
▁10.4
▁traveller
9,80
Am
▁Composition
▁streamline
,316
,689
pot
▁psych
5,99
▁im
▁literal
REG
▁2,7
▁CONDENSED
▁classify
,077
▁241
▁officially
,534
enne
▁Limit
▁capita
,409
▁Acquir
▁WTO
imp
▁ver
▁Algeria
▁devastating
9,24
▁2035
▁216
▁Gatineau
,613
▁solvency
,546
7,95
gas
▁2,07
3,69
direct
paying
,134
Backed
▁Discovery
▁LL
▁Rouge
▁EIC
▁Mad
7,98
▁citation
▁ASS
▁diplomatic
-2017
-64
0,35
▁appetite
▁période
,469
3,57
▁2.75
▁Eric
not
▁MT
gh
,736
▁218
▁Sweden
▁respectful
,526
gie
via
▁corrective
-2012
NA
paid
phone
▁northeast
▁bright
▁Ob
▁refinery
severity
▁Sar
▁Talisman
RN
▁0.16
▁adapted
2,97
ire
▁Similar
▁Treaty
▁ces
vir
▁CTC
▁Library
▁Protocol
▁Ocean
▁Website
,223
▁Explor
▁4,7
▁Obligation
9,20
▁anticipation
▁cleaning
,786
,716
▁dia
▁pregnancy
6.00
▁Conclusion
,569
▁Kings
,535
,718
VA
▁MATTER
▁preamble
2,89
▁1960
▁Astral
,837
▁policyholder
▁état
6,24
UF
canada
▁372
▁CG
,148
▁outflow
OF
,488
,638
,794
num
ures
▁229
▁vacant
▁Expansion
,614
,684
▁Ga
▁Prairie
▁northwest
■
,422
,712
▁induce
▁loophole
,458
▁ARC
,557
▁Describe
,585
9,96
▁Wright
▁excited
nan
▁magnitude
-84
4,65
▁abortion
Edge
▁Penn
GB
▁Sky
,521
staples
vit
▁1,75
▁0.14
▁Chemtrade
abid
executing
fic
,917
▁AUM
▁murdered
WT
▁belt
▁bodily
▁originated
6,67
▁Sobeys
▁wild
arn
▁casual
▁specialists
,447
▁Wajax
,887
▁75,000
,975
.51
azi
MV
▁Affidavit
▁Perform
-65
▁2029
MET
▁knee
settled
▁Comparable
▁journey
keeping
privileged
▁fly
CTION
DF
NP
▁Amend
▁SFAS
▁Prepaid
▁exploit
,789
bridge
fall
▁2,03
▁landlord
▁Za
PORT
,733
▁Deficit
GF
▁SS
hak
▁LONG
▁NR
▁Nomination
3,75
Removal
▁ceiling
,599
▁importer
efficient
▁creative
▁4,00
,089
▁emphasized
▁retraction
,729
rock
▁217
▁René
bas
▁roof
,674
▁0.17
▁acc
,475
▁Legislative
▁excerpt
,783
5,15
ATING
Subsequently
9,37
8,77
SH
rench
▁severely
4,07
▁1,79
,644
adian
▁dimension
cumulative
▁successive
5-4
,728
▁Outside
tron
,306
drawn
▁efficac
▁1,80
▁hunting
▁utilizing
,717
▁Close
9,48
▁divest
,856
▁251
▁lowering
,839
▁Belgium
,318
▁Aecon
,948
La
▁nearest
worth
▁VaR
▁disclos
▁Bas
▁Apple
▁Result
▁magnetic
,141
▁signatures
▁JPY
4,74
▁accompany
0,1
press
▁expressions
Chairman
▁niche
ort
▁Trial
▁GENIVAR
OSS
▁Withdrawal
▁Ri
8,74
▁Litigation
▁Richmont
▁predicted
0,24
▁2028
,434
0,95
▁Rimouski
▁illegally
▁2,16
▁renounce
▁apology
▁vis
abil
▁267
▁exhaust
▁CMA
,186
,464
▁quo
▁Acuity
▁PRICE
ride
▁245
▁Vision
▁vol
3,55
,927
▁Lender
▁McDonald
,816
▁specializ
▁3.50
,574
7,90
nat
7,77
▁Licence
▁MacKay
,611
▁CWB
▁toxic
▁7,8
▁décision
▁surviv
,662
,866
▁850
▁Packaging
,451
,727
sustaining
vil
▁gainful
▁inadmissibilit
,562
▁assent
▁troubling
8,82
▁island
▁Scenario
,314
▁conclusive
,913
▁TORONTO
▁contracting
aria
▁notable
▁simulator
▁Suisse
▁groupe
▁226
▁Military
0,90
▁2,09
▁Pit
▁Chase
▁fluid
6,60
IZATION
▁bigger
▁donation
6,65
▁Concentration
▁FTQ
▁Marshall
▁dramatic
,631
▁234
▁Salary
▁Hub
▁Restaurant
▁embrace
▁0.60
,233
▁Hotels
cation
osa
▁summit
▁232
RAN
performing
▁290
▁11.2
,472
▁favor
disproportionate
▁Intelligence
▁Sand
▁estimat
0,32
poli
gging
nal
oom
▁Richelieu
▁MONTHS
▁spa
▁375
▁ITA
uel
▁221
▁peaceful
▁honestly
▁AFS
▁briefing
▁540
▁Idem
,942
▁comparator
TIC
,766
4,19
5,60
aire
-004
▁insolvency
▁Automotive
▁Greece
,919
NER
,645
▁Enforcement
▁intercept
▁Harder
▁Morin
muni
▁CCA
optic
4,40
▁synth
Chair
▁lobbyist
9,36
MEX
▁Identification
,512
,622
DAC
0,96
▁Ram
-89
,539
▁PERSON
▁edition
▁unwilling
,418
business
surable
▁GWh
▁Sh
,914
▁Automatic
▁biotechnology
▁sympath
,906
▁scrap
favourably
,656
▁231
▁hike
▁eleven
7,60
language
omi
▁13.1
,932
▁terme
monies
▁1,83
▁Parts
7,74
terminable
▁Coutu
▁371
▁Los
5,05
,643
,925
thwith
▁harass
ALEX
▁2,12
,295
▁238
▁REVENUE
▁sequence
0,77
elli
▁Inception
▁Brampton
▁accessori
▁dose
,868
,231
,878
▁Watson
▁Saputo
LAR
▁breast
▁Ian
▁Logistics
▁custodial
▁fatal
,315
9,35
▁Reliance
▁Bankruptc
▁Manning
▁Neil
7,05
▁1,89
▁Dallaire
▁11,0
▁winner
▁PRIVATE
▁Legacy
▁Valene
▁219
▁Southwest
▁rebuild
▁harbour
,579
security
▁2,15
▁Cancer
▁Ressources
0,48
▁Apply
▁Reflect
▁Strat
ara
face
rien
▁RDSP
serving
terna
▁compassion
bro
▁Inquiry
▁depict
▁checked
5,50
creditworthiness
lease
▁AGENT
▁infer
▁Ryan
▁Square
▁fifteen
▁tip
9,45
▁reache
,192
,823
0,99
9,82
.1.1
0,30
<
▁233
,849
0,17
▁Understanding
,623
,673
4,18
▁Deutsche
,831
▁FH
▁Positive
▁Hence
▁Korean
▁Excellence
▁smelter
,941
▁birthday
▁Div
Comm
DV
▁Servicing
▁distribut
▁Kent
▁environmentally
,781
-160
▁12,000
▁Village
.90
0,74
ket
mex
script
tting
▁Salaries
borough
trial
▁redevelopment
,308
ridge
▁Going
,974
5,27
▁NE
,898
▁MQP
▁Prepare
,713
▁10.6
▁Receive
▁auction
▁rebutt
Gold
MAX
▁236
▁cycles
,812
4,69
5,88
▁Cowan
▁Rem
▁conscience
,681
8,88
LES
ONS
▁14.1
▁228
▁explor
▁Brita
,858
wall
▁landscape
▁passionate
▁inevitabl
,171
▁Harvest
▁economist
▁linguistic
▁mois
,809
▁GGOF
▁mediation
▁rea
national
▁Gerald
▁MATERIAL
▁changeover
▁rel
▁drove
Pierre
▁ANY
▁attachment
eck
▁attaching
▁speculation
explored
▁Jewish
▁grandfather
medic
▁leasehold
▁professor
▁cas
0,45
Mo
▁Niagara
▁Kinross
▁gangs
,711
▁1969
▁ACTIVITIES
▁Diane
▁Substantial
,103
▁observer
log
▁egg
8,24
▁392
▁tension
,542
5,26
▁1,97
▁Chorus
▁Keith
▁Sudan
▁Vendor
ulation
,211
migr
AIL
5,09
▁Ron
evaluation
ologist
▁Prud
▁1968
▁CONDITION
▁Norway
▁overnight
4,39
FU
▁1,71
▁Med
,865
ASE
hood
▁Audited
For
▁multinational
-2008
5,40
Jun
▁McLachlin
▁8,9
▁Consent
▁handed
8,09
▁risky
5,77
urre
▁Aurora
▁Ltée
▁PARTNERSHIP
,907
ISH
▁7.00
▁Trois
5,500
▁Ext
0.2
dom
▁Being
▁PAGE
▁sq
4,49
Premium
▁Ann
▁emb
▁origination
▁solidarité
0,82
▁Yves
▁Boost
Nova
▁Brief
▁CHANGE
▁mistaken
▁testimoni
▁Av
2,47
bow
▁avoided
,183
-2019
▁Agnico
,774
▁Blend
▁stockholders
▁eventual
,799
rill
▁restored
▁enforceabl
▁imaxx
5,95
pine
▁2,13
▁simultaneously
▁impressive
osity
▁490
▁Camp
▁ISSUE
▁clarified
▁multiply
▁Unlimited
,541
5,70
9,09
▁Cook
,911
oz
,706
▁Crime
▁Kim
▁Roger
▁prisons
▁random
▁11.3
▁FE
▁reservoir
▁fa
,759
▁2,24
▁Duncan
▁Fish
▁oppos
,792
bot
,698
▁remedial
▁Clearing
ject
▁CAPREIT
▁Tru
▁bind
▁humanity
,552
▁amazing
5,74
pouse
▁Monte
▁Timmins
sec
▁Very
AK
nquiries
▁MONTREAL
▁liberty
MAC
▁Background
▁Khan
Segmented
▁WM
wealthy
▁Establishment
▁Alto
▁incorporat
,758
wearing
▁0.11
▁Hard
▁ph
▁foresee
-78
5,19
▁Ju
▁condominium
▁Mari
▁Gray
0,98
▁Module
3,86
ANA
▁2,20
▁reassess
▁Ward
▁diabetes
▁judicata
▁implicit
▁lapse
▁competency
▁freeze
▁interruption
▁irregularit
voked
▁compilation
▁foremost
7,09
SERV
partisan
shell
mann
▁intimate
▁81-107
▁thoroughly
▁Ukrainian
,298
▁complained
▁Escrow
▁Normalized
-66
▁CSR
▁RR
9,32
,517
▁Connor
▁Roll
▁reassessment
▁Talvest
▁Carbon
▁decommissioning
rou
▁missions
▁sooner
LAN
iers
▁Bankers
▁articulated
▁automated
▁Barry
▁CRC
▁EXCHANGE
5,10
9,75
,392
ional
,905
-2000
▁819
,621
matched
▁prong
9,88
▁Anthony
▁Phoenix
DB
▁Hudson
▁Morris
▁TAXES
▁okay
4,14
▁conventions
logic
pm
,658
▁Kitchener
▁cloud
▁levie
4,59
▁13.5
▁outlets
▁recycled
▁2,10
▁2,27
▁Poland
elected
▁amorti
▁locked
MM
brook
maker
▁WTI
▁sulphur
▁10,000,000
▁grateful
▁Bat
0.4
REE
▁4.75
▁anxiety
,102
4,55
umped
▁horizontal
▁nurs
▁Fu
▁GTAA
▁Laboratories
▁Wha
6,58
▁Check
▁Reverse
▁Ronald
9,46
▁2,17
▁252
,498
card
▁stretch
cycl
ales
▁255
▁0.80
▁elementary
▁upgrad
6,21
numer
▁Witness
REP
▁QUEBEC
▁2,08
HP
nel
▁Affect
▁glass
▁divide
-2009
▁JPMorgan
▁Nanaimo
▁immaterial
▁matured
▁onerous
▁sight
▁DISCLOSURE
▁Essential
▁Arthur
▁ISO
▁Wild
▁2,06
▁Malaysia
▁Marriage
▁UNIT
▁organize
urgeon
▁click
AUT
olabor
EO
General
PF
▁380
-2002
▁Improve
▁TRANSFER
rick
3,68
7,00
Sep
▁266
▁Southeast
▁bribe
berry
▁Sam
▁ap
0,00
′
▁CMHC
,805
▁249
▁pesticide
▁Basin
▁Ci
▁concurre
sourcing
-63
▁244
▁Monitoring
▁cooperate
▁TELE
▁discourage
,931
versa
▁Forecast
▁marché
▁united
executive
▁basket
,755
▁intrusion
9,74
▁cruel
▁girl
▁2,25
cel
iscellaneous
▁Gla
,594
7,76
▁1,94
taking
▁1,90
3,79
▁285
▁11,5
▁Manufacturers
▁commissioning
▁systemic
On
▁fragment
▁locate
interrupted
,471
3,87
ipping
oll
▁PIMCO
aft
▁12.0
▁Saxon
,881
9,84
▁Jaffer
mise
▁WHEREA
,263
▁premiers
,191
recognition
▁2,35
ICA
▁objections
▁HEALTH
▁268
▁Libya
▁diesel
▁Thereafter
▁rally
tec
wind
▁Longueuil
0,67
7,75
▁empty
▁navigation
▁textile
8,05
▁Fluctuation
VO
▁Evans
▁Sound
fra
▁EXFO
▁KEY
▁Sudbury
▁reaffirm
8,00
earning
ending
▁2,33
▁Glen
▁marking
▁575
▁BCI
▁Nuclear
gon
▁Rod
4,29
struct
▁10,000.00
▁Print
▁blow
▁irresponsible
3,90
4,46
8,76
▁Roman
▁Sport
▁outdoor
▁364
▁7,3
▁charit
▁tower
0,46
▁Bow
▁Chip
▁Submission
▁suspicion
▁Elizabeth
▁fundraising
urie
▁poorly
▁Remuneration
,241
▁SK
▁YOU
,507
plat
▁overdraft
▁6,6
▁affirmative
▁242
▁audience
▁contra
▁maximiz
4,30
▁Identifie
▁bann
7,24
▁domicile
SNB
▁243
6,90
,592
0,39
▁OH
Or
ank
▁13,0
,391
▁555
▁CODE
0,58
▁provisional
▁NC
earned
▁propane
ebec
▁425
▁SPE
▁2,11
▁Quit
▁grams
▁Robichaud
▁appellate
▁1,93
▁DPSP
▁Haw
▁sake
▁simplify
0,88
0.3
▁310
▁Atrium
▁Larry
door
▁concurrent
▁NUMBER
▁insignificant
6,50
6,500
▁Salvador
▁tourist
▁Eli
▁VIEs
▁rapport
eries
integra
uary
▁272
▁Germain
▁guarantor
,302
▁veteran
▁Vincent
▁Waterloo
▁Pet
,692
▁Need
▁Rouyn
0,76
▁OPTION
▁Proxie
▁extracted
▁NOR
▁height
assi
▁wider
,841
cru
-140
9,33
abo
▁tur
,492
6,59
Rivières
ison
taxable
▁stakeholder
▁boxes
▁800,000
▁Ban
▁PURPOSE
▁Stella
▁CERTAIN
▁INTER
▁facsimile
▁occupy
production
▁Motors
▁ridiculous
▁tabl
0,14
▁judiciary
▁PE
▁reiterated
,791
▁Oxford
▁Tro
inning
ither
▁Arch
-70
clos
▁PCL
▁Canal
▁surpluses
nna
▁implausibl
▁therefor
▁Brad
▁cigarettes
ago
▁301
▁athletes
▁intermediar
,291
▁frozen
-2014
▁Fri
▁Split
▁Alt
▁Contributed
▁FORWARD
▁routes
▁unconditional
,200,000
▁trail
▁bon
▁picked
▁ORDER
▁surcharge
0,65
▁evidenc
▁CCD
▁Fédér
position
3,89
▁YPG
7,50
▁suddenly
▁Various
▁Cell
▁importation
▁weakened
appe
bility
ploy
dependence
ocket
▁253
▁comme
▁wisdom
▁Commonwealth
▁disturbing
▁interactive
▁offensive
3,56
▁everyday
0,84
,253
0,09
hab
▁capped
6,09
▁Tembec
▁2,34
▁Museum
,655
nomic
▁Andreychuk
▁harder
▁2,22
ography
vie
▁JHN
8,50
▁239
▁Boulevard
▁Pr
neau
▁Sharon
▁rendering
▁tort
,705
0,92
▁Jay
▁QUARTERLY
▁kilo
Soft
▁385
▁annuities
▁detrimental
▁Plaza
▁Plc
▁Terry
▁realiz
,955
5,29
CAN
▁PSSRB
▁Protect
▁headed
ficient
ido
▁460
▁asbestos
▁Priority
,351
,962
0,18
8,84
▁IMP
,743
CONTINUED
▁habit
bol
▁TRANSLATION
▁discontinue
0,49
▁REVIEW
▁disappointing
▁electro
EU
9,60
▁Pizza
▁confi
▁filter
generating
▁247
▁493
▁governor
from
most
olar
▁7.25
▁Dennis
▁MILLION
▁Cartier
▁SFK
▁illiquid
,893
6,99
▁2,36
pir
▁2,38
▁CFIA
▁famous
8,46
▁Ultra
▁je
▁ticker
ONE
rail
rank
0,62
6,40
▁Portugal
▁barrier
104
ewsprint
▁ACC
▁Electronics
▁contamination
hosting
▁279
▁peacekeeping
▁Pfd
0,41
▁PSAC
pati
▁Ministère
▁Nolin
▁leverag
,853
▁rightly
▁Mall
▁2,28
▁intensity
▁layer
4,80
▁guardian
,404
5,80
Requirement
▁BONDS
▁Concession
▁programme
WI
9,86
▁ACQUISITION
nomaly
▁Separate
lph
-67
▁DTC
4,75
▁bri
▁evasive
7,92
▁FLOWS
▁overpayment
9,39
thane
▁Karen
omo
▁netting
▁2,14
▁0.70
▁11,4
▁Clean
▁Live
▁methodologies
,803
▁Store
▁library
3,85
▁passive
▁timeline
0,11
▁Session
5,49
9,00
▁8540
▁Lamer
5,35
▁7.75
▁Leon
ORD
▁publisher
▁spare
▁Electricity
▁Etobicoke
8,99
onia
▁perpetrator
▁withhold
alco
plan
▁Dean
▁MWh
▁believ
9,87
▁diminished
1,100
owell
▁2,21
▁rebound
▁RELEASE
▁Syndicat
▁accredit
TEN
▁11.0
▁Inspector
▁2,18
▁delete
mittee
▁2049
▁Tolgoi
▁accretive
▁smooth
0,3
9,27
▁walking
▁Evaluate
hipbuilding
▁inaction
▁Carol
▁Freedom
▁locally
▁MIX
▁Rev
▁Tinto
▁Dor
▁levy
7,07
Discontinued
▁fitness
▁10.8
▁frustration
negotiable
▁Flo
▁intermediate
▁Offenders
▁269
▁brave
▁gen
ctu
▁284
▁Belle
▁Trend
Where
ain
▁Incorporation
9,44
Mart
▁Bancorp
▁Drill
abi
▁Filing
▁Tenant
egardless
fort
▁explosive
▁cow
0,75
▁Caution
▁hopefully
▁Matthew
▁Rain
waiting
▁Collective
▁Hunter
OK
▁Bermuda
▁Portland
▁2,32
▁Animal
▁Auditing
▁DATA
western
▁dispos
▁mar
▁palliative
▁True
▁disrupt
▁shaft
9,50
▁FS
▁RETURN
Pargesa
▁backup
▁competitor
▁genetic
0,22
▁nos
3,23
▁Integration
▁Stage
▁Thousand
,852
sert
nyl
▁mirror
mitted
▁256
▁Oak
▁RATE
▁beside
7,15
KO
atically
▁Matrix
but
▁Sikh
▁1.10
▁ecosystem
▁Cambior
▁302
▁decisive
▁1,91
▁271
cott
▁7,1
▁instalment
3,66
▁organizing
▁rarely
9,58
▁prospecting
▁2,37
▁308
▁reunite
8,87
▁11.4
▁EEP
▁conteste
▁11,9
▁Mario
▁0.45
▁254
▁Algonquin
▁Dam
▁flying
4,97
▁2,4
▁Supervisor
▁traditionally
▁Expiration
4,26
▁stemm
8,48
▁0.65
▁Dave
▁Mix
▁compel
▁smuggling
,602
0.6
▁PROGRAM
bia
▁restraint
▁Course
▁acknowledg
▁BALANCE
▁forever
1,300
▁293
aving
irn
▁radical
IDE
▁1.01
▁Progress
glo
hap
▁ADF
sourced
▁257
▁AUDITORS
5,76
cette
hon
▁Goldman
▁Langley
UG
▁Continuous
▁DiagnoCure
-77
0,87
▁globe
▁Kelowna
▁258
titu
▁protective
unconstitutional
▁cogent
▁fiber
▁injunction
▁Acadian
▁Know
▁visibilit
▁0.22
▁Métis
▁Husky
▁Starting
9,26
▁12,0
▁12.2
▁CLRB
▁Certification
▁Offshore
▁hoped
gal
▁11,8
0,69
▁moratorium
▁Sign
0,19
▁Accord
6,69
▁Lunn
▁broadcaster
▁gravity
▁scal
▁Learning
à
▁Barbad
▁fishermen
▁interventions
▁motivate
characterization
▁Bru
▁strain
Mar
▁1967
▁CONSUMER
▁stressed
nay
▁Farmers
▁295
▁Show
mine
▁planet
▁overriding
▁35,000
▁purported
illi
▁CE
▁Potash
▁Urban
Acc
nge
▁604
5,46
0,54
ntergovernmental
▁mapping
,892
▁Studies
▁TransForc
▁ratify
▁Johnston
▁satisfie
fil
▁Segregate
9,81
Maxxum
STAR
▁fan
Glossary
logy
SW
-2016
▁3.75
▁GT
▁Sol
akh
▁francophones
BER
▁DFA
▁erect
▁hair
aga
▁Fellow
▁10.7
▁Judgment
▁Romania
▁mobility
yk
▁SIGNIFICANT
GP
▁470
▁Tory
6,49
fixing
▁Irish
9,41
▁370
▁Ivanhoe
▁Minutes
▁POSITION
▁transmitted
,871
9,59
▁argu
ikewise
▁Commencement
1,600
▁FRANKL
6,35
tell
6,29
▁journal
,901
▁Pilot
pie
▁thoughtful
,751
subordinated
▁strategically
0,26
▁Fairmont
▁EC
▁Lou
esse
▁folks
▁slower
6,55
rable
▁Surplus
obility
▁COM
▁bolster
▁originat
-2007
duly
▁urgenc
ille
▁GS
8,07
▁Eggle
▁depository
▁PRC
▁teach
insured
▁recon
▁slowing
inter
8,59
▁Advertising
EMENTS
dollar
tray
NG
bon
bull
0,43
▁captured
▁Wares
▁Crescent
▁corrections
1,400
▁susceptible
,993
▁dinner
▁hub
▁inquire
9,49
AZ
▁246
▁objected
▁4,6
▁Prescrib
▁impress
▁Guelph
▁pronouncement
claring
ownership
▁0.85
▁Allow
lect
▁celebrat
4,90
8,57
▁Sceptr
7,19
TEL
▁0.24
▁carve
▁Hunt
▁signator
cell
▁Alta
Off
0,29
▁shock
9,15
▁labelling
patria
▁Elite
▁Pal
ANN
orial
▁mindful
IZED
0,2
▁Amaya
▁Czech
▁tag
▁80,000
lier
0,52
0,6
APR
▁Deer
▁Venezuela
▁comptables
▁southwest
▁Task
6,25
▁Still
▁Tranche
PLP
▁2,48
▁Leasing
▁PROTECTION
▁nervous
Quest
▁381
▁shameful
▁weighing
9,77
▁45,000
▁condo
▁racial
lig
▁Visit
▁lithium
▁medal
▁artificial
▁cu
,503
7,73
▁coincide
ava
5,17
7,26
▁Clarke
CENT
▁AIDS
▁FUTURE
▁TSO
▁attach
0,50
▁885
▁Citizen
▁souscription
6,26
▁deeper
▁fabrication
▁replay
▁Knock
▁mars
dilutive
▁745
▁Innova
0,85
igan
ucci
▁0.28
0,86
▁8,0
▁accumulation
DW
7,69
▁2,44
▁Registry
▁Spin
▁downside
▁compelled
HOR
ware
▁0.19
▁chat
▁Alexis
▁Quantitative
▁loud
▁Sydney
vention
▁Commitment
▁SHAREHOLDER
▁expend
▁wilful
ges
pri
▁13.2
▁566
▁Hughes
capacities
▁logo
9,07
▁pretend
▁pleading
▁reliabl
▁750,000
▁Burlington
▁jeopardize
9,85
▁Accountability
▁tackle
7,35
▁cool
▁264
110
OLI
taught
urri
▁stripping
6,46
ITE
▁259
▁Message
▁factory
▁11.6
6,04
▁Negative
▁Solar
gul
▁Sachs
▁correctness
▁2,41
▁Oyu
▁Peer
▁renovate
381
8,86
▁attained
▁556
▁Applied
▁Coll
▁9,0
▁Garda
▁prix
9,21
2,50
max
▁Diversification
▁Midstream
▁Ribic
▁18.1
▁Independence
CRI
▁enforcing
uf
▁reluctant
▁liberal
NX
SPA
▁collapse
Lab
aux
▁675
▁Fox
▁Norre
▁PRI
▁loading
▁15.1
▁Enter
▁PI
▁Controller
▁NBF
4,84
dictable
kilometre
▁Buffer
▁Doctor
▁Retraction
▁Davis
▁POOL
▁maternity
▁robber
xia
▁338
▁Often
▁volcanic
▁impediment
arge
▁politically
7,14
9,05
▁AH
▁ordinaires
▁2036
▁indexed
▁2,45
▁Gre
▁Upper
ils
▁51-102
6,95
8,58
▁cluster
nam
Sustainability
funded
VIE
▁commentary
▁reflective
Inter
type
▁Consistent
▁Greg
▁frustrate
▁patronage
▁reinstatement
▁319
▁Carleton
▁bullet
HE
▁Dutch
-101
coated
path
gra
iden
▁Discusses
▁Excellenc
▁Manual
▁Role
▁Yvon
homme
lab
noted
▁1966
▁Beta
▁SME
▁nutrition
9,69
▁albe
9,29
asset
▁Online
▁15.0
▁1933
▁Feature
9,92
▁Nat
▁pressing
0,42
anne
▁BoC
▁Ray
▁288
▁Phone
,691
▁eloquent
▁261
▁Règlement
0,59
3,97
iding
▁Mission
▁latitude
public
▁Segal
▁actuar
▁Luxembourg
▁wireline
▁ABOUT
FD
▁subsidiz
mun
▁LifePoints
▁enumerate
2,00
anna
dre
▁timeframe
▁NPV
illo
▁CFE
▁abusive
▁498
▁Analyze
▁charging
QUI
▁Appear
▁Channel
0,73
▁Dar
▁Intermediar
▁Thailand
▁agri
▁quash
hun
▁rep
8,85
▁263
print
▁Kosovo
pla
▁Pen
▁cellular
▁ta
odi
▁proclamation
7,13
▁7,2
▁Competent
▁Locat
▁NAME
▁Stéphane
▁averag
Lantic
▁ambassador
0,44
agh
maturity
vest
▁Redeem
9,89
▁305
▁OPTIONS
▁274
▁optical
0,37
husband
▁Gon
▁Imagin
cord
▁4,4
▁Sym
▁indictment
-411
lated
▁262
ILI
▁278
▁281
▁282
ryden
▁PUBLIC
▁pur
▁livestock
counting
WN
▁Bélanger
▁arrang
▁circle
▁cocaine
6,19
▁Length
▁county
▁1.30
▁Alex
▁OSB
WEST
▁Nav
▁encompasse
1,00
aze
▁CIDA
▁Vo
▁8,3
▁DRC
▁Kit
▁trillion
▁Assent
▁LIFE
source
▁Rollover
▁propriétés
▁shareholding
-2006
▁Jeffrey
8,69
supervisory
▁dress
ota
▁Extend
▁hidden
▁Inflation
0,57
1,800
bedroom
uster
▁controller
▁Capacity
active
uses
hai
▁Foot
▁ministry
▁Capstone
▁Murphy
▁Received
▁steadily
▁taxi
▁Hal
▁Origin
▁span
412
▁RS
▁customized
0,55
▁DEBT
▁modernization
action
ecurit
▁Syn
▁mer
4,85
ku
▁11,1
▁Thornton
▁afterward
▁thickness
▁wrongdoing
ception
▁Jason
raz
▁Saguenay
OO
▁273
▁NCM
▁Want
▁excise
family
▁Jeff
▁tonnage
▁Inferred
▁abide
▁triple
DO
▁306
▁UBS
▁Wall
represented
mining
~
▁12.3
▁16.1
▁331
▁Certified
▁Gender
-100
missile
4,87
zen
6,96
Sponsored
▁Sk
▁density
▁macro
▁Benoit
▁Winter
▁friendship
5,07
▁1.02
8,81
▁paramount
▁bas
▁downgrade
▁CESG
▁Near
-73
7,78
child
RQ
▁spell
▁276
▁tailored
mard
▁MLP
▁Miles
▁trains
ENS
▁3,6
▁heighten
▁predetermine
▁reckless
▁2,50
▁Ball
▁Securitization
▁incarceration
▁ideology
7,04
▁Recommend
▁filling
▁lunch
kar
▁520
▁Spectra
▁corrupt
▁sawmill
▁RA
▁privatization
ark
▁Chuck
▁Fleet
lotte
▁precaution
▁virus
5,69
9,19
▁Sources
▁assertions
rob
▁287
▁PRINCIPAL
.0.1
ominated
▁nette
▁allocat
▁rede
▁Above
▁FOREIGN
▁welcomed
▁Fo
FER
▁Developed
▁Gaspé
▁Norman
Point
▁Actions
Med
▁REGULATION
▁inequalit
solvent
▁conceal
▁Fla
5,00
pire
▁Rest
0,36
implies
▁Fully
▁525
▁appliance
▁277
oop
pocket
▁externally
▁merge
celer
scribed
ompensatory
▁Living
▁XX
▁bundle
▁regulat
▁steal
▁fisher
ears
▁Beaudoin
▁Ending
eligible
▁OEB
▁inject
▁mandat
End
ute
▁Insight
▁Magna
▁McClellan
▁Mercier
▁dilu
8,26
▁296
▁Normand
▁Bench
4,54
4,79
▁Reid
▁mechanic
5,65
▁Kenya
▁Agricultural
▁alleviate
▁recruiting
3,00
▁10.9
9,43
▁MTN
leading
▁1965
▁430
▁Moncton
BG
rm
tend
restricted
guard
▁concurrence
▁manifest
5.2
▁289
▁stuff
FOR
▁530
▁gener
▁Cohen
▁Paladin
sheet
▁processor
▁wake
▁Beyond
▁Cold
▁Wherea
▁analog
▁tired
105
therapy
▁Judicial
▁psychiatric
▁11.7
0,31
▁Personnel
residential
▁0.21
▁Canam
▁Input
▁Single
▁vacancies
,002
capacity
▁Criteria
▁entertain
inch
▁Banco
▁Bush
PER
▁Reimbursement
▁Francis
▁ecological
▁Bennett
bullying
▁Gomery
▁appr
mplain
▁2,31
▁2,42
▁understandable
FN
Lévesque
chin
▁298
▁Cole
0,40
▁Overseas
▁premature
unit
▁317
▁Immediately
-2.1
fact
▁archive
▁hinder
Chin
Linked
Star
▁Henry
▁11.8
▁pardon
Responsibilities
▁14.2
1.90
▁3,7
▁Expand
▁subcommittee
▁TSR
▁bureaucracy
2,20
▁seventh
▁shutdown
4,00
▁Simcoe
▁administrateur
▁locomotive
▁gentleman
▁100.0
▁ASC
▁Kh
Asset
INS
▁Emphasi
▁Lévis
▁kimberlite
▁psychologist
5,59
▁BEN
▁Serv
ika
nage
▁Eldorado
▁Uranium
▁303
▁Copyright
▁advantageous
▁overhaul
▁13.3
▁surpass
hic
▁347
▁Howard
▁Initially
▁Preventi
▁spontaneous
▁whi
-80
agan
play
▁12,5
▁generator
▁remitte
link
▁11,2
▁evasion
8,29
▁bore
▁kitchen
▁Dofasco
▁Gau
▁Shipp
▁Baie
▁atmosphere
lid
▁402
▁Accretion
▁YOUR
▁underscore
8,500
controlled
▁326
▁HELD
▁Boudria
▁imaging
▁searches
▁slaughter
EMENT
Traded
▁ICFR
▁Nanc
8,49
Time
▁Sav
▁Weak
▁invok
▁345
▁appointee
▁childhood
ailing
zza
▁Therapeutics
MD
▁318
▁CAR
▁2,43
▁292
▁363
6,76
8,04
account
▁560
▁combin
▁escal
-2020
▁Peterborough
▁substitution
IAL
▁MCI
road
▁Important
DAY
▁335
▁mackenzie
9,76
▁Pure
omet
▁Constituent
▁assemble
8,78
▁Dion
▁punitive
▁Sable
0,81
4,89
▁Cur
▁Though
agged
unfunded
▁8561-
▁compulsory
▁finger
NF
▁dire
▁implication
▁CX
▁Editor
ira
▁activist
▁circulat
▁Pur
▁pharmacy
MED
▁Explanat
▁Honduras
▁Iranian
▁geolog
▁344
▁ML
▁Sleep
▁golf
▁1-866-
▁AUDIT
▁FEES
▁NW
GT
▁299
ière
▁Denmark
pell
▁12.6
▁Eight
▁312
▁905
DL
NAC
forward
▁Sim
▁14.5
▁attracting
▁Ces
▁Jackson
PEP
arrow
horn
▁510
▁Davies
articulate
thier
▁2,58
▁Azimut
▁Susan
▁jeopard
▁390
▁intensive
VW
▁AcG
▁Determin
▁climb
▁thick
6,63
change
iopharmaceutical
tiny
▁4,1
▁remit
▁epi
▁14,0
▁Launch
▁tuition
▁underwriter
▁2,57
▁VIII
▁Forum
▁fool
WAY
▁incarcerate
▁nephew
▁overlook
packaged
▁vot
4,68
olo
▁321
8,15
▁Divorce
▁Find
▁Henderson
9,55
turn
▁macroeconomic
▁stoppage
▁mutually
▁psychiatrist
8,75
emia
▁304
▁GIS
▁HIGH
▁Martineau
▁ethnicity
▁conduits
▁70,000
,400,000
closure
▁309
▁Christopher
▁facilitating
genic
▁12.4
▁Principle
▁autres
8,72
Hubert
▁WHO
billion
▁3000
▁PD
▁maternal
▁pharmacist
▁286
▁Substance
▁imply
1,25
▁8.25
▁Primari
▁incidence
▁Midland
▁Opsens
▁SEMAFO
9,2
LAW
▁Cara
▁REPORTS
▁literate
▁Maria
▁boot
▁tra
phi
▁affair
ALI
▁20.00
7,72
taux
▁accru
INT
▁13.4
▁Bertrand
▁613
▁AUD
▁Gibson
▁WSP
▁350,000
▁Tony
▁brew
▁sometime
DR
▁Switche
NC
edimentary
▁Register
Fi
▁FAIR
▁368
▁Saanich
5,57
▁candid
▁PROJECT
anga
▁0.23
7,17
9,04
OUND
▁Frontier
▁rebut
track
▁950
▁Twelve
0,97
▁Nelson
▁Grafstein
Hyacinthe
TW
▁336
▁Joan
imi
▁Video
GER
prof
▁Worth
▁shield
▁580
If
▁GOVERNANCE
▁Milne
▁REQU
vant
▁WILL
ICS
▁Dear
lom
agi
▁1.05
▁quasi
8,89
▁8,1
▁sponsoring
treasurer
▁3,8
▁possibiliti
▁Timber
▁unjust
,008
8,55
▁Minority
361
▁badly
6,03
sufficiency
together
▁Dartmouth
▁Reed
▁seniority
▁12.7
▁Aero
▁ambiguit
0,53
0,80
▁Duration
Government
▁99.9
▁Exercisable
leaf
▁Political
▁updat
▁Ave
▁Detailed
▁PROMOTER
▁Coverage
▁Grow
▁sexually
▁Annex
▁resolv
cade
▁Yamana
jit
▁seismic
fish
▁Gaming
▁Gildan
120
÷
▁tanker
▁template
▁unincorporate
▁1.03
▁ordinar
-00
▁Illinois
▁Securityholder
▁sic
▁14.3
▁circum
▁intelligent
Trust
▁Dawson
0,78
pricing
rata
ERT
avou
▁Inde
▁13.0
▁Israeli
▁cornerstone
uma
▁divert
▁nowhere
▁Duffy
▁Trail
▁va
▁349
▁Mental
casti
osh
0,500
▁precedence
8,54
▁11,6
▁FLOW
0,66
8,80
▁720
▁Questionnaire
▁remark
▁LNG
▁upside
▁0.27
1,250
ULT
organi
▁Arab
▁Herb
▁Safe
GN
▁fastest
▁Merchant
HR
▁APPENDIX
▁Collins
▁fertilizer
6,48
vid
▁livelihood
chief
▁erosion
1,500
▁Atlas
▁havens
0,89
▁materialize
AID
▁Underwriter
deferred
foot
▁Stay
▁brochure
▁PAYMENT
▁Stein
8,73
IER
▁866
▁niece
▁TDN
▁mil
▁secrecy
foli
▁Deep
HC
6,68
7,29
▁Robinson
6,54
▁Sprott
▁hydrocarbon
builder
▁283
▁9.00
▁CONTROL
▁lobbying
▁Function
▁tune
alta
▁LOAN
dict
hip
▁OSC
▁307
▁OEM
▁Szabo
member
▁Godin
erman
▁transferee
currence
▁2,55
▁expropriation
▁lying
7,65
Hébert
▁297
▁headline
▁preventive
▁crystal
5,06
munition
▁2,62
▁Finding
▁improperly
▁interact
DQ
▁guilt
bid
▁CHRA
▁INDUSTRIAL
▁311
▁ALS
▁admir
▁seize
storey
▁Jov
▁Max
0,72
recourse
▁480
▁Taxable
▁affiliation
▁platinum
▁Northeast
▁User
VR
▁Pine
7,79
▁11.9
idnight
▁ADDITIONAL
▁tear
▁interconnect
▁railroad
▁0.99
▁OPG
▁Tour
▁conciliation
▁shocked
▁writer
▁475
▁Kerr
▁advocacy
▁millennium
ARGE
▁behavior
▁embark
▁reassure
LN
YS
mes
▁DESD
▁AV
▁aspiration
-72
OA
ema
contributory
▁373
▁Redwood
▁valve
▁ami
▁laboratories
Au
▁Allen
chand
▁Airbus
▁Samson
▁anyway
▁overturn
▁rev
5,30
VEN
bc
▁credential
▁Islam
▁aff
▁3862
kan
▁rehabilitate
7,49
7,80
▁Sigma
▁discontinu
▁bomb
DJ
chemical
▁3,2
▁LaSalle
▁coordination
9,500
▁Probable
▁intrusive
▁wrongful
▁777
TT
▁Mass
▁Film
▁Join
▁Symbol
▁Zinc
▁separatist
6,57
▁Diluti
Governor
elevated
▁334
▁Alexander
stability
▁complain
0,51
▁Mint
▁Summa
VAL
▁Music
uage
▁SENIOR
Worldwide
rage
▁2,88
▁endorsement
enny
▁Rwanda
▁portal
1,50
var
▁Separation
ompulsory
determination
▁Ever
▁accumulate
▁bureau
▁suppose
chase
7,03
▁12,8
▁Kal
▁Tang
▁halt
terre
▁finite
▁northeaster
8,67
▁SmartCentre
▁expeditious
gawatt
managed
▁710
▁Whole
▁upgraded
▁Chabot
▁Typical
▁impede
▁youngest
BEFORE
SEC
▁XXX
,250,000
▁366
▁Intellectual
▁MRFP
▁loose
▁closest
▁litre
-2003
▁anonymous
mac
▁MDS
▁Markham
▁outlin
radi
▁1.33
▁Legislature
▁Morneau
osco
▁lawfully
egal
ool
▁1,500,000
▁punishable
ote
▁pot
ARI
dan
▁Printing
▁anger
▁737
▁kilometers
MH
▁Aurizon
▁Mobil
▁1.20
ZA
▁Break
▁Secondly
refundable
▁renegotiate
-2001
▁0.26
▁Little
Prohibition
empt
▁3,5
▁proponent
ega
-005
5,18
6,30
omb
▁BRP
▁redress
▁confined
▁mislead
Noranda
▁2,52
▁Horizon
▁apport
▁dismantl
▁subtract
9,54
INA
▁characteristic
▁poste
▁terminat
▁PSEA
▁repeating
111
broker
▁collateralized
▁distort
▁speci
section
▁Louise
▁Publication
▁cosmetic
▁Gil
▁Implement
▁leur
▁expedite
VS
five
▁Bourassa
gr
▁13.6
▁2,53
6,88
▁MATTERS
▁QU
▁nearby
▁rationalization
setting
▁501
▁BETW
▁PLANS
▁PROPERTIES
▁Help
▁acquaint
dium
▁Ash
▁compliment
Supremex
style
8,21
▁0.95
▁11,7
▁13,4
▁2,54
▁RESPONS
▁analyse
apping
scheduling
▁Insider
period
▁1.35
▁Particular
▁Xstrata
▁355
▁Fifth
▁Jersey
▁Syrian
▁redundan
aver
▁elevator
6,17
6,80
▁12,9
▁313
▁extradition
▁SHEET
▁undoubted
GL
Repeal
mation
oh
travaux
▁404
8,19
▁15.5
▁Bad
▁string
2.50
▁MasterCard
▁Text
5,22
▁validly
▁Equi
▁Watch
9,28
tta
▁COO
▁TRUSTEE
▁Dexi
▁324
▁Jacob
▁array
▁policing
▁widow
ORS
emembrance
▁SERP
8,03
▁Eco
verse
▁Embassy
▁Shop
té
▁90,000
▁Dick
▁Elk
bill
iva
▁CAT
▁Relative
▁charity
aska
egion
▁Build
▁unequivocal
▁upstream
▁Richardson
▁appropriation
▁pav
shirt
▁fr
1,60
▁590
▁retir
▁570
hav
▁geologist
▁465
▁Lack
▁Utility
▁bureaucrat
▁snapshot
▁substituting
utonomy
▁courier
▁geography
▁Increasing
▁apprehension
▁autism
▁Fisher
BB
▁Abbott
▁Reynolds
▁Raj
6,06
abopharm
defined
▁125,000
2,400
▁LO
▁NGO
residue
▁12.8
▁reactor
▁surgical
9,4
▁BPI
Heureux
commission
▁RESOLUTION
▁294
▁9,3
▁mall
▁revisit
2,15
DH
▁Pu
▁revolution
▁syndicat
odie
ONT
▁Strah
▁prostate
▁Junior
▁YEAS
IDENT
Wh
cri
▁Pinnacle
▁reunification
▁résultats
▁Clinical
▁Pétrolia
▁continent
▁cultures
▁Traffic
▁continuance
▁810
▁341
9,42
9,65
▁7,6
▁Robertson
▁2,51
▁314
▁339
▁COMPLETE
0,23
▁TRANS
▁Sheila
▁infection
▁329
▁415
5,25
wick
▁2,82
▁NSPI
▁Nino
▁OSK
▁Owen
LAC
mus
▁Emergis
▁Flex
▁seasonality
▁2,56
▁congratulation
▁Disability
▁GUARANTEE
Madeleine
TEM
▁Bathurst
▁Newco
7,30
▁Mason
▁quoting
▁888
▁Angu
▁NAYS
mag
▁20,000,000
▁Consultation
▁Sensitivit
▁facilitator
▁perte
OV
▁384
▁lobby
7,18
▁499
▁Gestion
▁ri
Effect
LW
▁shooting
▁Pel
▁liquor
▁shear
▁gauge
▁Meet
▁consolidat
qualified
▁naturally
roc
▁387
▁Merg
▁persistent
▁MX
▁Matt
▁interprovincial
3,50
hou
▁Plat
Protected
▁camps
7,59
▁DEBENTURE
6,87
▁Compa
▁Mana
▁INCREASE
▁boss
PipeLines
lett
9,22
LIM
▁Athabasca
,003
▁Win
-01-202
▁PARTY
bound
▁337
▁catalogue
TECH
aterpillar
mini
▁SALES
icrocell
version
▁332
▁solemn
▁20.0
▁Flight
▁commercialize
▁resumption
▁unforesee
002
5,87
9,57
▁606
▁Attach
▁BV
▁Ont
▁extortion
▁faire
▁ideological
focused
1,700
▁Roth
CHI
asualty
▁Competency
▁GOVERNMENT
▁Metropolitan
8,35
▁Component
▁Designation
▁IRPR
▁Magazine
▁romantic
8,13
WU
owner
▁291
▁ARTICLE
▁Kootenay
duction
oria
0,83
sector
▁Cho
0,34
7,88
8,65
tent
▁Brascan
▁Caron
29,3
▁ACI
▁Dun
▁em
LED
rais
▁hearsay
ONG
approval
cycle
▁Alan
▁Oakville
APRIL
▁corroborat
▁Heavy
▁2,98
▁Vale
▁southeast
OH
lew
▁0.31
▁canvass
▁BP
500
▁attestation
CORP
▁Mirabel
,800,000
4,94
▁fossil
▁Oshawa
▁delineate
▁forgive
25.00
6,39
iller
▁328
▁6,2
▁negligent
illy
victory
▁contaminated
▁hog
▁migration
9,83
QU
lle
▁Shopping
▁anxious
▁13.8
▁322
▁prediction
AIN
▁Competitive
▁Bois
▁Making
▁McIntyre
▁2,63
▁Beach
biased
▁718
▁Brandon
▁Ringuette
▁erode
5,78
8,45
trol
▁2,64
▁Army
▁wherein
7,46
▁Harvard
▁15.2
▁Creditor
▁IX
▁Elect
▁prosperous
▁pulled
rna
▁12.9
▁348
▁58-101
▁Renewal
8,95
▁Barr
▁indeterminate
▁refresh
▁sterilization
UE
▁ABC
▁dealership
▁780
▁Carter
2-3
▁3,01
▁Generat
▁alongside
▁angry
actions
issued
pharm
▁CGA
▁basin
JA
▁Authorities
▁Semiconductor
▁palladium
5,89
▁12,1
▁Congo
▁AltaLink
▁transactional
▁mu
▁recollection
▁3,02
▁Brien
▁Grande
▁3,05
▁686
▁PFIC
▁Tool
8,79
9,67
▁3,04
▁Booster
▁OTC
▁tendenc
physi
▁Gur
3,25
structuring
world
▁WHAT
▁cruelty
0,56
RSO
roy
▁Loi
▁Measured
▁unavailable
▁thin
lim
▁7,9
▁12,4
▁Doc
▁477
▁praise
▁Bullion
HQ
▁3.25
▁Eaton
▁Colombian
▁films
6,86
▁socio
▁Diversity
▁FRN
▁SERVICE
▁CONTRACTS
▁Xi
▁reappoint
Net
▁CTR
isation
vivo
▁dispatch
▁obstruct
▁17.5
▁565
▁MF
▁Navig
▁prize
beault
▁illustrat
4,50
▁Providing
▁eldes
TING
▁2,73
▁Videotron
▁guid
▁2037
agon
married
▁citing
minded
Deemed
▁2,95
▁Dollarama
▁Manley
▁3,12
▁Reach
trat
▁14.4
▁Column
▁apparatus
▁originate
▁CW
heading
▁Lankan
▁backdrop
▁kidnapping
▁Depot
▁HAS
▁NORTH
▁Sullivan
▁Topic
▁illustrative
▁DND
▁Hartco
▁ITC
▁absurd
▁estoppel
▁mg
▁universe
▁487
▁Lewis
▁YEARS
▁raid
tif
▁Morningstar
▁Pipe
7,45
9,17
75.00
where
quired
▁fighter
4,56
8,96
▁3,9
▁ONE
▁Watt
▁FINAL
▁diameter
▁outsource
flamm
▁Blake
▁Rober
▁Taliban
5,86
payment
▁validation
ORY
CAL
borne
▁2,61
▁Wallace
▁Walt
▁INSURANCE
▁Linda
▁ambitious
▁gut
▁Families
▁vigilant
▁3,03
▁Operator
▁honor
leau
▁62.9
▁Tardif
▁Word
▁solidarity
LEA
▁shortcoming
ISS
wen
▁Sovereign
▁mediator
▁Debentureholder
▁Walker
▁precede
▁SEGMENT
ural
▁Victor
▁comparability
9,23
▁357
ATOR
gression
Definition
▁0.55
OFF
avrix
constitutionally
▁Century
▁Craig
▁Bélair
▁counterpart
▁multilateral
diluted
▁Alzheimer
▁Merit
▁SV
5,90
May
▁MARKETS
▁Philippe
▁SUN
▁11,3
▁MNI
▁clientele
4,23
GRA
▁19.1
▁affirmation
▁tireless
7,97
WR
▁327
▁417
▁Fred
▁anymore
▁Accumulation
▁Bergeron
KA
rine
▁OVERVIEW
▁importing
▁383
▁prejudicial
▁Côte
▁Carr
▁educate
▁intra
abel
▁GIC
▁Kamloops
▁120,000
rud
lever
▁Beijing
TEC
▁13.7
VISION
▁Blair
VD
▁CBL
▁Pour
▁Mol
▁14.0
▁DELIVER
▁Earth
▁Simply
▁Yo
▁bicycle
▁JV
▁equate
6,22
▁342
▁Nad
▁Rompkey
▁conspiracy
tures
▁Hope
▁societ
▁CSAE
▁Chartwell
▁MRC
▁TRADING
▁encompass
-79
▁316
▁Size
5000
⁄
▁Catherine
▁mini
LING
▁Carolina
▁Cayman
▁Matter
▁proclaim
BE
▁mise
1-4
▁Bulletin
▁Electro
▁stockpile
▁Photo
LOOKING
correctly
▁353
▁17.1
▁Physical
▁continu
▁restrain
▁610
▁8.50
▁409
▁ECT
▁disadvantaged
▁16.5
▁354
7,21
▁TECHNOLOGY
▁PCA
▁lockout
IVES
▁IAMGOLD
▁conductor
▁councillor
8,83
▁Mongolia
▁elev
▁sediment
9,97
herty
▁999
▁877
▁AGAINST
mart
minute
▁festival
▁2,96
▁Almos
▁curtail
0,79
▁672
▁Cliff
▁Punjab
▁commemorat
▁dépôt
▁nexus
credit
▁369
▁Harb
▁Mainline
▁OFFERING
ISE
Invest
aya
▁illustration
▁reposition
made
▁MINING
▁Cause
▁cessation
▁movable
5,97
HV
Témiscamingue
gone
▁indebted
▁mild
ntegrity
▁Gui
▁phenomenon
▁bold
emptive
ites
9,13
llah
▁700,000
GG
ITI
rait
▁tightening
106
alo
▁12,2
▁Adverse
▁Congratulation
DEM
▁Teleglobe
constrained
▁Borrower
▁discoveries
▁pronounce
EQ
▁Degree
7,86
Disciplined
This
▁0.32
trade
▁515
▁collar
▁fed
▁Gagné
manager
▁2,72
▁enshrine
NN
TRE
▁Teachers
GH
▁Tem
▁barely
▁ombudsman
7,39
Can
HG
▁Unhedge
▁exag
▁penal
▁Explain
modifying
▁Victims
▁constitut
▁Cambodia
▁50.00
▁SUPPLEMENT
chen
▁McCarthy
Free
IX
7,06
Tel
process
reault
▁Uncertainti
MARK
vous
volu
▁2,8
▁Palestinian
▁progression
▁supreme
▁wholesaler
logist
▁Une
▁tr
reclinical
▁CCAA
▁COP
▁Ménard
▁adjudicat
CORE
LESS
▁2,86
▁388
▁Leisure
▁Prospect
102
NU
activités
▁3,16
▁tactical
▁Maine
▁expedient
▁Belt
▁Native
loo
▁Concentrate
▁Different
▁acute
▁KL
▁Milliken
▁entitling
▁SIX
independent
▁393
▁Jonathan
▁conceptual
▁630
▁AMF
▁NATIONAL
▁franchised
,600,000
▁Noël
▁367
▁378
▁Santa
▁refuge
ANG
▁2,81
▁Penal
peak
▁Cott
▁FACT
▁Optional
▁forgot
▁regain
total
▁Kha
▁1⁄
6,000,000
Bay
XV
letting
▁subcontractor
▁2,84
▁Inco
union
ui
HT
Jul
▁Colleague
▁Notre
▁Sarnia
▁hoc
▁drunk
▁443
▁Annualized
▁Err
▁Legend
▁POLICY
Loup
▁1.15
▁Cage
UV
▁Cameron
▁Say
▁carbonate
▁editorial
▁13.9
▁787
explanat
▁376
▁Pend
Devtek
uch
▁519
▁Atkins
▁Pty
▁mistreat
Dame
±
▁racism
▁acquittal
ACC
8,18
▁Custom
▁SIMPLIFIED
▁luxury
▁Interactive
▁Skeena
0,68
ahn
bey
▁presumabl
7,66
Recognized
▁imminent
▁stepped
acity
▁NEX
▁12,3
▁358
▁CST
▁Pas
▁Tar
deli
misunderstanding
▁Reformers
▁disrespect
ibrek
▁Stornoway
▁seminar
▁Ted
gou
▁2,92
▁infrastructures
2,200
BASED
▁562
▁Turner
ask
competence
otte
RON
▁Islamic
▁620
▁inducement
plus
▁3,09
▁Alimentation
▁FINANCING
▁sanit
▁Presented
▁Blaikie
▁Lethbridge
▁Via
Jan
▁cod
voi
▁2,75
▁entrepreneurial
▁resistance
▁323
▁Beaufor
▁Volunteer
▁mismanagement
OSE
▁423
▁Revoke
▁perpetual
derivative
▁Mira
▁Wong
35.00
▁HOW
▁desperate
▁tire
four
▁Austria
▁Click
▁Coquitlam
▁Rank
▁Unexercised
▁clarifie
▁financement
MW
▁migrat
▁377
▁Attend
▁Situation
▁juste
▁revert
▁Cory
▁PSA
▁bracket
▁jur
0,93
2.00
▁625
▁640
▁Constable
▁Fortis
weight
▁356
▁Chap
▁consummate
▁BNP
ofar
bird
▁Beauce
▁Mobi
▁pr
7,68
father
▁MLI
▁Provident
0,94
ameco
9,18
▁Morrison
▁PROCEED
▁fragile
aker
▁Spanish
▁brutal
Chem
▁2,68
▁389
▁chairperson
▁identit
▁responsibly
2,25
▁Assisted
▁Parole
▁Simpson
▁outbreak
aku
roi
▁Ami
▁Maurice
,100,000
▁lodge
▁715
▁droits
▁layoff
condition
▁14.6
▁condensate
chang
▁infant
avis
▁1.32
▁vou
▁Beck
hir
▁Bud
▁Comparison
nick
▁Scotland
Directly
leaseback
upon
▁AUGUST
▁Furniture
▁Structured
HEN
▁2,78
▁Michigan
▁Ses
-201
chemistry
▁Truck
▁remeasurement
licate
▁COMPREHENSIVE
Louis
▁15.3
▁Forrestall
▁buck
▁cyn
▁trauma
▁reinsurer
▁462
▁CEP
ront
▁Héroux
▁UAE
▁ONTARIO
▁produit
hall
▁descriptive
▁405
▁Nasdaq
ARDS
▁Fast
▁PJC
▁inspired
▁invent
,300,000
▁8,4
▁3856
▁Kilg
▁STRATEGIC
▁dyke
▁rectify
▁repercussion
▁Pou
▁eighth
▁tighten
▁pork
▁760
▁Yorkton
▁multiplier
▁tenth
worthiness
▁Margaret
▁Standby
▁PROPOS
▁RISKS
▁Vic
▁satisfactor
beck
▁ISIS
▁SF
laine
▁422
▁Dominican
▁FIXED
▁fonds
SG
▁Play
▁birds
▁practically
▁preferabl
cliff
▁441
▁Peak
▁segregation
▁Pac
▁Vesting
▁bru
▁casino
▁footwear
▁Lalonde
▁développement
▁435
▁Bern
▁Pattern
▁commut
▁rotation
▁374
▁Mes
▁Stable
▁Stuart
satisfactory
▁breed
ncumbered
deductible
pres
▁FCT
ADE
▁enthusiasm
6,44
▁2031
VENT
▁DYNAMIC
▁GDI
1,70
▁485
▁AOCI
KI
▁2,94
▁REPORTING
▁interior
▁Genworth
▁YIELD
▁379
▁bless
▁rue
8,66
BACK
olving
▁PCS
▁unbelievabl
9,78
mbudsman
▁3,33
▁milit
▁Cardinal
Plett
▁precision
▁prioritize
▁prostitution
▁495
▁vulnerabilit
Form
▁loaded
technologies
▁Allegro
▁Proven
▁cetera
▁superintendent
6,85
PSLREB
▁9,7
mbo
▁Modern
▁paternal
andatory
▁Google
1,15
403
6,62
LR
▁Newton
▁aggregat
▁managerial
9,79
▁Esquimalt
▁Giant
▁adherence
▁gateway
▁obstacles
ello
▁394
▁annexe
▁attendant
▁domin
▁543
▁payer
solved
stead
▁497
Ch
▁objectivity
▁reprisal
eastern
▁445
▁dioxide
▁speculate
▁syndrome
covered
▁Cassel
▁1.85
▁911
▁343
▁Hungarian
▁Occupancy
▁Whit
Jones
ories
▁FORMA
▁GmbH
▁Intel
▁Vir
▁14.7
▁8,6
▁COUNSEL
▁année
Order
omy
▁FAS
Related
aka
▁evaluator
OX
away
ohn
pyrite
▁Direction
▁entrance
▁382
▁398
▁COSTS
3,200
4,93
space
▁561
▁Proportionate
4,47
clam
hoo
▁UNHCR
▁Violence
▁sbs
dina
▁Quantum
▁Sole
ontrary
▁2,83
▁accreditation
.2.1
5,56
▁Addition
▁Procurement
▁Var
OME
▁4,2
▁boyfriend
measurement
ÉS
▁negligible
▁prairie
ubi
Restriction
▁Francophonie
▁Hold
▁pair
▁0.36
▁Nettoye
▁Lim
▁escalation
amine
▁438
▁467
▁McG
▁kit
▁Franchise
tek
▁14.8
▁REN
▁Sierra
▁analytics
▁359
▁Elle
▁Mauriti
lberg
rang
▁Bosnia
▁CCC
▁subsidized
▁abduct
▁hesitate
Mégantic
▁Milestone
▁affix
▁Dal
▁Licens
▁chicken
▁drastic
base
▁EMPLOYEE
▁Ineligible
▁addict
▁prosp
border
▁Juan
▁Mali
▁curtailment
▁prolif
▁Tree
▁UNITHOLDERS
▁395
IFICATION
Suspension
wich
▁await
7,57
assessment
▁711
▁disturb
erek
▁Substitution
▁condolence
yton
▁567
jack
trinsic
▁464
351
CLP
solid
▁0.33
▁Map
▁Vie
▁Fail
atitude
▁disallow
▁trick
8,17
▁BENEFITS
▁Parkdale
▁lesbian
▁sequential
▁447
▁Agrium
▁Massachusetts
▁Pembroke
egi
fford
▁gestion
▁testifying
▁vocational
etti
▁Appreciation
▁Literacy
▁Retainer
▁Zn
determined
▁Girard
▁Lumber
▁airborne
9,06
▁Align
▁Yan
▁slash
▁522
▁Precision
▁bons
▁HSO
▁curious
▁Distributed
▁Lincoln
▁restitution
clin
▁ETR
▁coût
▁diagram
▁monopoly
▁standpoint
▁Jew
▁LEGAL
▁McKi
▁advertisers
▁circumvent
▁mort
operate
▁Cyber
▁Quant
▁cpacanada
▁1950
▁399
▁Assignment
▁Remember
▁Twenty
▁Shu
▁endure
▁Absolute
▁MBS
▁14.9
▁455
▁Directive
▁displaced
▁Chart
▁aide
▁imm
4,25
▁Pennsylvania
kh
▁CCRA
▁agréés
▁constrain
107
atixis
▁McMurray
▁BMG
▁Ritchie
9,73
▁pivotal
108
▁Desmarais
▁Oh
▁boast
▁0.98
▁equation
▁Lithium
▁matrix
Wire
examined
isse
▁3,06
▁FCPA
▁corroborative
▁Along
▁Fredericton
▁Summer
▁abundant
▁caption
▁legitima
fineries
▁449
▁Nunavik
NS
oda
▁salute
▁titres
▁12,6
▁506
▁Algoma
▁GW
▁Témiscouata
▁acceleration
▁finalize
▁litres
▁rat
▁Optimal
▁647
▁Responsible
▁minimizing
▁REGARDING
0,64
▁Télébec
▁downstream
-2021
Chrysler
▁Finland
▁earthquake
▁geographically
8,06
▁Enerplus
4,64
▁critically
▁logging
▁427
▁Earn
▁allude
pparently
▁accommod
▁easing
▁Brent
▁Mul
▁manipulat
▁presume
DT
▁Ak
▁Liquor
▁Duceppe
▁Surge
undance
▁Bert
▁Create
▁Geoff
▁Giv
▁UI
▁misrepresentati
6,02
▁AIP
8,39
budget
▁521
▁557
▁IAASB
▁medicare
▁plasma
IUM
▁451
▁Secure
8,90
▁851
▁Foster
OVEMBER
alien
brand
▁literature
existing
▁vin
▁worsen
establish
▁Hansard
▁obsolete
▁trimestre
▁GAS
9,68
▁527
▁Spread
▁Voi
▁honeymoon
▁Mun
LINE
▁Adam
▁gri
3,600
▁Taxpayer
Earned
▁telephony
▁3,38
▁Conc
▁Platform
▁Trademark
▁Lambert
▁welcom
▁17.2
vasive
▁Durham
ista
▁Anna
▁withstand
Bagot
assess
▁Turkish
▁Wang
▁0.29
▁har
▁Nihon
2.90
▁EDC
▁1964
▁prayer
▁trim
125
home
rica
▁426
▁Hager
▁observ
▁outrage
▁ser
▁3,37
▁juin
7,85
▁Pound
3,333
Chief
DY
▁14,4
▁ASA
▁correlate
▁Roo
▁intentionally
▁opera
▁stagger
109
▁469
▁Gateway
▁discriminated
2,300
rak
▁yea
TRADE
▁3,34
▁471
▁547
▁Aux
▁BPO
▁Correction
▁Barrie
▁juror
mina
sensitive
▁Deduct
▁characterize
▁3,21
6,79
iable
ssembl
▁15,0
▁18.5
▁8.75
▁APPLICATION
▁Iacob
▁actifs
-2005
▁Rural
▁intérêt
0,47
CES
▁concede
Logic
▁Bev
▁Leroux
afe
loyal
▁2,93
▁523
connect
reststreet
▁3,45
▁Search
▁tumor
7,63
▁2033
▁21.1
▁437
▁805
Bruno
▁Doug
▁portable
▁3,27
▁CARE
▁Harvey
▁Investissement
▁tunnel
▁accelerat
▁Butt
▁Hancock
linked
▁terminology
estim
kind
▁Fortin
8,63
▁Chu
▁452
▁CRE
▁Kenne
▁emotion
cran
▁Cochrane
▁financière
▁refurbish
▁Delay
▁NEI
▁contiguous
brief
▁680
9,66
PRESIDENT
UH
ccountancy
▁386
allocation
▁Pelletier
rah
▁PEN
▁compression
▁hourly
▁potato
▁taint
▁decree
▁dishonest
▁Dream
▁sealed
5,66
gna
▁OUTSTANDING
▁Drummond
▁Telbe
▁escort
7,89
Cancellation
OCTOBER
▁AUTO
▁BELLU
▁Preston
▁Shanghai
▁abstain
▁intimidation
▁702
▁Fraud
▁Sugar
8,30
assurance
▁Vers
▁disqualifie
▁theoretical
Aug
▁desperately
▁supervis
Brien
▁Simard
▁denounce
▁16.2
▁536
▁Ambatov
▁Fitch
▁Preparation
▁prorate
LFC
legality
▁3,36
▁61-101
▁Agree
▁shocking
ILE
passu
▁backward
▁override
▁Founded
▁Easter
▁Hockey
▁Junex
▁Rocky
▁backbench
▁entrench
▁2,71
▁Ameri
▁Organic
400
contract
linking
▁Room
▁propagand
▁Escrowed
▁Houston
▁Revision
ERE
EMI
itter
▁Marret
▁RAFI
▁dependenc
▁terminé
▁vacate
411
Invested
▁Macquarie
▁Publi
▁Secretariat
▁deterrent
▁8,5
▁ICI
just
▁13,5
▁674
2,600
dumping
▁Municipalities
▁Possible
▁Rid
▁Trinity
▁reporter
MOUNT
valu
▁15,4
▁690
▁728
▁Dumont
▁forthright
▁hyper
▁knock
▁misuse
rice
▁397
▁Coalition
▁Kennedy
▁Specified
▁applicability
▁professionnelle
▁444
▁Fear
▁Houtte
▁SMART
▁conveyance
▁instrumental
▁quantify
▁Tan
▁impute
▁matrimonia
SCI
▁1-877-
▁3,44
▁413
▁Cordy
▁3,08
▁Alter
▁Berg
▁Kenny
▁Ralph
▁GLV
▁XI
2,800
▁Kuwait
▁3,19
▁Resorts
▁drag
▁exert
▁inherited
▁Fairba
▁closes
▁practic
▁rallie
▁10,3
▁Arca
▁Souris
▁discriminate
▁vibrant
BP
distributed
▁PEA
▁immense
DIC
licit
▁9,6
▁pervasive
▁AMENDE
▁newcomer
heim
▁Hopeful
▁PU
▁reinforced
Geo
▁FERC
▁perverse
ouch
▁3,25
▁396
▁shale
LH
▁FB
▁Fall
▁REFUGEE
▁nominate
▁428
▁Ladder
▁BHP
▁LeBlanc
▁Refund
▁surety
km
▁BLU
▁DUE
▁Withholding
▁rough
▁RSQ
WG
atta
▁0.34
▁geochemical
Ag
Guy
Pack
▁3,32
MPL
▁695
▁NINE
▁attache
▁dictat
▁fur
▁stall
Feb
▁Pick
▁sacrifices
RET
charge
▁pla
▁pioneer
▁prestigiou
▁15.7
▁Chicoutimi
TG
▁3,28
▁Macdonald
volution
▁WARRANT
HW
TIVE
▁CETA
▁Lapointe
comb
▁15.4
▁ashamed
▁INVESTORS
▁functionality
keeper
participating
aTS
▁8,2
▁3,42
▁advocat
▁fixture
▁stopping
CPC
embassy
▁433
▁985
▁990
▁Legault
▁monument
▁township
▁unfairly
▁9,1
▁Crow
▁LM
▁Mega
▁propriet
▁resin
arthritis
▁577
▁740
▁athl
▁20.1
▁980
▁Tourism
▁Violation
▁EVENTS
▁emp
KER
onnectivity
▁outrageous
▁DCA
▁outperformance
▁799
▁clerical
▁Patricia
▁geopolitical
Basques
chuk
terrorism
▁406
▁EQUIVALENTS
▁myth
cision
▁694
▁Movement
▁Think
▁iA
-006
▁15,5
▁Replace
▁append
factur
lead
▁535
▁societal
Part
▁Confirmation
▁Hochelaga
▁conseil
ario
resolved
▁whereabout
ortunately
▁SSP
▁resemblance
▁selon
▁Awareness
▁catastrophic
▁16.3
▁Contra
▁Rich
▁accusations
yan
▁662
▁proficienc
▁twin
7,71
Uni
▁Electrical
▁orphan
▁inspiration
▁kidney
OPE
obo
0.8
▁Gerry
▁Memorial
main
▁Penalties
▁hoist
6,89
fected
▁summon
,750,000
▁beauty
▁entrepreneur
▁obligor
audience
▁2,91
▁Barb
▁COMPAR
▁Face
▁Thor
▁Vermont
▁À
▁16.0
illon
▁473
▁Wheaton
▁hopeful
verything
▁Concept
▁DESJARDINS
▁bombing
7,94
grad
▁Elimination
▁Residual
▁Transcona
anticipated
craft
▁001
▁434
▁EnCana
▁Marquest
▁Neo
▁Adjust
▁Kinder
▁Wine
▁Zeller
▁prerogative
advisory
▁478
▁Firearms
▁Publishing
▁Vu
aires
▁Brock
▁Et
TX
trans
▁597
▁Cher
arney
▁14,7
LOO
▁3,26
▁commensurate
▁gradu
▁860
▁bookings
▁optimiz
8-001
▁Billings
▁Corus
▁Francisco
▁HRDC
▁SLM
▁domestically
7,200
ERA
OLE
▁DIRECTOR
▁automation
▁12,7
▁486
▁551
▁TQM
standard
▁564
easterly
kill
▁MAV
▁echo
▁429
▁Compton
length
▁Nick
▁droit
▁hatred
isco
llar
▁HRCC
▁14,8
▁pray
▁sickness
heels
▁15.6
▁474
▁Joliette
▁Lassonde
▁blast
▁Fernand
▁Tunisia
▁stuck
ENG
When
▁16,0
▁17.3
▁DFO
▁Abbotsford
▁CONTRACT
▁MCAP
▁evil
rowfoot
▁Sopink
▁mountain
Franc
tabular
▁Battle
▁Costa
▁Dai
▁Mitec
▁Pref
▁ironic
▁shallow
▁559
▁congr
▁illicit
▁recount
▁reorganize
▁940
▁Half
▁Regulated
▁battery
▁13,9
▁optimism
▁GDR
▁trapp
contin
▁900,000
▁Warnex
▁Énergi
hua
nVest
owski
▁15.8
▁coin
▁practis
▁SECURITY
UTION
voluntary
▁699
▁Holland
▁grassroot
▁École
HAN
▁XL
▁Pointe
▁measurable
helan
▁compatibilit
▁poison
lift
▁inadvertent
▁mou
▁radiation
Nov
▁4,3
▁FEDERAL
▁flooding
▁postpone
▁Marjor
▁STRUCTURE
▁pig
nium
vell
▁414
▁Cab
▁incompatible
▁Casa
▁nonsense
▁unsafe
RRO
▁526
▁Cyr
▁JANUARY
▁Marleau
▁820
▁Autorité
▁BIO
▁Munson
▁percentile
Service
▁436
▁7,7
▁FCR
▁Mauri
▁Vital
▁HOLDINGS
invest
▁REGISTRAR
Eng
temporary
▁Carrier
▁Tricon
igue
▁disbursed
▁executor
7,87
bog
scribe
▁LETTER
▁thrust
onne
▁Eritrea
▁Marathon
▁Nobel
▁delinquenc
▁faithful
1,05
▁PwC
elon
▁Follow
traumatic
▁Prepayment
▁enzym
▁scorecard
uga
▁stance
▁Classic
▁DEFERRED
▁PROCEDURE
▁suffi
bella
▁Arb
▁Challenge
▁Forestry
▁Run
▁Sinclair
▁eff
6,56
▁431
▁725
▁COST
▁Compar
▁DECISION
▁Logistec
▁Mars
▁flip
Bulkley
▁Alb
▁CRJ
▁lighthouse
▁repr
▁suspicious
▁veto
EZ
positary
▁14,5
▁Colorado
▁Haute
▁PREFERRED
▁divis
▁APPROVAL
lix
▁442
Cumulative
call
▁Charlie
▁Coors
▁Lisa
▁catalyst
▁Continental
▁Contingencies
▁peripheral
▁408
▁494
▁SUBSEQUENT
▁yarn
FORM
Reinvested
opted
▁Loub
▁Automobile
▁behave
UDE
operators
vigil
▁542
▁Axworthy
▁Captain
▁RIC
▁Successful
▁classroom
▁outcrop
▁restor
OY
▁468
▁Shin
dicia
▁3,41
▁Frankly
▁NAS
▁Stingray
▁614
▁ADS
▁ferry
fac
▁3,22
▁STANDARDS
▁fifty
▁navigat
Same
▁Epp
AH
TD
ossette
structure
▁529
▁Laurin
7,32
▁770
▁calm
▁Harry
igne
▁Guinea
AMA
TES
▁0.74
▁2040
▁racing
mitting
▁till
flex
▁3,48
▁confession
SRA
▁Moose
▁PET
yna
▁10,1
▁419
▁505
▁metropolitan
iak
intended
▁830
▁ADVISOR
8,62
▁Beauport
▁Intermediate
▁occupant
▁Bernier
▁GBC
▁Transit
▁boom
▁bunch
▁dont
▁webinar
3,400
ature
▁Harmoniz
Profit
▁Pla
▁Shepell
▁TENDER
▁UTILIT
RIF
▁Cart
LRQ
▁541
▁910
▁Citadel
▁Landry
▁Requir
▁3,43
▁MMT
▁achat
▁450,000
▁874
▁globalization
▁568
▁825
▁Authorize
▁Gilbert
▁dépense
APE
ICK
▁840
▁Geneva
▁retrain
MISSION
▁2,3
▁Boul
▁Nash
▁Lyon
2,700
word
▁architect
▁disgrace
▁mus
bou
▁churches
▁redesign
pts
▁Merck
▁448
▁toute
ENDING
pressive
▁Enhanc
▁Relief
gag
▁Downe
▁homicide
▁parliamentarian
FH
▁CUSIP
▁Savanna
▁Arbitration
▁Cannabis
▁fer
PERIODS
Solicitation
▁condemned
▁hereafter
▁timetable
NH
▁2,500,000
▁453
▁boiler
asso
ponent
venants
▁701
▁Refusal
2,05
▁flyer
PRO
mul
▁Corporal
▁Hir
▁Fitz
▁Trailing
▁GH
▁Raza
▁reproduction
9,63
6,23
minent
▁NAL
▁Rad
▁keen
▁870
▁Dubai
▁EFT
▁garde
CSM
▁476
▁Vidéotron
▁466
▁545
▁Dome
▁Machine
Oct
designating
▁Talk
▁558
▁Alaska
▁FRE
▁thirteen
▁indemnit
▁marginally
ENSE
▁591
▁EPA
▁Kirby
▁Peterson
▁Virtual
▁Wildlife
-2004
assa
Îles
▁Neuro
▁nominations
Delegation
▁diving
▁GLP
▁thrive
ective
▁Rex
1-3
COMMUNICATIONS
LINK
▁660
▁Sell
▁13,2
bout
▁1961
▁424
▁ISIL
MU
▁Cowichan
▁SELECTED
▁Swaps
▁popul
org
▁0.37
▁Multiply
▁sensible
▁spokesperson
democratic
▁Bbl
▁Bioniche
▁Newspaper
▁adven
ATI
REN
▁717
▁Conditional
▁FV
▁TECSYS
▁knife
▁outreach
▁Guatemala
▁Identity
▁innocence
▁Pershimco
▁Space
▁capt
3,750
▁Buck
▁Cadillac
▁Surface
▁experiment
▁hepatitis
▁18.2
▁Aqua
▁Warren
▁depriv
▁transferor
ENCY
▁genesis
▁invention
twist
▁0.38
▁drift
▁footage
OLD
▁Conservation
▁Suzanne
▁deepen
BIT
▁patrol
5,600
▁14,6
ingsway
▁ECL
▁enlighten
rête
▁industrialized
VU
anning
▁Jennifer
▁unpredictabl
▁982
▁Fibre
▁attribution
▁powder
▁Garden
▁Ou
▁Proulx
urban
▁517
▁Cullen
▁Zimbabwe
▁ainsi
9,14
▁776
▁Delhi
▁Lamoure
▁PENSION
▁angle
▁compos
▁happi
▁retaliation
▁705
▁joke
Vi
electric
▁Efficiency
▁Multilateral
▁zon
François
envest
▁Availability
▁Toy
Mark
uer
▁Appraisal
▁Cabinet
▁Connection
▁SPDR
▁pause
▁605
▁Daimler
▁Fond
▁Michelle
▁Minor
▁inhibit
▁registr
location
▁tail
toxic
▁eager
▁pop
▁steep
pose
▁10,2
▁complicit
▁partisanship
9,53
▁Household
▁Nicole
▁Palmer
2,100
sharing
▁Noveko
▁PBI
▁distant
science
▁552
▁Andy
▁Culture
Apr
andmark
▁13,3
▁21,9
▁548
▁598
▁Beaver
▁Fresh
▁Hour
▁Sylvain
▁barley
▁organizer
▁shadow
1,900
1,99
▁NFPO
▁predator
▁569
▁Draw
2-001
▁Patterson
▁consortium
berger
▁512
▁ICD
▁Mahoney
▁PRODUCTS
▁Predecessor
▁Simplicit
▁Walmart
enberg
▁643
▁Host
▁Indicative
▁restate
▁491
▁Meredith
FIN
artland
gotten
▁4,02
triment
▁2034
▁BFI
▁Fact
Medicago
bust
▁McKay
▁garbage
▁461
▁Command
▁Harmon
▁SENSIO
▁Than
▁lucky
▁prec
13597
▁13,8
▁516
▁clothes
Op
▁pharmacie
operated
▁MEASURES
4,800
OTT
▁Convert
CY
titude
▁grains
▁504
▁Fuca
▁Hai
▁Territory
▁Titan
▁permissibl
▁3,46
▁Corridor
▁Dispositions
▁MATERIALS
▁congratulat
SELECT
Beaupré
▁432
▁McWatters
▁soldier
En
▁3,31
▁642
▁STEP
9,94
▁646
▁Trigger
▁crowd
372
4,400
AIS
▁anomalous
▁appendix
▁equip
▁483
▁595
▁997
▁inactive
North
▁SEI
▁disappointment
▁maple
▁mixture
therapie
▁Millennium
▁apprentice
▁taste
▁14,2
▁Changing
▁Joyce
▁deviate
45.00
▁3,3
▁Poly
▁Stockholder
▁Colin
▁FEBRUARY
▁Info
▁penalized
▁vegetable
▁violat
▁714
▁9,4
▁fra
▁remittance
▁sinking
▁episode
▁interven
▁molecule
flation
▁Device
▁Monique
9,52
▁439
▁IBM
▁Orbit
5,200
▁commun
▁dispense
▁AUDITED
speaking
▁0.39
▁FOURTH
nier
▁533
▁Disease
▁blatant
oral
▁Conclude
feasibility
▁activation
▁Acadie
▁Christine
▁poorest
9,56
ANS
inches
▁Casey
▁procure
7,44
Recurring
▁842
▁Indirectly
▁Ker
▁670
▁Bab
▁Loyalty
▁Wu
1,40
▁9,5
▁Julie
▁Kamouraska
▁Sault
▁advers
▁peso
ADD
mot
▁3,50
▁Hindu
▁enthusiastic
▁Indirect
▁Matur
▁Copps
▁SECTOR
▁Matamec
▁cream
▁Dale
▁vicinit
development
▁546
▁Accelerate
▁cher
rault
▁GEO
▁Navy
indready
pharma
▁Death
▁Shah
motion
▁732
▁BAR
▁Supplier
▁Traditional
▁488
▁Tibet
▁plent
Report
▁Por
▁Sask
▁pri
aro
▁COMMITMENTS
▁Raw
▁Reasonable
▁redetermination
SEP
UA
fusion
▁Debora
▁definite
▁Apartment
▁NHA
▁amalgam
-391
0,200
▁Garant
▁workload
BH
verti
▁1582
▁incl
▁Consequence
▁INDEPENDENT
▁ORGANIZATION
▁septembre
cession
▁Boudreau
▁DAVID
▁MEDIA
vari
▁742
▁887
▁ATL
▁sober
5,94
onna
▁Bull
▁Cad
▁discharg
▁navy
▁song
RV
▁Axiom
▁collector
▁mask
gli
▁18.3
▁Irwin
JO
fel
▁recu
▁venue
▁871
▁Maxim
ground
▁Horne
▁McCa
▁coherent
▁sensitivities
ELLE
▁PROVIDE
▁Teamster
▁apprenticeship
▁sweet
▁15,6
▁Engagements
▁Rapid
▁corr
▁reclassify
▁retrofit
▁skeptic
thy
▁815
▁Creation
▁cart
▁implausibilit
▁seamless
▁593
▁Orbite
▁Undergroun
▁SPECIFIC
▁Vaughan
▁sweep
ologie
Life
allot
ontinuance
▁847
▁Argument
▁Chambly
▁fence
▁churn
▁defective
▁appalling
▁defense
Eagle
MER
lash
▁QB
▁giant
▁checklist
▁recalcul
6,18
Maurice
WKH
▁457
▁Earl
Fon
evaluate
▁prob
axis
▁518
▁MTS
AASOC
Cost
Wave
▁Portion
-2022
3,800
DE
client
▁446
▁ARPU
▁Bail
Strathcona
design
▁4,16
▁ERP
▁Entitlement
▁Swan
▁clan
▁miner
EVER
EnerVest
▁Barn
▁Hull
▁batch
▁egregious
▁perceive
▁381-0
RAT
disclosed
▁Papineau
▁edit
▁peut
deserved
parliamentary
▁4,05
▁482
▁Scholes
▁mat
eaching
▁706
▁mom
▁Solicit
▁exacerbate
IRC
▁13,7
▁666
▁Obama
▁Vietnamese
▁BT
▁Deduction
▁artistic
▁présente
-200
administr
parable
▁16,9
▁456
▁Fun
NCI
Solactive
▁15,3
▁Kam
▁OFFICER
cleod
▁Mani
▁Mara
▁Momentum
▁489
▁696
▁995
▁Finning
▁générale
101
▁583
▁OBJE
▁463
▁767
▁Pictou
▁Sara
▁menu
,500.00
vu
▁outlet
5,82
▁Kell
jar
▁PAS
▁memories
▁841
▁Beside
▁analogous
▁modifie
▁rem
▁resilient
7,23
8,000,000
8,53
▁22.1
▁Arianne
▁Laboratory
▁RMB
▁amortis
▁nerve
bouch
iro
▁618
▁Angel
▁CVTech
▁JULY
▁PMO
▁favourite
▁Compagnie
▁INTERESTS
▁19.2
▁OFFICE
▁WORLD
▁CTV
▁Dyna
8,22
▁CALL
▁shoot
▁Pain
▁ethanol
▁rubber
▁sous
▁stigma
9,02
▁1963
▁Honor
▁personality
▁restart
▁481
BN
▁10,6
▁Brothers
▁Meridian
▁Cariboo
▁Exclusion
▁Harrison
gist
▁955
▁Flat
▁feedstock
▁Gran
▁QCC
▁healing
▁optionee
seller
▁753
▁762
2,75
NAT
volt
▁Exxon
▁PREP
▁coh
▁dissemination
▁Double
▁cobalt
▁0.97
▁641
▁Croatia
9,93
omp
▁563
▁cheat
▁cigarette
▁resilienc
disclosure
moul
urozone
▁Broadridge
▁Govern
▁companion
regulation
▁Harcourt
▁Sylvi
▁irrespective
▁673
▁Bain
▁Deere
▁Tai
▁doubl
▁hypocris
4,200
ART
▁Portage
▁coerci
▁crédit
COR
▁599
▁Petti
▁diversion
7,93
mbrilia
ndi
Hedged
▁2,9
▁CURRENCY
▁drawdown
▁513
▁537
▁MMcf
▁Strengthen
▁Sum
▁ai
surg
▁Impaired
▁classifie
▁merchandis
FUL
Ownership
bourg
▁588
▁Dakota
▁Perron
KY
▁Albertans
▁Cuban
▁atrocit
▁0.77
▁509
▁Nicholas
high
▁683
▁postpaid
▁stroke
▁14,3
▁20,0
▁Distinction
glu
▁3,58
▁CLOS
▁Commencing
▁Uncertainty
▁extremist
6,64
AO
RBH
▁731
▁Correctly
▁exemplar
▁JP
8,43
▁Poirier
▁Recon
▁fractur
▁password
feld
umi
▁Snow
ovic
▁0.76
▁534
▁676
▁Must
▁Storm
▁hospitality
Telus
rainage
▁693
▁CDO
▁Savaria
▁brick
▁disposable
▁Barnes
▁Equinox
▁Nippon
▁ambiguous
▁Amnes
▁Consul
▁compagnie
imon
▁Severance
▁cognizan
▁elapsed
anny
favorable
▁COS
▁TOP
▁felsic
▁544
▁996
▁Sprint
▁bachelor
Line
Middlesex
▁Accu
▁WITHDRAW
▁necessitate
Direct
▁Contractor
▁Manac
▁Westcoast
custodian
terrence
▁Agencies
▁Rosemont
▁mai
Claire
▁2032
▁Nguyen
▁precarious
EK
organism
▁573
cultural
iron
▁821
▁Cooperative
▁entrant
▁interfering
▁priv
CDP
JUST
ontainerboard
▁GLJ
▁PSLRA
▁Chieu
▁TRI
▁studio
▁hydraulic
runner
▁459
▁667
▁Harold
▁Maheu
▁litig
▁redesignate
3,300
NOV
▁4,04
▁Essex
▁INVEST
▁SUR
▁deteriorat
▁601
▁declar
▁Nexen
▁Sud
▁accus
Maisonneuve
pour
▁639
▁Irving
6,667
SV
ficiency
▁rescission
▁stack
2-4
▁848
▁Measur
▁WestJet
▁mono
ACK
nsolvency
oxy
▁Exempt
▁League
planned
▁Countries
▁PWF
▁RECOMM
▁projet
▁rotat
▁454
▁architecture
Cast
Par
tyl
▁Hardware
▁Metis
▁confuse
▁Discipline
▁lobster
▁memorial
▁opportunistic
VALUATION
▁3,62
0,61
▁29.1
▁Gate
examine
▁681
▁845
▁WCS
▁activate
▁damag
▁directorship
▁15,1
▁Amortiz
▁humili
▁increment
▁separat
graduate
▁458
▁Cameroon
▁Inform
▁1100
▁anglophone
▁entre
▁partie
enabled
udge
▁OWNERSHIP
▁eighteen
▁swift
4-001
gage
lli
▁25.1
▁880
▁BAM
▁Incident
▁performers
▁Gregor
▁crash
▁fracture
▁trésorerie
tronics
▁Archive
▁Rebalancing
42,000
rier
▁Réal
▁Hervieux
▁PCC
▁ministre
▁9,8
▁narcotic
Cola
Myers
impaired
▁AE
▁Demers
▁Jamie
▁Wendy
▁obey
3-001
rite
▁Spirit
AER
▁ENVIRONMENT
▁Mineralization
▁23.1
▁677
▁Brun
▁RELATIONSHIP
▁contemplat
▁fait
▁vacuum
last
olite
▁milli
▁3870
▁531
▁689
▁AGFiQ
▁Courier
▁SYSTEM
school
▁13,6
▁Speaking
▁downtime
DOC
▁Festival
▁Lavoie
▁wastewater
FTA
▁524
▁METRO
▁impôts
▁liaison
▁overstate
▁619
▁Waterhouse
▁ineffectiveness
▁shrink
LIN
▁687
▁549
▁Willis
▁abnormal
▁permis
bir
▁946
▁Iraqi
▁TIW
Antigonish
RAM
▁Assay
▁16,1
▁SIC
▁irregular
etty
▁Bird
▁COMMISSION
▁DOLLAR
▁awful
▁supermarket
frac
▁perpetrate
hart
▁Breit
▁RESERVE
▁nom
▁revi
DEN
melting
▁IBEX
▁Stakeholder
▁3,92
▁713
▁Frontenac
scope
▁20.5
▁712
▁Winner
6,400
7,64
Regulations
iga
▁Cumberland
▁MK
CD
CPA
ouche
▁Cineplex
▁1500
▁Ven
▁influ
akehead
mble
▁81-106
▁IPC
▁juice
▁painful
Controlling
VIN
▁Burkina
▁14,1
▁SGS
Dev
enko
▁Citibank
▁Variance
▁moot
QUE
▁Chavez
▁Perth
▁Sterling
▁emotionally
VES
▁585
▁645
▁Banc
▁Sackville
▁572
▁Better
▁genetically
▁Dé
▁clawback
▁coating
▁Appointed
▁Trader
▁UCC
▁terror
▁2019-07-0
▁FACTORS
▁PARTNERS
▁Reset
courag
▁609
▁846
▁852
▁Checklist
362
AIT
▁615
▁BPY
▁JOHN
▁cong
▁imprison
▁penitentiar
▁24.1
▁954
▁Highland
tribution
„
▁781
▁863
8,750
BAN
▁472
▁778
▁arbitral
▁disastrous
▁negotiator
orative
▁3,82
▁909
▁Doyle
▁Pickering
▁16,7
▁1951
▁Headquarter
▁relax
▁teeth
riat
▁3,54
▁733
▁Angeles
▁Binni
▁Corbin
▁Nom
▁fortune
▁poultry
▁Goodal
▁Jonquière
▁Rim
AU
WAL
▁Benoît
▁cognitive
▁fingerprint
8,97
▁973
▁Medal
▁buyout
▁631
▁RIR
▁grind
▁vente
▁15,9
▁INDIVIDUAL
▁Sel
▁abstract
▁outright
▁urging
▁Trump
▁interface
▁kidnapp
▁retractable
▁13,1
▁quantifi
6,250
TURE
▁538
▁Cypress
▁Rising
▁rollover
▁14,9
▁Ambassador
▁MCC
EACH
▁CONTINU
▁Fel
▁Haitian
▁barre
4.90
valuable
▁3,98
▁Julian
8,56
uis
▁CRO
▁IQ
▁3,47
▁492
▁875
▁inflict
▁inhibitor
asco
ène
▁adaptation
▁counterfeit
▁prorogation
ordi
▁511
▁943
▁HAVE
▁Unifor
▁federalist
▁REPRESENT
▁discr
▁Lachine
▁Seal
▁Thalli
▁844
▁CONSIDERATIONS
▁MCCSR
▁Own
▁XII
▁cope
▁initiat
▁1934
▁ASI
▁LDC
lastic
▁Engage
▁Ferguson
▁stimul
▁Ethical
afi
▁arbitrari
▁644
▁920
▁Deschamps
competition
▁Chirwa
▁hanging
▁privatize
Recapitalization
pid
▁Rica
▁joy
portfolio
▁678
▁ROI
▁grey
-1.1
BY
▁665
▁OIL
▁libert
▁prerequisite
ragging
NRC
ROM
VP
▁571
▁Collen
▁INDUSTRY
▁Modification
▁creativity
▁AUC
▁feu
▁forage
coping
▁507
▁967
▁LifeMap
▁Tran
▁rot
3.90
▁697
▁775
▁Jon
1,09
human
▁3863
▁Ecuador
▁Grupo
▁catastrophe
▁tube
1.00
iser
▁8,8
▁9,2
▁Boivin
▁Kirk
▁NPR
bay
gran
▁496
▁Enhancement
▁veterinary
dealer
▁916
▁Conceptual
▁Yugoslavia
aki
crit
▁franchis
5.90
irty
roo
▁sublease
▁682
▁Correspond
DCC
fluor
▁Bellemar
▁longstanding
,900,000
▁502
▁SOP
▁adh
▁consula
.1.2
binding
▁21,0
▁Agenda
▁Christianity
▁HERE
▁lecture
feasance
▁Berthier
▁Fortune
▁Indicator
▁Brossard
▁airplane
▁flagship
▁pill
4,600
harmony
▁ACCEPT
▁PWX
prime
▁988
▁reconstruction
imultan
nai
trier
▁indemnifie
▁mathematic
▁neuro
filtration
▁Brewer
▁Dur
▁Hugess
▁Physician
▁Investigat
▁magnet
▁528
▁612
▁DESIGN
▁explosion
▁inspire
▁whistle
▁484
▁Cerro
▁Workplace
dividend
semble
▁064
▁503
▁956
▁PCI
▁GRANT
▁Thirty
▁countervail
ABILITY
▁3,88
▁LeBel
▁rigid
▁3,72
▁CIM
▁invasion
6,200
application
▁Appoint
▁Faso
▁Quadra
▁instructor
LAY
building
▁4,03
▁Vin
▁semester
9,600
▁6.875
▁Sou
▁buyback
INTE
daily
▁1957
▁807
▁actors
▁fundraiser
evic
rez
▁DG
▁Problem
AE
understood
▁986
▁Cycle
▁Sean
▁streamlin
FICI
▁688
▁Equivalent
▁Vim
Mitsubishi
▁Oracle
▁preponderan
▁Bako
▁Duke
▁Reduced
▁slope
▁Sportscene
▁Walter
Michel
Public
▁CAF
▁Wo
▁translat
VOL
onnell
▁539
▁Laurentides
▁expresse
▁intimidate
CIAL
founder
rina
▁635
▁paperwork
0-001
5,400
▁592
▁Outre
▁Terrebonne
▁Tokyo
Montcalm
tape
▁20.4
▁4,12
▁Dunsmuir
▁Falco
▁Fortier
▁MINERAL
▁Zon
▁hurdle
▁requisition
▁testament
▁Population
▁manpower
liant
▁576
▁conduit
MIS
undry
▁Manufacturer
▁McLellan
orbidity
puis
▁DISCRETIONAR
▁Guay
▁Hussein
▁biomass
mud
reserve
▁768
▁890
▁893
▁Baa
▁Execution
▁infraction
gri
▁21.2
▁589
▁DP
▁EQUIPMENT
▁rub
mmer
▁581
▁622
▁McKe
▁caus
▁878
▁Greek
▁PLACEMENT
▁backbone
▁copie
izona
▁Esp
▁LTC
▁configuration
▁Yvan
▁flotation
FLEX
anim
pied
▁553
▁Lebel
▁RECORD
▁SAP
▁arena
▁miniers
▁unjustifi
▁3064
▁Audio
▁SEK
▁bookkeep
5-001
▁721
-402
Quebec
▁Rome
▁consummati
▁prevalent
▁turmoil
ANC
José
lga
nell
▁998
▁Wireline
HSI
▁724
▁479
▁Appropriate
▁gesture
Nord
therm
▁DEQ
▁Emission
▁Plain
▁Quote
▁752
▁disparit
▁grieve
▁headcount
▁tentative
0,91
6-001
All
▁960
▁Davenport
▁superficial
▁994
▁smartphone
▁waterway
Charles
energy
▁679
▁716
▁873
▁embryo
Paul
exempt
rincip
▁1962
▁Sarah
▁brake
▁cra
▁uncomfortabl
CAP
carbon
▁685
▁Gérard
▁Zhang
▁horrific
▁inconvenience
0,400
▁Honda
▁Lambton
▁mut
▁terminée
▁Orientation
▁Retention
▁compar
▁834
▁906
▁Colombo
▁Contain
▁Majority
▁Pier
1,65
▁Namibia
▁PRESENTATION
▁965
▁COMBIN
▁forged
▁692
▁627
▁IAM
▁Ruth
▁frank
UX
▁607
▁purse
dependent
▁Lessard
▁complication
designated
▁771
▁Clair
▁Platinum
6,800
rbc
8,400
▁0.48
▁CONVERTIBLE
▁Chibougamau
▁Blizzard
▁Champion
▁Sham
▁soit
NZ
▁NEGATIVE
▁Oversee
▁actionnaires
▁affiant
▁regrettabl
▁10,4
▁16,3
▁2045
▁ESOP
▁Institut
▁enunciate
Conten
frame
▁23,0
▁632
▁726
7,600
▁0.44
▁785
▁Clearnet
▁Depletion
▁Osl
WL
▁3,52
▁765
▁Freight
▁Michelin
▁786
▁Heart
▁Include
▁Matoush
▁Postal
▁revers
mproving
▁4,27
▁748
▁Chevron
▁Plaintiff
▁Stress
-007
ahi
shaw
▁Comme
▁horror
▁indu
Antoine
Registr
bak
▁forensic
▁gambling
,000,000.00
ubordination
▁989
▁Blais
▁frivolous
▁ESG
▁Seasonal
▁capricious
▁émission
worn
▁Moving
▁bike
▁promulgate
American
FFI
OTENTIAL
VX
ticipating
offending
▁Canso
▁Charest
▁DOCUMENTS
▁bact
igny
▁691
▁Father
▁IBI
▁Instalment
▁WITHHOLD
▁3,73
▁Plamondon
duty
▁719
▁Ruling
▁coordinator
▁pile
▁sera
▁soul
▁tout
Explo
umble
▁0.43
▁Malpeque
▁Typhoon
▁portray
MONT
shop
▁574
▁763
▁commander
▁troubles
▁4,01
▁638
▁Warehouse
▁Regime
▁pharmaco
▁Adelaide
▁salvage
▁subclause
mulated
▁8,7
▁975
▁IFC
▁LC
▁Pens
Tax
berge
▁GIR
▁Somali
Tec
▁902
▁Armstrong
▁Solid
▁physiotherap
ERC
▁Valid
▁tum
lina
▁3,63
▁Davie
▁LIQUIDITY
▁Twitter
▁disconnect
▁remeasure
rewal
▁MANAGED
▁handicap
▁nationwide
▁releas
5,75
ENCES
▁DHC
▁Nordiq
▁Pioneer
▁Velan
900
▁10,7
▁532
▁civic
CURRENT
clinical
▁confinement
▁horribl
▁824
▁ARRANGEMENTS
250
control
xlsx
PN
▁Consist
▁Mentor
▁PPL
▁Parti
▁referee
2,09
9,64
▁Maw
▁Nurun
▁Sico
▁bath
Constant
valence
▁617
▁626
▁Architect
▁Armenian
ECI
roadband
▁Extra
consolidation
marin
▁Guild
▁sterilize
▁useless
▁3,51
▁633
▁939
▁BEHALF
▁Comput
▁CHARTE
▁Fitness
▁Renaud
▁continental
▁liquidator
▁reintroduce
▁26.1
▁annuitant
▁magic
▁même
▁outlay
▁17,4
▁Casino
▁Nemask
▁Signal
.3.1
▁Leblanc
▁Toyota
▁dentist
▁transgen
corporate
▁Facilitat
▁HM
Plan
▁637
▁Expertise
▁Joy
▁rumour
▁spiritual
▁Custodia
ider
▁attraction
abad
reuz
▁Flag
▁Kay
▁exhibition
3,700
9,200
▁GTA
▁Kirkland
▁Roctest
▁sans
▁teenager
bilit
▁Shan
▁hesitation
scheduled
▁963
▁professionnels
▁649
▁Superannuat
▁motorcycle
cution
▁Coffee
▁Dhaliwal
▁Nicola
▁Swedish
▁fantastic
▁3,78
▁621
▁Grad
▁RCI
▁SOQUEM
1,77
6,14
▁4,32
▁Ahmed
▁Bolton
▁Pyramis
▁contextual
9,47
▁PPP
▁politician
Money
alli
oga
redibility
▁594
▁Bachand
▁Nurse
patrick
▁boul
▁shipyard
placement
▁17,0
▁587
▁mi
▁reoffend
onfidentiality
trenches
▁Built
▁CHIEF
▁SAB
▁TRANSITION
ATH
▁4,17
Gobi
▁833
▁Charlesbourg
▁Fraction
▁travail
▁Minera
▁Reason
▁Route
▁spray
affected
▁Flexible
▁Match
▁Renfrew
▁Suit
▁fabricated
4,300
acquisition
cipit
▁636
▁Marmani
▁sovereignist
rometic
▁629
▁843
▁potash
▁16,4
▁Cargo
▁Radisson
▁norme
▁obstacle
▁603
▁Elder
▁PhD
▁expropriate
▁ledger
complaining
▁4,38
▁concise
▁684
▁769
▁AMERICAN
▁Feedback
▁Glengarry
▁Remission
116
HK
▁15,8
▁OBLIGATIONS
▁Version
▁thankful
first
▁772
▁EGRIFTA
▁853
▁891
9,11
wash
▁966
▁Concordia
▁Warner
▁Methyl
▁Refining
▁courageous
▁transplant
▁22,0
▁fourteen
ZE
▁654
▁McLeod
▁contaminant
▁reproduce
▁subpoena
3,100
bil
▁Samuel
▁Shield
ligibilit
▁858
▁Patient
▁ceremonies
▁equivalence
WATER
diction
elve
fertil
growing
▁704
▁bureaucratic
▁porphyry
800
▁Exclude
▁hypo
▁5,00
▁584
▁Siemens
▁3,81
▁764
▁Virgin
▁dementia
Acquisition
▁Ahmad
▁Juvenile
▁housekeep
annon
competitive
▁930
▁Ameritrade
▁Jin
▁LifeStage
▁Quick
▁dropping
▁Academy
▁STATE
zar
▁Mohamed
▁Purchas
▁SpA
-2023
55.00
Source
▁DIAGNOS
▁deceptive
Consolidated
▁Cour
▁INFRASTRUCTURE
▁RESOURCE
▁inverse
6,600
▁ConjuChem
▁Bryan
▁MORTGAGE
morph
▁Reli
▁Robin
▁Style
▁Unemployment
▁669
▁FGL
▁acquitte
RAIN
▁Facult
▁Kor
▁McCall
-377
▁PLUS
Chat
MEDIC
Œ
▁showcase
.2.2
2024
tikeman
▁596
▁608
▁Prosecution
2,900
Limitation
▁FFS
▁ppm
▁802
▁Geological
▁IPL
▁Liu
▁Mini
▁hamper
Boucherville
Léonard
▁941
▁CONCERNING
▁FOCUS
▁crise
▁elle
▁misinform
breaking
erence
hibit
▁4,06
▁4,34
▁828
▁Epoch
▁infect
▁21,5
▁747
▁854
▁PEG
▁Proprietary
▁Robe
▁Rousseau
▁epidemic
▁printout
▁945
▁AbitibiBowater
▁Gin
▁SFR
▁THAN
▁Zo
addam
▁initiation
▁situ
7,800
Multiculturalism
▁Cisco
▁Dispute
▁avant
LEMENT
bois
▁915
▁993
▁Manuel
▁Optimum
▁loving
▁scrutinize
IK
▁21,4
▁Backlog
▁Closure
▁embellish
THROUGH
soft
▁2010-1
▁Systematic
▁Waiver
▁durable
▁parlementaire
▁3,64
▁Gervais
▁McN
approve
▁Annuity
▁Bolduc
▁Opco
▁Orion
▁21.4
▁Tiger
▁emanat
nita
▁perimeter
▁revitali
▁vire
▁4,21
▁925
▁Dunn
▁Ivan
▁Retrieva
▁cruise
▁727
▁Lorne
▁PIPSC
▁disturbance
-300
Financial
▁AUDITOR
▁EXERCISE
▁GREAT
▁midstream
TECO
▁4,37
▁578
▁BISSET
▁Cli
▁Tlicho
▁convergence
▁fins
▁obstruction
8,23
REGISTR
▁15,2
▁663
▁APPRO
▁Nepean
▁mafic
▁2047
▁703
▁PRELIMINARY
▁Programme
▁Samsung
▁Strength
▁flourish
▁innovate
mato
ntrepreneurship
resse
▁779
▁Bastar
▁Gamble
▁MONEY
Health
arth
▁Bright
-2025
committed
▁Hardship
▁Log
▁TDB
▁Sirios
▁deux
▁endowment
▁gramma
Request
▁17,5
▁831
▁LTE
▁Ouellet
DOM
SEN
▁10,9
▁3,93
▁744
▁Alfred
▁canadienne
Capital
▁628
▁Beet
▁Cultural
▁modelling
6,08
▁51-101
▁651
Burton
▁15,7
▁CDPQ
▁Casualty
▁confrontation
▁rh
▁616
▁Appli
▁Vel
tenant
tenu
▁648
▁inefficienc
Cool
Plus
fee
grew
tino
▁intact
▁Hazard
▁Selkirk
▁minières
remy
▁579
▁Pratte
vigne
▁Nexfor
▁PWT
▁méthode
HAM
WD
▁554
▁Practitioner
▁Propane
-008
EAU
▁755
▁Fab
▁Hugh
▁MHz
▁PRACTICE
▁Sexual
▁sewage
▁wealthie
▁whistleblower
0,800
FCCL
ovi
▁652
▁Zi
▁steering
VH
▁Metric
▁Reitmans
▁passif
▁purview
▁tramadol
▁4,25
▁Isabelle
▁Tobin
jet
rchitectural
▁aquaculture
▁Succession
▁Vector
▁embodie
▁titre
jour
▁Folio
▁sterling
elec
▁835
▁Ré
▁chef
▁emphasizing
clusion
▁3,61
▁961
▁CIT
GY
eddy
▁801
▁personne
plex
newsletter
▁3,53
▁Pin
▁popularit
▁Dyck
▁Rosa
▁Upgrad
▁compute
▁coordinat
post
▁0.47
▁Chain
▁librari
▁Embedd
▁Kenney
▁Turquoise
▁annuel
▁statistic
7.875
growth
harmacare
▁709
▁Advocate
▁trivial
▁4,24
▁Amalgamat
▁janvier
DES
▁FINANCE
▁dispens
▁march
Vest
aise
largest
▁Deferral
▁Maz
▁Verizon
▁populaire
▁universalit
▁BEP
▁racist
117
qualify
▁722
▁766
▁793
▁DIGIT
▁Lucia
▁Particip
▁RSM
▁breccia
▁contestant
▁graphite
▁warehous
aza
blowing
▁624
▁951
▁Porter
5,800
Regan
governmental
▁Tétrault
▁entente
▁602
▁4,44
▁Patel
▁Societ
▁autre
▁singular
voca
▁2050
▁CAM
▁18,9
▁3861
▁895
▁969
▁fond
▁rifle
anchi
▁4,33
▁508
▁898
▁COURT
▁Lucien
▁Offsetting
▁Rayn
▁VENTURE
3,900
Port
▁21,8
▁907
▁reciprocal
ennial
▁ACCEPTANCE
▁patien
▁Auction
▁Lobby
▁Westmount
▁enemy
▁Anglo
▁Kangaroo
▁cutback
▁jewellery
▁messaging
▁mot
nour
▁Khad
▁Pulse
▁Sumitomo
▁817
▁Donnell
▁Géo
▁Satellite
▁grasp
5,300
▁4,45
▁892
▁suivant
ETTE
JUN
authoritative
chet
▁707
▁Passenger
▁curb
6,47
molybd
▁2,5
▁Birch
▁Norampac
▁Speed
▁Stelco
300
▁947
▁afin
▁voyage
▁655
▁938
▁Conway
▁Expir
▁1959
▁3,83
▁623
▁808
▁Fat
▁Practical
▁Schmidt
▁Sorens
▁overburden
-130
fro
▁Amazon
▁CAGR
▁Nano
▁acquis
2,000,000
kwa
▁Crossing
▁Masse
▁syndic
▁Macki
▁TECHNOLOGIES
otation
▁984
8,200
mill
▁Cloutier
▁Incremental
▁Numero
▁respirator
Cartier
▁EnerCare
▁ressources
-102
▁10,5
▁Audet
▁ELECTION
▁ESPP
▁FICL
▁reproductive
▁secteur
▁1832
▁Chop
▁Lefebvre
▁manipulation
▁vertu
▁16,8
▁Foothills
▁Rational
▁Warden
gible
oya
▁759
▁AMP
▁TQS
CN
mani
▁McDon
▁mod
entaris
▁809
▁DURING
▁STANDARD
Lloydminster
▁708
▁Rupert
Orléans
istan
▁859
▁983
▁unethical
8,51
Est
▁Huron
Neigette
▁fringe
Prescott
panos
▁incompetent
8,42
ratifying
▁Guimond
625
LQ
Maltais
TRANSCANADA
uration
▁Dagenais
▁Policyholder
Chaudière
rogation
vac
▁21,1
Growers
▁3062
▁Fry
▁Minnesota
8,800
nav
▁2046
▁4,11
▁Barbara
▁Gab
▁Rite
▁ans
▁dictionary
▁fier
▁spacing
Energy
icthom
microbi
▁782
▁Bulk
▁ibid
4,100
Bank
ctivewear
▁927
▁RNC
▁facult
▁Haemacure
▁NOM
▁PRIOR
atrice
▁Bargain
▁Bédard
▁campus
▁canola
MTY
etermin
▁ACTS
▁Beneficiarie
▁Solomon
▁featur
ACH
▁611
▁EFFECT
nali
▁Divers
FLO
iki
▁Gru
▁apprehend
▁hormone
monstr
▁912
4,700
▁811
▁913
▁NOK
▁SAS
▁appraiser
▁excuses
CART
ZZ
dron
iya
▁582
▁Success
▁entreprise
▁sphere
▁746
▁Tam
OMPANIES
▁3,94
▁Estey
▁Setting
▁coincidence
metallic
▁CINAR
▁CLAIM
▁Midwest
-009
▁933
▁REM
▁reallocate
▁viva
▁992
wright
▁API
Exception
political
▁987
▁Brenda
▁TerraVest
▁experimental
▁sodium
▁therapist
terminant
▁Mock
▁Paradis
▁Petit
▁encouragement
▁unfairness
isabilities
▁ONCA
▁Peruvian
▁sociétés
112
Probe
cations
judicial
▁879
▁Dupont
▁Northview
utilize
▁Safeway
▁longitude
transfer
unshine
▁797
▁Coca
▁Polish
▁idle
▁stratigraph
GV
▁883
▁particle
▁reclaim
QR
▁657
▁Rivard
cription
▁761
▁Blainville
▁Circle
▁SOCIAL
▁evade
▁granit
▁reputabl
Object
▁952
▁AVERAGE
▁899
▁Negotiations
▁fil
▁interruptions
▁936
▁constable
▁hydrogen
▁recreation
clearance
wski
▁18,0
▁849
▁Integra
▁Marchand
▁PTF
▁courtes
TERMINATION
erie
▁586
▁861
▁972
▁DIVERSIFIE
▁4,48
▁735
▁Gazit
▁Kraft
▁Theatre
IBLE
health
▁868
▁Altu
▁CONSENT
▁Leslie
▁CDOR
▁Liquidation
▁656
▁Nan
REGISTERED
ngle
▁compressor
▁bakery
▁morale
8,64
▁Gaglia
▁Viterra
CCT
omething
▁CMBS
▁ROYAL
▁boutique
redco
▁857
hrew
ibi
▁Chilean
▁MGCD
▁Magne
ipple
nczy
▁653
▁collision
South
ceasing
iam
▁754
▁935
▁978
▁Clinic
▁Kurdish
▁23,4
▁Marlen
▁Supervision
▁colon
▁manslaughter
▁tap
abri
▁10,8
▁932
▁Comité
▁Compris
▁EDT
▁EMERG
▁Picard
▁Tanzania
▁nous
▁steward
JAN
▁FACILIT
▁REGULATORY
▁ROBERT
▁slave
VV
eurs
▁698
▁839
▁Clare
▁Girl
▁Ohio
▁litho
THE
quel
▁1930
▁671
exploration
formation
▁790
▁917
▁Karl
▁Successor
▁abbreviation
▁Îles
Share
▁962
▁Indicate
▁Supplies
▁Vodafone
▁clon
▁relay
pronged
▁4,98
▁981
▁Fontaine
▁Pearl
▁Soviet
▁eu
▁1602
▁APPOINTMENT
▁Hodg
▁Pfizer
5-6
▁773
▁937
▁Cadman
▁Commodities
▁centuries
MART
▁Admin
▁Huntingdon
▁Jocelyn
▁Percent
▁destin
▁frighten
explo
▁Diagnostic
▁Dre
▁PIPELINE
▁Promotion
▁ann
▁devastate
▁purification
▁928
▁Comparator
▁Optical
▁Wol
happy
witt
▁Pathway
▁breakthrough
▁flavour
▁Benson
▁Borden
▁CryoC
▁UPDATE
IDENCE
matter
▁Ortho
▁deepest
▁tu
▁ventilation
▁942
▁979
▁MINISTER
▁anthem
▁bisexual
▁unveil
Revocation
▁Andrea
▁Emirates
▁Glencore
▁obsolescence
▁Bradley
▁EXHIBIT
5,100
Unconstrained
bio
compliant
▁PRODUCTION
▁franc
▁molecular
▁orthop
Sustaining
▁BASIS
hopper
▁SIMA
▁concentrat
▁depleted
▁février
▁lever
▁Kla
▁miscarriage
cour
▁865
▁Burke
▁OPPORTUNITIES
▁Glenn
▁IL
▁biographi
▁ninth
trave
▁limb
375
PX
YR
▁792
▁903
▁Dominic
▁Gather
▁Interior
▁alumina
▁ambulance
▁reassign
▁749
▁Negotiat
uni
▁Bailey
▁DETAILS
▁emitter
▁nombre
▁pos
atio
▁2400
Claude
Ç
▁Admissibilit
▁vers
IGN
avan
▁3,71
▁Offset
▁Polar
▁Slate
▁Swee
▁Vine
Alberni
forth
ü
▁RECENT
7,000,000
zard
▁Referee
▁grands
▁ACF
▁SIGNED
prudence
▁fiancé
▁Kir
▁Legg
▁apples
▁carriage
▁worri
▁Dorval
▁Leonard
▁categorical
1010
FTC
LER
▁ATS
▁Reversal
0,71
▁Holiday
▁AMC
▁SAM
▁634
▁Chaput
8,7
Hathaway
▁881
▁ltée
lore
▁AX
▁VL
▁jusqu
4,900
▁AECL
▁Brison
▁Bristol
▁drought
kw
▁17,8
▁22,5
▁832
▁Dol
▁Montney
▁Canbra
▁DVD
▁affection
▁laptop
Ontarian
demand
▁970
▁Adjourned
IRET
▁869
▁POST
▁Uganda
▁exploite
▁magnifi
▁6.625
Meaning
▁strat
hiterock
▁661
▁CCS
▁Goose
▁Discover
▁PAYABLE
▁photocopy
▁22,9
▁668
▁annul
quantum
▁24,0
▁CCL
▁fake
▁suppress
▁valeurs
▁729
▁STRATEGY
▁Undertaking
DON
ETT
habitants
purity
sunlife
▁664
▁Resolute
▁calci
▁combustion
Min
▁HNZ
▁INTO
▁postretire
▁Edition
▁GAIN
▁Siou
Æ
▁19,0
▁sunset
▁864
▁CPD
▁4,08
▁949
▁964
▁Regulator
boro
▁4,50
▁Alder
▁PAY
▁Rab
▁meaningless
▁recapture
▁Bishop
▁Castle
▁Louisiana
▁Opinaca
▁professionnel
New
▁734
▁Installation
▁Mile
▁Mistral
▁Timothy
▁concentrator
grove
▁421-01
▁908
▁translator
MX
XM
▁4,22
▁immigr
13595
AGES
metro
ogi
▁1940
▁872
▁blanket
▁897
▁Dundas
▁editor
▁Myriad
diversified
liquid
▁Absence
▁Simmons
heroe
▁Techni
▁discredit
▁Gabriel
▁garage
expected
▁76.1
▁militant
▁umbrella
lors
5,700
Marc
primand
▁Birth
▁Leasehold
▁Novo
▁Profession
▁buoy
▁cohort
ERIE
▁2039
▁AcSOC
▁booklet
▁crypto
▁nurtur
▁remunerate
▁2041
▁Melco
▁additive
▁corpo
▁fatigue
ographi
▁974
▁Ablo
▁Arrow
▁foreclose
▁trait
5-01
▁Petr
▁également
IND
Tobag
▁Liste
▁Placer
▁Scud
▁multicultural
kk
▁implicate
▁transpire
GX
août
aradigm
▁Alcohol
▁PLEASE
▁Payne
▁attentive
▁multiculturalis
310
7,53
MOR
street
▁Carswell
▁encroach
▁flash
▁gallon
Hila
iq
▁1530
▁Pap
▁976
▁ADJUSTED
6,72
CSN
▁Dependence
▁Fanni
▁shutting
2-02
Mille
WV
aine
▁Jenning
▁Langlois
▁stereotyp
▁813
▁constituencies
▁voir
Subject
▁658
▁822
▁Alexandre
▁Arn
▁MEG
▁Olson
▁RPA
▁Twin
▁exclusivit
▁historie
▁organisation
12-15
▁Studio
Continuation
oran
trie
▁5.375
▁Sampling
▁Serious
▁publique
conteste
hong
▁723
▁953
▁Dictionary
▁Image
▁aggr
▁hostile
▁régime
purpose
▁3,91
▁738
▁backstop
▁shark
▁whale
eux
hik
▁Procyon
vocation
▁867
▁Democracy
▁mismatch
▁stride
pola
tection
▁ZoomMed
▁batt
▁criticizing
▁privé
ôt
▁944
▁writedown
XU
fract
▁HUN
▁ambition
▁mosqu
bles
▁20-20
▁Orange
▁REDEEM
▁democratically
bli
▁16,5
▁17,3
▁Lemieux
▁SLA
▁finan
▁fitted
▁CALCUL
▁Grayd
▁KING
▁21,2
▁REFERENCE
▁Weather
▁discern
▁martial
▁4,67
▁Archambault
▁Bol
▁Indigo
▁Telesat
▁octobre
▁repos
▁1958
▁Oli
▁Spa
1,750
cela
mari
▁Geology
▁Villa
▁abolition
▁officielle
▁Clement
▁Dub
▁Kil
▁Mot
▁756
▁Allard
▁stati
lais
satisfied
smith
▁4,43
▁BEGINNING
▁ONLY
▁789
▁Promiss
13596
▁Lacroix
DN
▁2003-1
▁21,6
▁904
▁detachment
▁peptide
▁relinquish
appraised
▁991
▁Brick
▁Dauphin
▁Endeavour
▁SUBJECT
▁cotton
▁curriculum
▁invit
QUES
≥
▁862
▁Tommy
▁moderniz
TAN
aribas
▁Mercato
▁RECEIVABLE
▁SHOULD
▁emergenci
faction
▁20,9
▁PIPED
▁penetrate
9.90
graphe
▁ADM
▁Denison
▁Tanguay
nciation
▁Hum
▁Rota
▁Welfare
▁equivalency
♦
Group
initi
‡
▁Abcourt
▁MON
▁distill
▁skat
▁Promot
▁dilemma
119
7,54
Connor
▁736
▁Helen
▁educator
▁handgun
eurochem
proof
▁2006-1
▁prototype
▁Wallin
▁reconnaissance
▁subrule
▁4,77
▁DIRECT
▁EGD
▁Galler
▁Rosebel
▁Wolf
▁pathway
estimony
lude
▁1601
▁NCC
▁Narrative
▁hygien
▁securit
▁technologist
▁827
BERT
vian
▁836
▁ATTRIBUTABLE
▁CHARGE
▁Glass
▁VGS
admi
geophysics
▁blog
▁subsist
Certificat
pound
▁Spadina
▁Villani
▁ramifications
allée
study
sufficient
▁659
▁757
▁Strike
▁ach
▁palpabl
157
channel
▁tailor
Boniface
accrual
▁AECO
▁Coordinator
▁demonstrabl
HILL
expo
▁Aluminum
▁Danforth
▁PSP
121
▁959
▁Apparel
▁Bloom
▁Broadcast
▁audiences
ANTS
AUG
▁4,88
▁739
▁Petition
▁Sanction
▁exploratory
▁4,42
▁FIDELI
▁Ghislain
▁PURSU
▁lodging
▁GPS
▁Kruger
▁803
▁Crawford
▁FundSmar
venant
▁971
▁Holocaust
▁Peel
▁enduring
reasonably
▁RESOLVE
Meadow
▁EMPLOY
▁LIABILITY
▁Meighen
▁frustrating
▁stupid
▁yellow
NEY
OLOG
▁1949
▁Paquette
Synthe
▁Elective
▁Eventual
▁Hundred
▁Rive
▁simpli
Guir
▁3,4
▁4,31
▁416-6
▁Atomic
▁HBC
▁Nestl
Other
▁743
▁922
▁GJ
▁Lafleur
▁Shawinigan
▁revenu
▁774
▁Anticipated
▁STATUTORY
portation
▁EDGAR
▁delinquent
▁irrit
asse
him
▁GAZ
▁adopter
▁jacket
▁18,3
▁Game
▁Indemnity
▁revolve
340
surface
▁783
▁919
▁Enerca
▁allegiance
▁disa
aht
ako
▁Prairies
Appeal
▁924
▁Caldwell
▁Equitabl
▁HEARING
▁trois
putation
▁GBL
▁amateur
▁foreclosure
▁subcontract
▁watershed
-09-30
268
▁Biotechnology
▁EXTEND
▁Planned
▁TRANSACTION
▁Todd
▁shout
265
6-01
PART
iuk
ortho
traditional
▁HKD
▁mamm
▁trac
5,900
Act
ère
▁816
▁Blood
truction
▁ACOA
▁SMALL
▁deplorabl
▁Discrimination
▁Kandahar
▁intervenor
▁Breakdown
▁Glo
▁TRANSMITTAL
data
▁929
▁Crypto
▁HUMAN
▁Valeri
▁Zero
DEV
JM
centre
▁931
▁Lady
ghan
▁914
▁948
▁Glacier
▁Pontiac
▁inaugur
▁prognosi
▁Burundi
▁disruptive
▁reluctance
▁santé
icton
▁Herman
▁risque
RELATING
▁Ouest
▁Remov
▁influent
▁prot
1,49
RANG
▁Implication
▁PROCESS
▁bpd
1,67
lez
▁CMP
▁MULTI
▁devise
▁pat
▁régional
Colonel
▁Airways
▁Barrister
▁arrogance
▁bénéfice
▁unloading
▁Perry
▁Cornwall
▁Lagos
▁MUNICIPAL
▁Container
▁MUST
▁Marcoux
▁calcul
ahan
▁DKK
▁Dragon
▁QF
▁Romanow
1,90
▁Sandra
▁21,7
▁804
▁Campaign
▁RATIO
▁refute
giving
▁Fujian
▁Graphic
▁denunciation
▁paramilita
1,80
ecessit
vier
▁5.875
▁Eye
▁MCQ
▁Valeant
▁uncollectible
XX
▁FFR
▁effluent
▁neurologi
▁Declare
▁Hél
▁Presse
Work
copia
▁OPEB
▁TSA
▁opioid
▁Brexit
▁chequ
ritable
▁818
▁Effort
▁Structural
▁oxygen
▁shovel
▁évaluation
OST
Omnibus
YL
isson
▁Pigeon
▁intensif
eligious
▁ClearPath
▁Salt
▁causal
Minister
cutting
ptions
▁OCC
Foy
▁Definitive
▁Lakeland
▁Lynx
▁STE
▁Spar
▁quant
-392
▁Committe
▁Dain
▁thrill
Confidential
woven
▁Catalyst
▁Château
▁SOLICIT
▁TFI
▁funny
▁headwind
▁penalize
▁signifi
▁Chang
▁bapt
▁Averag
▁Straight
▁convict
▁employés
▁futurs
▁NATURE
▁OPINION
▁Shannon
▁fluctuating
330
cuni
ffe
▁22,2
▁INDUSTRIES
▁LME
▁NYMEX
▁STAPLE
▁STONE
▁assortment
▁retreat
2,17
OCT
▁1956
▁Solidarit
NES
▁Confirm
marriage
▁4,78
▁STREET
▁Staple
▁noble
▁Mohawk
▁NETTOYE
▁Thermal
▁testimonial
ès
▁Dufferin
▁Norwegian
▁mcf
1,10
1,75
6,75
BEC
rai
▁894
▁Kurd
▁Love
habilitation
▁926
▁Kris
▁cottage
▁hallmark
▁interlocut
320
Information
itative
▁741
▁Cove
▁furnace
▁testifie
fraud
▁4,76
▁CLAR
▁DEFICIT
▁LES
▁Lynn
ethodology
▁Brewing
▁Catharines
▁MINES
▁presse
▁spreadsheet
▁Golf
▁Labelle
▁westerly
stitution
▁imperfect
▁resum
MSA
ediagrif
▁Detour
▁ISSUED
▁Lodge
▁brill
VM
▁CHN
▁EPI
▁GOOD
▁SWP
▁Tera
NGX
▁Dimensional
▁bladder
▁imagination
recorded
▁876
▁Directorships
▁diplomat
▁juvenile
▁thread
▁warden
auf
quivalent
▁Alasd
▁Ski
▁simplicit
▁Biotech
▁Defendant
▁layout
▁northerly
▁renegotiation
▁Charlevoix
▁Petite
▁accompli
▁internship
▁southwestern
Moulin
▁826
▁bathroom
▁contrat
▁mmcf
▁strand
▁SEGMENTED
▁Sproul
WELL
officio
▁Erin
▁Spending
▁Welcome
▁Workshop
▁aller
▁peacekeepers
▁901
▁Plazacor
▁examiner
▁geographi
Yves
unification
▁Dynaco
▁Generic
▁jour
roche
▁5,37
▁823
▁Sino
▁humble
RETIREMENT
▁4,72
▁Beverage
▁Downstream
▁Gift
▁INTANGIBLE
ikh
▁BILL
▁carcass
▁chao
▁cultivat
rigg
uro
▁968
▁enrol
KK
▁Garcia
▁Sparrow
▁Spencer
▁Zar
▁clay
Baptiste
IBA
ées
▁798
▁Accident
▁rémunération
disqualification
▁Diage
▁Montrusco
▁Nectar
▁Upstream
▁consultative
▁sincerity
exchange
uba
▁796
▁Lui
▁Serb
▁auxiliary
▁touche
aplan
▁ADMINISTRATION
▁Assad
▁Brasil
▁Darfur
▁Disney
▁RSI
▁Wisconsin
▁Sharpe
▁disent
bag
styr
▁Bonavista
▁Croinor
▁Francine
▁PROFESSION
▁WANTED
▁795
▁Brazeau
▁élément
Appointment
loi
nquiry
▁838
▁Bread
▁Veresen
▁accuse
▁impun
mie
▁784
▁812
▁oncology
Oro
ref
▁BASE
▁Christina
▁Evolution
▁INVESTING
▁KWG
▁differentiation
Equity
▁Correct
▁IMF
▁buffer
▁Strateco
▁cardiovascula
oi
uspice
▁Baytex
▁Hants
▁Martial
▁Polytechni
▁sheriff
▁temporal
built
▁829
▁alphabetical
2,10
CDI
KP
orbeau
▁Mathieu
▁attrition
▁tutor
▁Charro
▁Columb
▁Machinery
▁Train
▁Vein
▁Vachon
▁Vern
▁offens
4-5
LLI
▁Dans
adh
▁882
▁Battleford
▁Marco
▁suppression
MAY
▁17,2
▁Donna
▁EMEA
▁bleach
RAY
TIF
▁18,1
▁411-0
▁751
▁814
▁Barreau
▁Beth
▁EVP
▁Yen
▁Berkshire
▁LEASE
▁MMF
▁carte
Vote
Wealth
▁2048
Blanche
Vacanc
molition
▁Comfort
0,07
lake
près
▁1955
▁grace
POINT
crypt
▁1535
▁PROFIT
Adviser
▁Malone
▁Wacho
▁multimedia
▁soccer
BSK
employer
redi
lio
▁Apo
▁Haldimand
▁OPERATION
▁Peninsula
▁Repair
CASE
▁17,1
▁Emerson
▁Modernization
▁Plu
▁gras
tarlight
uter
▁412-4
▁AHL
▁Lemaire
▁Losier
▁Analytics
▁Annuities
▁Brant
▁Milton
Un
hib
kov
▁21,3
▁758
▁cultivation
▁environ
tooth
▁4,62
▁Bourque
▁VOLUME
▁seront
lief
▁Angle
▁Sandy
▁coli
▁fri
▁421-00
▁Jiang
▁avril
▁compromis
cMillan
▁22,4
▁Matheson
COMMUNICATION
bien
Ï
▁977
▁25,0
▁Beauchesne
▁Massicotte
▁dispers
DEL
▁Calcul
▁4,0
▁mari
▁radioactive
▁suivante
▁Thibault
▁fixe
▁Coastal
▁Friends
people
▁Alamos
▁Hua
▁sécurité
advised
▁CHC
▁CUPE
▁GUIDELINE
▁Lafarge
KIN
▁22,1
▁Baird
▁cabin
▁inst
▁pho
▁tweet
▁921
▁lucrative
eemed
▁Circuit
▁Recruit
▁cardia
ampala
▁Mode
zhou
▁5,38
▁884
▁918
▁Citicorp
▁Scheme
▁MANDAT
▁philosoph
▁transborde
▁Cité
▁Compilation
▁affaires
▁oppression
astlerock
▁Schwartz
▁conscient
0000
Mont
▁794
▁Omni
▁Sunstone
▁prorog
▁Refinery
ecreational
gne
▁886
▁Walk
290
FOLLOWING
▁934
▁ancien
▁intermittent
▁orange
207
pap
▁Revenu
▁Salv
Dubé
Executive
asp
▁923
▁FAM
▁Tea
▁Tomorrow
CSC
VANT
▁reconfirm
▁791
▁Portneuf
▁Sherwood
▁Specialist
▁VIS
▁radar
▁Hang
▁Vit
▁XP
▁Pursu
▁remis
▁région
enco
uadravest
▁5,13
▁Kul
▁Zhu
▁redact
utton
▁Billiton
▁Kidd
▁Memor
PAR
cancell
▁Dawn
▁eBook
▁Homburg
▁MediSolution
▁Spark
▁Abstract
▁Gay
▁Nathan
▁Robi
▁LiONS
▁plausibilit
cout
▁Arbour
▁Beauharnois
▁Connecticut
▁Tourmaline
solicitation
▁Hezbollah
▁Buffalo
▁Kai
▁WAS
▁Gravel
▁Install
▁Marketwire
▁Mirand
chloro
▁889
▁Michaud
▁Montreuil
▁modifier
▁pragmati
▁tackl
UPON
usqu
▁MAIN
▁Massé
▁Slide
▁bat
▁Maryland
▁Tyle
orari
ousse
▁CHA
▁Couture
▁Lazard
▁Santo
assisted
-01-17
ovembre
territorial
xtendicare
▁Aeronautic
▁CanWe
▁Jose
BCCA
▁COMMERCIAL
2,250
▁4,63
▁Palm
▁Yellowhead
▁massacre
7,62
Grâce
▁Argenteuil
▁Dianor
▁Halton
700
▁Canyon
▁Housakos
▁DOCUMENT
▁actu
▁adju
▁doit
▁hind
▁4,57
▁politic
▁1400
▁19,3
▁Nadeau
▁Seattle
▁conf
▁contrepartie
8,47
tina
▁Arce
▁Myron
▁substitut
OMI
▁Buchanan
▁Gallant
1,19
genuity
▁envisage
▁habitu
Ordre
▁Observ
▁Shermag
▁subordination
cale
dominant
▁16,6
▁photocopie
SPECT
bmo
▁Butler
▁Sandhu
▁22,3
▁Davidson
▁Drouin
▁Manuvie
▁Qatar
▁Organiz
▁batterie
▁président
UK
▁ECN
▁INTERNAL
▁Carolyn
▁Yonge
▁patri
▁Facsimile
▁Jerry
▁conserve
▁économique
pente
▁Heather
▁dosage
▁Historic
▁Oklahoma
▁Wasyly
▁abus
▁justifie
▁3465
▁FRONT
▁Fasken
▁tandem
▁Challenger
▁Vaudreuil
RX
emafo
▁Hansen
▁Lipp
8,61
Cloud
cedent
▁BELL
▁Falcon
▁Natcan
▁patron
▁émis
niobium
▁Montana
▁excavation
▁ozone
rner
▁788
▁fu
LQJ
ouk
▁intérêts
Mid
leasing
▁Geologist
▁interception
Greenwood
▁4,66
▁Osborne
▁Pépin
▁Spivak
IRA
▁Doucet
▁Microtec
▁Novartis
astra
émises
▁ALLOCATION
▁ASSU
mètres
will
─
▁Adven
▁ENTIT
▁FVT
▁1952
▁Grover
Colchester
▁25,4
Non
▁CNH
▁LOGi
▁musical
cipro
etanor
partition
▁ARM
▁PDF
▁cadre
▁interrogat
▁837
▁PRESS
hors
▁Charbonneau
▁certi
▁interchange
crest
nsfield
▁divers
▁euthanasi
▁intensifi
▁sec
▁PORT
▁placebo
aero
▁Rona
ndro
éli
Leis
▁1947
▁BROOKFIELD
▁Interlake
209
Go
cart
▁Brunet
▁Spider
▁corrobor
▁sol
≤
3-01
8,14
EMA
▁Canton
▁Hud
▁Laflamme
▁THC
▁adm
Lambert
kmaq
unda
▁Clearwater
▁Spence
▁retrac
▁52-109
▁Meta
▁gloss
HON
anmar
▁ADMINISTRATIVE
▁VMS
-61.1
forme
▁896
▁ACQUISITIONS
BAL
quot
▁CRCD
▁Lundin
▁Majescor
▁bulletin
4-01
oja
▁Tank
▁alienation
0,04
▁Constellation
▁Custody
▁Rowe
▁Shaughnessy
▁Teranet
▁empir
▁22,8
▁Doyon
▁Marsh
▁Santander
▁Simulation
▁Walsh
Immunit
Lamaque
URS
fresh
▁Roberto
▁Wan
▁nouveau
8,32
wyn
▁Argent
▁Scandi
▁assimil
ERG
▁Exel
▁Bak
▁Banque
▁recherche
▁2038
▁5,25
▁Alexa
▁Nixon
▁Chambre
2-01
8,08
LEY
audore
voir
▁NWT
▁FILE
Ho
▁Sentenc
Advantaged
MFL
Patrie
jam
▁APPLICABLE
▁Addendum
▁DISTRIBUTIONS
TEST
rbanimmersive
▁implant
access
representation
▁GATT
▁Grace
▁diab
▁AST
▁Medisys
▁Ramsay
onde
▁Formula
▁HOME
▁compensat
▁microscopi
Care
▁JAMES
Richelieu
ulin
▁INNOVA
▁SOLUTIONS
▁flux
▁Lakeshore
▁Miramichi
▁silicifi
▁vitro
chir
clair
ires
ité
timid
▁Kok
▁confess
tour
▁1948
mitism
oyer
▁4,58
▁APEC
▁sujet
GIM
SOURCES
liti
▁26,0
▁SIGN
▁ACAF
▁Benjamin
▁cri
▁Fletcher
▁approximati
▁influenza
ATA
JOINT
cerie
film
▁806
▁Huang
INGTON
jection
▁Arnold
▁Blackburn
▁Proclamation
▁TEMPLETO
▁Robill
▁16,2
▁Newport
▁Seaway
▁19,7
▁23,5
▁MIDDLEFIELD
unning
▁CFC
▁Elgin
▁LQ
▁chapitre
▁Barrett
Tek
lubri
▁958
▁Camco
▁Tap
▁cyan
▁Ajax
▁comptabilisé
communication
peuvent
▁Caroline
2,750
Boundary
taboli
▁Harm
▁Omar
▁Pech
▁acqui
Canexus
commod
▁023
▁BRIC
▁CONTACT
▁mezzanine
fou
▁Provencher
▁Trilog
▁Champagne
▁IMPORTANT
TAIL
winder
▁notation
▁2044
▁Bahamas
▁Bakken
▁NorthernTel
▁Yang
▁Darre
▁Dialogue
▁Entrepreneur
▁McMaster
▁Defense
▁série
3,250
▁Consol
▁Munro
▁Novik
NK
haven
▁24,7
▁TCI
▁Vertical
▁24,4
▁CCM
▁OMERS
▁Vegas
▁benefi
▁vii
Contin
zel
▁22,6
EVA
NR
ZW
▁reporté
▁ECO
▁Windows
Lac
plication
usement
▁AEG
▁Webinar
▁nettoy
600
america
▁converge
▁rival
ATT
taille
▁CONSI
▁Milk
▁Neufeld
▁compact
▁conception
▁fiction
▁EIPLP
▁stipulation
▁inspir
JSC
▁Weyerhaeuser
▁phosphate
▁plag
respect
▁Daylight
▁consign
tiers
▁17,6
▁Gord
▁Martel
▁croissance
▁général
▁STUD
▁Salmon
▁ministr
postage
traction
▁Cedar
BRIDGE
DX
▁Blanc
▁energ
▁provocation
▁Justin
▁minière
▁trag
ompu
▁Difficult
▁McCain
▁reimburs
▁terrain
▁Gander
▁Hardisty
▁incompatibilit
Appelle
DQG
halla
viable
È
▁1954
▁Lindsay
▁barbar
▁3865
▁DISTRIBU
▁indexation
▁informer
ALTA
▁Berlin
▁Dallas
▁FSC
▁Mainstreet
▁Viol
▁Wynn
06-15
cidiv
-525
Julien
membr
▁5,45
▁Cheryl
▁Horn
7-01
viv
▁010
▁Allison
▁BofA
▁Woodbridge
▁augment
awi
ampton
▁5,48
▁Hearn
▁1600
▁SOUTH
▁McDougall
▁Pep
▁Zurich
▁appro
▁hostilit
▁intensification
▁raison
Box
▁Bellechasse
▁Geophysic
▁Lilly
▁Pascal
▁biodiversit
▁Dalhous
▁McB
▁4,82
▁Carrie
▁Cominco
▁Plastic
▁ruin
▁Gaspésie
▁loca
ché
▁Labatt
▁Ricard
▁multitude
ptilon
▁Devonian
▁Elmwood
▁Exemplar
▁IPSAS
7,47
▁Séguin
ronsac
▁Bourse
▁cadet
▁Éric
gaz
▁Color
▁Dell
▁Exclu
▁appris
▁contempora
▁nationale
Norfolk
cKenzie
▁Embraer
▁MEGA
▁présent
RESEARCH
toile
▁IMPACT
DUCTION
limit
▁957
▁Freewest
▁OPT
▁Odyssey
▁recoup
odium
▁24,8
▁Accessibilit
▁Excellent
▁JEAN
▁Tonnes
Tremblant
exercice
ouvem
▁26,9
▁Clari
▁Fix
▁Oakes
▁Olympia
▁coroner
▁Profound
▁Ranch
▁Shepherd
▁carton
Jacques
James
▁RCM
▁Vanc
▁WGL
MES
cibc
eign
pulse
▁18,4
▁Télé
chel
▁23,9
▁Antonio
▁slogan
III
ndu
▁Fournier
▁Ellis
▁HEC
diorite
ulliden
▁Cummins
▁humour
▁programmes
7000
724
Commerce
pré
▁conformé
▁opérations
▁Doré
▁Guang
▁Gustafs
essor
▁23,8
▁Hutchi
▁Comcast
▁EPCOR
▁tous
▁30,0
▁Palladium
▁Paramount
-203
McCoy
▁Cancor
▁Picture
▁QMI
▁Finlay
▁captur
▁McGraw
fidelity
▁Abdul
▁Gemini
▁Rodriguez
▁expos
acca
▁6,15
▁Châteauguay
▁Genesis
rotherhood
▁6,00
▁982-7
▁Nathalie
▁Newmont
▁Vari
nya
▁Grenad
1-01
léonore
▁25,6
chu
eparation
▁Transformation
▁sporadi
▁succinct
▁011
▁412-5
▁Afri
▁Dog
▁Fraze
▁comptable
▁Statut
▁exercices
cardi
▁Dingwall
▁GSM
▁catégorie
▁certificat
▁constat
▁Hoskin
▁Tecumse
▁Universita
▁MacAulay
▁PARTIE
▁Subco
aï
▁Lawson
EMCO
▁Avis
▁obscur
▁robot
ules
▁Mohammed
▁TML
inski
▁3400
▁NWH
Corruption
beau
contamin
▁25,5
▁COMMUN
▁Iroquois
▁Nouveau
▁Nutrition
▁retard
▁SEE
▁informant
▁quarant
▁Frais
▁Morguard
▁Laura
▁Sagard
▁Wyom
▁riches
chrome
lomb
oire
▁FHR
▁Horse
▁Sanofi
▁actif
▁sou
Stanstead
pshire
▁Ainsworth
Kind
nhance
uka
▁2043
▁CENTRE
▁CHEI
▁progresse
▁terrifi
▁toxicit
▁ven
RDT
▁Hanger
▁Prudential
▁Skype
▁Photograph
▁Rapport
▁installer
▁redistribution
Luc
rison
▁1953
▁Mitsui
▁aucune
▁Palliser
Sébasti
▁IESI
UIT
XQ
immersive
▁Melkior
▁excavat
▁modes
Gel
▁Rico
▁conv
▁pellet
▁reliant
▁reviv
▁18,6
▁Johanne
▁volcano
scab
▁AMR
5937
▁Blu
▁HCA
▁Turk
chec
erflex
▁Lamarre
▁fonction
▁Baxter
▁Bécancour
▁NPI
Arc
jou
▁17,9
▁24,6
▁Courville
▁TRANSPORT
▁Collect
▁instructive
▁stabiliz
Assign
▁Naz
▁20,3
▁Wilkins
▁rehabilitat
1000
Wolfe
urling
▁Brett
▁Crew
▁OPTI
▁arrogant
▁Altamira
▁Resort
1,26
▁Berardi
▁Criterion
MOA
quette
▁compte
▁judici
Montmorency
pdf
▁5,39
▁Atlanta
▁Galla
Goldfields
▁Grenville
▁Norton
▁Sarbanes
▁comm
▁travailleurs
HAL
▁002
▁Puerto
▁mercur
▁23,2
▁6,25
▁24,5
▁Blanchard
▁Easy
▁Lise
▁Lockheed
▁Rocmec
▁Substitute
▁exc
▁faci
CCE
▁19,6
▁20,1
▁Carme
▁française
▁lu
1901
deep
▁004
▁DuPont
▁Fayolle
▁Pharmacy
▁navig
▁quartile
rgex
▁Journey
▁LIFECO
▁Bacon
▁23,6
▁recevoir
▁vérifié
JUL
Muskoka
▁PHARMA
▁Qwest
▁Rothschild
▁font
○
fensive
iens
▁6,05
▁Empress
▁Immigrant
▁Secret
terni
BRI
FAX
iggar
▁Richter
URG
rust
▁1945
▁Consult
▁Dominique
▁GRI
▁Manicouagan
ngage
▁Viking
rix
▁Anchor
▁Aveos
▁arbitrage
▁20,2
▁Lauren
▁Simm
▁collusion
FEB
IBOR
▁Lehman
Lama
▁2,1
▁GGP
▁GOODWILL
▁SUPER
▁Sunrise
▁immuno
▁Crest
▁Stantec
▁affront
▁tourn
▁Combin
▁Extenway
▁Mouvement
▁Reserva
azine
investor
tinu
▁adjo
▁Economist
▁Klein
▁Maison
▁imagin
TABL
▁18,2
▁19,1
▁23,3
▁Gem
▁Suez
▁juillet
▁revenus
Beaudry
gressive
osit
▁Crisis
▁Ergoresearch
▁NWI
arbor
▁KG
▁contrôle
▁discours
▁disponible
▁Securexam
▁motiv
ahl
lui
▁Madawaska
▁RESTRICTION
▁SIM
▁grief
RIM
global
▁1,2
▁Tamp
▁archa
▁asphalt
diac
▁Appel
▁Samira
4,250
cussion
lith
▁Banff
▁Eastmain
▁FirstCaribbean
▁escala
▁prepar
Diefenbaker
TITU
▁Maj
▁VAN
▁illiquidit
▁Dalphond
▁Frum
▁Matagami
▁Rideau
▁19,4
▁ARRANGEMENT
▁Montign
▁NFI
▁transformer
Royal
▁BOMBARDIER
▁Collège
▁Kipawa
▁Rothmans
▁Zimmer
▁album
NET
▁23,7
▁31,5
▁accusation
Busch
iah
▁Olsen
▁bingo
▁flou
2017
▁notori
▁vaccin
isch
▁AXA
▁003
▁Flan
▁SPS
▁STERIZON
▁antenn
▁energie
▁Fiducie
▁gastro
Orient
niste
▁Hassan
▁Yama
▁Imaging
▁Vegreville
Chutes
▁Forbes
▁Minto
▁Pag
information
▁Kenora
▁Lemire
▁22,7
misse
▁Financière
▁MARI
▁Tetra
▁amplifi
Porcupine
YJ
▁Currie
▁Medicare
▁Russel
▁Webb
eme
▁Hldg
▁Nicholson
3-002
▁25,9
▁Hbc
▁PNG
▁Santé
▁financier
▁Cinema
▁Darrel
▁GMAC
▁Loyo
▁comité
-230
cipien
-10-01
prix
vast
ël
▁Lisgar
▁bou
Olivier
▁Bagn
▁CCI
▁Kang
▁Lauzon
▁SCOTIA
HQW
▁5,75
▁Quorum
▁Stoffe
▁Île
▁Beacon
▁Silva
▁payee
▁17,7
▁19,5
▁Dix
▁reconcil
▁statu
67,7
▁Helm
▁PREMI
▁coupons
consolidés
fection
samor
▁affinit
▁iWeb
▁nuance
VILLE
5,250
▁stagn
ophil
▁Advitech
▁Restigouche
-24.2
5,750
NB
uels
▁Chantal
▁Hewlett
▁Lemay
▁Stinson
▁Pierid
▁Proct
▁tent
2-002
ocenor
▁Douay
▁TEAM
▁pyro
ennie
hman
▁Affaires
▁Eglinton
▁Maure
▁Schul
▁24,1
▁Nevs
▁Duhamel
▁XIII
▁Addend
▁BLF
▁CONCERN
▁RRD
1,39
suite
▁Federated
▁dispar
KH
rose
▁Nig
▁augmentation
▁nullit
CHEM
venue
▁Vincor
RTF
▁Fiduciar
▁commandite
dophile
▁grav
gradation
▁005
▁Nokia
▁19,2
iculture
swap
▁PRINCIP
▁moyen
▁temple
André
Imaflex
▁ATTEND
06-30
elestica
lieu
▁MICHAEL
▁PAN
▁Polaris
▁Sloan
▁Welland
WAN
construction
▁Randgold
▁Schroder
▁Ashton
▁MacKenzie
World
rola
▁OneBeacon
▁SAGD
DWLRQ
▁Chatham
▁Hastings
▁Rahim
▁aussi
tient
▁MacLean
▁somme
Ltd
▁communiqué
▁Brome
▁Parex
▁fusion
▁Curtis
▁Dodd
▁Freddi
▁Kansas
▁Nous
▁Statoil
▁oblige
NOR
haran
▁Sidh
▁Triple
▁inclu
Aventi
omni
BRA
fibro
▁Pepsi
▁402-0
▁CONTRIBUTION
▁FRV
▁Savoie
▁syndication
hurst
Î
▁Pond
First
▁Finley
▁cardiolog
▁Ericsson
1,3,
UZ
cali
▁24,9
▁BNY
▁Hanna
▁Nielsen
▁harmoni
martin
▁CanWest
▁Lucie
▁McDaniel
▁Passage
▁ACCI
▁Griffin
▁baseball
Europe
aison
yrtech
IQ
▁Ruby
amba
▁Collaboration
▁INDICAT
WIN
▁Cie
▁Niko
▁Retraite
▁Tennessee
▁inapplicable
▁notre
1,69
Alliance
OLO
ogo
▁CarswellN
▁Cleme
▁HEXO
LAURENT
oux
▁Décar
▁Otish
▁coup
anche
tume
▁Ngo
▁nuisance
▁Whitby
habaab
reign
▁014
▁Nair
▁canal
RCE
inta
▁Jeanne
▁Pedia
▁Textile
Unis
coup
▁Receiv
▁Techno
▁contraction
▁intermodal
acqua
▁PAPE
□
6,750
GRF
▁18,5
▁MAI
▁Witt
▁canadien
tourmaline
▁008
▁McKenna
▁cet
▁estimations
▁identifier
▁obsc
-1402
ACM
satisfaction
▁Duvernay
▁Fait
▁Norte
▁accumul
Hamel
UDI
▁Éole
Transfer
▁MXN
▁PWC
INC
bral
▁007
INSTRUCTIONS
VG
XF
▁013
▁Hilton
▁Nag
▁Sharma
BOT
igi
▁admirabl
▁avai
▁020
▁Bioxel
▁Capri
▁Monde
▁membres
4,750
VY
▁Pharm
▁bizarre
▁Macro
▁TRIBUNAL
▁Fanshaw
▁synonym
graf
▁Cunningham
▁Peso
▁Pino
▁Vermil
Hill
▁Cheese
▁EXCEPT
▁Goodfellow
▁Proportion
▁Stanton
▁Thornhill
▁Bourg
▁Consortium
▁Forget
▁Hog
Date
EUR
observable
shley
▁DHX
▁Perrin
▁conspir
▁hukou
uelle
abine
intoxication
▁ACCESS
RELP
▁Benedett
▁HandySide
▁5,85
▁Broadview
▁Comtois
▁butane
▁gratuit
▁guise
BLE
IOCAN
▁Initiat
▁Magistra
▁XXI
quoi
▁Paquin
▁après
▁moins
pense
▁acquérir
▁gabbro
▁gaz
▁Carrefour
▁MODE
▁CanniMed
▁Parce
▁propositions
▁statut
▁vitamin
eaux
perform
▁Lumenpulse
▁Northumberland
▁hypoth
Anne
Noverco
html
prise
▁021
▁Savoy
8565
▁012
▁PROFIL
▁Simple
▁Verchères
▁mesure
ORGAN
▁corpu
▁diminution
▁MAXXUM
6-002
PIF
▁Schneider
▁colonial
orge
▁Kingsda
▁Toromont
▁abs
Félicien
PRISE
System
▁27,5
▁AlphaDEX
▁Celtic
▁Expo
▁FATCA
▁football
▁ré
▁spectacula
lita
tenable
vice
▁Cormier
▁Learjet
▁patriot
nant
▁ZAR
▁banque
▁fiasco
Possession
calcul
▁Bedford
▁Dolphin
FAR
SCRIPTION
▁Abuja
▁Occu
▁facilit
▁incite
▁sympt
▁thermo
RICT
appa
▁Denver
▁Synchroni
2012
2014
index
▁VAR
Vie
▁Rankin
▁opportun
natur
▁CVP
▁Saks
NUITY
‰
▁009
▁FIGURE
▁unanimit
sorb
▁Automation
andeep
uve
yshyn
▁Bonnie
▁Inlet
▁CaPre
▁Calder
▁Fjord
▁Kab
▁Pauline
▁coins
▁PRODUCT
▁SPI
▁Savage
▁aquati
fugi
▁2013-2014
▁Citoyenneté
▁Concurrenc
▁Deepak
▁Meech
▁guerr
ador
▁Coreco
▁Président
aglan
▁Koma
▁Yellowknife
Duplessis
quip
▁interrogation
Valentin
▁19,9
▁Pratt
▁Propriété
▁Reclass
▁Wagn
▁homog
▁realis
2009-1
CAISSE
ERO
vacuation
▁Bulgari
▁Ouellette
▁proc
PIB
TRUCTUR
ccès
registr
▁Alcoa
▁Hugo
▁toxin
-06-01
Humboldt
▁Clinton
▁Drummondville
▁LaRonde
▁Monster
▁obli
▁Chouinard
▁VAC
▁procur
▁Lachance
▁mobilière
FINITION
Gloucester
migrants
▁Rii
▁pris
▁AMERICA
▁FRANCE
▁Turcotte
▁français
▁nouvelles
computershare
iocre
vapor
▁050
▁Dublin
▁Haye
▁crab
▁exo
bidem
▁20,6
▁AEZS
▁Argentine
▁Gouvernement
▁Stoller
▁fertilit
MBNA
REMUNERATION
exxlink
▁Opto
▁Outfitter
Callidus
WLRQ
▁CONSULT
▁Granby
▁effectué
1410
ARB
concernant
illian
▁PARTICUL
▁Texte
▁acronym
▁iUnits
▁intermédiaire
tuna
▁Concord
▁Dufresne
▁Janus
▁exige
elman
▁Companhia
▁Lavallé
▁Visual
▁règlement
▁Kathle
▁NCA
▁compl
modul
▁19,8
▁Anheuser
▁CONSERVAT
octane
▁Dodge
▁POUR
▁Trilo
▁UNIVERSAL
4000
ONALD
▁2015-2016
▁Gosselin
▁IsoTis
commercial
▁Arar
▁Hyundai
SOURCE
aille
Ô
▁Amos
▁sympathi
Hospitality
POND
▁006
▁Angela
▁Hibernia
▁SmartREIT
2013
nathan
▁Acadia
¬
▁Caledon
▁articul
▁cigar
atrix
hrysotile
▁Alma
▁PWFB
▁Randall
▁dette
▁ASX
▁Catter
▁Devco
5-002
osley
ussi
▁58-201
▁Casgrain
▁Fuji
▁mutil
▁variant
stern
▁interchangeabl
DOMINION
raj
▁Allianz
▁Dutil
▁Graphite
▁SUNCOR
▁Sunny
copi
fait
▁Employ
▁Wool
▁trésor
▁typograph
anaz
▁AICPA
▁Brassar
▁Chek
▁Joha
▁ferro
▁reven
natal
√
▁PPI
Media
SIF
onah
vait
▁Agence
▁Madison
▁Sheppard
▁antic
bourne
▁Hatch
▁Mancha
▁Vior
hydrat
▁réalisé
▁Linden
▁PROVINCE
INES
▁ADOPTION
▁Alarm
▁Voyageur
▁horre
▁Railroad
▁socialist
auto
nze
▁Missouri
▁Nikkei
▁PNC
▁PRESENT
▁Tonk
▁aspir
1135
RIX
gang
tache
▁GCC
▁Matapédia
▁appendice
▁Tidewater
▁dernier
igras
uffle
▁OPPOSITION
▁glac
mackenzie
▁Droit
▁simulat
▁Alithya
▁GlaxoSmithKline
▁PAUL
▁donnée
▁Italia
▁Mohammad
▁Hawkin
▁Immuno
plast
▁Dumas
ANNE
▁Nyst
▁Ramirez
9-002
▁ACTION
▁Seigneurie
▁Arabi
▁PLA
▁Parizeau
▁SoftScan
▁ordinaire
nique
province
udbay
▁Chester
▁aurifère
▁chaque
peau
▁2003-2004
▁Costco
▁Guangzhou
▁MAAX
▁Moldav
▁Koninklijke
▁Leclerc
▁Sécurit
▁civile
▁paternit
-09-19
▁Frederick
▁McLaughlin
▁ROU
▁VIX
▁algorithm
▁invalidit
▁BLACK
▁HAF
Missisquoi
▁Biotechnologie
▁Corona
▁UNESCO
OMME
▁Aquil
▁alpha
leur
▁Tata
▁cumul
Pharma
ymox
̄
▁18,8
▁Arthabaska
▁Evergreen
▁ExxonMobil
▁Paschin
▁bloc
▁interne
▁respon
▁015
▁spiral
▁20,8
▁impôt
fontaine
▁Beatty
▁Vista
▁Westwood
hrai
joint
¶
▁CPG
gure
▁EXCLU
▁InSite
▁Madacy
▁Prestige
▁implore
▁2004-2005
▁Carlos
▁GrowthWorks
▁VoIP
▁Welsh
▁usine
AUR
▁Sauvageau
▁Voyage
arrière
uyer
▁26,5
▁Kapuskasing
▁Renault
▁Vigil
▁antibioti
▁expulsion
posa
▁Monarque
Prescription
▁Boisvenu
▁ancestral
▁perfection
▁skinhead
▁Claudette
▁intranet
8,71
▁Bufete
▁Luki
▁MILES
Ab
Lynne
zyme
▁pledg
▁repro
AIRE
▁Copernican
▁Occasion
▁combatt
▁québécoise
Schreiber
ctivision
▁Dhil
▁Financier
▁analogue
Patriote
SEAMARK
ebercan
gir
▁2016-2017
▁Countrywide
▁Godfrey
▁NHC
▁congestion
▁Bosc
▁Runci
▁Utah
▁18,7
▁Marina
BDO
social
▁Grill
▁Mattel
▁Maxi
▁investissement
▁Vézina
▁habe
OIS
Redwater
▁Alvarez
▁Southam
▁prosecut
▁MTL
▁Whistler
▁chocolat
▁matière
LAVALIN
boit
charme
imco
▁Gundy
▁MONTRÉAL
▁Salomon
▁affli
▁simplification
▁Hollis
▁Organisation
▁Veill
▁Barker
▁Lorus
▁MORNING
▁Pollard
RÉ
▁AMORT
▁QUB
▁nord
▁rectifi
▁rou
▁LEADERS
▁Petroleo
▁Polymer
▁Chalk
▁NuVista
▁Unilever
▁3,0
▁Ogilvie
▁pegmatite
▁sup
POSIT
Robert
WVP
▁Cré
▁loi
EDS
▁Arena
▁fibromyalgi
TEK
▁20,4
▁Heinz
▁Thetford
▁calibre
▁changement
▁PNGTS
▁Plourde
▁Villeneuve
▁Wadd
▁vit
quibb
▁Fabric
▁Silicon
▁Tube
▁coopérati
▁insulin
▁obtenir
Senza
▁Aylmer
▁Blackstone
▁Nfld
▁OU
▁Perm
▁Pierrefonds
-4050
MÉ
▁040
▁Manitoulin
▁descendant
nah
▁Finances
▁LICENCE
▁effet
6000
ELS
arkett
▁adolescent
▁totalis
guer
▁Asbestos
▁FTE
▁Potter
▁Raf
▁Terre
▁incrimina
▁philanthropi
Action
mai
▁Sheridan
askiw
tude
▁Duval
▁gala
▁intelligibl
▁lieutenant
▁Wona
▁animat
▁impasse
Trican
▁Borduas
▁Dubois
▁Penguin
▁agit
▁draconi
éger
▁411-2
▁Goldring
▁Kentucky
▁Raven
▁Verdun
▁FinishMaster
▁Mazarin
▁lors
4-002
gard
roger
▁Annie
▁Novicourt
▁naval
81.19
▁Mercury
▁SRC
▁embryon
iophage
principalement
raint
▁2000-2001
▁Eeyou
▁Lortie
▁WEB
▁codifi
▁responsabilité
▁Sukh
▁Tou
▁Betty
▁Calpin
▁située
▁MDN
▁anecdot
▁Gastem
▁SIGNATURE
▁Sphere
▁viii
▁Berry
▁Econo
▁Gloria
▁Moto
▁NORAD
▁Pinar
▁Rodger
▁Savard
▁016
▁rhyolite
Lumsden
▁Communauté
ZY
▁RICHARD
▁avis
▁tenu
▁Venne
0-002
ieurs
mmunotec
▁BluMont
▁recyclable
Wentworth
▁Booth
▁Uruguay
▁acquiesc
aye
▁Alexandria
▁Freeport
▁Gowling
▁LSEG
▁flagrant
▁roule
06-02
erono
▁Dilawri
▁Starbucks
▁risques
ankCo
▁Kiena
▁20,7
BSH
CWS
FK
temps
̈
▁Crosb
▁Ladn
iocan
▁était
▁Banknorth
▁Beaureg
daltis
étourne
▁Alabama
▁COUPON
▁Swift
anmarc
insi
▁Mitis
▁Furey
▁Quinte
▁projets
Rivière
▁Avalon
▁BlackBerry
▁Cauch
▁QUESTIONS
ISR
Similkameen
èle
▁Canadiens
▁espèce
gestion
vascula
▁Parkinson
▁SURPLUS
▁ScotiaMcLeod
▁Amsterdam
DWOOD
Oxy
Sophie
uir
▁Caribou
▁Dufour
▁LGBT
▁abrog
RRI
opoulos
▁Forzani
POT
▁Pamel
202
3053
▁Azur
▁Rolland
▁Réjean
▁vap
Bas
Témiscouata
▁Associé
▁Crystal
▁GSF
▁Modifi
▁Trenton
▁dissident
Brandywine
CDE
Holding
▁COMPARATIVE
▁Mumbai
Occidental
▁ISIN
▁Jarislowsk
▁Livingston
▁tram
▁20,5
▁Carson
▁Ogilvy
▁Sobey
▁Winston
▁vocal
▁080
▁Tous
▁analys
igner
tinence
▁Lyle
▁Montmagny
▁Proctor
▁Webster
▁silo
Mel
▁Nicaragua
▁concili
7-002
quelle
▁MQM
▁Martha
▁SUPPL
▁sorte
Ivoire
PLUS
phosphor
▁Hogg
▁aucun
▁divergence
▁sandwich
▁spodum
ETS
▁Ivey
▁Loomi
▁Netflix
▁Omega
Lankin
▁Estimation
▁Minh
PACIFI
▁Harri
▁WILLIAM
▁Zhou
▁orchestr
▁prom
Elliot
Exemption
Wearhouse
▁BioSciences
▁GECC
▁10,00
▁CASCADE
▁Environnement
▁prospection
▁017
▁Innergex
▁poker
▁unilingu
montagne
▁Lanark
1407
Geneviève
ascana
▁complexe
▁fum
▁signifie
▁CHUM
▁Elsi
▁dirigeants
▁recharge
▁6,75
▁Farrell
▁Jardin
▁Modifications
▁Novelis
▁artisan
▁telle
Aberdeen
BlueTree
▁Tucker
▁Wetmore
▁anonym
incrimination
▁030
▁majeure
▁procuration
▁reste
▁terres
▁CDNX
▁KIACTA
▁Kearl
▁doctorat
▁suburb
▁échéance
▁Kamoa
▁descend
▁improbabl
▁tableau
Albert
▁Centennial
▁Conestog
▁Guzman
▁Manhattan
▁RBF
▁SBT
▁lou
▁nouvelle
benz
▁Mwana
▁pessimis
heung
trait
▁Clément
▁McGuinty
▁familial
hode
▁Flyer
▁exportation
arga
cules
▁Bonaventure
▁DIRTT
▁McArthur
FORD
▁Karachi
▁bien
Keefe
inestone
▁Algo
▁Oregon
▁urine
Doo
boomer
otide
▁Madagascar
▁Medtronic
▁Rubber
5,625
UEL
reakwater
▁Confront
▁Hoffman
▁WLR
▁consequent
▁investisseurs
gré
ittance
▁Jaguar
▁Trop
▁moyenne
▁COSO
▁Chamberlain
▁Cris
▁Mai
▁Snider
▁illusion
▁marche
▁multidisciplin
REALTY
XYZ
arification
ateur
▁Graph
▁Kumar
▁Norsk
▁Aurion
▁Giroux
▁SES
rière
▁54-101
▁Miami
▁début
▁sept
▁Donoh
▁Lotbinière
voy
▁Cargill
▁UNANIM
▁COMMENT
▁Isaac
▁Monarch
▁Panda
▁paiement
▁sav
▁Angola
▁Arsenault
▁Mississippi
▁inqui
APCo
Abitex
labo
▁Stratos
▁CONSOLID
▁Krev
▁Soci
▁Crevi
▁MESSAGE
verba
▁LCBO
▁Visible
intuiti
kio
moration
où
▁Kru
▁LGBTQ
▁Woo
ILT
MOBILE
neuf
▁Dorothy
▁Limoilou
▁McFarlan
▁Ministr
▁importante
87,7
ambo
bach
▁colorecta
BEAU
Steel
▁Extraction
▁Goodfood
▁HPQ
▁INSTITUTION
9,91
▁Gunn
▁Kathy
wicz
▁Methanex
▁Parc
▁Prentice
▁UNIVERSITA
champ
▁Bolivar
▁Corby
▁Mahovlich
▁YMG
▁certifie
6-02
▁smog
▁Carroll
▁Mercedes
▁OFFICI
▁Produit
▁corps
▁redevance
▁traje
iglio
illard
rivative
▁Temple
sistance
▁Affi
▁Entreprise
▁Hollinger
▁Lacasse
▁profil
▁résumé
Assiniboia
Bourgeois
▁Desjar
▁Therapu
▁insertion
éno
vintiv
▁Chilliwack
oir
▁Hopkins
▁McNeil
▁régionale
famation
▁ROGER
▁SCA
▁Wilfred
▁Willow
▁Cruz
▁Esso
▁Grassland
▁Hernandez
▁Liang
▁LinkedIn
▁Maldonad
▁Média
agami
▁ConocoPhill
▁Tasia
▁ev
ASSE
▁Herbert
▁annuelle
▁culpabilit
▁iPerceptions
▁renseignement
▁supr
nent
pension
▁Alouette
▁Beattie
▁Milltown
▁hydrothermal
▁minimis
▁sauce
1,32
Peace
lligan
▁États
vacu
▁Gamm
▁Réseau
▁Asselin
▁Kimberly
Galaxy
miel
Possibilit
ulvihill
▁GCM
▁Honeywell
▁assemblée
▁fournisseur
Benz
agilit
trocession
▁appli
▁console
▁permett
RANDA
huana
▁OTCQX
05229
dorf
▁Chatters
▁Municipalité
▁boulevard
▁présenté
▁Cascade
▁Grass
clav
ughey
▁Alfonso
▁Ensign
▁volatilit
chlorite
ddington
ssent
▁Bangor
▁Beauséjour
▁Patry
▁abrupt
▁falsifi
▁niveau
▁trop
rnes
▁Beverl
▁Eugen
▁Humber
▁Stephanie
▁Zheng
▁fiscale
▁PLACE
▁Saturn
▁relatif
POSITIONS
cGregor
ienne
uzzi
▁Boomerang
▁Logan
▁journalism
Sud
UHV
▁ESL
▁Lombard
▁Talbot
▁Gould
▁Nichol
▁PETER
▁médecin
▁portrait
▁019
▁Roland
▁Brink
▁Dalton
▁Dieppe
▁EXPRESS
▁manoeuvre
▁salon
▁scolaire
bris
▁Dionne
IPR
ucc
▁ACTIONS
▁MANU
▁Maskinongé
▁Supercentre
▁filiale
Clark
tique
▁Sherman
▁café
OURSE
▁Hammond
▁SPC
▁consensu
▁Guille
▁Jugpal
▁Pomer
▁Tessier
84-96
▁Kimberley
▁bilan
▁octroyée
▁unités
neur
Eustache
ô
▁Trudel
XXXX
icence
▁BioChem
▁Brantford
Groep
LIV
▁018
▁Karakat
▁TransGlob
▁mor
▁québécois
cule
▁Batters
▁brut
▁comptes
egorie
nelle
watt
▁Contramid
▁Pennington
▁Saunders
▁incapacit
▁radiat
Globe
lien
▁Collier
▁Recyclo
▁configur
chon
corruption
positive
▁Arcelor
▁Cushing
▁Telekom
▁corrosion
▁krill
▁stimulation
Brems
▁Brasileiro
▁résultat
RH
▁Marquis
▁SITUATION
▁caribou
▁compens
▁361-0
▁Atlantis
▁Hui
▁Judith
▁chap
▁inscription
chewan
▁DOREL
▁Metco
▁Shirley
▁Volpe
Potvin
ccl
▁Celsi
▁INITIAL
▁Rachel
nigr
pris
▁embargo
▁magistrat
oit
▁Erskine
▁Sauv
▁manifestation
PARA
Sibbeston
▁022
▁39,3
▁MacPherson
▁Puebl
▁solde
combinant
▁Frédéric
▁Brochu
▁colle
▁diversifie
▁présentation
IOL
IQUE
WX
▁Giguère
▁Jessica
▁amylo
▁Ambros
▁Categorie
▁Harrington
▁Kildonan
▁LIR
cipitation
▁Jantzi
▁Kyle
▁Sheldon
Ë
▁50,0
▁Jasper
▁Tracy
▁avoir
gé
▁AESO
▁CHOI
▁Gérald
▁Omid
▁Stearns
▁Vaillancourt
▁Velvet
NeuroBioPharm
licat
▁Andersen
▁Examiner
▁animation
iii
ogibec
onge
éré
▁Castro
▁Hoare
▁Laboratoire
▁Sutherland
logie
▁Ancaster
▁Pré
▁Sabia
▁accréditive
Russell
Érable
▁024
▁Nationale
Stone
otsik
▁Adrian
▁Alphabet
▁Tellier
▁Vezza
▁durée
▁internationale
▁vérification
Juan
esverlogix
▁372-0
▁Accent
▁Domco
▁Innisf
firm
▁Belgi
▁Enviro
▁Svend
▁Tamarack
▁augmente
SureFire
UNION
utile
▁Alcock
▁Lopez
☐
nou
▁Sûreté
▁Telefonica
Denis
▁Alban
▁Fleming
▁capsule
▁kraft
▁tuberculos
¿
▁Ahuntsic
▁Context
▁Tenu
▁axe
▁Devon
▁alternati
▁potas
▁Métropolitain
▁Timiskaming
▁Trevor
▁potentiel
▁Anticosti
▁GCIC
Destor
eadowbank
▁CFP
▁contre
▁façon
▁kilowatt
1,79
▁Kellogg
conque
▁DIFF
▁prêt
aines
▁fou
halkos
▁37,5
▁Habitat
Limit
eres
▁CLIENT
▁Cathy
▁Desrocher
▁Développement
aquet
carbonate
venir
▁Delphi
▁impuls
1029.8.36.
▁Gaudreau
▁QuantShare
▁ZONE
Blackmont
▁ECM
▁cadastr
▁nécessaire
lande
oulange
▁AldeaVis
▁UNE
▁conseiller
▁socia
Haliburton
▁27,7
▁EXPERTS
▁Gilmour
▁Nacional
▁Partie
▁RH
▁cathode
CEE
▁cocktail
▁granul
▁Buzzard
▁Dolbeau
▁Occel
▁Salle
▁critique
▁encaisse
CANACCORD
McCormick
▁Chaqu
▁Gurman
▁IMR
▁Mauricie
▁Monsanto
ORIE
eposit
tai
tandis
ÉT
▁Kindersley
▁UAR
▁vu
▁1,5
▁Chalifou
▁Célin
▁Multiplier
thanol
▁Alphinat
▁NMG
▁Turp
dier
geons
gnon
niable
▁Nextel
▁altercation
▁disput
▁première
DAS
Refus
visible
▁ficti
▁personnes
ciprocit
▁Marcott
▁galvani
▁Lalibert
▁SearchGold
Islet
▁Kohl
▁associ
▁transcend
▁Peggy
▁RELATIONS
▁Schlum
▁immoral
VOUS
distribution
▁ALLIANCE
▁Indi
Thérèse
▁COMPOSITION
▁triparti
▁vend
Xplore
▁Antamina
▁Stéphan
▁FAC
▁TERRITO
▁divergen
▁rab
▁070
Aurèle
Chilcot
igna
▁DeWa
▁pulmon
▁succ
vec
▁Amherst
▁ImmunoCyt
▁Laframboise
▁archiv
ileen
▁objectif
lstrom
▁OBT
▁approbation
IENT
qualifi
▁vérificateur
▁indispensable
tôt
êne
▁Merrifield
▁Obje
▁Pélade
▁extinction
▁relev
▁Maxwell
▁exigible
▁longitudinal
▁miracle
Bujold
arna
▁Charlton
▁Perte
▁sociale
▁Attawapiskat
▁MOBI
ayden
cessible
onze
▁HISTORI
▁DÉ
▁accession
▁Anjou
▁Caccia
▁polyester
NEL
▁28,8
▁infini
▁Centrale
▁focal
▁Étude
dimension
ranger
▁090
▁teneur
hawk
61-501
▁Intrawest
▁SCM
▁instinct
▁représente
▁soup
▁vain
▁égard
▁Technique
▁communist
irement
▁Marque
▁infirm
▁060
▁dise
▁HYDRO
▁deriv
▁naturelle
▁Chef
1,86
occupation
▁indign
▁pneu
▁échantillon
▁CONSTRUCTION
▁agglom
gatonne
MSI
SST
Quévillon
TTE
quer
▁Appendic
▁SOCIÉTÉ
▁paclitaxel
Jérôme
▁assassin
▁avons
▁comptabilisée
▁distraction
▁garantie
clips
durant
▁cycli
▁BCT
▁INTENTION
▁Verte
▁improvis
généraux
président
▁025
▁arbitr
▁schist
Fortin
ITÉ
▁TYPE
▁liquidité
quent
▁Bien
HUV
inuit
▁RTA
▁procédure
istes
▁manifeste
Champ
auche
vocabl
▁INTERNET
▁bitcoin
▁lorsqu
▁échéant
▁29,8
▁clôture
▁kimberliti
otyp
▁Compos
▁ENGAGEMENT
▁actuelle
▁diverge
▁institut
▁intim
▁prévu
onfl
▁COLLECTI
▁Radiation
ÉE
▁Choi
▁Socie
ÉR
▁Sans
UW
▁Minière
▁signé
▁vie
▁fournir
▁hors
USION
▁055
▁instigat
▁locale
▁monopol
ission
‒
▁Analyse
▁distribu
▁famille
▁ils
▁sperm
▁uniformit
nostic
▁figur
ACCORD
IEN
pugn
▁mais
▁Financement
▁Maroc
▁latent
▁prestation
cassette
magog
chez
▁Certe
▁exon
▁vandalis
▁CIVIL
▁ayant
▁capitalisation
▁producteur
▁propres
▁Bons
▁situé
OGRAPHI
equence
▁ASSURANCE
▁rendement
romp
▁CERTIFICAT
▁antidiluti
▁faite
▁CAA
▁liquidat
euil
▁Limitée
reuse
▁ACTIVIT
▁subside
▁Ceci
▁Impression
▁Relation
▁hypertension
▁modèle
▁permanenc
▁soci
ermiss
illé
▁dispersion
▁dorm
▁rentable
▁transporter
ACL
▁027
EES
▁Assur
▁033
▁Entre
▁av
▁pré
▁determin
▁foi
▁multifamil
RIER
lange
▁agricole
▁unité
▁FPI
▁baux
▁immobilisations
▁deuxième
▁indivis
mment
▁lui
Georges
content
▁accent
▁cellulose
▁déficit
â
▁salu
‚
▁inclus
Ouest
réal
▁fut
donc
▁attribut
▁Boutique
▁vigu
lissa
▁SCP
▁honoraires
▁système
▁offre
▁recommenc
▁étan
▁devrai
GARD
▁CONVERSION
▁Laplante
née
orale
▁pourrait
▁pouvoir
▁suppl
ieux
▁tribut
luvial
▁091
▁fois
▁supplémentaire
ergent
laboration
▁dissolv
▁gouvernement
emun
jardin
▁Parl
▁principe
▁remar
▁retraite
▁équivalent
▁conjecture
▁détenteur
▁sud
▁Générale
▁Messi
bond
oduc
▁turbulence
▁045
▁Lieu
▁incoh
▁Énergie
ECG
Solution
vez
niers
▁JURI
elles
▁certaine
▁ensemble
▁simplifie
▁superficie
nement
▁mé
▁conclu
▁028
▁détenu
geant
taqu
marche
▁Mme
entraide
latin
▁FINANCIERS
▁Nouvelle
▁qualité
7,375
ouill
▁NOC
▁minier
▁035
bain
▁062
▁usurp
▁Cet
▁Congr
▁Informatique
▁catastrophes
concert
igno
ouple
▁029
▁dissim
▁exorbitant
▁trè
▁Situ
▁compter
▁masse
▁immobilier
▁067
▁Jury
▁humid
ALEN
avr
gorge
│
▁paiements
▁élection
lanc
▁cession
▁jeunesse
▁levé
▁étude
assemble
▁ado
▁veuil
arlene
▁041
▁075
fois
lucid
▁constituée
▁047
▁atmosph
▁prévue
nière
▁TERMINÉ
othérapeute
▁Comptabilit
▁bout
▁politique
après
▁conforme
▁transcription
▁Solde
▁rectification
existence
▁Boulanger
▁STATUT
▁053
▁ministère
▁078
▁raf
▁redistribu
▁chemin
▁repo
ordial
▁Jama
▁gisement
▁minim
▁impossibilit
▁servitude
▁compose
▁recommandation
▁038
▁Génér
▁Hôpita
▁comprend
appelant
consult
evrier
moi
▁036
▁CUMUL
DVA
▁correspondent
▁diz
▁neuf
▁nov
▁Autre
▁052
▁explorer
OCIATION
ôme
▁042
▁Exploitation
▁complété
▁payé
FPC
▁agi
naire
▁FAI
▁paradox
dissoci
▁Oui
▁Trou
Comptables
Fields
finition
▁Hier
6,125
ANR
habite
▁Fabrication
iques
▁chronologi
▁immersi
▁traitement
0,125
personnel
̨
▁026
▁devra
▁liés
▁seule
TIER
rayer
éni
▁074
▁vigour
7,125
héri
▁Frère
▁audaci
▁établi
▁foll
▁ingénieurs
ignant
rame
▁Quo
▁formidabl
▁modalit
▁prion
▁sondage
offre
▁Bonne
▁sacrifi
▁Energie
▁Chemin
▁dict
▁principale
▁38,8
▁CEI
Centre
afou
cluant
évaluation
▁QUE
▁tard
filtr
¡
élan
▁retran
tienne
éro
ulent
▁cible
→
▁FONDS
▁OPC
▁assemblage
▁propulsion
▁spectacle
▁044
▁071
▁LOI
▁pens
▁hier
▁quotient
apte
▁climat
▁donné
▁débenture
▁haute
▁particip
▁plaque
▁portefeuille
▁vendetta
ifier
▁Impôt
▁RPC
▁graves
▁levée
lèche
▁068
▁Projet
▁majorit
compens
oeil
▁031
▁doive
▁radiologi
nels
ninsul
▁032
▁Bravo
SOLUTION
▁utilisation
UAD
▁APPEL
▁publiques
ISSANCE
▁adopté
▁nutriti
tout
▁Tél
▁aluminium
rapeau
▁Cote
▁Georg
▁Meilleur
▁partenaire
bord
▁Supervis
▁amass
▁minerai
Obligation
PROPRI
▁056
▁FORMATION
▁bancaire
▁pouvant
✓
vage
▁aura
▁liée
CNA
chant
être
▁actionnaire
▁automatis
TENTION
ë
▁043
▁061
▁CONSTITU
▁parl
▁portant
▁Toute
▁bras
▁confiscation
RQW
▁Investissements
▁PATRI
▁049
▁présentée
▁069
▁DIRECTION
▁DISCR
▁contestation
glis
▁prévoi
▁équipement
▁077
▁hypothèse
▁suicid
globe
▁094
▁PK
▁calc
▁oct
▁034
▁083
▁Capita
▁Kow
▁urbaine
faste
▁extrajudicia
▁utilisé
▁Surveillance
▁inconv
▁ridicule
gène
provenant
umes
▁utilise
ACTIONS
▁Procureur
▁potable
CV
encore
▁054
▁MARS
▁046
▁pendant
▁pistol
achar
quez
▁SOCI
▁carc
7,625
HPHQW
▁073
▁campagne
▁pondérée
▁076
▁grande
▁trou
▁étai
onnement
▁048
▁AUX
▁émettr
PLM
è
▁hypotheses
▁Mois
▁autorité
▁065
▁Crédit
▁déjà
▁valo
▁volumi
atif
ÉRO
VOCATION
capitul
AUX
ambul
▁063
▁maintenan
▁rachat
alais
▁066
▁Exercice
▁Marché
▁reconnu
Les
ébé
▁biens
▁durabilit
▁envoy
▁instantan
quisition
▁Canadien
▁reçu
▁072
▁Fusion
▁liste
CSF
OMC
▁assurer
▁strategi
parquet
prendre
▁085
▁086
▁CRT
▁prochain
▁GROUPE
▁CNC
▁UAP
▁dissip
▁temporaire
▁059
▁entité
▁solidifi
▁INITIAT
▁Jour
▁découlant
▁Vend
▁maladie
▁pourraien
VOI
▁COMPTABLES
▁Nombre
▁argent
▁chiffre
▁allo
▁maximal
▁reportée
ENNE
▁forme
asile
ulaire
ÉP
▁058
▁avantage
▁membre
ographie
▁051
▁viol
bran
iran
▁Indication
▁Selo
▁dispenser
▁engagé
▁verse
▁087
ommercialisation
▁LIQUID
▁aptitude
▁capacité
▁faun
alise
licite
▁039
▁Annexe
▁courtiers
▁evalu
▁territoire
Dépôt
LAI
oise
▁bovin
▁ceux
▁excus
vastat
▁hausse
▁milieu
ièvre
médi
▁totale
acé
chute
▁088
▁Rég
▁appel
▁venge
▁adulte
▁mur
▁régimes
lisa
▁america
▁topographi
▁conserv
Prince
inqu
▁Bénéfice
▁utilisée
▁Édition
TACH
vah
érique
▁cou
▁dû
▁muscul
oscopi
▁dernière
▁082
compte
omme
épine
▁092
▁PARTICIPATION
▁Régime
▁coloni
▁confection
▁courte
▁paralys
▁évalué
ième
▁intermedi
▁tacit
▁037
▁RDI
▁choi
▁juridique
faire
lague
▁comport
▁comptabilis
▁convertibles
16,00
Brunswick
▁Valeur
rouille
▁comprenn
▁effectuer
▁langue
▁précédent
OIT
▁Aéroport
▁cinq
▁equilibr
▁représentant
ateurs
ât
▁081
▁Travail
▁commande
▁devi
▁directeur
▁incarn
UNE
▁Région
▁lois
▁avance
▁remboursable
▁découverte
▁084
▁RÉ
▁déduction
▁quatre
▁095
▁philosophie
▁porteur
ologue
HVW
amour
ÈRE
î
▁camouflage
▁canton
SFC
quill
éma
▁096
▁celle
▁comit
▁déclaration
▁minéralisation
élé
▁079
▁verte
RER
▁doré
▁hydrologi
▁relat
IRES
Ê
▁utilis
dien
▁Intimé
▁comptabilit
▁exercé
▁géologique
▁reformul
▁transplantation
▁ventil
IERS
POINTS
▁opération
▁ravag
▁transatlanti
exploitation
▁consolid
▁obtenu
ASF
nocide
▁Période
▁reel
▁Norme
▁consommateur
imé
▁pornographi
ANDE
coeur
ouv
▁objet
▁scepti
▁089
▁raisonnable
▁versement
ouille
▁conservat
▁mains
▁municipale
largement
▁besoin
▁détaille
opter
▁coefficient
▁regroup
▁réalisation
mais
spectat
▁093
▁Parmi
▁VOTER
▁0,00
▁abstention
▁déterminé
▁refil
▁reunion
amende
▁celles
▁minérale
▁passé
étal
▁dissuad
▁fondé
▁057
▁amortissement
▁abattoir
▁environnement
issez
vasion
▁Haut
▁additionnel
▁donne
▁occup
ça
▁BLC
▁INDICE
▁NORD
▁VARIATION
▁appelant
▁baisse
▁suc
lesse
poursuivre
ABLES
partir
▁MODIFICATION
▁QUESTION
▁estim
▁spectre
cipation
jacent
normal
▁Constru
▁immobilière
¤
▁infirmière
̧
▁100,0
▁Dépôt
▁Sous
▁canadiens
▁redev
panier
▁1,4
▁Ils
urisprudence
▁CII
▁débiteur
▁Mention
▁QUANT
ditorial
éné
▁fame
exigences
▁097
▁Suppos
▁attribuable
▁isol
▁organisme
▁vue
▁CND
resser
▁Aliment
▁Amérique
obilière
sud
touff
▁administr
▁pathologi
20,00
ffert
▁infirmier
▁paragraphe
CRT
fiance
tendanc
▁PBR
▁QUI
▁pratique
0,7
quation
▁098
▁FRP
▁Royale
opéra
▁099
▁liass
VENTION
▁contrôlée
▁elles
▁trous
▁Recherche
▁futur
▁prise
▁stratégique
dame
ressource
▁discord
▁fédéral
scission
▁Français
▁francophonie
¥
▁comt
▁écart
▁énoncé
ACHE
Disposition
▁clandestine
▁espion
▁octroi
▁permet
corporelles
emption
▁Catégorie
▁FRAIS
▁contribu
▁purg
▁transfert
▁établie
▁ENTRE
▁approuvé
haleur
▁consigne
brun
erai
▁élevé
LECTION
iels
Â
▁adresse
UME
▁ICCA
▁bande
▁détenue
▁Inclu
▁optimis
SCEP
▁exemplaire
▁porteurs
▁supérieur
▁encouru
▁Hôtel
▁Restructur
▁combustible
▁effectuée
▁règle
CVM
▁MINIST
▁désigné
melior
▁TRÉSOR
▁réservés
TTP
RIE
Rouge
▁importants
▁joi
▁octroyé
▁Reine
▁champ
▁enregistré
▁géophysique
antes
▁celui
▁rupture
▁stricte
apper
▁Cela
▁DIVERS
▁MMP
▁Typho
▁beau
▁facteur
▁manuel
▁troisième
ucier
▁école
▁additionnelle
▁obst
eille
▁COMPOS
▁condens
rrière
▁LOCATION
▁Tout
▁Vous
▁exécutif
▁Flux
▁Poste
▁IMPÔT
▁apparentée
▁déposé
▁poign
▁PERSONNEL
▁refle
pain
▁PROPRIÉTÉ
▁SOU
▁roche
▁réunion
▁Paiement
▁rares
▁stratégie
▁termin
GROUP
▁Autoroute
adeau
▁Somme
▁lord
▁énergie
▁commerciale
▁juge
udes
▁propag
▁équipe
Indemnit
WICK
tenir
▁notam
lage
ssin
▁Investi
▁dynamism
▁effectu
▁relié
DQW
cré
▁alcool
▁externe
dérivés
▁emprunt
▁réseau
ugmentation
▁CONVENTION
▁VERS
▁assum
▁secrétaire
▁établissement
ateriel
▁MINIÈRE
▁hydr
auge
ivale
▁convocation
▁prim
▁versé
▁0,15
▁Directeur
EURS
▁Industriel
▁compt
▁mettr
▁réduire
Communication
▁stipul
accord
affirm
sident
▁MOIS
▁PÉRIODE
▁dentaire
▁ordre
▁possède
▁rachetable
oudre
▁créditeurs
▁pirat
▁0,10
▁Protég
▁contour
▁diamant
▁véhicule
▁avion
▁immeuble
▁métropolitaine
▁profondeur
EFP
▁sein
ACI
vient
▁Deux
▁accentu
fectu
▁administratif
▁procédé
▁wagon
AII
▁CPN
▁Carne
▁Téléphone
▁monétaire
▁travers
▁perplexe
ardeau
crite
opie
ouest
▁prestige
▁Avant
▁composée
▁illustr
▁réserve
ndre
terrain
▁Actif
▁augmenté
▁genre
▁ponder
▁0,01
▁Industrie
▁blanche
▁dividendes
▁études
parents
▁CONVENTIONS
▁composé
▁fav
▁plac
▁Représent
▁défaut
36,00
Ü
▁Carte
▁jurisprudenti
iqu
ÔT
▁Mandat
▁multiplic
▁plateau
▁pondéré
visant
▁assassinat
▁gouvernementale
▁pai
▁technologie
Document
▁commis
▁décrit
▁modalité
▁payée
▁porte
▁principa
diffus
▁catholique
▁gîte
▁résume
▁étendu
▁bombard
▁ententes
▁historique
ibliothèque
▁communauté
▁souscrir
▁vitae
remont
▁Appar
▁Dane
▁accréditif
boni
emme
▁1,6
▁Nota
▁courtier
▁ÉTATS
tendre
▁Haus
▁PARTS
▁quart
40,00
uvre
▁Bruxelles
abilité
élè
▁responsable
gligence
primer
▁Territoire
▁exacer
▁masculin
▁pand
goslav
transige
▁1,3
▁CANDIDAT
▁créance
▁fiducie
erré
▁bâtiment
▁concord
▁consid
▁réduction
Audience
▁rend
▁communautaire
▁conjug
▁couch
brations
▁Rémunération
▁calculée
▁remboursement
arros
ète
▁BAI
▁Monsieur
▁contien
▁innoc
forêt
▁Assemblée
▁PMA
▁monde
▁reconstitution
▁échantillonnage
▁Mexi
▁PPC
▁détail
fond
ppant
œur
▁Système
▁conséquence
▁spont
-02-202
semblance
▁exerçable
▁hospitali
▁veine
GESTION
▁Agréé
▁accrédité
▁anglais
▁exclu
▁exercées
oins
egard
▁ardu
▁cotisation
▁ouest
atoire
install
▁Concentr
▁informatique
▁limite
▁processu
douce
filiation
oît
autour
cras
lles
▁acquise
▁existent
▁impatient
▁réserves
▁réservée
garde
nui
oïs
▁couvr
▁engagée
▁présence
▁senti
▲
espèce
▁fille
▁illimité
▁regrette
rons
▁CCN
▁autorisé
▁superflu
été
▁menace
▁économie
colonel
double
▁Avance
▁neutr
vigno
▁Activité
▁Exerc
▁dirigeant
▁numéro
▁publié
▁sensibilit
▁servi
▁élève
JET
issance
▁calculé
▁industriel
▁inscrite
▁porc
odeur
ï
▁GPT
▁TPS
▁excell
vingt
▁Respons
▁privilégiée
▁rive
▁SANCTION
▁classé
ccabl
▁décrite
juste
▁prochaine
▁vendeur
▁estimée
▁révision
▁Durant
▁contrari
▁diff
▁garanti
▁initiale
▁mondiale
▁trienn
auquel
avenir
éton
▁HONO
▁TERMIN
▁associés
▁consiste
▁exhausti
▁propriétaire
▁réglementation
▁tenue
dessous
duit
▁Intérêt
romenade
▁Tableau
▁avocat
totalit
veu
▁comptant
▁concomitant
▁ligne
▁suspens
▁traverse
▁billet
▁forestier
amée
nkai
▁pacifi
▁consentement
▁investi
SMO
▁BÉNÉFICE
▁SFP
▁ameliorati
▁manière
▁organise
loche
▁Musé
▁Voy
▁agricoles
▁différent
▁différé
▁lumin
▁Majest
▁essay
▁marin
▁réglementaire
▁significative
▁Financiers
▁centralis
▁Motif
▁clos
▁pourra
entreprise
▁Décision
▁sang
lutter
▁Eh
▁conséquent
▁expropri
▁placer
▁rivière
FCP
ussière
▁chez
▁egr
▁Équipement
élai
▁Contre
▁Phénix
▁Portefeuille
▁densit
▁défense
▁ouvert
▁pouv
▁texte
rédi
▁heures
▁reli
▁Administrateur
ALES
ATIF
citation
tablissement
▁Chez
▁lettre
▁matériel
chacune
▁SUITE
▁fixation
▁bonne
▁courus
▁demi
▁particulier
▁savoir
▁scrup
▁PREMIER
▁Serie
▁domaine
▁forte
onformément
œuvre
▁Attribution
▁Emploi
▁PCGR
▁particulière
▁évaluer
pillage
▁FON
▁PROMOT
▁identifi
▁pivot
▁privée
ières
patite
talité
▁échange
Appel
fédération
▁Amortissement
▁Environ
▁codification
▁réaliser
▁étape
futabl
▁CONSTITUTION
▁exposition
▁prépar
disposition
ologne
▁Loyer
▁appos
▁diluée
BNC
mère
▁Parcs
▁Perspectives
▁obligatoire
▁rouge
▁supposition
eserve
▁partialit
56,00
rogative
▁requis
▁sexe
▁siège
▁voie
▁CORPOR
▁chacun
▁diversifi
▁préparé
▁resili
isseur
▁appropri
▁banc
▁ech
▁vise
▁Émission
▁Coût
▁assujettie
▁candidat
▁sujette
▁vos
euve
fler
▁CONSEIL
▁Tant
▁activité
▁Britann
▁américain
▁approximative
▁compli
▁eli
▁logement
▁peu
▁réalisée
▁récupération
▁salarié
▁verser
▁écrit
manche
élévision
amie
emploi
▁acadienne
▁cache
▁connaissance
▁disciplin
reint
▁OPÉRATION
▁couche
▁demeure
▁déterminer
▁esp
▁Éli
espérance
ultiv
▁Mise
▁réfugiés
▁TSS
▁attribuée
▁conjoint
▁indépendant
▁permettr
▁uniforme
Idem
LANTS
succès
térêt
▁CONSO
▁employé
▁respectivement
LÉ
emagne
fonds
uéri
▁0,5
érie
▁Immeuble
▁Regroupement
▁conseillère
▁poursuite
centile
parav
uite
▁FÉDÉRA
▁tester
▁événement
lauréat
mètre
éche
▁obtention
▁résolution
▁1,1
▁qualifier
dessu
rosion
▁Pren
▁intervenant
▁suppos
ourbe
▁LMC
▁Regard
▁géologue
rices
simil
▁Déc
▁RAPPORT
▁géo
▁0,25
▁FERR
difice
rement
veillé
▁capitalisé
▁conclue
▁industrielle
▁rentes
verbal
▁PME
▁autorisation
▁homolog
▁mutation
termine
ulman
▁auditeur
▁circulaire
▁enfant
▁essai
▁fais
▁indice
pensa
▁bourse
▁indique
▁propagation
▁rubrique
▁réel
▁Dépense
▁Série
▁ratifi
Depuis
TOUS
hygiéniste
▁cube
▁nominale
GNE
cisive
▁Apport
▁dépend
▁favorit
▁remun
TÉE
exactitude
▁Méta
▁imposable
▁incluent
▁lignes
▁Algérie
▁concentré
35,00
VUE
ultimédia
▁Demande
▁puisqu
▁technicien
isme
lancer
oeuf
▁Opération
▁cosm
loge
▁Optimis
▁Péri
▁REVENU
▁ailleurs
▁commune
▁dessert
▁explique
▁sollicit
▁soussigné
▁supérieure
iversité
écu
▁25,00
▁Guerre
▁Immobilier
▁informati
AAE
aumon
▁Canadienne
▁Constitu
▁culturelle
▁pont
ifère
▁Pays
▁augmenter
▁déterminée
▁industrie
▁sac
▁Garde
▁gravit
▁insens
cadémi
jab
▁PROSPECTI
▁Télécopie
▁bois
▁bombe
▁femmes
epos
onnaissance
̃
▁Technologie
▁adminis
▁aliment
▁annonce
▁arthro
▁correctionnel
▁emploi
▁employeur
▁financer
feuille
fication
umier
▁attire
▁cuivre
▁voici
investissement
mêlé
suscit
tue
▁constaté
actif
atique
enfant
nés
▁FPA
▁arpenteur
▁effectif
▁ladite
▁pied
vais
▁CRH
▁Domaine
▁autoroute
▁incr
▁preuve
▁étrangère
ouches
▁0,1
▁ACTIVITÉS
▁accou
▁construi
▁jugement
▁subti
▁étage
efs
onnette
triche
Ù
▁précédente
▁suivi
▁universitaire
fonte
▁Ingénie
▁Pêche
▁psychiatr
EUX
OHV
▁Conception
▁paradis
JSF
gère
▁2,0
▁Voir
▁commerciales
▁militaire
ailles
▁BONS
▁RIA
▁parti
▁sommaire
▁Billet
▁entend
▁marque
UNIS
conservat
glet
û
▁0,02
▁0,20
▁Titre
▁différente
▁inadvert
▁petite
▁regi
▁toujour
aujourd
environnementale
▁Aucune
▁Résultats
▁constitue
▁différence
▁procès
▁syri
▁RÉSULTATS
▁humaine
▁prospectif
▁résultant
▁subi
-05-202
NELS
nua
▁CONTRE
▁Donner
▁Oppos
▁Pacifi
major
▁ACHAT
▁MOND
▁budg
▁ferme
▁fondée
▁marchande
▁modifi
dès
▁actuel
▁mouvement
▁perfectionne
▁rayon
▁afférente
▁annoncé
▁inculp
▁maison
▁référence
▁ville
60,00
chaud
ifique
oncologi
▁EXERC
▁attribué
▁composer
▁compétence
▁maximis
issant
ésie
▁merci
AMEN
limentation
voix
▁atteint
▁consul
▁eau
▁grippe
▁métropolitain
▁scientifique
ê
▁0,30
▁consolidé
▁diffusion
[...]
