▁	81558797
s	58798822
▁de	53369973
▁,	33253576
▁.	31141421
'	25690134
▁la	23737746
’	19976583
▁à	17903236
▁des	17681385
▁et	17446846
▁l	16742913
▁le	16133762
▁d	15994191
▁les	13913005
▁du	11184204
▁en	10643795
▁a	10507467
▁au	8104108
e	7699066
▁que	7430683
▁un	7077093
▁est	6945447
▁une	6760823
▁pour	6419761
)	6047599
-	5970632
(	5679947
▁par	5559859
▁dans	5411121
ment	5177900
▁qui	5000399
.	4912792
▁sur	4852188
é	4438645
▁aux	4161893
▁Le	3946917
▁pas	3901347
▁ou	3618618
▁qu	3579335
▁il	3560131
$	3422629
▁n	3178551
▁sont	3159152
t	3082013
:	3022929
▁ce	2994485
▁Les	2994479
▁ne	2920847
er	2872918
ent	2677190
▁La	2672595
▁ont	2548183
%	2529888
▁été	2520036
▁plus	2518206
r	2240821
▁L	2157741
ant	2152406
▁Canada	2122285
́	2109181
▁C	2103970
▁se	2055517
▁1	2045023
;	1966964
▁son	1901240
▁nous	1870900
»	1782506
▁c	1776161
nt	1730948
▁actions	1725366
▁leur	1697362
«	1683200
avec	1660982
▁être	1638324
▁Fonds	1617631
▁Il	1555873
▁M	1536067
▁dé	1516980
es	1490081
ait	1480212
▁fait	1474848
▁ses	1465116
cette	1441654
ux	1439923
▁sa	1431966
▁ces	1430425
▁appelant	1368307
▁Société	1358297
▁autres	1301217
▁31	1299769
▁y	1280988
▁elle	1278751
▁cours	1239037
▁A	1222240
▁valeur	1215091
▁En	1211306
▁2	1196981
re	1186444
▁gouvernement	1100316
▁comme	1098866
▁terme	1064651
▁millions	1064060
▁peut	1063571
▁dollars	1062029
▁société	1047775
▁produit	1045146
▁était	1010765
▁non	1004845
/	999116
▁rapport	993289
▁loi	990800
▁exercice	990337
ons	986829
▁000	977783
▁période	977111
▁fonds	974906
a	971840
▁si	969879
▁titres	952073
vait	944644
▁3	943612
▁je	925220
cembre	914880
▁30	904346
▁financiers	883875
▁frais	880875
▁trimestre	879309
S	869833
▁Je	858630
▁date	853910
x	853729
▁rendement	847461
▁sous	843605
▁Nous	842854
▁parts	836544
▁ils	836454
▁placement	831567
▁toute	831218
▁même	827224
▁projet	816721
▁faire	804875
taux	803050
▁conseil	799030
▁mesure	797360
–	794663
▁soit	794000
ation	786316
▁demande	785231
▁Au	782254
activités	776968
▁entre	775389
▁année	770496
▁notre	768554
▁marché	755172
▁on	754319
▁série	751856
▁mais	747711
vous	744472
▁compte	742109
▁nos	739961
—	738047
▁ministre	737695
▁tout	735393
▁autre	731133
▁dont	725457
▁services	723057
▁montant	717457
▁avoir	708035
ient	702598
▁4	695833
▁direction	690812
rait	690739
▁demandeur	688599
▁in	683575
▁Pour	683451
▁tous	680250
▁deux	678187
▁vente	677691
▁S	675961
▁également	665269
▁état	664554
▁gestion	656934
▁D	655472
l	653727
▁net	651832
▁selon	644174
▁droit	639406
▁question	639111
▁entreprise	628843
▁cas	626501
▁5	624448
▁premier	622688
▁Inc	621216
▁nombre	620598
▁lui	619731
eur	619022
?	614822
▁secteur	614140
▁titre	612143
▁prix	608375
▁coût	607971
▁Président	606685
▁exploitation	604979
▁information	603476
▁comité	602628
▁ainsi	601020
▁capital	590000
▁député	588247
d	586532
▁jour	585008
▁10	578077
▁mois	572982
▁présente	572636
▁avons	572328
▁sera	569337
▁avant	561936
▁partie	560190
▁risque	558840
n	557095
▁après	556053
▁R	555967
▁Loi	552952
▁bien	552690
▁juin	544370
▁preuve	543028
▁doit	542816
▁présent	540435
▁J	538389
▁appel	537447
▁élément	536874
▁aussi	533821
▁revenu	532502
▁sans	527795
▁actifs	523165
▁mars	521438
▁décision	515668
▁canadienne	515460
▁ans	515438
age	515103
`	514560
▁À	512576
▁Dans	508355
▁raison	505354
▁catégorie	502334
▁contrat	499335
peuvent	499327
ra	498155
▁ré	497407
▁ai	497107
ci	496581
▁Ce	494267
▁financière	490197
▁chaque	486824
▁6	484627
où	484307
▁DE	484109
▁contre	483645
▁perte	482964
▁ordinaires	480404
▁moins	480055
▁2013	473247
▁certain	472009
▁p	469559
▁portefeuille	467872
▁2014	465403
▁2012	464466
▁j	463451
▁2015	462393
▁résultats	461259
▁2011	461050
▁B	460363
ette	459829
▁droits	458947
▁égard	455375
▁Monsieur	454517
▁crédit	453463
▁15	450754
▁moyen	448734
▁2010	447756
▁De	446775
temps	445443
▁personne	445312
▁pays	444024
▁action	443943
quelle	443552
▁membres	442749
▁devrai	441722
▁CanLII	439425
▁afin	438219
▁intérêt	437867
▁2016	437779
▁suivant	437248
▁trè	436557
puis	436324
▁septembre	434638
dit	432536
‐	432526
▁renseignement	431774
▁billet	431685
▁7	429737
▁administrateur	427650
▁avis	427610
▁façon	426336
▁acquisition	425414
▁article	425337
▁Si	424854
▁Ces	423813
▁P	421587
▁lorsqu	421197
▁croissance	420506
▁ci	420298
▁12	416074
▁trésorerie	415132
▁Par	411281
▁fin	410726
près	410686
▁2017	409705
▁évaluation	408454
▁administration	407899
▁cadre	405031
[	401222
▁nouveau	401202
▁juste	401016
▁sénateur	400693
▁long	400608
▁placements	399742
on	399671
▁9	395405
▁2009	393649
tant	393369
▁sociétés	392849
▁actif	392782
▁États	391398
▁8	389633
u	389008
▁seront	386257
▁part	386014
▁paragraphe	382878
C	382021
]	377868
▁2018	377347
▁vertu	375177
▁somme	374492
▁chef	374036
▁base	373907
▁pourrait	373889
▁personnes	373550
▁fonction	373543
▁travail	370378
▁trois	369936
▁janvier	369827
▁bénéfice	369172
▁eu	368904
il	366619
▁Canadiens	365369
▁matière	365207
▁2008	364520
▁niveau	364312
▁11	364090
▁moment	363662
▁rémunération	362987
▁générale	362782
ront	362473
▁prêt	362408
▁environ	361183
▁aucune	360798
▁options	359735
▁F	359395
▁étai	359352
▁Québec	358079
▁Elle	358061
▁certaine	354092
à	352122
▁2007	352120
▁offre	351445
▁cet	351086
Unis	349483
▁importante	348075
▁T	346834
▁régime	346372
▁conclu	346351
▁of	345687
▁relative	344631
▁politique	343354
▁2006	343282
▁achat	342781
▁obligations	342179
ez	340886
▁emploi	340301
▁20	339893
▁situation	339858
▁tribunal	337364
▁aucun	334165
▁actionnaires	333481
cela	331808
▁lieu	329768
▁dernier	329580
▁jusqu	329344
▁pré	329085
▁note	328986
▁présenté	328600
▁re	328517
▁président	327377
▁incidence	327262
▁participation	326845
que	326656
▁fois	326579
▁risques	326568
▁pendant	325877
▁m	325197
▁impôt	324090
▁annuel	323301
▁total	323102
▁2005	322179
▁to	321767
▁suit	321289
▁documents	320931
▁actuelle	320399
▁sujet	320081
▁enfant	319139
▁Chambre	318321
▁liés	317682
eurs	317016
▁suite	316863
▁100	314623
1	314458
ées	314371
ance	313200
▁questions	312418
▁13	312398
▁vot	311119
▁investissement	310601
▁ni	310166
fois	309524
concernant	309212
▁rubrique	308037
▁mai	307962
▁the	307708
▁octobre	307628
▁intérêts	306285
▁CA	303794
▁indice	303424
▁effet	302691
▁Banque	301324
▁canadien	301162
▁2004	300851
▁fins	299396
▁première	299091
▁tenu	296577
▁objectif	296435
▁mise	295046
▁donnée	294765
▁avril	294594
▁porteurs	293812
▁tableau	293417
▁14	293145
▁programme	292203
▁G	291818
▁besoin	291775
▁2019	290815
▁hausse	288085
▁XXXX	288002
▁ceux	287757
▁système	286708
▁I	286627
▁terminé	286357
▁changement	286031
▁valeurs	284859
▁16	284646
▁donné	284138
asile	283463
▁mari	283086
▁pouvoir	282158
▁E	281907
mment	281880
▁seule	281645
▁augmentation	281286
▁Un	281184
▁famille	280952
▁contrôle	280577
y	280404
▁nécessaire	279659
▁résultat	279402
▁clients	279331
▁deuxième	279309
▁plan	277521
▁elles	276304
▁obtenir	276137
▁dossier	275882
▁assurance	274674
▁important	274261
▁Une	274114
▁facteur	273856
donc	273512
▁fiducie	273354
principalement	272747
▁peu	272547
▁déclaration	271285
▁problème	271226
▁compris	271208
2	271094
aire	270259
prendre	269504
té	269369
lors	268959
▁production	268707
▁On	267937
ieurs	266940
▁poste	266487
▁gestionnaire	265947
▁celui	265922
›	265494
▁25	265159
▁Toute	265078
▁règlement	264914
▁2003	264399
▁suis	264073
▁affaires	264021
quel	263936
▁17	263858
▁comparative	263647
▁18	263545
ovembre	263142
▁passif	262457
▁service	262174
▁ensemble	262079
▁déclaré	261522
▁doive	261397
▁juge	260867
▁liée	260409
▁souscription	259326
▁public	259058
▁opérations	258611
i	258454
▁conformé	257484
▁dernière	257469
▁parce	257439
▁charges	256765
▁conditions	256483
&	255728
▁mon	255299
▁celle	254585
▁juillet	254485
▁employés	253246
▁février	253205
tenir	252820
R	252431
▁financement	252394
▁échéance	252330
▁dépense	251803
encore	251375
▁dire	250799
▁prise	250445
▁hui	249410
▁vote	249383
consolidés	248179
▁nom	247871
▁américain	247629
▁Mme	247194
▁propres	245798
o	245242
▁2002	244731
▁économique	244459
ement	243962
▁clos	243934
▁vie	243422
▁notam	243317
▁référence	243266
▁norme	243140
▁no	242868
▁change	242519
▁conséquent	242021
▁Commission	241608
▁espèce	241137
▁Ils	241012
▁développement	239918
▁établi	239879
▁ressources	238799
▁dette	238432
août	238276
▁nette	238248
ables	237792
▁santé	237072
▁impôts	236895
▁US	235922
▁annuelle	235631
c	235264
▁application	235159
▁19	235147
▁suivante	234869
▁revenus	234081
▁agit	232880
3	232049
▁fédéral	231849
▁reçu	231227
▁canadiens	231181
▁document	230464
▁protection	230379
▁prospectus	230335
▁O	229481
▁élevé	228323
▁clôture	228127
▁2001	228103
le	228002
venir	227662
▁Règlement	227196
▁processu	226384
▁motif	226347
▁art	225880
▁sécurité	225829
A	225608
ais	225537
▁gens	224680
▁remboursement	224227
▁rachat	222525
▁circulation	222276
▁groupe	222165
▁plu	221899
▁prévoi	221879
▁ayant	221589
▁me	220445
▁convention	220034
▁général	220011
▁accord	218991
▁28	218840
▁dividendes	218642
▁vue	218174
vant	216908
▁maintenan	216609
▁agent	216598
5	216482
▁É	216075
▁directe	215256
▁an	215190
▁point	215187
tôt	213474
▁faut	212961
▁b	212770
▁supplémentaire	212325
▁représente	212219
▁responsabilité	212210
quoi	211401
▁libéra	211101
▁pouv	211031
▁faite	209996
▁flux	209142
▁beau	209083
▁objet	209027
▁g	208951
▁exemple	208739
▁pourraien	208527
▁précédent	208217
▁milliard	208092
▁Conseil	207943
*	207671
▁Cour	207543
coup	207187
▁émission	207129
aujourd	206892
▁baisse	206612
▁pris	206500
▁méthode	206492
▁Comme	206229
▁parties	206161
▁qualité	205824
▁grande	205154
▁avai	204976
▁estime	204875
▁déjà	204791
▁so	204763
▁raisonnable	204424
ue	204032
▁assurer	203616
▁Catégorie	203276
ce	203214
▁21	203185
▁and	202691
▁capacité	202012
▁savoir	202000
▁région	201744
▁sens	201718
▁chose	201693
▁disponible	201253
▁IFRS	200606
▁conseiller	200525
▁témoignage	200396
▁telle	199154
▁charge	199150
▁emprunt	199044
ité	198752
▁audience	198104
ions	197784
▁filiale	196829
▁payer	196582
▁attribuable	196121
▁aide	195864
▁Des	195815
▁24	195535
visant	194977
▁...	194927
▁instruments	194515
▁étan	194441
▁paiement	194222
▁honorable	194086
▁avantage	193942
▁propriété	193645
▁prestation	193502
▁prévu	193184
z	193131
▁2000	193037
▁capita	193013
▁ma	192889
▁22	192794
ième	192728
▁retraite	192412
▁membre	191226
▁dispositions	191014
▁analyse	190773
▁fixe	190667
▁continue	190432
▁troisième	190035
▁27	189771
▁reporter	189669
▁indique	189487
▁voir	189344
▁all	189113
▁intention	188803
▁durée	188751
▁possible	188624
▁toujour	188088
▁car	187894
▁règle	187884
▁procédure	187489
▁applicable	187174
▁29	186634
▁ordre	186053
▁collèg	185659
▁fiscale	185368
▁nouvelle	185061
8	184615
▁recherche	184230
▁23	183979
▁garantie	183760
▁établir	183758
▁augmenté	183741
▁lettre	183569
▁Ltd	183462
▁Ontario	183423
▁inc	183334
▁50	183293
▁N	182936
▁SPR	182600
▁financier	182512
▁Selo	181769
ependant	181678
▁soutien	181657
▁demandé	181521
▁personnel	181471
▁présentée	181082
▁stratégie	180957
▁intermédiaire	180909
E	180704
▁quant	180439
▁créance	180178
▁cause	179624
▁motion	178705
▁cinq	178650
ici	178477
▁court	178061
▁manière	178040
▁parlementaire	178013
▁ET	177735
▁lors	177692
▁distributions	177572
▁forme	177132
▁applique	176799
▁page	176393
▁moyenne	175636
▁nouvelles	175627
▁argent	175581
▁or	175451
▁établissement	175274
▁immigration	175237
▁vigu	174318
tient	174216
▁Cela	174057
▁per	173834
▁organisme	173622
▁investisseurs	173223
▁haute	172694
▁projets	172592
0	172494
▁permis	172447
▁relatif	172323
▁for	172090
▁examen	172056
▁voul	171601
▁principale	171592
▁début	171487
président	171169
▁lois	170954
▁mettr	170793
▁outre	170612
▁réponse	170571
gré	170190
▁font	170115
en	170084
▁26	169772
aux	169747
▁calcul	169600
▁pratique	169216
▁tiré	169082
▁donner	168491
▁particulier	168282
▁immeuble	167844
▁comptabilisé	167633
▁ferme	167600
auf	166532
▁heure	166531
▁monde	166301
▁comptables	166225
▁concerne	166177
▁conservat	165958
ir	165441
▁traitement	165348
▁indiqué	165200
▁assemblée	165070
▁principe	165054
▁Corporation	164912
f	164789
▁circonstance	164568
▁comprend	164528
▁prévue	164526
▁entité	164080
▁mondiale	164013
▁détail	163875
▁publique	163757
▁débat	163660
▁économie	163351
▁DES	163348
4	163272
▁représentant	162760
▁FNB	162232
▁distribution	161995
▁simple	161676
▁échéant	161066
▁recevoir	160580
vons	160219
▁ailleurs	160064
▁employeur	159869
▁H	159134
▁place	158900
it	158387
▁particulière	158328
▁indépendant	158137
com	158016
▁importants	157912
▁statut	157399
▁immobilisations	157288
▁celles	156838
▁semaine	156614
▁mis	156541
▁passé	156312
▁gaz	156125
▁Toronto	155984
▁No	155977
▁affaire	155666
▁privilégiée	155481
▁déterminer	155453
able	155345
▁Compagnie	154775
|	154275
▁bonne	154243
▁permett	154242
▁comptable	154089
rien	154010
▁bon	153888
▁réserve	153739
ISR	153690
▁Comité	153458
▁principal	153104
▁utilisé	152738
dérivés	152669
▁entente	151881
▁diminution	151847
▁responsable	151604
▁fournir	151447
▁donne	151119
ccès	150853
▁500	150778
▁modifications	150745
in	150600
▁refus	150443
▁LA	150387
▁obtenu	150219
▁Lorsqu	150159
▁réalisé	150137
▁obligation	150024
P	149604
▁vers	149269
B	148386
▁supérieur	148358
▁lié	148250
de	147999
▁option	147658
▁versé	147463
▁compétence	147369
▁million	147300
▁couverture	147195
▁négociation	146924
exigences	146709
▁tel	146218
▁budget	145581
▁mobilière	145504
▁commerce	145323
émises	145243
▁possibilité	144785
▁intimé	143905
▁réseau	143899
▁dépôt	143656
▁facilité	143126
▁abord	142650
▁Tribunal	142570
▁puisqu	142498
▁quatre	142432
▁Portefeuille	142341
▁TSX	142178
▁réduction	141809
▁biens	141698
▁régimes	141556
▁f	141357
▁40	141247
▁porteur	140853
▁étranger	140846
jamais	140766
▁comptes	140759
▁porte	140579
_	140363
▁1999	140300
ur	140159
▁Fiducie	140152
▁visa	140110
▁gains	139823
▁contrepartie	139792
▁Services	139488
ante	139406
▁présenter	139387
▁explique	139325
▁débenture	139259
▁unique	139152
▁existe	139095
▁six	138964
▁Corp	138950
▁industrie	138646
▁écart	137750
▁dirigeants	137574
▁relatives	137360
▁occasion	137341
▁enregistré	137335
▁aura	137254
▁utilisation	136800
▁alinéa	136082
▁programmes	135954
▁position	135944
is	135747
▁composé	135717
▁bons	135681
▁comprenn	135627
▁chapitre	135621
▁Série	135539
jacent	135405
▁attend	135308
▁neuf	135304
▁admissible	135121
▁Groupe	134743
▁établie	134643
▁crédi	134630
▁mal	134346
▁DU	134281
▁épo	134048
al	133924
▁transport	133520
▁vice	133478
▁vise	133415
▁compagnie	133357
part	133245
▁conséquence	133006
▁Vous	132989
travaux	132063
▁internationale	132061
▁nature	131931
▁constitue	131791
▁exercices	131489
▁location	131254
▁déposé	131188
▁Actions	131152
▁Sénat	130920
▁provinces	130837
▁américaine	130813
▁autorité	130617
▁disposition	130375
▁événement	130328
▁grand	130277
provenant	130158
▁aider	130096
▁visé	129954
▁audit	129461
▁banque	129279
▁sein	129232
▁variable	128741
▁interne	128450
▁énoncé	128391
▁approbation	128161
▁semble	128070
▁sorte	128045
▁candidat	127978
▁permet	127971
▁directeur	127950
▁v	127623
▁critère	127450
▁totale	127435
▁compter	127379
▁eux	127374
▁fonctionnaire	127272
▁échange	127001
▁mandat	126905
▁tranche	126611
▁futurs	126520
▁Se	126350
▁liquidative	126212
▁Frais	126129
"	126017
▁effectué	125941
▁État	125922
▁tenue	125883
▁relation	125316
▁pu	125176
▁division	125144
iers	125137
▁préoccup	124984
▁correspond	124962
dessu	124874
▁pièce	124837
▁permettr	124798
▁adresse	124588
▁chez	124581
▁Immigration	123976
▁installation	123972
▁affirm	123838
p	123584
▁permanent	123499
▁conclusion	123491
▁détenu	123442
▁chiffre	123378
▁va	123116
▁ve	122813
▁exploration	122696
▁Total	122499
▁marge	122471
▁garanti	122313
▁acquis	122237
ing	122231
▁modification	121998
▁Co	121992
▁ministère	121685
▁quatr	121557
▁contraire	121497
▁étude	121476
▁Capital	121453
▁âg	121391
▁répond	121362
▁actuel	121309
▁quelques	121243
▁chacun	121151
▁nationale	121094
▁respect	121092
▁trouve	120988
6	120918
▁fiduciaire	120868
▁propriétaire	120632
▁seul	120619
▁décrit	120569
▁formation	120530
œuvre	120498
▁recommandation	120485
▁juridique	120385
▁soin	120358
▁opposition	120261
rendre	119999
▁réduire	119622
▁tard	119579
tout	119542
▁privé	119425
▁contribu	119381
▁Voir	119285
▁vrai	119236
▁quelque	119156
▁parl	118771
▁Rapport	118768
te	118532
être	118428
durant	118425
▁claire	117963
▁environnement	117960
▁terminée	117937
dessous	117880
▁Bien	117811
▁puisse	117804
▁unités	117799
F	117729
▁site	117677
▁Nord	117592
▁fondé	117496
▁consulté	117461
▁émis	117133
▁réunion	116989
▁enquête	116988
▁rôle	116869
▁mentionné	116788
▁FPI	116762
▁demander	116729
▁prend	116523
▁présentation	116483
▁Montréal	116384
T	115816
▁Autre	115598
▁bancaire	115304
▁arrêt	115017
▁activité	114895
▁portant	114882
▁semestre	114781
▁opération	114779
▁Mackenzie	114527
▁ajusté	114456
▁répondr	114392
▁respectivement	114296
▁police	114275
▁équipe	114249
▁procuration	114153
▁hypothèse	113997
▁acte	113900
▁pourcentage	113607
▁trait	113591
▁Code	113578
▁principa	113474
m	113357
▁écrit	113300
▁erreur	113267
▁renvoi	113228
L	113210
▁marchandise	113185
▁rang	113178
▁voie	113164
▁demeure	113153
▁initiale	113003
▁stratégique	112973
▁territoire	112912
▁liquidité	112575
at	112562
▁quand	111857
▁expérience	111703
▁dollar	111644
▁entend	111319
parler	110916
▁60	110893
▁déduction	110884
▁commun	110872
▁payé	110695
▁petite	110669
▁province	110666
▁investir	110652
▁mère	110572
▁notes	110558
ême	110330
▁paiements	110144
▁correspondant	110017
▁aimer	109947
▁domaine	109847
▁SAR	109657
▁énergie	109647
D	109564
▁connaissance	109446
▁adopté	109302
b	109290
▁vérification	109254
▁attribution	109051
▁but	109001
▁viv	108870
▁recours	108865
▁hors	108692
▁global	108494
▁examiner	108447
▁transfert	108420
▁dû	108175
après	108084
▁importance	107846
▁mieux	107607
▁CSC	107472
▁2020	107455
▁exige	107436
▁crois	107218
▁amortissement	107140
▁appui	106949
▁organisation	106773
avenir	106678
▁construction	106590
ations	106578
▁différent	106517
▁Notre	106366
▁essentielle	106223
▁investi	106196
vient	105773
▁Re	105680
▁35	105676
-1	105672
▁trouver	105633
▁limite	105335
▁versée	105164
▁ch	105155
▁propos	105080
▁modalité	105038
▁réglementation	104963
▁Voi	104933
▁U	104873
=	104763
▁solde	104700
▁fournisseur	104546
▁épou	104535
▁émetteur	104393
▁découlant	104116
▁ancien	103993
▁femmes	103982
▁résident	103873
▁lien	103848
▁conforme	103824
réation	103728
uses	103637
▁figur	103623
▁propre	103483
M	103431
▁Aux	103419
elle	103345
▁Pièce	103307
▁versement	103256
▁atteindr	103034
▁défavorable	102977
▁www	102907
▁diminué	102842
▁protéger	102795
▁client	102059
▁h	102054
▁doute	101848
▁améliorer	101806
▁compar	101721
talité	101686
▁rendu	101668
▁certificat	101485
▁vos	101238
▁con	100874
▁commandite	100732
▁mes	100571
▁honoraires	100553
▁bilan	100506
▁utilisée	100459
▁Plus	100424
et	100321
▁infraction	100184
▁The	100183
▁brut	100018
ion	99968
ues	99897
▁performance	99853
▁fais	99820
▁pages	99771
▁K	99711
▁efficace	99623
ure	99169
▁adoption	99112
▁In	98978
▁parti	98963
▁cible	98764
avantage	98649
▁résidence	98598
▁reste	98554
▁atteint	98408
▁amélioration	98265
▁efforts	98200
▁sou	98200
nent	98158
▁relations	98064
▁évaluer	97831
▁BAIIA	97771
▁offrir	97524
▁fiscal	97495
▁V	97456
É	97357
▁PCGR	97351
▁choi	97284
▁transaction	97232
partir	97193
▁précise	97139
▁appuy	97091
▁annexe	97006
▁difficile	96966
▁ligne	96644
▁pied	96600
▁inférieur	96589
▁moi	96553
▁offert	96270
▁mot	96175
▁vu	96155
▁utiliser	96128
pense	96077
ne	95858
▁pétrol	95722
▁équivalent	95528
▁haut	95482
▁Valeur	95382
▁modèle	95353
▁correspondante	95127
▁observations	95099
▁conversion	95075
▁Parlement	95008
▁LE	95004
▁différé	94795
▁devise	94614
▁capitalisation	94586
▁souven	94554
aires	94348
▁usine	94339
▁contien	94304
▁peine	94141
▁reconnu	94140
▁né	94074
▁divers	94025
▁collective	93872
▁faible	93828
▁choisi	93816
▁Chine	93713
ie	93523
▁Colombie	93491
▁Bourse	93423
suite	93422
▁points	93153
▁différente	92868
▁contexte	92834
▁marque	92825
▁section	92821
corporelles	92787
▁face	92717
▁hypothécaire	92710
▁exposition	92695
▁criminel	92540
▁réserves	92512
▁Citoyenneté	92426
▁population	92395
▁salaire	92342
▁imposition	92274
▁engagé	92205
▁probable	92197
▁visée	92178
▁ordinaire	91982
▁fédérale	91953
▁hon	91894
us	91839
▁comprendre	91776
▁Tous	91342
▁Honor	91211
▁modifié	91200
▁rappel	91036
▁acquisitions	90999
▁parole	90931
▁heures	90899
▁Produit	90790
▁entrée	90781
▁annoncé	90764
eux	90734
ques	90723
▁antérieure	90708
▁forage	90701
▁veut	90535
▁difficulté	90510
▁étape	90475
▁parents	90401
lesquels	90263
▁ratio	90160
▁W	90150
▁collectivité	90105
▁travailleurs	90071
▁Son	90067
▁entendu	90018
même	89949
Depuis	89906
▁45	89823
▁Limited	89794
▁avez	89733
▁comment	89696
▁élection	89650
▁études	89538
▁circonscri	89511
▁pouvant	89454
▁Chaqu	89436
▁mondial	89416
▁comptabilisée	89317
▁fondée	89240
tiers	89122
▁gouvernance	89046
▁traduction	89043
▁travailler	89015
▁200	88831
▁CPA	88816
vent	88798
▁propose	88707
▁rapide	88703
▁bureau	88631
la	88565
▁Accueil	88534
▁formulaire	88509
▁courant	88503
▁liste	88421
râce	88420
▁secrétaire	88355
▁cote	88332
▁témoin	88234
▁réel	88162
▁jeunes	87918
▁approuvé	87879
▁approche	87856
▁législative	87846
▁ordonnance	87841
▁externe	87587
I	87483
▁simplifié	87301
▁remercie	87287
▁avocat	87201
▁forte	87190
N	87049
▁délai	87046
▁témoign	86974
▁social	86917
▁amendement	86868
faisant	86681
▁véritable	86477
▁auditeur	86466
▁connaît	86445
h	86417
▁résumé	86386
▁reprise	86365
▁Alberta	86325
▁victime	86319
▁Titre	86172
▁majorit	86160
▁vendu	86124
▁associés	86084
▁premiers	86007
▁engagement	85998
▁1998	85963
bilité	85913
▁Or	85882
▁signé	85743
▁fav	85696
▁suivi	85665
▁co	85638
▁réglementaire	85608
▁connexe	85555
▁consomm	85466
▁cotisation	85401
▁inscrit	85400
▁augmenter	85378
▁arrivé	85024
▁32	84919
▁naturel	84890
▁remplace	84890
▁citoyen	84859
▁gain	84857
▁inscrits	84781
▁soulign	84732
▁détenue	84409
▁mill	84156
▁situé	84108
▁sociale	83989
▁36	83847
▁considérable	83742
▁prochaine	83700
▁agiss	83593
▁Tout	83531
▁communiqué	83510
▁initial	83493
▁rejeté	83366
▁SAI	83353
▁réalisation	83302
▁inter	83187
▁aurai	83180
▁absence	83134
▁Gestion	83103
▁TD	83100
▁favorable	83079
▁modifiée	83075
▁commission	83049
▁meilleur	83022
▁étrangère	82754
▁estimations	82676
▁exercer	82648
▁Date	82606
▁déterminé	82603
▁pension	82570
Q	82442
▁considéré	82392
▁34	82379
g	82323
ption	82292
▁vendre	82274
▁plaignant	81852
▁dispose	81848
les	81825
+	81783
parav	81760
▁examiné	81710
▁justice	81698
▁variation	81505
▁unité	81486
▁Lib	81449
▁at	81295
▁structure	81266
▁souhait	81259
▁nord	81223
▁i	81221
▁Parti	81200
▁évalué	81193
▁technologie	81110
▁magasin	81106
▁libellé	81097
▁confi	81074
▁réfugiés	81069
▁ample	80940
▁consulter	80922
▁33	80796
▁maison	80772
▁profit	80771
▁différence	80676
▁Mal	80618
▁registre	80613
▁autorisé	80546
▁élevée	80367
▁courtier	80286
▁humaine	80278
!	80258
▁SFP	80210
▁Trust	80182
▁effectuer	80116
▁endroit	79966
ète	79841
▁définition	79822
▁père	79710
▁conventions	79660
▁présence	79610
▁solide	79553
▁EN	79545
chacune	79264
▁not	79165
▁terrain	79131
▁maintien	79111
▁X	79077
▁créer	78990
▁immédiate	78985
▁côté	78938
Britannique	78804
▁Company	78786
▁Amérique	78775
▁International	78758
▁intégr	78381
7	78317
▁homme	78269
▁historique	78258
▁calculé	77906
▁exprimé	77900
co	77884
▁Est	77881
▁articles	77867
▁civile	77785
▁concurrence	77678
▁avance	77669
▁fourni	77628
▁reçoi	77602
▁tels	77599
▁spéciale	77596
▁maximal	77464
▁agir	77403
▁pertinente	77360
▁échelle	77327
▁variations	77310
▁jugement	77309
▁nommé	77305
if	77286
▁contenu	77271
▁rachetable	77262
▁potentiel	77206
▁carte	77171
voix	77154
▁Compte	77149
▁CIBC	77136
▁acquise	77066
▁effectuée	77030
▁finances	77014
▁inscription	76972
▁acheter	76924
rie	76769
▁inscrite	76689
▁vérificateur	76624
▁Group	76570
▁39	76513
▁ajustement	76479
▁titulaire	76461
▁égal	76454
ed	76216
▁Bénéfice	76039
▁réduit	75900
▁Web	75899
▁entendre	75868
▁désigne	75748
▁pro	75701
▁proposé	75688
▁Placement	75456
▁type	75447
▁diverse	75422
▁immobilier	75415
▁vou	75404
▁commencé	75378
▁comport	75324
▁complète	75321
▁Que	75314
▁totalis	75292
▁trop	75086
▁rempli	75061
▁Régime	75043
▁respecter	75043
▁désigné	74998
▁genre	74988
or	74980
▁provision	74870
▁essentiel	74852
▁modifier	74810
▁oeuvre	74626
▁meilleure	74531
▁communication	74529
▁90	74455
▁touché	74354
▁national	74140
▁épargn	74042
▁Aucun	73971
▁précisé	73936
ton	73906
▁rencontre	73890
▁actionnaire	73865
▁matériel	73734
▁dividende	73572
▁inclus	73571
▁appliquer	73285
▁mine	73218
▁37	73201
▁roule	73178
▁libre	73150
▁décidé	72987
▁devr	72803
▁Life	72726
▁centrale	72701
ont	72676
▁reconnaît	72496
▁New	72466
▁garde	72462
▁38	72417
▁chargé	72345
▁supérieure	72311
▁Energy	72302
▁continuer	72270
▁be	72227
▁Actif	72200
▁siège	72145
▁exerce	72031
tirer	71985
▁auront	71956
V	71942
▁FONDS	71867
▁autochtone	71439
▁consiste	71402
▁rejet	71259
▁payable	71204
envers	71176
▁communauté	71153
fin	70805
▁circulaire	70783
ulent	70759
▁groupes	70718
▁convien	70682
▁mainteni	70655
▁établis	70576
▁St	70571
▁bourse	70552
▁finale	70512
▁participer	70507
▁quelle	70470
▁exception	70449
▁rend	70445
▁exclu	70349
aison	70297
▁décrite	70295
▁départ	70152
▁administratif	70145
▁fille	70087
▁travaill	70024
▁constituent	69998
▁constate	69951
▁monétaire	69950
succès	69948
▁employé	69809
▁pertinent	69732
▁possède	69643
▁quoi	69515
▁ville	69431
▁exposé	69412
▁BMO	69361
▁exclusive	69216
▁caractère	69149
▁adopter	69142
▁indirecte	69043
▁Nombre	69025
▁publié	68999
▁fils	68868
▁fusion	68866
ique	68865
▁Vice	68827
-2	68748
ter	68722
▁Avant	68722
▁commercia	68705
▁passer	68626
▁offerte	68452
▁courtiers	68430
▁vol	68426
ca	68399
vais	68349
▁datée	68343
ès	68242
▁globale	68171
▁partenaire	68154
▁LES	68122
▁daté	67964
▁utilis	67898
▁judiciaire	67896
évolution	67788
▁lignes	67780
▁anticipation	67707
▁imposable	67704
▁international	67669
▁fournit	67656
▁inclu	67443
isation	67287
ils	67263
▁engagements	67166
▁texte	67048
▁supplément	67006
▁idée	66965
▁reporté	66860
▁solutions	66842
▁parle	66814
iste	66752
▁RBC	66711
▁sept	66679
▁cité	66664
▁dépend	66655
▁verser	66638
▁NPD	66603
▁commissaire	66586
▁regroupement	66564
▁exécuti	66487
insi	66457
▁grandes	66403
▁Finances	66381
▁réaliser	66353
▁Parts	66352
▁2019-07-1	66333
▁Internet	66306
▁essai	66278
▁attente	66268
▁réalisée	66238
▁équilibré	66188
▁propriétés	66185
▁puis	66144
▁particip	66120
▁300	65920
▁manque	65894
▁mé	65865
▁croi	65799
ES	65797
▁livre	65693
▁conformit	65687
▁géré	65649
▁accroîtr	65543
▁marques	65503
▁régulière	65487
▁Sa	65474
▁composante	65472
ve	65381
▁restrictions	65348
▁discours	65323
▁payables	65246
▁convaincu	65218
man	65186
▁pourra	65186
▁voter	65150
▁officielle	65145
▁Revenu	65117
▁1997	65069
efficacité	64873
▁Aucune	64800
▁centre	64788
▁eau	64729
▁as	64667
▁ex	64621
▁Madam	64581
▁connu	64555
▁attribuée	64528
▁liberté	64499
▁fond	64444
▁rendue	64406
▁explication	64401
▁II	64377
▁autorisation	64340
▁primes	64310
▁commentaire	64309
▁importe	64239
▁ententes	64232
▁élève	64192
▁résolution	64183
▁avion	64152
▁occasions	64135
▁description	64044
communes	64028
▁55	63990
▁attribué	63871
ément	63854
era	63849
▁subi	63848
▁constaté	63819
▁préalable	63808
▁Certains	63804
▁stocks	63762
▁priorité	63718
▁plainte	63619
bureaux	63608
▁Rendement	63595
▁véhicule	63571
▁maladie	63364
▁commis	63296
▁conclus	63293
▁42	63290
▁aller	63175
▁audité	62993
▁dates	62985
▁comparable	62922
▁41	62733
▁sollicit	62714
@	62686
enregistrement	62605
▁téléphone	62599
▁associé	62589
▁débiteur	62577
▁répartition	62558
▁zone	62518
▁Qu	62467
▁expliqué	62421
▁ajouté	62412
▁nomination	62354
▁annonce	62344
▁considération	62343
ssez	62342
▁conflit	62318
▁fournis	62202
▁CI	62201
▁70	62200
▁justifi	62199
▁soulevé	62173
▁fera	62135
▁commercial	62126
▁vérifié	62120
▁oppos	62086
▁fonctionne	62083
▁défense	62068
▁entièrement	62057
▁Management	61938
▁80	61920
▁défaut	61897
▁privilège	61894
▁mission	61853
▁conclusions	61834
▁producteur	61799
▁Nos	61791
▁interprétation	61765
▁transactions	61749
▁Canadian	61740
▁Europe	61681
tre	61593
an	61565
▁équipement	61553
▁44	61547
▁sais	61525
▁élevai	61320
▁dépréciation	61259
▁directrice	61255
▁étudi	61156
▁indication	61151
▁allégation	61135
▁automatique	61133
mise	61098
▁consentement	61014
▁numéro	61012
rice	60964
▁permanente	60953
▁semblable	60951
▁susceptible	60932
▁commissions	60883
alité	60864
▁portée	60827
th	60815
▁proposée	60784
▁pondéré	60773
▁consolidé	60693
parmi	60684
ier	60626
▁déposée	60621
▁CAD	60559
▁atteinte	60479
▁John	60452
▁comptabilis	60300
▁extérieur	60239
▁prospectif	60142
▁prochain	60007
▁traité	60004
généraux	60002
▁proposition	59887
▁convertibles	59858
▁incertitude	59851
▁Nouvelle	59737
▁Manuvie	59709
▁partage	59692
▁fil	59651
▁sommaire	59607
▁formule	59580
▁Bell	59566
▁Convention	59565
▁o	59407
▁attention	59375
▁volume	59364
▁révision	59349
▁valo	59321
▁procès	59310
▁Cet	59287
▁assujettie	59279
▁main	59224
emploi	59191
▁remboursable	59188
▁opérationnel	59139
▁voyage	59073
▁volatilit	59072
▁origine	59053
▁restructuration	59018
▁livraison	59003
▁Risque	58912
▁chap	58891
neur	58871
▁probabilité	58860
▁leader	58850
▁effets	58809
▁soumis	58782
▁poursuite	58745
▁fabrication	58714
▁RAPPORT	58710
▁investiss	58701
▁habituelle	58675
▁75	58645
▁produir	58635
▁clair	58577
▁privée	58563
▁fier	58554
▁Document	58546
▁43	58522
▁petit	58430
▁400	58428
▁regard	58320
▁notice	58317
▁Air	58266
▁directive	58194
ommercialisation	58164
J	58157
▁ouvert	58134
▁partout	58105
▁jou	58049
auquel	57953
▁apport	57931
▁temporaire	57887
▁mises	57861
mètres	57749
▁syndicat	57721
▁fer	57598
▁entretien	57588
▁conduite	57503
▁clientèle	57459
▁considérée	57434
▁fluctuations	57417
▁suiv	57414
▁dix	57410
▁perspective	57354
▁histoire	57284
▁comporte	57276
▁version	57247
▁militaire	57193
▁technologies	57175
▁accordé	57156
▁remise	57124
v	57050
▁électronique	57000
▁montre	56972
▁brute	56963
▁additionnelle	56937
▁Fidelity	56925
ble	56877
▁Sur	56826
▁école	56766
poursuivre	56757
▁DORS	56719
▁constituée	56709
▁consommateur	56691
▁milieu	56680
▁acquérir	56656
▁Inde	56618
▁appareil	56550
▁INC	56457
▁accorder	56422
U	56263
▁socia	56227
▁située	56224
▁professionnels	56127
▁fournie	56086
▁solution	55938
▁longue	55904
▁servir	55893
▁approprié	55863
▁close	55812
▁agents	55802
▁tendance	55798
▁reçue	55686
▁conformes	55673
éré	55618
▁précédente	55588
▁frère	55545
▁appropriée	55537
▁réelle	55527
▁65	55513
▁normal	55478
▁remarqu	55449
iez	55444
▁minimum	55400
dès	55316
▁requérant	55315
▁48	55139
▁campagne	55129
▁surveillance	55097
▁utile	55038
▁personnelle	55021
ATION	55005
▁inqui	54956
▁redevance	54893
▁médecin	54853
onnant	54832
▁caisse	54820
▁gérer	54683
▁Section	54666
▁électrici	54660
▁langue	54600
▁épargne	54580
▁réce	54570
MC	54534
▁communiquer	54525
W	54517
▁150	54492
▁1996	54485
▁prime	54424
▁signal	54361
▁garantis	54346
ture	54315
preneurs	54271
▁signifie	54236
▁carré	54128
▁renouvelable	54128
ère	54113
▁comptabilit	54037
▁is	53988
▁média	53972
▁ID	53964
▁condition	53950
▁déficit	53859
▁cherche	53847
▁existence	53817
▁taxe	53775
armes	53691
▁compose	53691
▁secondaire	53687
▁SUR	53674
▁bénéficiaire	53668
▁plans	53608
▁prévision	53573
O	53551
▁papier	53537
▁régl	53498
▁accusé	53469
G	53462
▁suffisa	53368
▁appuie	53330
▁séance	53296
▁bas	53253
▁grands	53243
▁discrétionnaire	53235
▁opérationnelle	53209
▁additionnel	53179
▁bi	53166
▁clés	53151
▁Ministr	53143
▁similaire	53125
arrière	53094
▁requis	53079
▁destiné	53015
▁absolu	53012
▁52	52956
▁foi	52952
▁octroi	52950
istes	52891
▁poser	52799
son	52772
▁saisi	52749
▁tribuna	52738
▁remplacé	52733
▁permettra	52729
▁OPC	52684
▁initiatives	52589
▁institutions	52552
di	52539
▁utilise	52522
▁précis	52472
▁financer	52455
▁commerciales	52433
▁prévoy	52310
IPR	52282
▁identit	52225
▁CF	52220
▁devoir	52210
▁éventuelle	52207
▁naturelle	52100
▁code	52086
▁techniques	52083
oire	52061
▁Du	51990
tiens	51892
▁passage	51827
▁gérant	51766
▁Quand	51712
▁gamme	51636
▁généré	51602
▁250	51595
▁recev	51473
▁lu	51382
▁visite	51264
▁46	51218
▁Ottawa	51100
▁sources	51095
▁POUR	51087
▁Achat	51083
▁Billet	51059
isme	51040
ou	50994
▁Variation	50921
▁conclue	50909
pondér	50844
▁ajout	50808
œur	50790
▁québécois	50768
▁défend	50766
▁menace	50759
▁Information	50719
▁active	50709
▁étendu	50697
▁final	50686
▁49	50661
▁USD	50643
▁ouverture	50636
▁passe	50597
▁800	50593
▁Bank	50582
▁déclare	50477
▁écrite	50453
vont	50444
▁600	50405
▁opinion	50391
▁investit	50348
▁vit	50344
▁teneur	50340
▁médicament	50339
▁étudiant	50324
oir	50308
▁logement	50280
▁Bloc	50266
▁intégré	50242
▁Sun	50241
suivre	50210
▁complet	50167
▁progress	50112
▁affecté	50066
▁Holdings	50064
▁femme	49990
drais	49977
▁collectif	49977
▁nui	49955
▁Alliance	49948
▁Trésor	49934
▁monnaie	49927
▁locale	49893
▁informé	49871
▁positif	49870
▁commande	49845
ner	49841
▁Nouveau	49785
▁Cité	49779
▁provinciale	49765
▁créé	49690
▁Dr	49686
▁élu	49663
▁caractéristique	49651
▁travaillé	49630
▁établissai	49629
vez	49613
▁mensuel	49524
K	49431
▁58	49416
▁Power	49362
▁afférente	49348
9	49342
▁limitée	49327
resse	49304
▁normale	49281
▁effective	49269
▁retour	49266
ception	49253
▁exercé	49204
▁négocié	49198
▁acheteur	49197
▁soumise	49119
▁47	49114
▁facile	49098
▁commerciale	49095
▁ét	49090
▁soutenu	49047
®	49031
▁éducati	49010
▁éventuel	49010
▁copie	48966
▁quotidienne	48962
▁affirme	48927
fs	48832
▁continu	48808
▁considère	48800
▁relève	48778
▁procéder	48765
▁prépar	48741
▁négative	48723
▁licence	48712
▁atta	48683
▁touch	48672
entrevue	48629
▁ouverte	48628
▁vendue	48569
▁Mais	48558
▁tent	48537
dre	48535
▁Charte	48519
▁usage	48453
▁rép	48405
▁Elles	48358
▁instance	48339
▁rest	48259
▁figure	48253
▁degré	48248
▁marchande	48237
▁comptant	48216
▁réussi	48213
▁définie	48201
▁sénat	48112
ine	48080
k	48067
▁coentreprise	48057
▁répercussion	48032
▁constitué	47937
▁51	47890
dire	47844
▁gouvernementale	47824
value	47796
▁grave	47787
me	47776
▁publiques	47741
▁Coût	47672
▁mode	47665
▁législati	47632
accepter	47604
▁appelé	47591
▁63	47528
▁grief	47528
▁Saint	47503
▁significative	47502
ardeau	47463
am	47461
▁procédé	47431
▁tarif	47375
▁110	47343
▁IAS	47316
▁feu	47249
▁85	47244
▁sûr	47244
▁physique	47240
▁Fund	47225
▁vaste	47167
X	47140
▁maximum	47125
▁Sous	47121
▁initiative	47081
um	47052
-12	47045
▁loin	47044
pprovisionnement	47023
▁assorti	46997
▁Et	46975
▁impact	46957
▁intervention	46942
▁perdu	46938
▁violence	46925
▁parrain	46903
▁mondia	46893
▁Montant	46871
▁consultation	46841
▁courante	46836
▁tonnes	46797
▁apporté	46789
▁quasi	46726
▁apporter	46647
▁atténu	46612
▁contribution	46606
▁pêche	46600
▁cabinet	46599
▁Association	46588
▁conjoint	46582
▁fé	46532
▁authenti	46488
▁autorisée	46481
▁--	46477
▁53	46437
▁communications	46436
▁apportée	46403
▁précéde	46390
▁chance	46385
▁extraordinaire	46373
▁détenteur	46321
croit	46316
▁humanitaire	46314
▁retourn	46284
▁direct	46278
▁boursier	46263
▁taxes	46252
-10	46233
conseiller	46204
▁vendeur	46188
▁01	46177
▁espè	46136
▁expansion	46124
▁requise	46109
▁pai	46084
▁connaiss	46057
▁accepté	46055
▁souffr	46036
▁entraîner	46002
▁Agence	46001
▁auxquel	45898
▁Q	45812
▁interdit	45791
▁classé	45768
▁mensuelle	45763
▁découle	45756
▁déposer	45676
▁source	45664
▁calculée	45616
▁parc	45608
▁Comment	45588
▁Desjardins	45563
-11	45538
▁rencontré	45528
▁Nations	45527
▁Jean	45506
▁électeur	45502
▁préparé	45501
née	45495
▁extrême	45484
▁presqu	45484
▁supr	45470
▁Rien	45349
▁excédent	45294
▁conçu	45247
▁fréquen	45246
▁rembourse	45233
▁Financial	45213
▁durable	45140
▁remboursé	45134
▁Pri	45109
▁occupe	45039
▁réuni	45018
▁exacte	44999
▁Obligations	44990
▁AU	44967
▁1995	44870
▁Vancouver	44863
▁mett	44857
▁classe	44840
▁plein	44830
▁crise	44807
▁provien	44761
▁veuil	44702
conque	44686
antes	44658
▁pétition	44630
ar	44614
▁équitable	44601
▁Note	44588
▁comportement	44581
mène	44567
▁professionnelle	44539
▁phase	44490
ly	44443
▁types	44370
▁trimestriel	44354
▁détenai	44352
▁arrive	44333
▁Centre	44289
▁LLC	44288
▁aspects	44271
▁agence	44238
ménagement	44220
▁67	44210
▁cent	44198
▁passant	44173
▁Ouest	44154
▁levée	44119
▁lecture	44094
▁cession	44077
▁occupé	44069
▁stable	44051
▁outil	44003
▁agriculteur	44001
▁recouvrement	43967
▁anglais	43895
▁huit	43890
▁obligatoire	43881
iques	43875
▁changer	43869
▁professionnel	43864
ut	43805
tandis	43795
▁pleine	43788
▁retard	43788
ard	43737
▁do	43672
▁placeur	43617
▁Veuille	43599
▁futures	43585
▁Perte	43546
cluant	43504
▁existant	43489
▁automobile	43484
▁échantillon	43474
▁établiss	43474
▁multiple	43416
▁Financière	43335
heureuse	43310
▁mention	43304
▁Contrat	43265
▁fixé	43220
▁planification	43218
▁porté	43217
▁spécial	43183
▁appréciation	43166
▁indemnité	43141
▁préjudic	43122
▁Ressources	43114
▁Pend	43112
▁56	43071
▁acheté	43051
▁congé	43006
▁reflète	42973
▁Page	42940
▁négatif	42928
▁tâche	42913
▁effectif	42898
▁décider	42871
terminant	42869
▁bois	42869
▁Université	42867
▁estimation	42837
▁retourné	42832
▁illustr	42823
▁loca	42772
▁recommande	42745
▁intérieur	42739
▁partis	42725
▁incombe	42715
▁lumière	42694
lez	42648
▁arrangement	42648
▁54	42608
▁Con	42546
▁Act	42524
▁traiter	42500
▁AUX	42383
▁déc	42339
onformément	42338
▁collaboration	42338
▁confirmé	42295
▁considér	42262
▁presse	42252
▁régie	42239
▁1993	42211
ugmentation	42200
▁Royaume	42198
faud	42183
▁volumes	42159
▁renforce	42108
▁ancienne	42104
▁57	42047
▁provisions	42032
▁argument	42009
tion	41979
▁accordée	41952
▁éthique	41948
▁1990	41937
▁relevé	41874
▁repose	41830
°	41827
▁rentabili	41826
▁Administrateur	41823
ive	41821
▁affidavit	41780
iv	41749
mener	41731
▁Global	41713
▁Gold	41702
▁72	41679
▁envoyé	41666
▁ouvrable	41663
▁Ma	41647
▁1985	41645
▁subvention	41642
ête	41641
▁représenté	41604
▁large	41595
▁test	41585
▁devra	41582
▁démontre	41578
▁aliment	41557
▁cour	41532
▁industriel	41528
▁exemplaire	41475
▁devenu	41463
▁orientation	41441
▁réglé	41439
▁renvoyé	41426
H	41403
▁vend	41344
▁puit	41343
▁commandité	41290
▁Y	41281
au	41256
▁courtage	41213
▁ACTIONS	41178
▁suffisant	41144
▁Ré	41142
▁administrative	41117
▁contrebalanc	41047
▁éviter	41044
▁graphique	41031
▁positions	41021
▁payée	40936
▁force	40930
▁souhaite	40917
▁culture	40904
▁Asset	40889
▁Développement	40863
▁subir	40856
▁changé	40840
▁fixation	40827
▁PAR	40757
-3	40752
▁Service	40706
▁expiration	40703
▁transition	40700
▁clinique	40697
▁paie	40659
▁ultérieure	40633
▁complexe	40590
▁Affaires	40580
▁distinct	40578
▁partenariat	40561
▁taille	40554
▁Dossier	40449
▁Certain	40444
▁expression	40435
▁assujetti	40434
▁exclusion	40424
▁fondamentale	40409
20	40405
▁examine	40330
licite	40325
▁Règl	40317
▁conserver	40287
▁légère	40285
▁inférieure	40260
nous	40211
▁appuyé	40196
▁conjonct	40186
▁partielle	40176
▁infrastructure	40167
▁rajusté	40155
▁courriel	40148
▁seuil	40135
▁symbol	40133
▁report	40098
ac	40054
▁mentionne	40050
10	40043
▁instructions	40042
▁locataire	40038
▁fondées	40032
▁coupable	40021
▁fédérales	40019
▁dilué	39934
▁déposit	39928
▁adoptée	39892
▁Marché	39886
environnementale	39884
▁FR	39879
▁envoi	39872
▁effectue	39847
▁Solde	39833
▁ajouter	39801
▁file	39750
▁indiqu	39717
vec	39663
▁64	39660
▁déterminée	39657
▁700	39649
▁électorale	39631
▁découvert	39603
▁Incidence	39595
-15	39588
▁mort	39560
▁litige	39522
▁Non	39512
▁fausse	39466
▁Ont	39448
▁Taux	39421
▁confirm	39404
▁remis	39400
▁sud	39365
▁diversifié	39309
▁discuter	39307
▁conjointe	39285
75	39217
▁lire	39213
▁met	39207
▁exigible	39205
rons	39192
▁Description	39162
▁profits	39150
▁empêcher	39149
▁DÉ	39144
▁sélection	39138
▁élargi	39132
▁fisca	39121
▁First	39097
▁convenu	39029
▁centres	39020
▁pose	39001
▁essay	38996
▁tienne	38994
ence	38981
▁accru	38979
Uni	38905
▁émergent	38847
▁démontré	38822
▁énoncée	38815
▁infrastructures	38795
▁1994	38776
▁Nivea	38770
doc	38750
▁York	38750
▁Programme	38726
▁Notes	38720
▁récente	38701
▁intitulée	38698
▁subalterne	38686
ti	38683
▁porter	38677
▁adéquate	38661
to	38639
▁Sécurit	38596
▁précède	38551
▁revue	38531
▁estimé	38480
urs	38461
▁réputé	38438
▁servi	38414
▁exposée	38412
▁impression	38404
▁Oppos	38396
▁détermination	38395
▁intervenant	38315
▁SA	38302
▁minutes	38291
▁97	38241
avis	38233
▁notation	38227
▁moindre	38211
▁investisseur	38205
ale	38202
▁superficie	38201
actions	38189
▁zones	38174
▁acceptation	38163
▁composition	38159
ANT	38117
50	38105
▁fasse	38074
▁accompli	38069
▁technique	38043
▁interje	38035
▁assujettis	38023
▁accueilli	38008
▁sortie	37992
▁Bureau	37981
▁lancé	37976
quer	37971
▁affiché	37952
▁sondage	37950
▁quantité	37948
▁apparten	37931
▁relié	37931
▁rachet	37929
▁auteur	37915
▁minimale	37905
écu	37896
▁pay	37893
ÉS	37879
.1	37854
▁Manitoba	37846
▁exprim	37747
▁fourniss	37742
▁imposer	37663
▁arrêté	37622
▁intégrée	37615
▁Quel	37612
▁Z	37606
▁réforme	37601
▁ami	37594
ateur	37592
▁incitatif	37582
▁train	37576
▁sensible	37572
çon	37529
▁augmente	37522
▁dis	37515
▁indiquées	37461
▁obtien	37456
▁patient	37437
▁susmentionné	37430
▁61	37427
▁59	37404
▁anti	37368
veiller	37351
continué	37325
quitté	37322
▁propositions	37319
▁mérite	37305
▁défi	37295
ai	37292
▁coupon	37272
▁envisage	37249
MD	37241
▁pr	37236
▁assure	37201
▁pauvre	37196
▁décè	37185
▁aurifère	37173
▁File	37140
▁esprit	37091
▁Santé	37076
▁Mon	37068
des	37024
ite	37002
▁discussions	36997
▁nécessité	36985
lève	36983
▁entier	36981
▁Calgary	36930
▁complémentaires	36904
▁portent	36892
▁logiciel	36879
▁passée	36876
▁Brookfield	36866
▁positive	36857
▁Saskatchewan	36847
▁dommages	36797
▁Rémunération	36795
▁valide	36785
▁societ	36784
▁appartien	36776
est	36766
▁écoute	36705
▁68	36681
▁résume	36680
▁travaille	36671
▁volont	36664
▁civil	36638
▁commencer	36626
tes	36574
▁totalisé	36565
otation	36556
▁majoré	36549
▁existante	36548
25	36489
▁arriver	36488
▁conférence	36476
poid	36473
▁Qui	36452
▁émettr	36420
▁All	36406
▁bout	36393
▁117	36358
issent	36272
un	36249
▁rue	36247
-02	36241
▁association	36204
▁traite	36195
▁imposée	36190
Y	36153
-01	36057
▁souligne	36046
ène	36036
▁quote	36035
▁amis	35994
▁récent	35994
▁télé	35969
▁accroisse	35919
▁formulé	35872
▁mécanisme	35872
▁120	35856
▁impose	35849
use	35840
▁jugé	35820
▁évalue	35804
▁modifi	35776
▁éviden	35768
▁Marque	35750
▁réform	35745
▁individuelle	35737
▁équit	35713
▁obtention	35709
▁participants	35698
▁accrue	35689
▁62	35688
naires	35671
▁convainc	35664
▁législat	35651
▁Mandat	35625
▁loyer	35605
▁individuel	35601
▁détention	35579
▁66	35573
▁Investment	35571
▁futur	35555
▁démontrer	35550
▁délais	35518
▁forma	35460
▁approuvée	35423
▁démocratique	35410
-03	35407
▁96	35380
▁sub	35360
▁estimative	35341
▁vienne	35317
▁appréci	35252
▁promesse	35245
▁chemin	35236
▁forces	35228
▁téléphonique	35170
▁Pro	35148
▁remettr	35142
▁occuper	35098
▁causé	35075
▁prestat	35056
▁TPS	35037
▁doi	34996
▁octroyée	34979
▁coup	34961
ire	34950
▁retenue	34915
-13	34881
Écos	34869
▁sup	34852
▁Acquisition	34842
▁détaillée	34838
\	34824
▁fabricant	34817
▁instrument	34805
▁aîné	34782
▁varie	34773
▁liquide	34746
▁retire	34682
▁Russell	34680
▁125	34654
▁résultant	34652
▁venu	34652
▁appliqué	34615
▁cat	34601
▁acquitter	34593
onsieur	34591
▁95	34548
▁désir	34544
couverte	34479
▁dirigeant	34426
▁Exercice	34410
▁guerr	34367
▁Paul	34330
▁minérale	34316
▁incorporel	34311
▁séparé	34292
▁antérieur	34284
▁exportation	34271
▁géographique	34262
▁moitié	34256
▁provisoire	34201
▁produite	34188
▁laisser	34172
▁limité	34146
voit	34112
▁télécommunicat	34111
isant	34110
▁Dé	34088
ière	34083
▁publication	34021
▁policiers	34020
▁journée	34019
ouvoir	33992
tend	33986
▁para	33984
▁Transport	33982
▁marche	33975
▁entraîné	33970
▁représentai	33960
▁Sud	33935
sedar	33905
▁Instruments	33874
▁manifeste	33867
▁périodique	33851
▁engage	33842
▁patrimoine	33767
▁accorde	33764
▁message	33763
▁contact	33756
▁Fact	33754
étique	33732
▁commence	33729
joindre	33720
rier	33697
▁local	33678
▁profil	33677
-5	33673
▁posséd	33669
nement	33658
▁Investors	33655
▁future	33652
▁démarche	33610
▁désignée	33578
▁FINANCIERS	33575
▁David	33563
▁aéroport	33553
▁Communications	33538
▁reflét	33537
gère	33525
▁sexuelle	33492
▁by	33485
▁définitive	33478
▁favoriser	33454
▁comprenai	33451
▁adjoint	33421
▁combattant	33396
▁admis	33383
▁accepte	33379
▁criminelle	33345
▁institution	33318
▁candidature	33316
▁experts	33308
▁Première	33281
▁discut	33279
▁minière	33274
pression	33268
▁pench	33268
▁requête	33264
▁Période	33252
▁exploitant	33248
▁Premières	33227
▁distincte	33219
▁discrimination	33210
▁promotion	33193
▁2021	33183
▁Résultat	33180
▁He	33174
▁initiat	33174
▁Scotia	33162
▁naissance	33162
▁arguments	33158
été	33114
▁équilibre	33114
▁expertise	33079
▁Ne	33078
▁crime	33062
rainte	33021
▁suffi	33018
▁situations	32989
esse	32980
▁réfugié	32977
▁contractuelle	32973
▁900	32972
▁urgence	32950
▁bâtiment	32905
▁trouvé	32905
▁incident	32899
ÉE	32896
érence	32838
▁reconnue	32823
▁mauvaise	32804
▁drogue	32790
ville	32789
▁exposés	32789
▁1992	32785
▁second	32774
15	32744
▁utilisateur	32727
▁répondant	32721
▁1981	32699
abilité	32692
▁West	32679
▁consolidée	32678
00	32652
0,00	32630
▁Votre	32620
▁égale	32614
vienne	32600
▁fall	32600
▁scientifique	32595
▁précéd	32585
▁pondération	32539
ieux	32522
ssement	32506
▁intéresse	32493
▁proportion	32478
▁nouvel	32451
▁appliquée	32447
▁accident	32441
▁Trois	32433
▁Lors	32426
▁Fond	32421
▁joint	32371
▁condamn	32366
▁oblig	32364
▁volontaire	32358
▁conception	32328
▁retenu	32324
▁Standard	32310
▁retrouve	32309
euse	32300
▁gros	32298
▁LP	32293
▁volet	32281
▁passeport	32260
▁Afin	32255
▁soup	32244
eau	32238
▁GRC	32237
▁graves	32229
▁encaisse	32208
▁progr	32206
▁visit	32204
▁Charges	32172
▁gagné	32165
ça	32163
▁terres	32127
▁Me	32118
▁III	32029
▁brevet	32015
▁quelqu	32010
▁verse	32008
approuver	31986
▁résili	31966
▁profiter	31953
▁corrig	31906
▁assist	31881
▁interveni	31881
▁armée	31867
▁jeu	31846
▁minimal	31826
▁69	31812
▁différe	31812
▁serve	31812
▁familial	31808
rez	31803
▁fi	31784
-19	31783
▁peuple	31769
▁ÉTATS	31768
con	31762
▁bar	31759
▁signature	31737
▁Indice	31735
moins	31709
▁majeure	31701
▁mentionnée	31689
▁éch	31662
▁mené	31655
▁publicité	31650
▁Assemblée	31636
▁provincia	31633
-20	31610
▁municipalité	31585
▁couvrir	31553
▁Resources	31542
▁assuré	31542
▁procureur	31542
▁hier	31539
▁CDS	31498
▁Protection	31483
▁due	31461
▁Partie	31440
▁exercées	31420
▁France	31399
▁Client	31389
▁Impôt	31368
▁Robert	31314
▁concession	31302
▁Dynamique	31289
▁impossible	31286
▁incluse	31266
ro	31258
▁PLC	31257
#	31228
▁SEDAR	31221
▁1,5	31173
▁spécialisé	31164
▁suffisante	31157
▁quitter	31149
▁bénéficier	31145
▁évaluée	31142
▁stock	31123
Z	31111
▁médica	31108
-4	31093
▁critique	31093
▁Activité	31080
▁consenti	31075
▁excellent	31053
▁reconnaiss	31053
▁Street	31043
▁commanditaire	31043
iens	31014
▁réclamation	31004
▁bénéfici	30999
▁fondement	30984
ves	30955
▁minerai	30946
▁annualisé	30943
▁danger	30941
▁revi	30932
cution	30894
▁tenant	30889
▁gr	30886
▁inscri	30881
▁AGF	30872
▁cumulatif	30867
▁satisfait	30865
▁swaps	30855
FP	30849
investissement	30816
▁incapable	30815
▁consolidation	30791
Brunswick	30786
▁puiss	30770
▁substitution	30753
▁adm	30735
▁anticipée	30735
▁pens	30718
posée	30708
30	30685
-14	30680
▁prenant	30675
▁répartis	30669
▁Plan	30662
perçu	30648
▁euro	30637
▁entraîne	30631
▁exiger	30630
▪	30609
▁internationa	30575
▁nommer	30558
▁interdiction	30529
▁Canadien	30523
aître	30517
voque	30496
▁750	30496
▁cesse	30490
▁nominale	30456
▁99	30453
▁soumett	30447
erie	30445
▁intitulé	30435
▁légale	30429
▁bande	30394
▁contenue	30383
ch	30368
▁délivr	30339
▁sites	30322
-04	30316
▁Terre	30292
▁créditeurs	30290
▁couple	30278
▁71	30276
▁gisement	30251
▁démocrati	30247
▁cumulé	30243
ig	30221
▁allég	30221
▁conditionnelle	30204
▁observation	30203
▁leadership	30194
▁Norme	30189
▁indices	30185
▁souscripteur	30175
▁informer	30170
▁prononcé	30170
▁miniers	30134
11	30117
▁Chef	30106
ouze	30084
▁déterminées	30047
▁recu	30043
▁prescrit	30025
▁Mars	30023
▁écou	30010
▁européenne	30000
▁Ltée	29997
▁anticipé	29997
▁Quant	29995
▁précision	29994
▁distribu	29990
▁délivré	29972
penser	29944
▁indépendante	29933
▁auto	29908
▁clauses	29762
▁intégrant	29755
▁enregistrée	29747
▁fut	29735
▁concurrentiel	29727
▁exigence	29726
achète	29657
▁514	29641
sert	29623
▁obtenue	29613
▁budgétaire	29602
▁plaisir	29602
▁TSS	29570
▁05	29565
▁climatique	29563
▁91	29547
▁numérique	29537
▁champ	29532
-16	29509
▁intéressant	29500
▁science	29483
▁satisfai	29481
▁chôm	29456
▁expose	29455
▁Flux	29436
▁vision	29428
▁acceptable	29407
▁Justice	29399
▁invite	29393
▁surface	29386
▁84	29366
▁Analyse	29324
DA	29312
▁marketing	29287
▁pensions	29284
▁can	29281
▁rachetée	29279
▁81	29276
▁Technologies	29271
▁accent	29270
▁98	29263
▁Procureur	29261
rai	29232
▁Vente	29222
riez	29203
▁violation	29152
▁bail	29106
▁respecte	29089
▁publiée	29073
▁130	29066
▁appris	29059
▁renouvellement	29048
▁distribué	29030
▁abandonnée	29008
prouver	29002
▁devenue	28999
▁représentation	28993
▁indicateur	28992
RE	28979
-18	28976
▁croy	28959
▁North	28937
▁Hon	28932
-06	28931
▁retrait	28929
▁éliminer	28912
▁compensation	28897
▁résulte	28884
▁Martin	28877
▁accessible	28854
▁limiter	28841
issé	28832
ri	28804
▁poursuiv	28784
▁mineur	28782
ins	28762
espér	28735
▁tire	28728
▁engager	28708
▁Droit	28706
▁faciliter	28703
▁period	28694
▁pourri	28693
▁invité	28681
Ouest	28677
venant	28665
▁survenu	28644
ge	28615
▁73	28608
ège	28605
▁Limitée	28605
▁lutte	28595
▁capable	28577
▁BCE	28566
▁Mexi	28561
▁invalidit	28557
du	28555
▁00	28542
▁chiffré	28542
posé	28538
▁2022	28523
▁CEI	28500
▁touche	28495
èvement	28488
▁poursuivies	28473
▁bloc	28465
▁vérifi	28446
▁trimestrielle	28443
▁Puisqu	28430
▁familiale	28419
▁assister	28415
▁correspondent	28414
▁Inter	28405
▁IAD	28397
▁Institut	28387
-05	28386
▁vive	28377
nnulation	28370
demain	28357
rainage	28345
▁valable	28331
ley	28323
rogé	28318
•	28307
,	28296
▁pre	28277
vront	28257
Grâce	28256
▁travers	28255
▁navire	28254
▁ser	28241
▁retiré	28210
-17	28199
▁Office	28188
▁génération	28165
▁croyons	28155
▁dispos	28113
▁préserv	28052
▁Lake	28050
▁aspect	28027
▁profondeur	28013
▁Fait	27997
▁élabor	27995
▁possession	27990
12	27986
▁crimes	27982
▁confère	27978
▁actualis	27976
dra	27974
▁diminuer	27964
▁soir	27953
▁suppos	27953
▁chaîne	27937
-07	27929
▁technologique	27928
▁génér	27916
▁attribue	27899
▁Requérant	27885
▁issue	27885
▁ETF	27864
roissance	27857
UAD	27856
▁144	27844
▁77	27843
▁92	27838
idé	27831
▁excédentaire	27825
ifs	27824
▁Pierre	27819
▁Franklin	27806
▁76	27794
résorerie	27793
▁Options	27792
ma	27791
▁Union	27784
▁municipalités	27781
▁influence	27778
▁74	27768
échi	27761
▁afférent	27743
▁prospective	27742
▁procurer	27740
▁complété	27735
▁exigé	27729
▁générer	27718
vie	27701
▁mémoire	27700
▁préliminaire	27688
iser	27687
bre	27686
▁salarié	27665
▁cré	27663
▁rapprochement	27661
▁am	27660
▁RÉ	27646
▁image	27614
▁situe	27614
▁fiable	27594
▁offres	27565
▁combiné	27563
▁PLACEMENT	27561
▁concurrent	27551
▁LC	27522
▁trouv	27516
▁RE	27491
▁exécutif	27490
▁divulgation	27489
▁facture	27463
▁morale	27455
▁06	27447
▁potentielle	27438
▁transféré	27438
▁1991	27436
eront	27430
▁indépendance	27427
▁culpabilit	27411
land	27398
▁réinvesti	27393
▁maintenu	27392
▁prudent	27375
ler	27370
▁couvert	27369
séjour	27359
▁Opération	27347
▁manquement	27329
▁River	27318
▁Durant	27317
▁constituer	27317
▁renferme	27308
▁énergétique	27307
▁93	27303
▁suppression	27303
▁admissibilit	27275
▁Ni	27268
▁su	27265
▁inhérent	27257
▁permission	27253
habitants	27224
▁dépasse	27215
▁nations	27210
▁plateforme	27207
j	27203
▁350	27203
▁fixer	27188
▁minières	27182
▁Deuxième	27180
▁Emploi	27180
▁100,00	27170
▁Hong	27157
▁consultations	27156
▁organisé	27140
▁Assurance	27109
▁réputée	27098
▁développer	27063
▁carrière	27057
▁route	27052
▁Projet	27048
▁Amortissement	27041
0,0	27031
▁78	26983
▁partiel	26975
DI	26973
▁acquér	26968
▁axée	26918
▁83	26900
démocrat	26892
▁soi	26888
▁Prêt	26885
▁Finance	26879
▁express	26864
▁récurrent	26829
▁ajoute	26812
▁entrer	26801
▁Passif	26765
▁calend	26764
▁TRIMESTRE	26756
▁détermine	26751
▁contesté	26742
ien	26698
panier	26694
▁Ratio	26690
▁fixée	26658
▁livré	26642
erait	26624
▁amorti	26598
▁with	26594
▁opportun	26575
▁pouvai	26568
▁DIRECTION	26559
▁Gain	26548
▁provincial	26533
igne	26523
▁180	26523
▁PCC	26523
▁imp	26519
▁Income	26509
▁régionale	26478
▁Membre	26474
▁participant	26474
▁prêteur	26472
▁disent	26466
▁carburant	26458
▁rédigé	26456
▁recevra	26455
ger	26421
▁endette	26413
16	26412
▁suspension	26403
LRQ	26383
▁onces	26376
▁transformation	26361
ujourd	26356
▁postérieur	26353
▁plaintes	26337
AIRE	26335
▁qualifié	26334
▁emplacement	26330
▁indiquée	26328
▁94	26295
▁communautaire	26295
▁collabor	26289
▁divorce	26289
▁signée	26279
▁Ordre	26274
▁traduit	26271
▁UN	26260
▁régiss	26256
17	26252
▁attentive	26242
naire	26241
▁reconnaissance	26237
hérent	26232
▁Index	26232
▁disposé	26215
▁Annexe	26199
▁affich	26177
▁AG	26170
▁86	26139
▁Règle	26122
▁indemnisation	26081
cité	26079
ver	26069
▁modéré	26062
citer	26059
▁79	26058
▁jeune	26055
▁respecté	26050
▁feron	26047
▁étend	26044
▁double	26038
Neuve	26029
ies	26016
▁occupation	25979
▁spécifique	25963
▁09	25962
▁prélevé	25962
▁réparation	25947
▁450	25939
▁français	25927
ER	25926
tabilité	25897
▁constatation	25897
▁eaux	25895
▁101	25886
▁amende	25858
▁saisie	25854
▁Enbridge	25853
▁hôpita	25848
ic	25845
▁licences	25828
▁102	25779
▁exploite	25760
usqu	25755
▁88	25745
frant	25740
érance	25738
éter	25727
▁saillants	25719
▁estimée	25707
▁frontière	25696
▁résid	25695
ettre	25658
▁jurisprudence	25657
écédent	25655
▁lancement	25654
▁compréhensi	25651
▁Winnipeg	25648
▁recommandé	25647
▁habitation	25639
end	25636
▁Risques	25629
▁Nom	25625
▁Al	25604
▁Asie	25603
▁informatique	25599
▁reflètent	25565
bles	25534
40	25525
▁Paiement	25517
▁inspection	25508
▁pondérée	25504
▁140	25495
FG	25493
▁TELUS	25486
▁demand	25485
▁cancer	25478
▁espace	25464
▁Intérêt	25454
▁Peu	25452
▁individu	25448
▁prête	25394
▁laisse	25387
▁demi	25384
no	25383
▁boursière	25377
▁respectif	25367
▁réput	25344
▁agi	25316
▁quotidien	25300
▁0,5	25298
▁Societ	25297
▁Investisseur	25285
▁clause	25282
▁discussion	25274
▁ressort	25246
▁SOCIÉTÉ	25245
▁adh	25219
▁nommée	25203
▁CO	25201
▁correcte	25198
▁profession	25197
▁arbitrage	25179
▁Gaz	25176
▁ado	25176
▁87	25165
▁résidentiel	25163
▁1,00	25159
▁représenter	25157
▁clé	25156
▁estimatif	25150
▁significatif	25146
▁111	25129
▁82	25119
▁Résultats	25111
rester	25106
GESTION	25093
▁illimité	25093
▁2023	25089
▁carbon	25084
▁constitution	25084
▁réglementé	25076
60	25075
▁mouvement	25048
▁classement	25024
▁statistique	25020
▁Province	24972
▁are	24969
imant	24961
-6	24956
-09	24952
▁ratios	24940
appelle	24882
éfense	24876
▁105	24876
▁rattaché	24867
▁envoy	24856
▁Canadienne	24839
▁89	24824
▁inflation	24794
▁cessation	24782
▁abonn	24779
▁abus	24757
▁restrictive	24729
▁documentation	24721
▁Dividende	24720
▁rémunér	24719
▁James	24692
erai	24671
▁libération	24670
encontre	24634
▁promoteur	24627
▁Can	24625
▁Politique	24604
meur	24603
oc	24603
14	24602
érer	24584
▁nationaux	24584
▁respective	24577
-21	24576
▁tenter	24566
▁protégé	24549
▁Accord	24544
▁produis	24541
▁Black	24536
▁constante	24530
▁fraude	24527
-26	24517
▁faibles	24515
▁portion	24511
▁ii	24493
▁SC	24485
13	24478
▁achetée	24477
▁destinée	24476
▁citoyennet	24474
▁distinction	24459
▁varier	24458
▁habit	24437
▁IASB	24433
▁dissolution	24413
▁assume	24411
▁tests	24410
▁élimin	24408
▁unanime	24406
égué	24335
▁décide	24332
up	24317
chercher	24296
▁alcool	24293
▁conscient	24280
▁Ses	24263
▁préparer	24263
▁portai	24253
ul	24252
▁Énergie	24250
gnification	24239
▁MM	24229
▁Leur	24224
IN	24223
▁statu	24215
▁devai	24183
ateurs	24172
▁contribuer	24171
▁réclam	24168
ref	24159
èle	24159
▁progression	24157
▁ouest	24142
▁associées	24109
placé	24101
çant	24101
-08	24098
▁Peter	24091
▁innovation	24067
▁HSBC	24054
▁constatée	24052
▁rajustement	24047
im	24045
▁agricole	24043
▁évidence	24040
▁pétrolière	24030
▁Caisse	24014
▁An	24013
▁km	24004
▁sûreté	23998
▁Securities	23972
▁hypothèque	23969
▁prononc	23968
▁115	23926
▁George	23901
▁subordonnée	23881
ot	23858
▁surplus	23853
“	23852
rité	23847
▁demeurer	23846
▁livrer	23846
▁médical	23842
hèque	23838
▁104	23831
▁titris	23823
▁prison	23807
▁retraité	23806
▁Division	23803
▁103	23801
▁amortis	23782
▁ignor	23777
▁post	23776
énumér	23767
▁entrepris	23754
▁emprisonne	23749
▁prosp	23744
▁attendu	23743
pe	23737
▁imputé	23725
▁diffère	23724
▁souscrit	23723
▁négocier	23704
19	23688
▁détaillé	23684
▁anniversaire	23680
▁133	23670
▁incluent	23657
▁108	23641
▁spécifiques	23641
▁Réf	23638
▁rentable	23637
▁transparenc	23626
▁importation	23622
▁assumer	23609
▁mobile	23599
mp	23596
-25	23595
elles	23589
be	23587
do	23586
▁soumission	23576
▁hé	23575
▁proportionnelle	23554
isée	23551
▁seconde	23542
der	23541
▁adulte	23540
▁160	23532
▁Conseiller	23531
▁animaux	23526
▁imposé	23516
▁législatif	23498
éclair	23496
▁distributeur	23496
18	23493
▁416	23487
▁ministériel	23487
ni	23485
▁As	23484
▁excellente	23482
▁1989	23476
▁confér	23460
▁composée	23458
▁that	23439
▁récupération	23438
pire	23434
”	23434
termine	23417
élévision	23412
out	23410
▁concentration	23367
▁rétabli	23364
norme	23363
▁Capita	23363
▁engagées	23346
▁toucher	23337
▁prennent	23336
▁incoh	23318
▁spécia	23307
ible	23301
▁Participation	23301
trait	23288
issant	23272
▁proche	23261
▁07	23255
▁désignation	23244
▁déterminant	23244
▁reportée	23229
▁traitée	23211
▁incapacité	23206
▁défini	23194
▁Ex	23191
égitime	23185
-7	23182
▁Hydro	23182
▁connue	23173
▁détienne	23163
▁dispense	23162
▁BQ	23160
nom	23139
▁har	23136
▁tête	23134
▁remplacer	23112
▁Oui	23105
▁tentative	23105
▁criminalit	23103
▁approuve	23094
▁Renseignement	23076
ha	23070
▁validit	23058
▁Edmonton	23053
sectorielle	23042
▁recueilli	23034
▁loué	23025
▁cuivre	23024
▁08	23018
▁locative	23015
éni	23011
▁CON	23006
▁Couronne	23006
▁compren	23000
▁analyses	22988
▁SECTION	22981
▁fédéraux	22944
▁appliqu	22921
▁Ab	22904
▁107	22903
▁Investissements	22902
▁baux	22892
▁médicale	22888
▁Port	22861
▁Constitution	22859
▁consultatif	22853
▁enseignement	22846
▁03	22837
▁salle	22831
ail	22819
▁Michael	22816
isait	22802
▁hôtel	22796
▁Sans	22794
oudre	22788
27	22780
▁sol	22779
▁fondamental	22764
eration	22755
▁affirmation	22753
▁erron	22750
▁Distributions	22749
▁mines	22739
▁amélioré	22736
▁stade	22734
▁omission	22726
▁Propriété	22718
▁sexe	22716
-23	22715
▁360	22706
▁from	22699
ération	22697
▁perçu	22696
▁rév	22679
▁université	22675
▁175	22669
▁2,5	22664
▁02	22657
utilité	22656
▁engagée	22656
gression	22646
▁106	22642
▁prom	22640
29	22616
▁Forces	22599
▁mixte	22578
▁défendeur	22570
▁Commerce	22543
▁Manuel	22540
▁Hill	22528
▁mandataire	22510
▁surveiller	22508
▁semestriel	22507
▁péri	22503
▁instruction	22499
min	22488
▁poursuit	22482
▁fondamenta	22475
▁Tr	22470
▁élev	22467
▁probant	22459
▁combinaison	22434
▁développé	22420
▁1988	22400
▁joue	22394
▁tir	22376
▁contrôlée	22374
▁demeuré	22372
▁We	22369
ales	22342
▁tour	22337
▁109	22332
▁mentale	22326
▁signe	22325
ève	22316
▁essence	22314
hinois	22278
▁rural	22272
▁entour	22266
▁tarifaire	22257
▁RCS	22256
▁satisfaisant	22256
▁arbitre	22252
▁extrait	22234
▁poursuivi	22220
▁préventi	22218
▁voiture	22217
▁Australi	22209
▁Grand	22198
▁domicile	22197
▁étroite	22196
▁proposer	22195
▁Entre	22190
▁fourniture	22190
vocation	22180
atoire	22173
80	22162
euses	22149
▁menée	22142
▁Mouvement	22134
▁réduite	22129
▁dilution	22128
ôt	22112
fi	22098
▁pren	22096
tique	22058
▁Stratégie	22052
▁agréés	22051
▁tomb	22043
▁FDA	22040
99	22028
▁Lac	22015
▁112	21997
lesse	21992
▁kilomètre	21988
mais	21942
▁analyste	21927
▁recrute	21916
©	21905
▁déduit	21886
▁lacun	21876
▁sold	21876
▁Parmi	21856
▁souscrir	21850
▁closes	21844
▁indications	21843
aille	21840
▁humain	21838
largement	21830
▁affiliée	21828
▁accréditive	21798
▁adéquat	21797
▁matin	21795
▁minier	21794
▁Avis	21783
▁contenant	21770
▁évolu	21768
▁désor	21761
▁GD	21753
▁vidéo	21732
▁ARC	21728
▁1,2	21727
and	21721
▁Charge	21721
▁impayé	21721
▁élaboré	21706
▁nucléaire	21681
jacente	21675
▁Quelle	21671
▁0,3	21665
▁régulier	21656
▁1,0	21648
▁faillite	21648
▁0,1	21640
▁parallèle	21637
▁concentré	21629
▁geste	21625
▁spécialisée	21624
▁disponibilité	21619
▁ferroviaire	21618
▁Tableau	21611
▁adoptées	21599
▁handicap	21596
▁vraisemblable	21588
▁identique	21584
▁lecteur	21578
moi	21572
▁IN	21570
×	21565
▁faiblesse	21560
▁Gas	21552
▁123	21548
▁Tel	21533
▁any	21522
▁charte	21519
▁Investments	21516
qui	21513
▁découverte	21512
▁Partners	21511
▁terre	21479
coeur	21468
résidence	21463
.2	21461
▁combl	21457
▁190	21444
▁favoris	21444
▁pourvoi	21443
ienne	21438
39	21434
▁constitutionnel	21427
▁irré	21422
▁ralentissement	21407
our	21403
▁pâte	21398
▁2024	21387
>	21383
▁aérien	21380
▁170	21370
garder	21369
▁exclusif	21356
▁contractuel	21355
▁industries	21355
▁SEC	21347
▁omis	21347
▁Bay	21341
levier	21339
▁Outre	21306
▁Encore	21297
▁original	21268
-22	21266
▁BC	21265
▁Mac	21262
▁permise	21262
▁préfér	21257
tendu	21256
▁At	21251
viendra	21247
▁normalisé	21241
▁So	21236
▁Nationale	21234
▁MSCI	21231
▁réussite	21226
go	21218
▁113	21215
tation	21210
▁TA	21210
▁install	21210
▁expert	21193
▁prospectives	21181
▁précieu	21177
▁pou	21166
▁Board	21163
▁0,2	21153
mont	21134
▁consist	21134
▁liquidation	21133
▁Premier	21123
▁régi	21121
▁118	21118
▁Remboursement	21113
▁mauvais	21110
▁escompte	21090
▁censé	21085
▁Dette	21081
▁combi	21079
▁recouvrable	21072
exactitude	21065
▁135	21059
nelle	21058
▁Invesco	21056
▁dynamique	21056
▁Bon	21046
can	21034
▁Japon	21030
▁INFORMATION	21020
▁disciplinaire	21005
▁institutionnel	20996
▁composant	20992
▁pétrolier	20992
REER	20990
CO	20980
▁manqu	20961
▁Traduction	20953
▁approximative	20949
▁Unies	20941
▁signer	20940
▁vulnérab	20940
échange	20937
olé	20930
▁universel	20917
▁néglig	20914
ph	20891
▁fourchette	20882
▁embauche	20867
▁CANADA	20858
Canada	20851
▁04	20835
ry	20834
▁1987	20815
▁entière	20813
dépendance	20801
▁convocation	20791
faite	20790
21	20775
iversité	20772
gure	20769
▁guide	20754
AUX	20746
▁ICCA	20740
▁liaison	20739
▁avisé	20733
▁employée	20728
▁bio	20724
▁Mc	20714
▁114	20707
▁Great	20701
▁1986	20697
▁réduis	20688
49	20683
▁chambre	20681
▁partisan	20660
▁145	20643
▁sinistr	20641
▁créancier	20637
▁fra	20633
▁pharmaceutique	20622
▁sanction	20620
▁Gouvernement	20614
▁déce	20601
▁couvr	20595
▁encourage	20589
▁délinquant	20585
▁Juste	20575
▁convertis	20557
▁122	20550
▁TITRE	20515
▁scénario	20496
▁128	20488
▁montré	20486
▁corrobor	20484
▁veille	20481
▁modifie	20470
vis	20464
▁iShares	20460
autoriser	20454
▁refuse	20450
▁enf	20447
▁ON	20437
▁intellectuel	20427
−	20423
▁dégagé	20409
▁annulée	20408
▁116	20396
▁productif	20393
▁119	20369
▁Émission	20363
▁121	20362
▁belle	20344
▁révisée	20339
oubli	20338
sible	20336
▁religieu	20331
▁affecter	20314
▁productivit	20314
▁comptabiliser	20310
▁Richard	20308
▁CAE	20306
▁rentr	20305
▁IA	20299
▁accumulé	20288
▁harmonis	20268
▁nécessite	20266
▁Royal	20263
▁transmis	20261
llèg	20258
vère	20246
▁agriculture	20241
ORIE	20240
mer	20233
blé	20226
estionnaire	20226
vide	20223
▁transmission	20214
▁mains	20212
▁gagner	20209
▁goodwill	20206
▁appelée	20204
ssés	20200
▁intégrale	20192
▁sent	20189
▁vérit	20180
▁recour	20178
▁Fraser	20169
atif	20155
▁associée	20125
ification	20123
▁faux	20113
Centre	20098
▁Directeur	20098
ités	20096
▁éventualité	20094
▁axé	20087
▁sanctions	20077
▁stimul	20077
irai	20065
▁has	20063
▁856	20032
„	20030
▁bord	20024
▁Solutions	20021
prouvée	20010
▁entré	20005
pondération	19996
▁enver	19996
▁129	19993
▁cycle	19989
▁concert	19987
va	19986
▁remplacée	19986
▁douane	19983
▁préval	19981
▁Mines	19976
médi	19974
▁industrielle	19974
▁appuyée	19969
▁FT	19961
▁jugée	19940
▁gen	19939
▁Mesure	19933
▁majoritaire	19933
▁centaine	19930
galement	19915
▁form	19907
▁cumul	19897
▁promis	19863
AL	19847
▁CAF	19846
suscit	19845
▁Poste	19845
▁négociée	19840
▁IMM	19839
▁matériau	19838
▁prescrite	19837
▁2025	19828
specteur	19827
▁attest	19817
-24	19816
▁vêtement	19810
▁Québécois	19809
▁déplacement	19803
▁Man	19795
▁confirme	19793
▁Mo	19779
▁minéralisation	19773
▁126	19762
éparation	19757
▁construit	19753
▁neutr	19752
▁Exploration	19747
▁168	19742
▁plafond	19738
▁nation	19736
▁élaborer	19734
▁comptai	19730
Le	19726
28	19703
▁Ajustement	19700
▁Environnement	19691
▁atteign	19687
▁chimique	19683
▁pénalité	19678
▁régional	19667
▁autorise	19639
▁européen	19637
26	19631
▁renonciation	19631
▁aérienne	19630
▁examinée	19626
▁SI	19625
▁124	19624
▁127	19615
▁substitu	19614
▁0,6	19613
▁DANS	19613
ône	19600
q	19599
voqué	19598
mo	19577
▁corps	19554
▁riches	19546
orial	19536
▁recettes	19536
▁OU	19535
▁agricoles	19533
▁CAPITAL	19510
▁notion	19510
▁Industries	19509
▁1,1	19505
▁maritime	19503
▁compression	19500
▁fermé	19495
assurance	19477
70	19472
▁créée	19468
▁accéd	19467
▁préférentiel	19462
67	19444
ho	19440
▁moteur	19439
▁saisonni	19439
▁sûre	19438
▁adopt	19437
▁comt	19424
▁restaurant	19419
▁gouverneur	19418
▁rotation	19417
op	19404
action	19395
▁multi	19391
EURS	19369
▁CN	19363
▁CRT	19361
▁em	19353
▁République	19349
rafic	19348
▁Évaluation	19333
▁formé	19329
▁Etats	19318
24	19317
▁électrique	19317
▁scrutin	19313
▁justifié	19304
▁Modification	19293
▁distance	19293
▁exerç	19287
▁claims	19285
▁gard	19285
ajoutée	19284
▁consta	19281
▁suppose	19281
▁contracté	19279
▁oblige	19278
ang	19270
tention	19261
▁linéaire	19259
▁pé	19254
▁Signature	19249
▁prospection	19248
▁0,4	19245
▁spécialiste	19237
▁Demande	19220
▁Fédér	19214
onstitutionnelle	19209
▁détaillant	19204
nés	19200
▁acier	19181
ration	19180
▁identification	19169
▁Per	19165
▁logique	19162
▁once	19161
▁Deux	19140
▁Uni	19138
orée	19132
77	19131
▁affai	19129
▁levé	19121
val	19108
▁extraction	19094
▁royale	19076
▁tort	19071
▁Décision	19060
▁déclarée	19058
▁illégale	19057
▁present	19049
▁vois	19049
▁bri	19044
cèle	19043
▁évide	19038
West	19034
Est	19023
▁classée	19019
lauréat	19010
▁bourses	19010
-9	19002
33	18999
▁apprendr	18998
▁indirect	18993
▁225	18989
▁Di	18976
▁consolid	18975
▁port	18973
udi	18969
▁procède	18961
▁table	18955
EUR	18954
▁déclench	18947
▁parent	18944
je	18935
donner	18932
▁laboratoire	18922
▁crée	18915
eusement	18912
▁module	18905
▁coté	18900
▁empêch	18897
▁revoi	18896
▁fonde	18890
▁reliée	18889
▁minoritaire	18885
▁condui	18884
ian	18883
▁tente	18879
▁132	18874
▁Néan	18871
per	18868
▁initia	18862
▁143	18856
▁réfl	18851
ATÉG	18850
▁adressé	18838
IE	18837
▁terroriste	18818
ill	18795
cher	18791
▁147	18791
▁1982	18786
ON	18783
▁FINANCIÈRE	18774
▁suppléant	18765
▁retrouv	18764
22	18762
▁restante	18753
▁138	18752
▁accusation	18752
▁Afghanistan	18742
présentant	18740
▁batt	18739
▁ach	18738
▁fonctionnelle	18728
▁expire	18723
▁jury	18720
▁identifier	18715
▁révélé	18705
79	18686
▁ANNUEL	18674
▁RPC	18668
acceptable	18657
▁cotée	18654
▁commise	18652
̧	18647
▁finance	18644
▁Beau	18632
▁134	18623
▁district	18619
▁PRO	18612
Afrique	18607
▁cre	18605
▁146	18604
▁hypoth	18593
pressions	18592
▁137	18587
▁pilote	18576
▁négociat	18572
lo	18569
▁transmettr	18561
▁exploiter	18557
▁London	18556
ell	18554
▁240	18554
▁Am	18549
▁Royale	18529
▁confusion	18525
▁abrog	18523
EL	18516
▁française	18509
▁131	18504
▁National	18500
▁déten	18498
▁côte	18488
▁anomalies	18486
▁varié	18483
▁constant	18477
▁cach	18467
pit	18463
▁1,3	18458
▁dérivé	18458
▁maîtrise	18458
▁Ville	18454
▁basée	18453
59	18452
▁affectée	18450
36	18448
▁136	18445
▁autonome	18445
issement	18444
▁conserve	18441
▁Avantage	18437
▁139	18436
ouvrir	18435
joint	18428
▁Cours	18420
90	18398
▁opinions	18398
▁0,00	18394
▁authentic	18393
▁PC	18385
▁sérieuse	18385
▁coupons	18379
▁220	18378
▁air	18372
OMC	18370
▁comit	18367
▁reclassé	18359
▁consacré	18348
▁contribue	18348
▁automne	18346
▁activite	18345
▁fluctuation	18341
juste	18339
▁terminer	18329
▁Supplément	18326
tage	18324
45	18302
▁menac	18299
gi	18298
▁divisé	18287
tte	18280
tro	18271
▁RÉSULTATS	18267
▁honnête	18263
▁165	18260
études	18256
▁restant	18255
▁encourager	18254
▁restriction	18253
▁révél	18250
io	18249
▁650	18247
▁accessoire	18242
▁bénéficie	18242
▁k	18240
ivité	18237
spoir	18222
▁acceptée	18217
▁Honoraire	18212
▁Personne	18197
▁rem	18188
69	18185
pro	18175
▁210	18174
▁Smith	18173
▁exceptionnelle	18173
▁Ibid	18170
ice	18163
▁155	18153
44	18149
▁fabrique	18143
▁fa	18129
ires	18119
▁chute	18119
▁délégué	18114
▁revendication	18111
▁tonne	18096
▁1,4	18092
▁dépose	18086
▁Seul	18076
▁Rachat	18074
▁croissant	18055
américain	18054
emagne	18050
▁American	18041
totalit	18039
▁dégag	18027
▁épa	18026
▁Moins	18022
▁scolaire	18018
▁Loblaw	18016
▁Horizons	18010
nalité	18006
RI	18003
▁certification	18002
▁142	17976
▁141	17974
fait	17969
▁For	17966
▁us	17963
-31	17950
▁achet	17950
espèce	17948
▁Report	17948
▁applications	17948
tinence	17938
▁amortissements	17937
▁cannabis	17937
▁segment	17931
▁registr	17926
▁dispar	17920
▁Stock	17918
▁émise	17918
▁conservation	17916
▁voisin	17913
▁166	17904
▁Cabinet	17899
▁concentrer	17898
▁officiel	17893
Américain	17887
▁énonc	17882
46	17875
▁obligat	17864
▁PARTIE	17860
▁Comprend	17855
▁résiduelle	17845
OR	17841
▁capitalisé	17839
-30	17829
▁remplie	17821
▁exist	17819
ENDEMENT	17816
31	17811
Nord	17808
▁Chacun	17808
▁diversification	17804
▁op	17797
▁Be	17796
▁prolonge	17777
▁prorog	17770
pa	17755
▁Suite	17755
ières	17754
montrer	17754
▁550	17748
LE	17744
▁accusations	17744
▁IV	17743
▁exécut	17741
▁accompagn	17734
▁ramen	17734
37	17725
▁Pakistan	17725
ille	17723
▁0,9	17713
▁soutenue	17706
▁révisé	17686
▁sensibili	17683
▁230	17678
ION	17676
GC	17674
▁concurrentielle	17668
▁chiffrai	17667
▁radio	17665
▁identifié	17659
▁Bombardier	17656
▁définis	17650
▁ten	17646
iel	17640
▁respectée	17639
▁annuler	17636
▁blessure	17634
▁observable	17623
▁Mark	17619
89	17618
lisation	17616
▁149	17616
.01	17613
▁restreint	17612
▁tabac	17611
▁différend	17606
▁forestier	17604
▁UNE	17594
▁secret	17593
▁échangé	17593
▁148	17586
RER	17585
▁paramètre	17579
▁Profit	17572
▁2,0	17571
atrice	17567
▁défa	17567
▁fur	17567
▁habitu	17560
-07-09	17554
▁théorique	17554
▁budgets	17540
▁167	17519
▁sauve	17516
▁financé	17514
ap	17511
▁attitude	17510
▁sensibilit	17510
▁tu	17509
▁tacti	17502
ures	17499
▁Oil	17488
lin	17479
▁concord	17478
▁assureur	17477
▁actuarielle	17476
▁tiendra	17458
▁content	17457
▁MW	17450
▁cher	17434
▁152	17428
ceint	17423
▁Objectif	17423
asi	17416
▁159	17416
▁transporteur	17415
mètre	17409
▁empêche	17408
▁définitif	17407
▁redressement	17404
▁solvabilit	17399
▁nulle	17395
▁men	17392
▁consign	17384
▁privilégié	17381
aise	17380
▁REVENU	17378
peur	17377
▁motions	17368
sol	17364
▁immigrant	17364
▁renouvelé	17364
▁révise	17355
▁UAR	17354
▁ca	17348
▁facturé	17346
▁dirigé	17342
È	17327
▁fraction	17323
▁concr	17320
▁stabilis	17317
▁Lifeco	17314
▁RPD	17294
▁concept	17294
cession	17292
▁restreinte	17290
ourir	17288
▁journal	17284
▁viol	17282
▁161	17273
▁157	17268
▁recouvr	17252
▁reven	17250
▁supervis	17248
▁influ	17242
▁racheté	17241
▁discrétion	17231
tés	17222
cevoir	17218
atique	17214
IL	17213
▁bénévole	17211
▁333	17192
▁Relations	17185
▁0,7	17180
▁trous	17161
▁madam	17156
▁roche	17155
ka	17154
po	17152
▁serre	17143
▁traditionnel	17117
-27	17113
▁intérimaire	17107
▁156	17104
Autochtone	17101
▁indiciel	17098
venu	17097
▁accept	17095
ron	17094
▁convertie	17079
w	17078
85	17077
▁diminue	17073
▁common	17069
ham	17066
ak	17061
culé	17058
ines	17055
▁contributions	17050
▁déductible	17050
▁dépasser	17041
▁éliminé	17035
▁annoncée	17032
▁agréé	17028
▁allocation	17028
▁Kong	17026
▁Trimestre	17020
▁EX	17015
cédé	16994
oduc	16991
▁162	16986
une	16985
▁heureuse	16983
▁lucrati	16982
▁cite	16979
▁légal	16977
▁Universal	16976
▁approfondie	16976
▁Donc	16970
09	16967
▁Calcul	16966
▁pipeline	16965
▁Clarington	16958
▁analyser	16956
incère	16951
▁MA	16951
▁Exchange	16948
ko	16935
▁Mont	16935
ouleur	16932
▁souvien	16925
▁171	16903
▁insuffisant	16898
▁0,8	16892
vu	16886
-8	16885
ologie	16878
▁154	16875
▁swap	16872
raisonnable	16869
ouest	16868
▁151	16863
nomination	16862
▁pp	16857
▁compétente	16853
▁municipale	16849
▁moyenn	16845
▁AD	16844
▁basé	16841
▁Changement	16838
ise	16833
▁Métro	16829
eaux	16825
▁supervision	16820
▁ACTIF	16818
▁Mise	16812
▁adaptation	16805
▁annulé	16803
▁1,6	16800
▁153	16774
voir	16769
▁audiences	16763
▁Reine	16761
▁158	16757
23	16755
▁priv	16737
mar	16734
▁Écart	16732
AUTRES	16724
▁actualisée	16720
▁Suncor	16704
▁rechange	16700
▁prolongée	16697
expédition	16693
équivalence	16693
▁Pourcentage	16688
▁sectoriel	16684
▁exact	16682
▁motiv	16676
rices	16673
tel	16672
▁Mar	16668
Sud	16665
allocation	16660
▁flott	16659
▁fluctue	16659
5,00	16651
▁pe	16648
▁Aliant	16645
▁diamant	16640
▁courrie	16634
▁World	16598
▁Autorité	16596
56	16590
▁correctionnel	16589
▁consultant	16585
▁bâti	16583
▁fidé	16582
▁octroyé	16576
▁plai	16574
versement	16569
qu	16567
▁cherch	16561
▁proven	16557
▁voy	16554
▁ltée	16549
▁revend	16544
▁Fort	16543
▁majeur	16543
47	16534
vin	16518
▁intéressée	16515
▁fermée	16512
certitude	16507
▁révoqu	16505
▁pénale	16504
▁apparenté	16496
▁concerné	16488
▁gravit	16487
qué	16483
▁bacca	16483
▁affectation	16482
aï	16473
TS	16471
▁comptabilise	16471
▁courte	16467
▁VALEUR	16465
▁conservé	16465
▁franchis	16462
▁repér	16461
▁attestation	16440
tenez	16439
▁colonne	16406
ik	16390
▁Tire	16382
▁observer	16381
▁venue	16377
ong	16371
▁163	16370
▁instant	16363
▁CNW	16361
▁AC	16357
▁évent	16357
▁immobilière	16353
▁AP	16351
▁pla	16339
▁avancé	16322
harbon	16316
▁déontologi	16316
▁pointe	16308
▁General	16305
jeux	16301
▁pont	16297
▁ciblé	16295
▁rigoureuse	16292
▁couvre	16286
▁compétent	16279
rom	16269
▁citoyenne	16269
42	16259
▁260	16259
▁fiabilit	16259
▁Emprunt	16249
▁Principal	16247
▁Question	16246
▁gross	16246
▁185	16245
▁représentée	16244
primer	16240
▁nominal	16236
▁Déclaration	16214
▁Rogers	16202
▁Van	16202
▁sexuel	16201
●	16200
▁désire	16196
▁Sommaire	16194
▁Media	16187
▁arme	16183
La	16177
07	16174
▁prorogation	16167
▁intéressante	16160
▁définir	16157
▁franchise	16157
▁this	16151
▁Iran	16138
rage	16136
pét	16133
▁Exemple	16126
▁coopérative	16117
▁emprunteur	16114
▁camion	16110
▁latent	16101
▁participe	16100
35	16091
▁limit	16091
▁formulaires	16089
▁sentiment	16088
▁To	16079
▁Prime	16074
▁accélér	16071
▁prolongation	16070
gre	16068
86	16067
▁débuté	16060
lement	16053
▁agrandi	16053
▁dispositif	16048
▁affiche	16044
ign	16042
▁Final	16040
▁imprimé	16027
ssent	16026
▁164	16022
▁Fiera	16018
▁Dépôt	16009
iminution	15998
▁unitaire	15992
▁Offre	15986
▁pi	15985
▁investis	15977
▁America	15975
lu	15968
▁salariale	15968
▁isol	15965
accord	15963
▁212	15962
▁spécifi	15960
-29	15957
▁172	15955
▁3,5	15954
ITÉ	15951
▁176	15939
pr	15937
▁etc	15936
glet	15933
▁Valley	15926
▁nuit	15922
▁servant	15917
▁présumé	15914
▁existent	15907
▁forfait	15905
▁CONSOLIDÉS	15903
▁440	15898
GN	15896
▁assur	15891
rement	15885
IS	15877
▁its	15877
▁407	15876
▁exhaustive	15874
mère	15861
▁vis	15857
▁protocol	15853
▁zéro	15843
▁178	15838
▁succursale	15834
▁expulsion	15830
▁biologique	15828
▁205	15821
▁275	15821
·	15816
▁administré	15808
▁québécoise	15802
▁CNC	15798
▁169	15793
▁di	15792
▁Perm	15779
LI	15767
▁Mode	15764
▁subordonné	15764
▁découlent	15760
résil	15752
▁4,5	15750
▁fruit	15748
mi	15747
▁Infrastructure	15739
cesser	15729
UN	15727
▁hauteur	15727
▁dépensé	15723
▁dangereux	15719
▁conversation	15716
jointe	15715
63	15706
▁320	15701
▁commercialis	15700
▁Réserve	15699
▁173	15698
arité	15692
US	15689
Co	15686
▁baiss	15677
▁déménag	15671
▁CRTC	15661
ol	15657
▁El	15655
▁minorit	15636
port	15634
▁réévaluation	15630
▁définit	15629
▁CONSEIL	15627
▁lés	15627
imons	15619
-28	15618
▁vague	15618
▁traditionnelle	15617
▁démarr	15616
▁TVH	15615
▁174	15614
▁181	15614
88	15612
▁imputable	15600
▁sign	15589
SI	15587
ag	15567
ali	15565
▁Pipeline	15557
▁envoyée	15556
urée	15554
55	15547
▁fidèle	15544
▁sugg	15544
▁410	15543
▁serie	15541
▁divis	15539
▁communiqu	15532
▁mille	15532
▁189	15522
▁décri	15505
▁observée	15501
indre	15494
men	15493
▁confirmation	15491
▁1,7	15488
▁Val	15482
hi	15480
NI	15479
bas	15478
limentation	15468
▁jointe	15454
prié	15446
▁franc	15446
▁incidents	15445
▁présomption	15441
▁apprentis	15433
ate	15428
▁structures	15424
▁850	15416
ommage	15413
▁280	15407
▁classification	15407
▁joui	15407
▁néan	15406
▁signale	15406
▁radiation	15397
▁déchet	15390
▁Atlantique	15389
▁prélèvement	15376
▁religion	15373
▁325	15369
▁man	15369
▁entrepreneurs	15365
▁201	15360
gue	15356
▁effort	15356
▁sort	15354
▁270	15348
▁204	15344
▁Scott	15343
NE	15341
▁confront	15341
65	15336
▁diffusion	15335
▁convenable	15333
66	15330
▁AT	15330
▁démission	15329
▁contrainte	15319
▁faute	15311
▁730	15308
▁193	15304
malade	15301
5,0	15297
▁5,00	15296
▁Bo	15296
▁ordinateur	15291
▁réorganisation	15289
agne	15283
▁suivie	15280
ub	15279
Laurent	15278
éno	15272
87	15267
▁cru	15267
▁195	15261
▁1,8	15256
▁Park	15254
97	15252
▁délibér	15252
midi	15247
▁183	15247
TE	15243
aine	15240
▁attendue	15237
▁opportunité	15236
IC	15233
américaine	15233
▁NON	15233
▁192	15227
▁TransCanada	15225
AT	15206
▁croît	15206
▁177	15201
▁systématique	15199
illance	15198
▁375	15198
▁hiérarchi	15194
34	15192
ites	15191
▁cœur	15188
▁pipelines	15188
▁PORTEFEUILLE	15182
▁renvoy	15181
cu	15175
▁hiver	15174
▁modifiés	15173
chant	15170
▁adapté	15166
▁raffin	15164
▁résolu	15160
▁exercée	15159
▁populaire	15157
▁prot	15156
▁présum	15156
▁188	15154
vi	15153
▁témoigne	15153
GT	15150
▁collecte	15147
▁acquitté	15146
▁desquel	15146
▁184	15141
▁1980	15136
▁repris	15136
▁courus	15134
▁TR	15133
▁403	15128
line	15121
▁commune	15120
èque	15101
forme	15092
▁englobe	15090
▁indienne	15087
▁365	15081
▁187	15079
ME	15074
▁autoris	15074
▁rapproche	15072
éduire	15069
achev	15062
▁former	15062
▁entrepos	15061
monter	15058
▁182	15058
▁179	15051
réci	15050
▁pan	15050
▁transitoire	15043
primé	15035
▁Industrie	15031
▁411	15026
▁alimentaire	15024
▁lourd	15019
▁Don	15018
▁SCC	15011
▁Systems	15011
▁machine	15007
▁White	15002
76	15000
▁assumé	14992
▁présumée	14981
ule	14977
▁réside	14976
57	14973
▁excellence	14971
▁alimentaires	14966
▁épi	14958
▁violent	14955
▁démissionn	14954
▁consacrer	14944
▁Real	14942
ach	14935
EMENT	14933
▁213	14913
▁Sri	14904
▁191	14902
▁209	14899
▁Michel	14891
Templeton	14888
▁194	14886
▁tissu	14884
▁1984	14878
▁relever	14876
▁rythme	14869
▁dia	14865
▁186	14863
▁comparatif	14861
ip	14846
▁Halifax	14845
▁Ke	14825
ba	14822
▁négociable	14822
▁emballage	14819
▁foyer	14816
uée	14813
cul	14812
▁optique	14812
▁prioritaire	14809
▁Credit	14804
▁Radio	14801
▁South	14794
▁inchangé	14788
▁contrôler	14779
▁420	14778
▁soulev	14777
chec	14776
▁votes	14766
écoul	14764
▁arrangements	14763
▁418	14761
▁fr	14758
▁réservée	14758
▁donn	14757
▁855	14755
▁Système	14755
96	14754
▁215	14747
field	14736
▁fabriqué	14736
ifère	14735
lier	14733
▁Éléments	14712
éger	14706
▁stricte	14704
▁330	14703
▁mer	14701
che	14698
▁exécuter	14698
▁distribuer	14697
raign	14692
▁désigner	14671
▁Pré	14665
ju	14664
lutter	14658
▁Renaissance	14656
eille	14654
▁plafon	14654
ssant	14651
▁She	14651
▁encour	14648
MO	14643
▁exemption	14637
▁Modifications	14635
▁ajournement	14633
▁cra	14632
horaire	14631
forcé	14629
▁340	14629
uer	14627
▁235	14625
▁annoncer	14625
▁chiffrée	14612
nant	14609
▁2,2	14609
▁2026	14609
▁202	14608
▁it	14606
▁constituant	14604
▁Point	14589
▁longueur	14589
▁efficience	14588
▁po	14588
▁cellule	14587
▁TMX	14577
▁progressive	14576
▁déploy	14573
sortir	14569
oncle	14567
ous	14564
▁VI	14564
▁réduir	14562
nd	14561
placée	14561
▁tribut	14561
▁Ceci	14555
▁continueron	14554
▁ANNEXE	14552
examen	14548
▁déploie	14548
▁horizon	14546
▁Su	14545
▁ven	14540
lais	14536
▁correction	14536
▁bassin	14534
▁complémentaire	14526
▁acquitte	14524
▁arrest	14518
▁trompe	14517
▁Mining	14514
▁227	14512
ary	14510
▁excède	14506
QUE	14503
▁362	14503
▁remarquable	14498
▁Fa	14495
84	14487
▁199	14484
▁dissident	14480
▁Attribution	14479
▁gagn	14476
▁correspondra	14474
▁diplôme	14468
▁mainte	14462
▁emploie	14460
▁divulgué	14444
éléb	14442
▁0,01	14442
om	14439
▁Pacifi	14439
ney	14433
▁Do	14426
▁demeurée	14419
▁Bons	14415
anc	14411
▁instrui	14401
▁souscri	14401
▁lou	14399
▁combustible	14395
▁décret	14395
▁style	14395
ow	14391
▁conjugal	14388
▁construir	14369
▁Lanka	14365
▁transférer	14361
▁missions	14356
▁examens	14353
▁196	14351
▁apparte	14345
▁206	14342
▁cédé	14342
▁professeur	14339
▁Boralex	14336
▁occup	14336
▁265	14320
▁sommet	14315
▁Lynch	14311
▁qualifiée	14311
▁exceptionnel	14297
▁Donnée	14296
▁fibre	14286
▁cinqu	14283
▁latente	14282
▁pén	14264
chi	14261
▁arriv	14254
▁214	14248
cha	14246
lée	14241
▁208	14241
▁NET	14235
▁photographie	14234
▁Quo	14227
▁poisson	14227
els	14225
78	14220
▁issu	14220
▁île	14218
ries	14209
▁audition	14208
em	14204
cor	14202
▁administr	14190
▁197	14188
▁souscrite	14187
citée	14176
he	14176
réfère	14172
▁débit	14166
▁Média	14165
▁comparé	14160
▁Sentry	14156
▁explicit	14150
▁déclar	14149
▁207	14144
▁photos	14140
financement	14139
▁copies	14137
▁198	14133
tenu	14129
▁enseignant	14129
▁projection	14129
▁222	14125
▁361	14125
▁reprodui	14112
ondre	14111
tech	14109
SFC	14106
▁412	14106
▁record	14098
▁TI	14092
▁nomme	14092
▁351	14091
▁LLP	14086
▁shall	14085
▁continuit	14079
▁zinc	14078
ative	14074
gie	14068
▁person	14062
▁ri	14059
▁constitu	14056
▁Business	14055
▁valoris	14054
▁mus	14053
▁exigée	14045
▁renoncer	14029
terre	14028
▁rétrospective	14027
▁290	14026
▁honor	14026
▁crucial	14024
▁uniforme	14023
▁diligence	14021
▁consultants	14020
▁421	14016
▁203	14006
▁Sy	14006
▁terrorism	13990
▁universitaire	13988
61	13986
▁Administration	13977
▁CORPORATION	13974
▁EXERCICE	13970
MÉ	13968
▁oppose	13968
clin	13966
▁jeux	13964
▁Bio	13953
▁équiva	13946
▁Île	13944
autour	13938
▁reproduit	13933
▁interprète	13929
▁climat	13922
▁352	13921
enne	13919
ellement	13909
ENT	13897
▁315	13896
▁scandal	13894
▁compatible	13893
▁ingénie	13893
▁versera	13889
▁union	13885
▁interrogat	13872
▁village	13865
▁lie	13864
▁coh	13861
TION	13857
lancer	13854
▁5,0	13850
38	13846
▁subséquente	13840
▁sécuritaire	13839
ten	13836
wan	13829
▁245	13828
▁gratuit	13823
▁One	13821
▁224	13818
▁protégée	13817
tic	13815
mon	13812
▁FRP	13812
▁proximit	13808
▁dangereuse	13804
GA	13799
ef	13798
▁5,5	13795
▁Secteur	13795
▁trans	13794
wa	13792
sée	13786
▁Débenture	13785
▁PRI	13784
▁Holding	13778
▁248	13777
▁disposer	13772
48	13770
▁Immobilisation	13767
▁Marc	13767
▁consult	13767
▁déplac	13755
▁diffusé	13750
▁choisie	13745
▁223	13736
▁postsecondaire	13734
vivant	13733
▁232	13730
▁216	13727
▁équivalente	13726
▁310	13723
▁concernée	13722
▁1,9	13720
par	13717
▁profond	13717
▁André	13705
▁Maintenan	13703
▁reclasse	13701
▁CGI	13699
▁diluée	13688
▁culturelle	13687
▁Health	13677
▁dissou	13674
euil	13669
▁United	13669
nariat	13667
▁211	13665
▁avi	13664
parole	13656
▁Ra	13653
▁déroul	13651
urait	13649
▁DBRS	13639
IM	13634
▁229	13629
cho	13627
▁office	13626
82	13624
▁apporte	13624
▁950	13619
▁marquée	13618
▁exceptions	13616
▁Événement	13612
▁540	13609
▁demeur	13592
▁will	13591
rée	13587
TI	13584
▁exploité	13583
▁municipal	13579
▁dressé	13576
▁intervalle	13576
▁support	13574
▁Effet	13573
▁exempt	13568
▁Numér	13565
▁237	13563
▁217	13561
▁Louis	13557
▁Télé	13556
▁Choi	13555
▁ménage	13553
▁serai	13552
ana	13543
▁285	13527
MENT	13525
monie	13524
▁suspend	13523
▁LIR	13519
▁lieutenant	13519
95	13517
▁about	13516
▁firme	13515
▁confié	13513
▁Ta	13504
▁King	13500
océan	13498
▁Dundee	13497
▁ressource	13495
▁255	13494
▁Puis	13494
▁optimis	13493
▁218	13487
▁SNC	13485
▁244	13484
▁soci	13478
élibération	13467
▁Option	13465
▁intégrer	13463
▁221	13462
▁favorise	13462
▁cu	13461
▁ultime	13455
43	13454
▁choisis	13454
▁226	13453
▁diagnostic	13453
▁Mes	13447
▁Green	13438
▁éco	13436
▁234	13433
68	13430
▁web	13426
▁Trans	13420
▁substance	13420
▁Singh	13418
▁géologique	13416
▁juridiction	13409
▁foncier	13407
▁Partnership	13405
ium	13400
▁Class	13399
br	13398
▁contest	13398
▁OCRCVM	13397
sultats	13391
▁236	13380
83	13376
ect	13376
attray	13373
▁380	13372
▁value	13371
▁transparent	13367
▁qualification	13362
▁Law	13354
▁inclusion	13353
▁Gar	13351
▁219	13345
irculaire	13342
▁implicite	13340
ACTIONNAIRES	13337
▁pharmacie	13333
▁senti	13332
▁GP	13328
irement	13319
▁substances	13317
▁intéressés	13309
▁NOTE	13304
▁actualisé	13304
▁tradition	13301
▁251	13299
tendent	13297
▁RISQUE	13295
▁rentes	13294
▁Source	13292
▁dépassé	13292
▁231	13287
▁Goodman	13283
▁nul	13283
▁238	13274
▁Western	13269
▁atelier	13263
▁cad	13263
▁CAN	13254
lor	13252
▁267	13249
aines	13247
2,5	13241
▁vin	13239
▁causes	13236
▁compens	13236
▁233	13230
▁prévisible	13225
ANCE	13223
CI	13221
▁228	13217
▁satellite	13211
▁analysé	13208
▁rehauss	13208
▁241	13196
▁regroupe	13193
▁agress	13189
▁interprété	13188
▁faisa	13186
ï	13185
▁Bill	13173
▁pair	13172
ERIE	13165
wood	13163
72	13161
32	13147
▁notable	13145
▁financial	13144
▁Quebecor	13143
▁460	13139
▁quart	13139
▁conten	13137
ILT	13134
▁Tri	13133
▁2,1	13130
▁Ka	13126
▁assistance	13126
▁Dépense	13120
▁Gains	13114
atrimoine	13110
▁dévou	13107
▁talent	13106
▁Celle	13104
itative	13103
▁425	13103
▁bless	13103
▁249	13099
▁401	13098
▁confidentialit	13092
▁2,3	13088
▁266	13088
nce	13082
▁TB	13081
▁Red	13062
▁Bar	13061
▁FIN	13061
▁2,4	13053
mandant	13049
ésion	13049
tres	13048
rak	13038
adaptation	13036
pi	13031
▁Jones	13028
▁3,0	13023
▁combinée	13023
-38	13020
▁apparaît	13020
▁1983	13019
▁Mountain	13016
nier	13013
94	13006
▁réalis	13006
▁AB	12998
▁accompagné	12998
▁252	12997
ONT	12996
ris	12995
▁dépens	12992
▁such	12989
conseils	12987
▁gazière	12983
tions	12982
épartition	12982
▁décid	12982
▁Environ	12981
▁caucus	12981
▁éolien	12981
▁étudie	12981
frontalier	12980
▁objective	12979
-35	12976
▁Osisko	12974
▁Yukon	12973
08	12972
▁intervenue	12968
▁saine	12966
▁substantielle	12964
▁391	12963
01	12957
▁feuille	12957
9,9	12954
▁résist	12951
tive	12950
▁maximiser	12948
▁éman	12941
▁liquid	12930
41	12926
▁fu	12913
▁which	12912
▁eff	12908
tri	12902
▁Dis	12898
53	12895
▁346	12895
▁imagine	12895
▁Ministère	12894
▁370	12890
▁243	12887
▁242	12883
▁conteste	12882
ose	12881
▁REIT	12870
▁Vietnam	12867
▁échantillonnage	12866
▁structuré	12865
▁divergence	12862
EF	12861
▁LRC	12861
▁7,5	12858
▁panneau	12852
▁Régie	12851
^	12849
▁dénonc	12848
▁Motion	12832
▁surveill	12829
▁272	12828
remont	12826
▁625	12822
▁Travail	12822
ty	12816
gel	12814
▁négligeable	12813
▁publicitaire	12813
▁NOTES	12811
ima	12808
▁sérieusement	12806
tablissement	12805
ÉR	12805
▁Gu	12805
▁Prince	12800
▁indemnis	12795
▁257	12788
▁Young	12788
▁Stephen	12786
▁conducteur	12784
▁295	12781
▁concluant	12779
gu	12777
▁258	12776
98	12770
AR	12770
▁modest	12770
▁courage	12767
▁nov	12765
nel	12764
▁253	12761
▁rénovation	12752
▁excessive	12751
▁256	12737
▁Place	12737
▁RioCan	12737
71	12736
▁254	12734
▁compléter	12734
oli	12732
▁cotis	12730
▁239	12726
▁revendicat	12724
position	12719
▁0,15	12716
compense	12711
▁divisions	12703
▁247	12701
conférence	12700
▁dép	12696
▁372	12687
▁480	12687
▁immigr	12682
▁Citigroup	12678
▁import	12676
▁souvenir	12675
▁ouvrage	12674
▁variant	12669
iés	12667
▁distingu	12664
CDP	12663
54	12662
▁dommage	12657
▁maintenance	12642
tent	12640
▁268	12640
▁560	12639
rintemps	12638
▁destination	12631
▁divulgue	12631
▁2,6	12629
▁264	12627
▁empris	12621
▁fondation	12616
▁Bond	12614
51	12609
▁Car	12604
▁journa	12602
▁334	12598
▁575	12596
▁262	12595
▁Public	12593
▁traduir	12591
▁saison	12588
001	12587
RO	12586
AIRES	12584
▁Laval	12582
▁animal	12576
▁Agent	12573
91	12572
▁520	12565
▁compensé	12565
ormément	12563
▁voici	12562
73	12558
▁279	12557
one	12555
▁discipline	12551
▁FTSE	12546
▁cousin	12544
▁246	12543
▁constat	12534
▁University	12533
▁chronique	12533
lui	12532
▁Home	12523
▁avancée	12521
▁insist	12511
▁credit	12510
▁janv	12509
▁301	12505
▁490	12501
▁carnet	12492
▁392	12483
▁rattach	12482
▁Distribution	12479
▁adopte	12478
▁vien	12475
▁470	12474
ution	12473
▁diversifiée	12469
▁perception	12467
▁apparent	12466
▁ravi	12465
uk	12461
▁Ho	12460
Orient	12451
▁Feuillet	12451
▁Impérial	12451
▁facilit	12451
blier	12450
▁525	12447
vacances	12446
▁269	12446
▁302	12445
▁référend	12445
▁incendie	12440
62	12439
métri	12438
égli	12438
▁263	12438
▁371	12438
▁inconnu	12433
▁fonctionner	12432
▁284	12430
▁lundi	12429
cée	12426
▁259	12426
▁mi	12426
▁publi	12426
▁observé	12425
▁308	12423
▁2,7	12418
▁Brian	12418
▁discriminatoire	12417
€	12415
-46	12414
ISSANCE	12412
▁radiodiffus	12411
81	12410
▁Pharma	12410
rain	12409
▁other	12409
-45	12405
▁coopération	12402
▁Trimark	12397
1,0	12396
▁Aéroplan	12396
▁Canaccord	12392
AP	12389
psychologique	12388
▁rivière	12386
▁session	12384
▁Appelant	12383
▁Morgan	12383
▁auron	12378
▁intégral	12376
▁USA	12370
▁364	12361
acteur	12360
▁430	12359
▁écri	12359
▁transférée	12358
ouille	12356
▁circonstancié	12356
▁286	12355
-32	12353
▁271	12351
▁chasse	12351
ABLE	12348
▁perfectionne	12347
RA	12346
rrière	12341
ran	12340
▁mét	12340
▁justifie	12338
▁pourron	12326
▁385	12321
▁unanimit	12319
ïque	12315
▁Baie	12306
▁Entreprise	12306
▁échu	12302
▁288	12293
▁exploitée	12293
OS	12291
novateur	12284
REEE	12278
▁corporatif	12275
▁390	12274
▁EST	12274
▁cumulative	12271
▁bulletin	12269
93	12268
tendre	12262
▁Agriculture	12262
▁standardis	12261
▁305	12256
ppé	12248
▁1979	12242
64	12239
▁alién	12236
▁282	12232
▁335	12232
▁0,25	12230
citoyen	12227
▁déficience	12227
▁totalisai	12226
▁proté	12212
▁MB	12211
▁Organisation	12211
▁subséquent	12209
▁renouvel	12208
PIB	12204
ercredi	12203
▁530	12200
▁261	12199
diens	12198
▁293	12192
▁555	12189
▁Properties	12183
▁345	12180
▁satisfaction	12171
off	12167
▁Entente	12166
▁accélérer	12166
▁Creek	12164
▁Dominion	12164
▁INTERMÉDIAIRE	12164
▁génère	12161
▁adapter	12160
▁Nortel	12159
▁273	12158
▁Daniel	12156
faire	12155
▁278	12155
agir	12153
▁sembl	12151
ath	12147
▁prescri	12146
way	12145
▁COMP	12144
▁maintenue	12144
▁Brown	12139
▁Cap	12135
▁Suisse	12135
▁Sch	12131
▁have	12131
▁shares	12131
SE	12130
▁consent	12130
▁277	12129
▁276	12125
egard	12123
▁avantageuse	12123
▁CRO	12114
ide	12111
▁réservoir	12111
2,0	12110
cle	12110
▁274	12105
3,0	12103
▁tromp	12103
▁475	12101
1,2	12083
▁quartier	12083
▁Modalit	12082
▁NYSE	12082
▁Vote	12071
▁Da	12068
▁analogue	12061
▁Go	12054
6,0	12048
▁situ	12046
quement	12045
▁absent	12042
▁Direction	12040
▁Raymond	12040
▁000,00	12039
▁Hamilton	12033
-33	12032
ven	12029
▁Budget	12028
▁corruption	12021
▁292	12020
▁procur	12020
▁conditionnel	12017
MA	12015
▁281	12005
rais	12003
▁287	12001
▁Obligation	11998
▁Quadrus	11997
▁quinquenn	11993
▁compensée	11991
▁510	11990
▁Excel	11990
▁surveille	11987
▁306	11986
▁IG	11986
mené	11985
▁efforce	11981
▁344	11980
niers	11975
▁336	11970
▁marijuana	11969
honte	11963
▁Cha	11962
▁contract	11956
▁échéancier	11955
▁675	11953
▁304	11949
▁San	11949
VM	11946
▁289	11946
isse	11940
▁conscience	11940
éria	11936
▁culturel	11929
▁Juin	11928
▁examin	11926
▁cents	11925
UL	11923
▁338	11919
▁AIC	11919
▁NE	11919
oyable	11917
▁complétée	11913
▁312	11912
▁convertible	11911
évaluation	11905
▁Trava	11904
▁améliorée	11904
rê	11903
▁Estate	11900
▁multipli	11900
▁rare	11900
ployés	11897
▁AltaGas	11895
ettez	11891
▁Actuelle	11887
▁assurée	11887
▁attir	11887
1,4	11881
▁363	11881
▁667	11872
paraît	11870
▁rétroacti	11870
duit	11866
▁296	11866
▁Claude	11864
▁Accounting	11863
▁rééquilibr	11863
▁marqué	11862
▁law	11858
▁Insurance	11856
▁Bou	11855
▁primaire	11853
▁318	11851
metteur	11849
palier	11848
mm	11847
LA	11839
▁fini	11836
▁Unité	11835
▁comprise	11834
énétr	11830
PP	11829
amie	11825
▁ta	11825
jo	11822
▁interventions	11821
▁fonder	11820
▁Moyen	11819
▁moderne	11819
▁initié	11816
▁inspir	11816
joui	11812
gé	11811
▁299	11811
▁augment	11811
IA	11807
▁synergie	11806
▁2,8	11805
▁Fair	11799
▁10,00	11797
ç	11794
▁refinance	11794
▁050	11791
▁Part	11790
▁720	11788
▁Moody	11788
▁381	11783
vision	11782
tribu	11779
agi	11778
▁Ko	11778
▁Production	11777
58	11776
RN	11774
▁Li	11774
▁Utilis	11770
▁exon	11770
▁298	11766
▁Petro	11764
▁Mississauga	11763
▁enveloppe	11757
▁interdi	11756
▁303	11755
▁effectifs	11755
▁319	11754
▁Cu	11754
▁remb	11753
▁coupe	11749
▁283	11747
▁AA	11746
estiment	11744
▁éolienne	11744
nie	11739
▁May	11734
ptions	11732
▁LOI	11732
▁sections	11731
▁640	11729
▁anne	11727
▁convertir	11727
onné	11722
acquisition	11721
▁déroule	11721
▁abandonné	11720
▁intervenu	11720
cours	11719
arification	11717
▁321	11716
▁Star	11713
6,7	11712
▁rétroactive	11711
AAE	11710
▁accompagne	11708
▁580	11706
▁ACE	11706
fonds	11698
▁307	11691
▁High	11689
NAC	11686
▁317	11686
▁326	11677
alités	11662
uelles	11659
interrogato	11658
▁Présentation	11658
▁categorie	11658
▁297	11657
▁347	11655
▁chantier	11651
▁greffi	11650
▁368	11646
▁éta	11646
▁309	11645
▁préparée	11645
▁prouve	11644
▁métrique	11638
▁493	11637
▁Contra	11628
▁332	11627
▁fréque	11626
▁boule	11620
▁comporter	11611
▁effectu	11610
▁entrepreneur	11610
▁′	11610
ani	11605
bu	11603
▁SE	11602
▁Cominar	11595
▁occurrence	11595
▁survenue	11594
▁obstacles	11592
MI	11591
mardi	11590
▁cap	11590
▁498	11587
8,00	11586
▁réussir	11586
▁iii	11584
▁remet	11578
▁IGM	11575
▁locatif	11575
ix	11571
▁2.1	11565
GI	11564
▁570	11564
▁001	11562
▁Kyoto	11561
▁Falun	11559
▁Questions	11551
mber	11547
▁TERME	11544
▁exhorte	11544
raint	11543
▁Computershare	11539
ailles	11537
▁316	11537
▁331	11534
▁402	11531
▁voil	11531
▁866	11530
▁commen	11527
résident	11526
▁999	11525
▁355	11523
all	11522
gle	11522
AM	11521
▁Cogeco	11521
▁875	11516
ano	11510
1,9	11508
▁souterraine	11504
BL	11496
▁abri	11493
▁immobilisation	11490
uelle	11488
▁bitumin	11486
▁366	11484
▁procure	11480
▁oct	11478
ay	11476
▁Pertes	11476
▁Acquisitions	11469
▁Réseau	11468
▁incomb	11466
▁SP	11462
dique	11461
▁328	11461
▁FAIT	11461
▁corporation	11461
▁291	11456
06	11454
vo	11454
▁was	11453
1,1	11441
▁337	11440
▁Grande	11439
▁4,8	11438
▁294	11437
▁314	11437
▁313	11436
▁6,5	11435
▁CANADIENNE	11435
▁ordonné	11434
iennes	11430
ida	11429
▁stress	11428
prouv	11427
▁réf	11424
52	11423
quation	11418
▁lot	11418
▁édition	11416
▁restauration	11413
▁Po	11411
▁East	11406
▁publier	11400
UR	11399
▁349	11397
▁Ligne	11396
IG	11395
EXPLOITATION	11386
▁hydroélectri	11383
1,8	11381
04	11373
▁forestière	11373
▁324	11371
▁divorcé	11368
▁mesurée	11366
.3	11365
▁415	11365
▁329	11363
for	11362
▁léger	11353
ché	11352
▁bloqu	11349
▁planifi	11348
ira	11347
▁556	11345
▁322	11344
▁nettoy	11342
▁348	11340
▁adolescent	11339
▁604	11337
▁499	11336
▁appren	11334
▁sang	11333
TRE	11331
ères	11331
▁566	11327
▁facult	11326
▁Ro	11322
▁intenté	11319
IT	11317
tron	11316
▁linguistique	11313
▁routes	11311
▁Financement	11309
▁récupérer	11308
▁manifest	11304
-42	11298
▁vau	11293
▁760	11289
▁Jacques	11286
▁contravention	11286
▁Haïti	11285
Lavalin	11283
▁Fonction	11282
▁Columbia	11281
▁3,1	11278
▁888	11278
▁consistent	11277
▁373	11275
jette	11274
▁Pêche	11272
ël	11269
▁TOTAL	11264
▁ACTIVITÉS	11261
▁Russi	11256
-36	11251
▁465	11246
ga	11244
ug	11241
▁387	11237
Comptables	11235
ssons	11235
▁surintend	11232
imé	11230
▁Na	11230
▁311	11229
serv	11228
▁Pan	11227
▁questionnaire	11226
▁MFS	11225
▁organisationnel	11224
▁Deloitte	11223
▁819	11218
▁aboli	11218
▁pourrai	11216
▁780	11215
▁Aussi	11209
-44	11206
▁Victoria	11206
1,5	11205
▁inventaire	11205
▁tierce	11205
alisé	11204
▁inverse	11204
▁attache	11202
▁Select	11198
ji	11197
▁620	11193
▁327	11186
-37	11183
ab	11181
tlantique	11181
▁590	11181
▁Rose	11180
ESS	11172
aurion	11172
▁recherché	11171
▁réalise	11169
ford	11168
▁Décret	11166
▁FundSERV	11166
▁garant	11165
▁abandon	11164
OC	11163
ber	11160
▁prenne	11160
▁384	11159
▁bateau	11153
▁interromp	11148
triste	11145
▁501	11144
▁tranchée	11144
▁339	11141
▁680	11139
▁remplaçant	11137
▁viendr	11136
▁SERVICES	11134
Pro	11133
gouverneur	11133
▁assis	11128
▁383	11126
▁dépos	11125
▁enregistrer	11122
▁camp	11121
▁épuise	11121
4,0	11116
▁signifi	11111
▁666	11107
▁exclus	11107
▁tri	11105
taire	11104
▁tra	11103
▁341	11097
▁342	11095
racont	11093
xamen	11091
appliquera	11090
IRE	11089
alisation	11089
▁indépendantes	11085
▁impos	11084
▁consensus	11083
net	11080
▁388	11074
▁prouvé	11073
▁troubles	11072
▁acres	11070
▁vingt	11070
CCE	11069
▁rouge	11063
▁origin	11062
▁aime	11061
▁réglement	11061
▁357	11050
▁TRÉSOR	11050
▁354	11046
▁Pre	11046
VIE	11037
▁RES	11035
▁intéressé	11035
▁630	11033
▁résidu	11033
▁PR	11032
▁710	11031
74	11027
CRI	11027
▁KPMG	11027
SU	11025
▁Détail	11025
▁accueil	11023
fiant	11022
IR	11016
▁Philippines	11015
édie	10997
oul	10995
▁745	10994
▁Esp	10994
cation	10990
▁OBLIGATIONS	10990
1,6	10985
▁356	10985
Coopers	10983
PR	10981
▁composer	10974
▁revanch	10972
▁358	10971
▁environnemental	10966
▁Nova	10958
SA	10957
3,4	10956
▁395	10956
▁licenci	10953
▁43-101	10952
▁extension	10945
5,3	10943
▁Gen	10936
▁persuad	10936
▁343	10934
▁Sea	10934
▁nominations	10934
ueuse	10931
▁EURO	10930
SON	10926
▁apparentée	10926
▁plate	10925
▁377	10922
▁excuse	10922
ologique	10920
▁justification	10918
▁entierc	10916
EA	10915
▁Jama	10912
▁Prospectus	10912
▁suggère	10910
▁353	10908
▁interprét	10906
1,3	10903
▁610	10903
▁entraîn	10900
▁démontr	10897
▁revêt	10894
4,5	10893
fière	10887
▁judici	10885
▁810	10882
▁Chrétien	10878
▁423	10867
▁complément	10867
▁376	10866
nage	10864
çu	10864
▁rares	10862
tomb	10858
▁445	10858
è	10857
▁admission	10857
uité	10856
▁verr	10855
▁blanc	10852
▁travailleur	10852
▁lourde	10851
▁confidentiel	10850
oign	10844
▁Représent	10840
▁422	10837
roger	10835
▁885	10835
▁inflig	10833
▁ob	10833
cessible	10830
▁Majest	10830
▁alloué	10830
▁5,6	10829
▁877	10828
▁Industrielle	10828
▁quantitative	10828
▁1970	10826
▁Gong	10826
6,1	10823
▁ajourne	10822
inc	10816
▁Jim	10816
▁404	10811
PA	10809
▁840	10805
▁565	10804
sta	10801
▁gé	10801
▁405	10795
▁323	10794
▁fraudule	10787
▁Rock	10783
▁378	10780
▁417	10778
▁Soci	10777
1,7	10776
flé	10775
ritannique	10774
▁Harper	10773
▁contestation	10773
▁inclusive	10773
▁ciblée	10772
ans	10766
mes	10765
▁négoci	10765
▁CV	10764
▁exécuté	10763
▁435	10762
▁franchi	10760
▁ren	10760
▁389	10759
▁444	10759
▁485	10759
▁rapporté	10756
venants	10753
▁Tél	10749
.10	10748
▁905	10747
▁GE	10747
▁393	10745
▁398	10745
▁regime	10744
▁salu	10738
change	10737
▁515	10733
▁2,9	10732
6,3	10731
▁éli	10731
▁408	10730
▁409	10730
▁introduit	10729
AGE	10728
▁374	10727
gée	10726
sinon	10725
6,4	10722
EX	10718
▁intrins	10718
▁369	10714
▁simultané	10713
▁continuelle	10706
▁426	10704
ois	10703
▁3,2	10702
▁Day	10701
▁formulation	10701
▁Avenue	10698
-34	10696
▁4,0	10694
▁Marge	10691
▁Cor	10689
▁compétitiv	10689
▁imprév	10688
▁386	10684
▁préconis	10677
▁renoncé	10677
7,8	10676
▁territoriale	10675
▁amortie	10668
5,1	10667
▁477	10664
4,3	10663
▁613	10659
▁428	10655
▁367	10654
▁Compar	10654
▁financée	10654
▁montr	10651
▁marine	10650
▁prolongé	10650
▁étiquette	10650
▁443	10648
mor	10646
6,8	10643
ÉRATION	10642
hors	10636
sorerie	10636
▁fournira	10634
prudence	10633
▁382	10632
4,2	10629
choisit	10626
▁455	10623
▁stipule	10623
▁vraie	10621
▁562	10618
ult	10617
▁incorporé	10617
▁ressorti	10615
▁Nig	10613
▁725	10612
quée	10607
▁Pas	10602
▁Shaw	10602
car	10601
7,4	10597
ressent	10596
lère	10595
▁399	10595
▁accrédit	10589
▁Vu	10588
▁TERMINÉ	10580
▁495	10579
▁NI	10578
▁barre	10578
▁classique	10575
eres	10571
▁Cambridge	10570
▁William	10570
▁Provision	10565
▁Johnson	10563
▁géo	10562
▁coupure	10560
5,7	10558
graphique	10558
▁coordonné	10557
▁poly	10556
▁740	10553
met	10549
▁379	10546
▁394	10546
hâte	10541
▁imparti	10539
▁représentatif	10538
▁facturation	10537
▁606	10534
▁repos	10534
col	10533
onais	10533
▁stationnement	10533
▁fondateur	10532
▁arbitr	10530
ÉRIE	10529
▁adven	10527
▁urbain	10527
ama	10524
▁660	10524
▁438	10519
▁Thomas	10515
▁incr	10515
▁policière	10515
5,8	10510
▁396	10502
pal	10497
▁Telecom	10497
3,5	10496
fondé	10496
▁consacre	10496
▁offr	10496
2,9	10493
▁super	10493
▁487	10492
tine	10485
OL	10483
▁462	10481
▁messages	10481
▁manufacturier	10479
▁remun	10479
2,2	10478
blie	10474
▁PAS	10473
▁860	10469
▁CP	10469
certe	10467
▁452	10463
▁Facilité	10457
▁enjeu	10455
2,1	10449
FR	10449
▁0,20	10449
▁497	10449
▁5,8	10446
▁génétique	10446
▁équivalant	10446
allée	10445
▁Abitibi	10441
▁820	10440
▁PORT	10440
resser	10436
▁accueill	10435
▁incompatible	10433
▁441	10431
yant	10428
uté	10426
tendue	10425
▁437	10423
▁359	10422
▁surven	10422
▁464	10418
▁recen	10411
▁448	10409
▁Ê	10409
▁449	10407
▁980	10404
▁0,05	10395
▁429	10394
▁renseign	10393
ôme	10388
habite	10383
▁Pricewaterhouse	10382
▁ADMINISTRATEUR	10381
▁grain	10381
alinéa	10380
▁intervi	10373
▁autonomi	10372
▁Emera	10371
▁Article	10368
▁trag	10366
bo	10364
erale	10363
▁Auto	10362
▁graduelle	10359
▁Wood	10358
hési	10357
tal	10357
▁777	10356
▁690	10355
▁excuses	10355
▁approfondi	10354
▁397	10353
▁427	10353
▁519	10353
▁associ	10353
▁Immeuble	10351
▁cellulaire	10350
BI	10349
▁comprom	10348
▁excéder	10346
CA	10345
▁décriv	10345
porté	10342
▁451	10334
▁545	10334
▁Bruce	10331
▁gri	10330
GE	10329
érente	10329
Labrador	10328
▁432	10328
▁contacts	10327
▁433	10324
†	10322
AC	10321
▁Guy	10321
▁414	10319
▁légi	10316
tifs	10314
▁excéd	10304
▁Chi	10302
▁413	10299
▁466	10299
by	10297
▁Electric	10297
▁467	10295
▁468	10295
▁aéron	10294
8,9	10291
LES	10289
▁469	10287
▁474	10285
▁880	10285
▁rel	10282
▁converti	10279
▁IP	10275
▁665	10271
▁990	10269
ung	10267
▁447	10267
▁transcription	10267
▁536	10266
▁1978	10261
voquée	10260
▁2027	10260
5,5	10257
▁lever	10256
DV	10254
▁506	10254
▁436	10248
▁Ch	10248
▁406	10247
ING	10245
▁920	10244
forêt	10243
▁entraînera	10243
ILL	10240
▁476	10239
▁interruption	10235
▁5,1	10234
tatistique	10233
pol	10232
-43	10229
▁PARTS	10229
▁3,3	10221
faisan	10219
Vie	10216
ST	10212
cale	10208
▁augmentera	10208
▁mentionn	10208
▁718	10206
▁frei	10206
▁étage	10205
▁505	10204
▁523	10204
tendant	10203
▁expédit	10201
▁muni	10200
▁Juge	10198
nanciers	10196
▁ph	10195
▁442	10193
▁TC	10193
▁521	10192
▁communiquée	10190
▁940	10189
asse	10187
gique	10187
▁School	10187
▁accumul	10187
▁combat	10186
▁3,8	10183
Édouard	10181
▁770	10181
3,3	10180
5,6	10180
▁535	10179
▁Ancien	10179
geant	10178
▁fusionné	10174
▁attent	10169
▁complexité	10169
kin	10167
▁reddition	10167
▁0,10	10166
▁434	10166
preuve	10164
céder	10163
ban	10161
revente	10161
▁561	10159
lon	10158
▁457	10157
égé	10156
▁527	10156
célé	10154
âm	10154
▁viable	10153
▁3,6	10151
7,0	10150
▁672	10148
▁3,7	10147
7,5	10146
▁tax	10146
auche	10144
▁Roy	10144
▁Isra	10142
▁670	10137
RP	10135
▁737	10134
▁825	10130
▁suppl	10130
▁Networks	10129
cré	10127
lande	10127
▁détaille	10124
▁453	10122
tée	10121
intérêts	10120
▁IT	10115
IQUE	10114
▁concret	10111
▁diversifi	10111
▁419	10110
▁471	10110
VE	10107
êt	10106
▁Journée	10106
▁424	10105
▁Détermin	10104
▁avocate	10101
ke	10100
2,3	10099
9,0	10099
ourbe	10099
utile	10095
2,8	10088
▁456	10088
prorata	10087
▁522	10085
▁647	10081
▁543	10077
▁504	10075
LB	10074
2,4	10073
ttre	10073
▁soumet	10073
mis	10072
▁MD	10068
uff	10067
▁réflexion	10064
8,1	10059
▁GPT	10056
ministre	10054
▁Bas	10054
tué	10052
gène	10050
▁refuge	10048
▁réclamé	10048
▁478	10046
▁citation	10045
▁Indi	10044
▁bann	10041
▁431	10040
▁547	10033
▁boîte	10027
▁494	10026
▁Réponse	10025
▁perturbation	10025
▁manuel	10023
▁marchand	10022
▁expressions	10017
▁organ	10015
PL	10014
▁557	10014
▁aptitude	10013
évit	10012
▁960	10012
▁1.1	10011
▁employer	10011
▁526	10008
▁8545-	10008
▁congédiement	9998
lles	9990
▁minim	9990
5,4	9987
▁486	9987
▁567	9985
▁cautionnement	9984
▁obstacle	9984
▁0,50	9981
8,3	9980
▁564	9977
▁775	9976
▁830	9974
légation	9971
▁676	9969
▁standard	9969
difice	9965
▁Territoire	9962
▁Ed	9961
préhensi	9960
▁acquittée	9959
-41	9958
5,2	9958
▁488	9957
▁694	9957
▁518	9953
▁473	9951
▁Cas	9951
zo	9948
▁abs	9947
▁715	9945
▁496	9944
▁TVA	9942
▁446	9941
▁transmise	9941
▁Ou	9940
▁NCA	9938
▁Zone	9937
▁454	9934
nnies	9932
MIN	9931
▁551	9930
▁Quote	9928
▁diz	9926
▁Front	9923
▁Type	9922
CES	9921
cidiv	9921
▁embauch	9920
▁568	9919
▁686	9917
▁Murray	9915
▁incarc	9915
▁Com	9912
▁Weston	9910
▁minimis	9910
▁461	9908
lissement	9905
nction	9905
▁faille	9905
▁615	9902
▁695	9901
▁439	9899
▁central	9897
▁quorum	9897
▁stage	9897
ja	9896
éné	9896
▁cyber	9896
▁502	9892
▁recouvré	9892
▁542	9889
▁compare	9889
▁NO	9888
Prince	9887
▁sache	9885
▁Williams	9883
92	9882
▁under	9882
▁463	9881
we	9876
▁492	9876
▁805	9875
▁870	9875
▁VL	9873
INE	9871
CEMBRE	9867
▁577	9867
▁répartie	9864
▁472	9863
▁509	9862
8,0	9860
▁exhausti	9860
BNC	9855
▁548	9855
▁homolog	9855
▁Guide	9850
RU	9842
▁Bi	9841
▁Claymore	9841
bli	9840
▁représ	9840
▁595	9836
▁dirige	9835
4,7	9834
CH	9833
Con	9833
TAN	9832
▁512	9831
▁910	9829
activ	9828
▁ouvr	9828
▁résidentielle	9826
-48	9822
▁CE	9819
▁actuariel	9819
▁ver	9819
▁4,9	9818
▁échelonn	9818
▁489	9816
▁pos	9815
▁Noël	9814
Dominion	9813
▁Gal	9812
▁conven	9810
▁troupe	9810
▁bras	9807
▁Windsor	9803
▁AUDIT	9801
▁cou	9800
▁EUR	9797
▁458	9796
SL	9788
▁787	9788
▁ech	9788
▁équi	9788
▁abandonne	9785
▁boisson	9785
▁552	9784
▁482	9774
▁constitutif	9772
▁Publication	9766
▁gérée	9764
▁558	9762
▁674	9762
▁605	9760
▁implique	9758
▁ANNUELLE	9757
▁541	9750
▁photo	9750
▁profonde	9750
▁operations	9748
4,4	9746
▁AMÉRICA	9746
CE	9744
▁529	9744
▁585	9744
▁risqu	9742
iable	9738
▁532	9735
▁introduction	9733
duc	9725
▁571	9724
ED	9723
▁laitier	9722
▁0,75	9721
▁728	9719
▁3,4	9718
économique	9717
▁459	9717
▁rab	9717
▁546	9716
▁FC	9715
7,00	9710
oût	9710
▁537	9709
▁643	9709
▁491	9708
▁583	9708
▁Comptabilis	9706
▁Keyera	9706
EC	9705
▁Northern	9700
▁517	9699
▁559	9699
▁consentie	9699
▁termin	9698
▁662	9696
▁533	9694
mission	9693
lés	9691
▁Fin	9691
vir	9689
émo	9689
▁483	9687
▁identifiable	9684
▁Island	9683
▁Pi	9678
▁Sears	9678
▁481	9675
▁975	9675
▁reconnais	9674
▁705	9673
▁four	9673
▁Suiv	9672
▁Transfert	9672
7,3	9671
▁569	9671
▁syndiqué	9669
▁598	9668
▁711	9666
▁714	9666
▁544	9665
▁593	9665
▁émett	9665
don	9664
▁516	9664
▁484	9662
▁Poor	9661
rable	9660
érés	9657
▁010	9654
▁507	9653
▁incitati	9650
▁pollution	9649
▁Ukraine	9646
▁red	9645
▁minéraux	9642
▁599	9640
▁Forest	9636
urie	9633
▁copropriété	9630
▁534	9629
▁réservé	9629
▁597	9628
▁seron	9627
▁couche	9625
▁538	9624
{	9623
▁591	9622
▁sport	9622
▁scolaires	9621
.11	9618
▁563	9616
▁avr	9616
osit	9615
▁manifestation	9615
franche	9614
▁572	9614
▁528	9607
▁Téléphone	9604
▁amélior	9604
▁080	9600
▁succession	9600
▁4,6	9599
▁PME	9597
▁habituel	9596
▁479	9592
▁placer	9590
▁503	9589
▁envisagé	9587
▁year	9583
▁mécanique	9582
CELI	9580
▁576	9580
▁985	9579
▁Texas	9575
▁513	9573
▁diriger	9573
▁station	9573
cherché	9571
référer	9570
connais	9569
▁identifiée	9569
▁OPÉRATION	9568
▁Notice	9565
amour	9564
▁AL	9559
veill	9558
FL	9553
illi	9549
▁contradiction	9549
▁Ajout	9548
4,8	9547
▁FI	9547
▁fête	9545
▁hélicoptère	9545
▁635	9543
▁PT	9543
▁040	9541
▁645	9540
▁PREMIER	9540
▁511	9539
▁preneur	9539
▁Net	9537
▁débou	9537
pass	9536
4,6	9535
▁viabilit	9535
▁701	9534
▁Engagements	9533
RG	9528
▁immédiat	9528
-51	9527
▁573	9527
RRQ	9525
glis	9524
▁injection	9524
▁électoral	9524
éro	9523
▁Vers	9522
▁642	9521
▁China	9521
FI	9515
▁702	9515
▁interdis	9514
▁repli	9514
stein	9513
▁549	9513
▁Drug	9513
▁pure	9513
HO	9512
▁524	9511
ain	9509
lan	9508
▁Globe	9507
3,1	9505
▁631	9497
▁segments	9496
▁592	9495
▁intelligent	9494
▁expliqu	9493
▁925	9492
entam	9491
quête	9490
▁RÉGIME	9490
▁QC	9489
▁rente	9488
▁Italie	9487
ède	9483
▁British	9483
▁journaliste	9483
ui	9482
onne	9480
▁consécutif	9478
▁municipa	9477
▁requi	9477
▁semestrielle	9477
▁comprises	9476
EM	9475
▁614	9473
▁dépass	9472
▁890	9471
▁Ste	9471
hnique	9470
péré	9470
▁Crédit	9468
▁699	9466
▁City	9465
▁médicales	9465
▁002	9463
▁Washington	9462
▁995	9461
irait	9457
▁588	9457
▁restrein	9455
▁Océan	9454
berg	9450
▁TransAlta	9450
▁brè	9449
▁Exploitation	9444
▁Ru	9443
▁Wilson	9442
8,5	9441
▁Admissibilit	9440
▁quantitati	9440
▁584	9438
▁télécopie	9438
▁francophones	9437
▁BBB	9436
IÈME	9435
▁Science	9434
▁646	9433
▁706	9433
▁QUE	9433
▁5,4	9432
▁531	9432
▁cessions	9430
▁Turqu	9423
▁câbl	9423
Saint	9421
▁997	9421
▁Standards	9418
tan	9417
▁March	9415
▁créat	9415
±	9414
▁717	9414
▁851	9411
▁reprend	9409
▁020	9404
émie	9402
▁micro	9402
▁affect	9396
▁cri	9396
▁inhabituel	9392
05	9391
uel	9387
▁habile	9380
▁696	9379
ITRE	9377
▁732	9376
▁retourne	9376
▁673	9375
▁581	9372
▁policier	9370
▁Responsabilité	9366
▁681	9361
▁Grant	9361
▁volatil	9361
▁relevant	9358
oyons	9356
▁682	9356
▁641	9350
▁847	9350
▁Protocol	9347
2,00	9346
▁815	9344
▁côtière	9344
▁vert	9344
ich	9342
sondage	9341
▁508	9339
▁064	9337
▁578	9337
▁CHAP	9337
▁622	9336
▁619	9334
▁génie	9333
▁601	9331
▁833	9325
venue	9324
▁Thompson	9323
▁presente	9322
▁678	9320
▁776	9320
6,9	9319
▁expliquent	9317
▁superviser	9317
▁762	9316
▁expiré	9316
▁574	9315
▁Bra	9308
▁subjective	9308
moul	9307
▁4,7	9307
▁octroy	9307
▁644	9306
▁Vie	9306
▁visible	9305
▁685	9304
▁démo	9304
▁CIRCUL	9301
▁adjo	9299
▁539	9298
▁618	9298
▁consécutive	9297
▁589	9296
▁Investissement	9294
▁638	9293
▁790	9293
▁alliance	9290
▁Ag	9289
▁Somme	9289
▁pratiqu	9289
▁partagé	9288
▁Long	9287
▁887	9284
▁présid	9284
▁687	9281
▁PCA	9281
▁609	9280
▁correspondance	9280
▁767	9279
▁éga	9278
enfant	9277
▁AVIS	9277
▁692	9276
▁Th	9276
▁612	9275
▁996	9275
▁6,8	9274
▁collège	9273
▁veine	9271
▁603	9270
ignant	9269
▁CC	9267
▁683	9264
In	9262
Québec	9261
▁AM	9261
▁équip	9261
bb	9260
nov	9259
▁632	9259
▁Maple	9259
▁routier	9258
▁752	9257
▁930	9257
▁911	9256
hu	9254
▁libéré	9254
▁relance	9254
▁648	9253
▁Pacific	9250
SP	9249
cteur	9249
roi	9249
▁févr	9249
▁998	9248
▁689	9243
▁554	9242
▁633	9242
▁637	9241
0,1	9239
fa	9239
▁655	9239
écuté	9238
▁class	9237
▁ralenti	9237
élect	9236
9,5	9234
pargn	9234
▁Court	9231
▁audio	9231
▁concentre	9231
PC	9223
▁627	9223
▁4,2	9222
▁December	9221
ttent	9220
▁thérapeutique	9220
▁688	9219
▁Parce	9219
▁optimisation	9219
▁636	9217
gagne	9216
cran	9213
▁indéterminée	9212
▁couleur	9210
2,6	9209
▁586	9208
URE	9202
▁553	9202
▁Conversion	9201
▁leaders	9201
▁im	9198
RM	9195
instar	9195
▁664	9195
▁masse	9195
dû	9194
▁température	9194
û	9193
▁668	9193
▁616	9192
▁contradictions	9191
▁compromis	9190
▁recycl	9190
▁716	9187
▁accompagnée	9187
▁administratri	9183
lib	9182
▁suisse	9181
pareil	9177
▁712	9177
pp	9174
érou	9173
▁Formulaire	9173
▁768	9170
▁constituera	9170
▁4,3	9168
▁FIDUCI	9168
▁engendr	9168
▁sain	9168
crit	9167
isons	9165
▁587	9163
▁778	9163
bré	9162
her	9161
posés	9160
▁652	9159
▁677	9159
pensée	9156
▁765	9156
égal	9155
▁693	9155
▁842	9155
mark	9154
▁781	9154
▁970	9154
5,9	9153
▁607	9151
▁6,3	9147
▁733	9146
▁CS	9145
tie	9140
▁4,4	9139
▁639	9138
▁rigoureu	9138
▁our	9137
▁742	9136
▁BÉNÉFICE	9135
▁stations	9134
RIPR	9133
▁596	9130
▁602	9130
yons	9129
▁656	9127
▁pili	9125
▁982	9123
▁may	9121
▁624	9118
▁RÉMUN	9118
▁Bisset	9116
3,9	9113
▁CND	9113
ataire	9112
▁RENSEIGNEMENTS	9112
▁gar	9112
MS	9110
▁Bur	9110
▁vap	9106
7,1	9105
▁608	9105
▁Queen	9105
eries	9104
▁Pays	9104
▁allusion	9103
▁755	9102
▁assimil	9101
7,6	9095
▁3,9	9095
3,2	9092
▁878	9089
▁594	9088
▁617	9086
▁case	9086
▁projeté	9086
▁874	9081
▁Ac	9080
▁629	9079
▁824	9079
3,8	9076
▁713	9075
ivertissement	9073
▁Fi	9071
▁835	9065
reint	9064
han	9063
▁Douglas	9063
▁officier	9063
▁684	9062
OU	9061
▁Pembina	9060
▁évalu	9060
UM	9058
▁626	9058
▁influencé	9058
ial	9057
▁circuit	9053
▁5,2	9052
▁848	9052
▁994	9052
lic	9051
▁707	9051
▁946	9051
▁RONA	9050
▁5,3	9049
▁753	9049
▁955	9048
▁871	9047
▁582	9046
▁669	9046
▁731	9046
▁Charles	9044
▁entendue	9044
▁965	9043
▁697	9041
▁QUI	9039
▁conduit	9036
▁idé	9035
▁845	9034
▁Stone	9033
▁Jazz	9027
▁politic	9026
▁Vi	9023
▁enquêteur	9023
▁6,0	9021
▁698	9019
▁structurée	9018
▁suspendu	9018
▁857	9017
▁909	9017
ob	9016
▁contra	9016
▁726	9014
▁Guardian	9014
▁revu	9013
nels	9007
▁611	9004
▁704	9003
▁CH	9002
▁fl	9002
▁906	8998
▁Transcription	8998
▁minima	8993
iller	8992
▁1,25	8992
cent	8990
▁623	8988
▁658	8988
▁PRODUIT	8987
‘	8985
▁769	8982
▁Ca	8982
ALEN	8981
§	8980
▁6,6	8979
-40	8978
▁inutilisé	8978
▁735	8976
03	8973
4,1	8973
poche	8972
▁663	8970
▁Graham	8966
▁FERR	8965
▁657	8963
▁installer	8963
▁insuffisance	8963
▁785	8962
▁métier	8962
▁708	8960
▁724	8960
▁corrél	8960
▁rédact	8960
▁679	8959
▁834	8956
▁MODIFICATION	8955
▁entrepôt	8954
▁628	8953
hum	8950
▁Structure	8950
▁terribl	8950
▁579	8949
▁649	8949
▁consacrée	8948
UT	8944
▁764	8943
▁CT	8942
▁bris	8942
▁TO	8941
▁autoroute	8941
ETS	8939
ielle	8936
▁654	8936
▁060	8935
▁004	8933
▁659	8933
▁Har	8932
▁Mart	8932
▁621	8928
▁719	8923
6,6	8920
bal	8920
▁Quelque	8920
9,7	8917
▁Technologie	8915
▁799	8913
HU	8911
▁nickel	8911
▁Barclays	8910
▁Nunavut	8909
▁846	8908
RD	8905
▁dominant	8904
8,4	8902
▁722	8902
▁81-102	8902
▁915	8902
▁cr	8902
latérale	8895
▁Barrick	8893
▁pri	8893
▁651	8892
▁988	8891
▁Tremblay	8890
▁satisf	8889
og	8888
▁671	8887
▁indéfini	8886
▁align	8884
ati	8881
radi	8881
▁urgent	8881
▁écologique	8880
âch	8878
tayer	8874
▁envisagée	8873
▁807	8872
▁enthousias	8872
▁5,9	8871
▁634	8869
▁821	8869
▁occupant	8869
▁encouru	8868
▁ref	8868
▁MANU	8867
▁paragr	8864
▁préférence	8864
▁653	8862
▁986	8862
▁tension	8861
▁748	8859
▁852	8858
▁Construction	8856
▁expliquée	8856
▁756	8854
▁744	8851
▁5,7	8850
▁786	8850
TER	8848
▁don	8845
the	8844
tar	8842
▁suicide	8841
abond	8840
▁Merrill	8840
▁727	8839
▁convenue	8838
▁index	8835
▁Ju	8834
▁acc	8834
▁jet	8834
▁841	8833
mie	8828
▁808	8828
▁Appel	8828
▁caution	8827
▁Rio	8825
▁jap	8824
▁754	8823
▁simplifie	8821
9,6	8818
▁863	8818
▁pénal	8815
levé	8814
▁691	8813
▁747	8813
▁772	8813
▁deviendra	8810
exploitation	8805
▁dimension	8805
agrément	8800
▁inst	8800
acité	8799
▁832	8795
▁030	8793
▁721	8792
pétr	8791
▁Dre	8791
▁Andrew	8788
▁738	8787
▁indépenda	8785
montée	8784
▁818	8783
ît	8782
▁766	8782
▁945	8782
▁mutuel	8781
▁Nex	8778
sky	8774
▁935	8773
▁dépréci	8772
accise	8771
▁723	8771
▁795	8770
rveille	8769
avi	8768
▁858	8766
▁Élection	8764
▁005	8762
▁989	8762
▁075	8761
▁tr	8760
▁954	8759
ât	8754
7,2	8753
▁916	8752
▁DATE	8752
AA	8751
▁817	8750
▁phrase	8750
mb	8749
▁distinctif	8748
▁STOXX	8745
▁survienne	8745
ITE	8742
▁861	8742
▁844	8736
▁937	8733
▁973	8733
pprobation	8732
▁ignore	8732
▁1977	8729
▁789	8728
▁rédig	8728
-93	8727
▁749	8727
▁771	8725
abonnement	8723
▁709	8723
latine	8722
▁same	8719
▁Syndicat	8718
ablement	8717
uite	8717
▁mor	8715
plé	8712
▁expédié	8712
▁dignité	8711
▁759	8709
▁802	8708
▁912	8708
▁gouvernemental	8707
▁matérialisé	8705
▁947	8704
▁convoquée	8702
vaud	8701
▁Ob	8700
▁792	8699
▁025	8697
DU	8696
▁géophysique	8695
▁affirmative	8694
▁003	8693
▁Déc	8692
▁aval	8692
▁simulation	8692
▁902	8691
▁703	8690
▁734	8689
▁966	8689
▁interest	8689
▁736	8688
▁meuble	8688
▁profite	8688
▁763	8685
▁661	8684
Mellon	8683
▁2,00	8680
▁956	8680
▁COMPTABLES	8679
ulaire	8678
rner	8675
▁mat	8674
▁4,1	8673
3,7	8672
▁Foods	8670
▁Recherche	8669
ack	8667
▁938	8667
verra	8664
▁emb	8664
conduite	8663
▁Mi	8663
▁Situation	8658
▁mentor	8658
▁Development	8657
▁757	8656
2,7	8655
▁758	8655
▁ciel	8654
▁voyageur	8654
▁782	8653
VI	8651
▁779	8650
▁797	8650
OFFRE	8647
▁purg	8646
▁OF	8645
otée	8643
▁803	8643
ault	8642
▁801	8642
▁984	8642
▁812	8639
gro	8637
hrétien	8636
▁Angle	8636
▁bl	8636
▁remett	8636
▁récolte	8636
aud	8635
▁ANNONCE	8635
▁Taylor	8634
3,6	8631
▁859	8630
▁729	8629
6,5	8627
▁globa	8625
▁programm	8625
ada	8624
▁mobilier	8622
▁Em	8621
▁854	8618
▁941	8617
▁exprime	8617
▁853	8615
Jean	8614
▁873	8614
▁design	8614
▁Pat	8612
▁bénéfi	8612
▁843	8611
▁892	8610
▁893	8608
▁LeBreton	8608
▁procédur	8607
▁Funds	8605
▁006	8604
▁865	8603
▁Harris	8602
ifier	8601
well	8601
▁746	8600
▁987	8600
gramme	8599
▁fact	8599
-50	8597
tures	8596
▁969	8595
▁967	8594
▁appr	8594
▁868	8593
▁964	8593
▁OR	8592
▁Equity	8591
IF	8590
▁879	8590
▁prima	8590
9,1	8589
▁vaccin	8589
▁juger	8588
iz	8587
▁6,4	8586
▁903	8586
▁933	8585
▁864	8584
▁942	8584
▁943	8583
▁combatt	8582
▁conjug	8582
▁Marie	8580
har	8578
-55	8576
▁BlackRock	8574
▁761	8573
▁739	8572
▁projetée	8570
▁Fusion	8569
▁PSB	8569
▁798	8568
▁907	8568
interrompu	8567
▁895	8567
▁867	8566
découvrir	8565
▁751	8565
▁809	8565
▁MC	8565
▁913	8564
SIF	8563
▁State	8562
▁plancher	8562
IST	8561
▁831	8561
▁811	8560
▁mettra	8560
▁Bal	8559
▁attendant	8559
▁773	8558
▁783	8557
▁883	8553
▁encaissement	8553
illé	8552
▁963	8551
▁978	8545
▁Propriétaire	8545
▁928	8544
▁terminal	8543
▁796	8541
cout	8536
▁993	8536
▁informe	8536
vian	8535
▁976	8532
▁dialogue	8532
▁872	8529
▁774	8527
lot	8526
▁932	8526
SC	8525
▁majoration	8525
▁imputée	8523
▁famili	8521
▁839	8518
▁917	8518
▁Adoption	8518
approchement	8515
▁intersection	8515
▁invalide	8513
ari	8511
▁992	8510
▁coefficient	8509
▁Edward	8507
▁981	8506
▁Ha	8506
▁897	8503
-39	8502
▁Campbell	8502
▁813	8500
▁793	8496
▁827	8496
élè	8492
AD	8490
iff	8490
▁968	8488
▁ED	8488
▁infirmière	8488
▁828	8487
▁Arrêt	8487
▁898	8486
▁renforcé	8485
6,2	8483
lastique	8482
town	8481
▁Dan	8480
▁951	8479
▁743	8478
▁784	8477
▁distribuée	8477
▁949	8476
AF	8470
▁recon	8469
lle	8467
▁trouble	8463
▁AVEC	8461
▁héberge	8460
▁849	8458
ARD	8457
▁verbal	8456
gen	8454
tru	8453
▁816	8452
▁solidarité	8450
▁983	8448
▁936	8446
ov	8445
▁participante	8445
▁sorti	8445
▁822	8444
▁1976	8442
▁délimit	8440
▁794	8437
pre	8436
▁Burns	8436
▁008	8435
▁ann	8435
▁012	8432
▁share	8432
▁007	8427
▁Hier	8427
▁Thi	8424
▁Barreau	8423
time	8422
▁899	8422
hème	8418
bit	8417
▁927	8417
▁929	8417
▁ultérieur	8417
▁881	8413
▁PROCURATION	8412
▁Référence	8412
enlèvement	8407
▁Clark	8406
▁évaluateur	8405
▁Wells	8404
4,00	8403
▁070	8401
▁939	8401
rogation	8398
▁090	8398
▁804	8398
▁823	8398
▁DG	8398
▁Min	8394
-2018	8392
▁962	8392
▁Pharmaceutical	8392
▁rét	8392
▁av	8390
hématique	8387
▁013	8387
▁952	8387
▁741	8386
▁944	8385
▁972	8385
▁affront	8385
▁904	8384
ori	8382
▁Sal	8379
▁Encaisse	8378
▁GROUPE	8378
▁PÉRIODE	8378
bi	8377
8,6	8374
hal	8373
▁023	8373
▁961	8373
▁postal	8373
▁869	8372
▁Sainte	8372
CL	8369
▁Maritime	8368
OD	8364
▁Institute	8364
7,50	8363
▁1973	8362
▁AS	8360
▁862	8359
▁791	8356
▁882	8353
▁Water	8352
▁891	8349
▁923	8347
▁prépare	8347
▁014	8346
FF	8344
modernisation	8344
▁979	8344
▁Labrador	8344
▁Denis	8342
▁habilité	8339
▁homosexu	8333
▁876	8332
▁Research	8332
lérer	8330
▁015	8330
▁829	8328
▁matrimonia	8328
▁obten	8328
▁BAII	8327
▁récupéré	8327
▁908	8326
÷	8325
▁011	8325
▁974	8322
▁Ben	8320
▁économi	8316
▁empreinte	8314
▁Jack	8312
▁Bernard	8310
édic	8303
▁débute	8303
▁hectares	8302
▁924	8298
▁impartial	8298
▁948	8296
▁concours	8295
▁918	8294
▁922	8292
▁806	8291
▁organiser	8291
▁Look	8289
02	8285
▁836	8283
onnaie	8282
▁889	8282
navant	8279
repas	8278
▁mutuelle	8278
ache	8272
▁scol	8271
LG	8270
référentiel	8270
▁Méthode	8266
4,9	8262
abil	8261
▁838	8258
▁921	8258
▁977	8258
8,2	8257
▁Ver	8255
▁788	8253
za	8251
▁959	8251
▁Elliott	8250
▁991	8249
▁encadre	8249
▁riche	8244
▁fractionnement	8241
▁Shell	8240
▁Établissement	8240
▁953	8239
CB	8238
▁826	8238
▁absorbé	8231
oit	8230
ff	8227
▁016	8224
▁971	8224
▁réinvestis	8223
}	8222
▁ASSEMBLÉE	8222
▁Stewart	8221
▁instances	8220
âblodistribut	8218
▁communique	8215
▁Corporate	8214
fo	8213
▁Technology	8212
tabli	8211
MES	8208
▁896	8202
allai	8199
▁Cal	8198
IER	8197
▁884	8197
apres	8194
rédi	8194
▁reglement	8192
▁Pa	8190
▁positionne	8189
orale	8188
▁Wa	8188
▁901	8187
ish	8186
teurs	8185
▁894	8185
▁plant	8184
▁814	8183
▁914	8180
▁extra	8180
ème	8177
▁021	8177
▁impliqué	8177
aw	8175
▁018	8171
▁Encana	8171
cal	8169
▁Joseph	8169
▁Donald	8167
▁Pren	8166
autobus	8165
▁semi	8165
IPD	8163
▁modernis	8162
▁Gauthier	8155
▁probation	8155
▁bat	8154
éférence	8152
▁chauff	8151
lia	8150
▁926	8147
▁raff	8144
père	8142
▁gér	8142
▁vacant	8141
clé	8140
muni	8140
▁Moore	8136
▁instauré	8135
tat	8133
▁009	8133
▁Papier	8130
nor	8125
▁contrôleur	8124
▁vi	8120
▁correct	8118
▁Ba	8117
bra	8113
▁Op	8113
▁subject	8113
nou	8112
▁Products	8109
pécialité	8107
▁Ti	8106
ilatéral	8105
ù	8105
▁indé	8104
▁Blue	8101
▁signataire	8100
PH	8099
▁Bâ	8098
▁america	8097
avou	8096
▁6,1	8095
▁instaur	8095
▁sucr	8095
▁919	8094
AG	8088
uler	8088
▁vigour	8088
haine	8084
retraite	8083
▁837	8083
▁Tant	8083
▁Actionnaire	8081
▁Dow	8081
▁Sept	8081
MM	8080
▁PowerShares	8080
▁insertion	8078
▁noir	8077
produit	8074
▁886	8074
coll	8072
dan	8072
▁934	8072
confort	8068
▁sac	8068
ico	8066
▁cash	8064
▁958	8056
qua	8051
ousse	8050
▁019	8050
▁Thomson	8046
▁annonça	8046
▁10,0	8044
,38	8043
ica	8043
▁renvers	8040
illon	8039
▁0,02	8037
rés	8035
SM	8032
niste	8032
▁philosophie	8032
▁contradicto	8031
▁1975	8030
▁Devise	8029
7,9	8025
▁neutralis	8024
0,5	8022
▁logistique	8021
▁017	8019
.00	8018
▁détect	8018
▁prescription	8013
▁domin	8010
▁024	8009
▁employ	8009
Transcontinental	8008
▁065	8008
érie	8006
Gen	8004
pan	8004
▁échelon	8003
journé	8002
ût	8002
▁reflété	8002
▁portefeuill	7997
▁répa	7997
▁Réduction	7996
▁931	7990
END	7989
▁028	7987
▁7,8	7985
▁045	7983
rig	7982
▁rou	7982
▁mobilis	7981
EP	7978
▁téléphon	7978
▁unit	7976
▁represent	7974
▁BILL	7969
isées	7968
▁Application	7968
MAR	7967
rac	7963
mun	7962
▁Combi	7961
thèse	7959
▁maître	7959
hapitre	7958
tection	7956
Prestation	7954
rlande	7954
▁siècle	7953
▁jum	7949
▁evaluation	7948
CF	7946
dale	7946
corp	7945
▁indu	7945
▁passion	7945
▁Câble	7944
▁Agreement	7943
▁estim	7943
▁rende	7941
▁055	7940
▁026	7939
▁Data	7939
▁découl	7938
▁souveraineté	7932
.02	7931
▁Utilities	7929
pond	7928
▁illégal	7927
▁travailleuse	7919
van	7917
▁095	7916
▁MARCHÉ	7916
▁survivant	7915
▁8,5	7914
▁sympt	7914
los	7913
ski	7913
apte	7910
cadre	7910
▁Volume	7910
▁Joe	7909
▁inexacte	7908
▁957	7906
▁dissiden	7905
▁méd	7902
▁propriet	7902
▁subsist	7900
ling	7899
▁go	7899
▁doré	7895
▁souhaiter	7894
RES	7891
▁corporative	7889
0,2	7888
aliste	7888
▁chut	7886
▁dissip	7883
▁joueur	7882
assi	7881
▁022	7881
neau	7880
▁silence	7878
▁pot	7874
▁DEUX	7872
▁moral	7871
RÉ	7869
▁App	7869
▁apparaiss	7869
▁VA	7868
▁disparit	7866
▁verte	7864
nc	7863
primée	7863
▁McLean	7863
▁http	7863
0,6	7861
▁032	7859
▁042	7859
▁Alcan	7859
▁ÉQUI	7858
FC	7857
▁035	7855
▁056	7854
▁appare	7852
▁Ford	7851
▁NCM	7850
▁hydrocarbure	7850
▁évit	7850
ET	7847
▁7,0	7844
▁défende	7844
▁Multi	7843
▁déplo	7843
▁addition	7840
▁052	7835
▁AIM	7835
SOURCES	7834
▁DP	7833
9,00	7831
▁syndic	7830
▁confirmée	7829
▁aff	7826
▁048	7824
▁Jo	7822
▁BR	7821
▁indicatif	7821
,33	7820
▁Frank	7819
▁Rou	7819
▁porc	7814
UE	7812
▁Dollar	7812
▁062	7811
stra	7807
▁Petroleum	7806
▁TV	7805
hy	7803
▁088	7802
▁accommod	7801
▁034	7800
ennie	7796
iqué	7796
truit	7796
▁063	7796
▁CANADIEN	7789
▁encourageant	7789
▁accumulation	7788
▁bitume	7788
▁troubl	7788
9,2	7787
▁Ernst	7784
▁Présent	7783
CP	7782
▁clarifier	7781
-47	7778
▁torture	7778
▁acquier	7776
▁FUND	7773
▁Hu	7770
▁performant	7769
▁president	7766
▁souten	7765
▁branche	7763
▁068	7761
▁solidit	7760
▁format	7759
ifié	7756
rioration	7755
▁Californi	7755
▁Nomination	7753
▁were	7752
TM	7751
▁0,04	7749
-227	7740
▁1974	7740
▁greffe	7740
▁058	7738
lever	7736
stitué	7732
ésiste	7731
▁096	7731
RT	7730
▁Tax	7730
ulman	7729
▁maire	7729
▁versions	7729
chés	7728
▁réaménag	7728
▁sépar	7728
▁029	7725
▁property	7724
▁Action	7723
miné	7722
▁substantiel	7717
▁mesuré	7716
baiss	7715
ck	7715
▁réhabilit	7714
▁Conditions	7713
ki	7707
ménager	7702
PE	7701
▁038	7699
▁049	7697
0,3	7696
▁privilégi	7694
▁bou	7692
▁Bri	7689
▁ME	7688
lore	7686
ria	7686
▁FRAIS	7686
INES	7685
▁047	7685
▁ponctuel	7685
urri	7683
£	7683
▁Associé	7683
▁Carstair	7683
▁DESCRIPTION	7682
▁sole	7680
▁027	7679
▁Che	7679
▁froi	7678
crite	7677
Les	7676
mat	7676
▁fou	7676
▁been	7675
oxyde	7671
▁revenue	7671
▁6,9	7668
▁assets	7668
▁hockey	7668
▁Crombie	7667
▁031	7666
pensé	7664
▁exploit	7662
▁tourism	7661
ô	7659
▁Paris	7659
▁mélange	7659
▁nanti	7659
▁CIG	7658
▁export	7658
,16	7656
▁074	7656
charge	7653
▁expuls	7653
▁Examiner	7652
▁044	7649
AE	7646
BOX	7644
ATIVE	7642
▁Émis	7639
fu	7636
▁6,7	7636
▁LMC	7635
duire	7634
érée	7632
TA	7628
▁033	7627
▁077	7626
TC	7624
▁099	7624
▁SES	7624
rio	7623
▁036	7623
lage	7619
▁078	7617
▁072	7615
▁générée	7615
▁glac	7614
▁spéculati	7612
▁chirurgie	7610
viendr	7609
▁permanenc	7605
▁037	7601
▁Empire	7600
▁violations	7600
▁054	7599
9,4	7596
▁traitant	7596
▁vérificat	7595
▁Tom	7593
▁chauffeur	7592
▁minute	7592
▁043	7591
teur	7590
çoi	7590
▁087	7590
▁PRÉ	7590
▁féminine	7590
▁059	7586
idi	7585
▁capt	7584
▁Sports	7577
comité	7576
oins	7575
▁041	7573
▁QUÉBEC	7573
▁problématique	7573
QU	7569
▁encourag	7569
▁067	7568
NT	7563
gon	7562
▁066	7562
efice	7560
▁inefficac	7559
triment	7558
▁thermique	7557
CHE	7556
LV	7556
réal	7555
▁094	7550
▁Cumul	7550
▁DROITS	7550
ouvre	7549
bank	7548
air	7546
▁sentence	7545
▁Ci	7544
8,7	7542
▁039	7541
▁Express	7541
▁Counsel	7540
▁personnalisé	7540
alt	7539
▁051	7538
ib	7537
▁IL	7534
▁approuv	7534
▁Road	7533
étourne	7529
▁trou	7526
▁091	7525
fer	7524
▁076	7521
▁085	7521
▁ENTRE	7521
obstant	7517
▁Brunswick	7515
▁083	7513
▁Jour	7513
étéri	7510
▁Cher	7509
▁Directive	7509
gan	7508
▁info	7508
tiendra	7507
▁092	7506
▁082	7500
▁046	7497
▁Main	7495
pin	7494
ral	7493
▁Series	7491
agé	7487
Bas	7486
▁invitation	7484
▁deviendr	7483
▁ingénieur	7483
▁procéd	7483
▁supervise	7483
▁jur	7481
-92	7480
manie	7480
rop	7474
▁QU	7474
▁Procédure	7473
cro	7470
▁073	7468
▁086	7468
▁Northland	7468
tif	7462
▁Associates	7462
▁cycli	7462
▁accessibilit	7461
▁071	7460
▁angle	7458
▁Hall	7457
usement	7456
compatibilité	7450
▁079	7448
▁Tranche	7448
▁elev	7447
étude	7446
ssin	7445
▁Ivy	7444
▁069	7443
▁influent	7443
ordial	7442
▁fosse	7442
▁corporel	7438
conseil	7437
uter	7437
▁053	7431
▁097	7429
tape	7427
▁Géo	7426
▁Stanley	7426
▁084	7425
▁carotte	7425
ick	7424
▁Enterprise	7423
▁destruction	7421
▁canton	7417
▁irrégul	7417
▁INTER	7416
▁avéré	7416
▁mur	7416
▁séparée	7415
0,7	7414
▁avérer	7413
HA	7411
art	7411
▁dose	7411
▁balance	7410
▁ronde	7410
▁098	7408
▁COMITÉ	7406
▁lots	7405
▁Version	7404
▁prim	7403
▁excess	7401
▁ENTREPRISE	7397
▁abatt	7396
PS	7392
▁transmet	7390
▁Realty	7388
▁emp	7387
▁Haus	7386
▁Transat	7384
vieux	7382
▁Audit	7381
▁061	7379
▁Contrôle	7378
joints	7377
▁occasionne	7377
igue	7376
▁amount	7375
cuni	7372
▁081	7371
▁successeur	7369
▁093	7367
▁averti	7367
▁Ren	7363
phi	7362
▁Jordan	7362
▁Mor	7360
ast	7354
▁Cools	7353
▁Motif	7353
UV	7350
chemine	7350
ray	7349
▁suspendue	7349
▁Baker	7346
ore	7344
▁café	7343
,34	7342
ICE	7339
▁income	7339
éral	7338
ini	7336
▁actu	7332
▁développée	7331
▁plaque	7329
▁injustice	7328
▁plomb	7325
▁ports	7324
▁concentr	7323
▁vite	7323
ieuse	7322
Marie	7321
ute	7321
▁Nul	7321
CT	7320
▁tru	7320
▁condens	7318
OP	7316
traire	7315
▁7,2	7315
ATIONS	7311
▁Lin	7311
▁057	7310
▁Tu	7306
▁subventionn	7305
OB	7303
elli	7303
écla	7303
▁FOR	7302
▁résiliée	7301
▁incite	7300
▁dise	7298
eilles	7297
▁publications	7296
▁Anderson	7295
▁débar	7291
▁stérilis	7290
▁efficient	7289
▁hebdomadaire	7288
▁Gordon	7286
▁lingots	7286
0,8	7285
hor	7285
OQ	7284
ek	7284
âche	7282
▁trente	7281
▁intègre	7279
idéal	7277
UAI	7275
▁carton	7275
▁Cat	7273
vol	7272
▁SCR	7270
▁Équilibr	7270
▁Évalu	7270
ado	7265
▁ADMINISTRATION	7259
VOI	7257
▁Market	7254
▁manutention	7251
▁regroupé	7251
CTION	7250
obilière	7249
▁guise	7248
▁rep	7248
vocabl	7246
ssembl	7245
▁corrective	7245
diffusion	7243
payé	7242
▁certifiée	7242
▁aid	7241
▁Ph	7239
dia	7234
▁MOIS	7232
▁fédération	7232
uri	7227
cre	7225
▁artistes	7222
-49	7221
▁avenue	7221
▁wagon	7221
respect	7220
▁objection	7220
▁préc	7219
CC	7218
plat	7213
rum	7211
▁Euro	7206
adi	7205
term	7205
▁Central	7205
▁sujette	7205
DS	7201
FM	7199
▁Luc	7197
▁RH	7197
▁transporté	7193
▁vrac	7193
▁Shoppers	7192
▁développe	7191
▁Remar	7189
EZ	7188
▁Regina	7188
▁acide	7188
▁dévoil	7187
0,4	7184
▁Falls	7184
▁Nesbitt	7184
▁axe	7178
▁089	7174
▁Mine	7174
iels	7173
▁ONU	7173
▁Idem	7170
▁Pass	7170
cart	7166
▁congr	7165
▁Bel	7164
▁Courriel	7162
▁JUIN	7162
1,00	7160
▁ORDINAIRE	7159
▁urbaine	7159
▁diab	7158
▁syndicale	7158
5,50	7152
0,9	7151
▁0,30	7150
▁regroupée	7150
▁Rivière	7149
▁prédécesseur	7149
cerné	7147
▁marginal	7147
▁choisisse	7146
▁CLOS	7144
▁compassion	7143
▁compl	7142
▁marin	7141
▁potable	7140
▁grains	7137
omp	7134
▁uranium	7133
yer	7131
▁Tim	7130
▁latitude	7128
▁into	7127
▁libérée	7127
▁François	7125
▁cong	7122
▁surpass	7119
▁résiduel	7118
▁inconv	7116
▁mou	7116
▁gîte	7113
▁3.1	7107
▁dénonciation	7107
▁Master	7104
▁modes	7104
DC	7102
▁questionn	7099
▁DÉP	7095
▁course	7095
ouche	7094
éton	7092
.12	7090
▁Garde	7090
▁suggestions	7090
ambul	7088
▁CL	7088
▁spectre	7087
IQUES	7085
▁0,03	7081
éloqu	7080
▁Allied	7080
▁Ross	7078
▁PRÉSENT	7077
▁persist	7077
▁Pearson	7074
▁plc	7074
pellation	7073
cédée	7069
pect	7069
UNIS	7068
▁secour	7066
rieure	7063
▁7,4	7063
omique	7061
trouvai	7060
ami	7058
▁décomptabilis	7056
Ordonnance	7055
▁tradui	7055
▁Rights	7052
▁CONTRE	7050
gué	7049
épréciation	7043
▁Monde	7041
▁transformer	7040
▁4.1	7039
efs	7038
▁Créanc	7038
▁march	7038
arallèle	7037
▁Kinsel	7037
▁interaction	7037
▁sterling	7033
▁Jeux	7030
▁subit	7030
compte	7028
rim	7028
▁léga	7028
▁Étude	7028
▁pompier	7023
nommée	7015
▁Bre	7014
-180	7013
CR	7013
▁provoqué	7013
volé	7011
▁Kevin	7011
issements	7009
▁ER	7009
▁pornographi	7008
▁inadmissible	7007
char	7004
fédération	6998
▁Marcel	6997
OG	6995
CSA	6992
▁12,5	6988
faste	6987
▁Ensemble	6986
▁IMPÔT	6986
▁ended	6979
▁Keystone	6977
▁MEMBRE	6977
chaud	6974
▁métal	6974
▁juill	6972
ifiée	6970
▁GL	6967
BC	6966
▁massive	6961
▁sulfure	6959
▁doubl	6957
ffert	6953
▁Roche	6953
ID	6947
▁quitte	6946
▁Liban	6945
▁PAPE	6945
riture	6944
▁Va	6944
▁Vo	6943
HI	6939
▁PA	6938
▁Mat	6933
▁atteste	6933
▁Markets	6932
isson	6931
▁Beutel	6930
musique	6929
olaire	6927
▁Steel	6927
▁boul	6926
chôm	6925
▁intérieure	6923
EE	6919
▁Lo	6918
▁Chris	6917
▁Lettre	6917
▁FS	6916
▁implantation	6916
BM	6911
IP	6911
▁press	6909
poli	6908
gin	6907
▁jeunesse	6907
TH	6904
TLET	6903
▁Commissaire	6900
▁Alpha	6899
▁CCSP	6899
▁NBC	6899
▁quartz	6899
-91	6898
▁6,2	6894
▁Ghana	6893
uels	6892
class	6891
▁cinéma	6890
▁Society	6889
,12	6887
tuer	6885
▁basse	6885
écho	6882
▁Burnaby	6882
▁amorcé	6881
▁phases	6880
▁Renewable	6871
▁circul	6869
▁Sou	6865
▁mar	6863
contrôl	6862
▁immatriculé	6862
▁allo	6860
▁interprétée	6858
▁Ham	6857
▁inform	6857
▁Guerre	6856
▁confidentielle	6854
▁organique	6853
Sélect	6852
▁Bob	6852
ouv	6851
ouverture	6851
-99	6848
▁infirmier	6848
ionnel	6847
▁1,50	6846
▁vital	6845
,28	6841
orologi	6839
▁Scarborough	6839
▁rationalisation	6838
▁MACKENZIE	6837
ngage	6835
pend	6835
▁Cascades	6834
▁Gagnon	6834
corporelle	6833
▁Post	6830
▁QL	6830
pris	6827
▁NV	6827
▁Salaire	6826
▁Signé	6826
▁cart	6826
▁diplomati	6826
▁front	6826
hiffre	6824
▁Six	6822
▁tribun	6822
tiere	6821
▁auxiliaire	6821
▁jalon	6820
atic	6819
▁surpris	6819
▁Liquidités	6818
▁Quebec	6818
▁concern	6818
▁Purpose	6817
.03	6814
▁DISPOSITIONS	6813
▁encaissé	6813
▁CD	6812
▁Somali	6811
▁aluminium	6810
▁Shore	6809
OUR	6808
▁FON	6806
▁provoqu	6805
ALES	6802
▁ratification	6800
▁Men	6799
ratifié	6798
ISATION	6797
▁exag	6794
▁scie	6793
affinerie	6792
▁rat	6792
▁syndical	6792
103	6791
entrée	6790
▁GMP	6789
▁privilegi	6784
UP	6782
▁Arm	6778
▁macro	6778
▁DIVIDENDE	6777
IERS	6776
▁52-110	6775
100	6774
fil	6774
▁réévalué	6774
▁déno	6773
trave	6772
▁Principa	6771
▁duré	6771
▁chev	6770
EU	6769
▁Couverture	6768
▁génératrice	6767
▁Rand	6765
▁NOM	6764
▁ordonne	6764
IES	6762
tex	6761
▁gouverne	6761
passera	6760
▁Citation	6760
▁accomplisse	6760
▁via	6760
▁aviation	6756
▁Sp	6755
▁Advisors	6754
▁stipulé	6754
bière	6753
▁théori	6751
î	6750
▁Gro	6750
▁Syri	6750
▁PS	6747
▁montag	6745
▁Chili	6740
leur	6739
GF	6738
▁électro	6738
chement	6737
ambi	6736
▁Ann	6736
▁Fr	6736
▁Mike	6736
▁Repris	6736
erré	6735
▁ACC	6735
.13	6732
▁accrédité	6732
▁Mortgage	6731
och	6728
▁human	6728
spèce	6727
▁Han	6725
LP	6724
jet	6724
▁Minerals	6722
▁Divers	6720
▁Silver	6720
▁chercheurs	6720
opie	6719
▁SR	6719
▁innocent	6718
▁Restrictions	6717
▁affecte	6717
maladie	6716
site	6716
cla	6712
▁mo	6711
▁Fundserv	6710
▁Inscri	6710
▁ban	6704
▁athl	6703
▁exportateur	6703
▁Land	6701
NA	6698
trui	6698
▁OPTIONS	6698
▁filon	6698
▁management	6695
▁Steven	6692
▁Rob	6688
200	6684
▁contrôlé	6684
compton	6681
▁Ja	6681
▁Ken	6679
PG	6676
▁PE	6676
▁pierre	6676
avertissement	6675
▁durabilit	6674
▁conseill	6673
▁enregistre	6673
▁Laurentienne	6672
ètent	6671
▁Nor	6671
▁Property	6670
EST	6669
▁diagnostiqu	6669
¢	6668
-60	6667
DM	6667
nnelle	6666
oeuf	6666
▁0,06	6665
▁Trudeau	6664
loue	6662
▁statements	6660
▁Hi	6659
▁qualitative	6659
-98	6657
▁compensatoire	6654
ash	6652
▁déli	6652
▁Alain	6650
▁Mitchell	6649
▁Syncrude	6649
▁VOTE	6649
▁affilié	6649
▁Cenovus	6648
▁fonctionn	6648
▁Regroupement	6645
▁regroup	6642
GO	6641
▁DO	6641
▁insult	6641
▁Noranda	6640
pha	6639
▁IMPORTANT	6638
remorque	6637
▁2,50	6636
▁EF	6635
▁Imposition	6631
haleur	6628
œ	6628
▁coin	6628
ges	6627
▁Saskatoon	6627
EN	6625
solvabilit	6625
▁évolue	6625
▁ambigu	6624
▁boutique	6622
▁RÉSULTAT	6621
▁transporter	6621
ssage	6620
actifs	6618
nière	6618
▁verdict	6617
▁pho	6616
▁improbabl	6614
▁incertaine	6614
▁formée	6613
▁INVESTISSEUR	6612
gar	6610
▁Sable	6610
<	6609
▁répartir	6605
▁réparti	6602
▁Année	6601
▁technicien	6601
loomberg	6600
oma	6599
▁Congr	6599
LN	6598
▁OSBL	6598
▁exécutée	6598
▁Moyenne	6597
▁Marketing	6595
▁prolongement	6595
▁Sub	6594
▁terrestre	6594
▁1000	6593
▁Cuba	6592
▁trains	6592
DVA	6589
▁Card	6589
lip	6587
▁Merci	6587
ova	6586
▁améliore	6584
▁ADR	6582
▁Nu	6582
▁Surrey	6582
RS	6581
court	6580
nour	6580
▁Hol	6580
dépendant	6573
▁Clarica	6573
▁anomalie	6570
▁films	6570
▁Club	6565
▁TROISIÈME	6565
▁œuvr	6565
▁Mercer	6564
membr	6563
▁Natural	6563
▁PER	6563
élé	6561
▁Col	6560
▁Conclusion	6558
CENT	6556
▁aéronautique	6556
▁Sherbrooke	6555
▁expenses	6555
tch	6554
aissés	6553
▁verticale	6551
GU	6550
▁métallurgique	6550
bout	6548
▁MacDonald	6548
-190	6542
▁7,1	6542
▁étroit	6542
▁Adams	6541
Ç	6539
▁PROSPECTUS	6537
▁Pens	6537
stone	6534
▁RA	6534
▁confiant	6533
▁inject	6529
isent	6526
▁GR	6524
-003	6521
▁Metro	6521
▁adress	6520
taché	6518
liser	6517
▁AE	6517
▁TABLEAU	6516
▁Super	6513
▁enseigne	6513
▁souverain	6513
▁enregistr	6512
▁ladite	6511
▁Définition	6508
▁PAE	6508
cap	6505
▁result	6505
▁Budden	6504
▁inutil	6501
▁Dispositions	6499
▁Norbord	6499
▁décisionnel	6498
rapeau	6497
▁ATTESTATION	6496
vité	6494
MR	6493
▁Agréé	6493
▁Incorporated	6492
ole	6490
▁BA	6489
imanche	6488
▁déma	6488
6,50	6483
▁Fiduciaire	6483
▁mod	6480
mpl	6477
▁recommandée	6477
lite	6476
▁observe	6476
▁Pétrole	6473
jonct	6472
▁Documents	6472
▁prev	6471
▁appari	6469
0,000	6465
▁Fairfax	6462
abri	6460
guère	6460
▁CONCERN	6458
▁cube	6456
▁productive	6452
▁dumping	6448
bail	6447
ït	6447
▁réservés	6445
éli	6444
▁département	6444
▁expérimenté	6443
▁Form	6442
▁intent	6441
▁Anne	6435
▁épaisseur	6434
laidoyer	6428
TO	6427
▁Semaine	6427
LO	6426
▁BASE	6425
▁souterrain	6424
▁capacit	6423
fra	6422
▁CR	6422
▁apparen	6421
PF	6418
▁redressé	6418
▁Im	6416
chapp	6415
▁ANALYSE	6415
issai	6414
▁ST	6413
▁Vivendi	6413
▁nécessit	6413
ssée	6412
▁rendez	6411
▁flexibilit	6410
▁refle	6410
stér	6409
▁clar	6408
▁College	6407
▁NASDAQ	6404
▁rupture	6403
itaire	6399
▁8,0	6397
▁Hills	6397
▁enrichi	6397
forcer	6394
▁9,5	6393
▁AGENT	6393
▁armé	6393
▁encouragement	6392
▁convoque	6391
bon	6390
férer	6390
▁Position	6390
▁constitua	6387
▁heur	6387
étal	6385
directeur	6383
▁qualit	6381
▁coalition	6380
▁Del	6379
▁stup	6379
over	6378
,36	6374
PT	6372
▁Human	6372
▁cédée	6371
▁opérateur	6371
▁arri	6370
▁CFA	6368
monté	6363
▁Aid	6362
▁company	6361
ailleur	6360
▁Artis	6360
ram	6359
HV	6358
LU	6356
FT	6355
▁ÉT	6355
èse	6354
▁VB	6351
▁dentaire	6351
▁phar	6350
▁Paper	6348
▁MOND	6347
▁film	6341
▁FA	6339
ége	6338
zi	6336
▁Harbour	6335
▁Inscription	6335
▁imm	6335
▁hydro	6334
aff	6333
▁FCA	6332
▁ratifi	6330
▁pér	6329
GARD	6327
▁Innovation	6327
▁RELATIVE	6325
MP	6324
euve	6323
▁Wal	6323
▁portuaire	6322
▁rechercher	6322
▁off	6320
LD	6319
DF	6316
ight	6316
arch	6315
▁sec	6315
000	6314
▁commerçant	6314
chet	6313
ura	6312
▁Richmond	6312
-94	6311
▁8,3	6311
apitalcorp	6310
▁infirm	6310
▁gas	6309
chef	6308
▁remor	6308
xique	6306
▁7,7	6306
bl	6303
▁FLUX	6301
▁perturb	6299
▁1972	6296
▁définiss	6295
▁habitat	6295
EFP	6294
actualis	6294
▁marqu	6294
▁Companies	6292
▁Comptabilit	6292
▁Eagle	6292
▁assign	6292
▁lésion	6292
▁Molson	6291
▁Singapo	6291
lien	6289
▁Phase	6289
side	6287
▁inappropriée	6286
volu	6285
▁PLUS	6285
▁arbitral	6283
mporter	6281
▁cohabit	6277
mard	6276
truir	6276
form	6275
▁Couche	6275
▁Secrétaire	6275
▁prometteur	6275
▁regarde	6275
rendra	6274
▁Éthi	6274
▁abusive	6271
act	6270
eng	6269
▁beaux	6268
vée	6267
▁Nation	6266
ompu	6265
MB	6262
▁Kat	6261
▁alarm	6261
▁LQ	6260
▁arrang	6259
BA	6258
▁Reg	6257
alement	6254
uit	6254
▁RC	6253
plique	6251
▁contribuera	6251
▁radié	6251
▁Commercial	6249
▁REC	6249
Tard	6248
▁SOU	6247
▁This	6247
▁Patrick	6241
▁ext	6241
gage	6240
ieme	6240
bain	6239
roc	6238
▁Jan	6237
▁TM	6237
FPC	6235
-97	6232
clav	6232
▁Mary	6231
TIDI	6230
prouve	6229
▁Comeau	6227
▁corridor	6227
▁valid	6226
▁Gi	6225
▁Tower	6223
férence	6221
3,00	6218
▁Medical	6214
istique	6212
▁7,3	6212
▁Care	6212
SD	6210
▁acqui	6210
ELLE	6208
▁CONTRAT	6208
▁Gilles	6208
▁mortalit	6207
▁éloignée	6207
-68	6205
▁Mills	6205
▁fair	6202
ANQUE	6201
TR	6201
sécurité	6200
▁club	6195
▁Parcs	6194
▁lég	6193
▁Malartic	6192
▁McC	6191
ity	6189
▁Communication	6189
HD	6188
▁impute	6186
▁informati	6186
immunité	6185
▁AND	6182
▁fiche	6182
▁OT	6181
▁11,5	6180
thodologie	6179
▁invent	6178
juster	6177
▁coordination	6175
minent	6174
win	6174
▁time	6174
mit	6171
▁Scholes	6170
▁Wi	6170
Avis	6169
4.1	6168
▁renégoci	6164
cieux	6161
but	6159
▁satisfaite	6158
▁grille	6157
ept	6155
▁minéralisées	6154
▁bleu	6153
ennent	6151
▁amorc	6151
ndu	6150
▁coupé	6150
▁contractant	6148
proché	6146
▁GBP	6146
▁Transactions	6144
view	6141
▁CBC	6141
▁flow	6141
▁opér	6141
ousser	6140
▁Boston	6140
▁matern	6140
▁olympique	6140
▁MATIÈRE	6138
▁Sha	6138
▁dispens	6137
▁Chemicals	6136
▁COURT	6135
▁accroît	6134
▁novatrice	6133
arbr	6132
-2011	6131
▁Roms	6131
▁rattachée	6131
AS	6128
▁0,08	6128
▁cultures	6127
thyl	6126
▁Her	6126
▁RDC	6123
▁ÉTAT	6122
viser	6121
▁PI	6119
▁couru	6118
aumon	6117
▁Focus	6116
▁Sélect	6116
▁restructur	6116
▁PM	6115
▁realis	6114
nommé	6113
▁vire	6113
LIBR	6112
▁recommand	6109
▁Pou	6108
▁contour	6108
▁accumulée	6107
▁démar	6107
▁0,40	6103
▁occasionné	6102
couvrables	6100
0,60	6098
-85	6096
▁Mag	6096
▁concili	6096
verba	6095
▁répercu	6095
.4	6093
ceau	6092
teint	6092
équilibre	6091
lerai	6089
édié	6085
▁flexible	6085
▁intensifi	6085
▁Golden	6084
▁PF	6084
▁Trait	6084
▁MI	6083
▁continues	6083
conciliation	6082
ritage	6082
▁Îles	6082
ayée	6081
▁0,07	6080
▁ingénieurs	6079
atériel	6078
ott	6077
▁Ku	6075
▁sélectionn	6071
II	6068
▁Grey	6068
▁supporter	6067
TEN	6066
tue	6066
MIS	6063
▁Supérieur	6063
▁proactive	6063
,27	6062
VANT	6062
▁ap	6062
▁nationalité	6062
▁dessert	6055
▁thérap	6054
▁viva	6054
▁Haut	6051
▁attire	6050
▁grev	6049
▁8,1	6047
▁Growth	6047
▁ventilation	6045
nat	6044
▁minéralisé	6044
▁race	6043
veu	6042
CDE	6041
▁Domtar	6041
essor	6040
▁PART	6040
COM	6036
▁supplement	6034
▁Ça	6034
▁Reclass	6033
press	6031
▁Cadre	6031
▁fusionn	6031
▁influencer	6029
lie	6028
▁rayon	6028
▁Goldcorp	6027
▁arrondi	6027
0,09	6025
▁proportionnel	6024
sociétés	6023
▁PROPR	6023
▁5,75	6021
▁Inclu	6021
▁Mel	6020
envoi	6019
▁Tou	6019
▁navigation	6019
▁surprise	6018
▁Tre	6017
-59	6016
issante	6016
▁LIMITED	6016
mond	6013
▁ACQUISITION	6012
aisse	6011
▁puni	6011
star	6009
▁largeur	6007
▁Exclu	6005
▁catholique	6005
▁téléphoni	6004
▁Garantie	6003
▁Touche	6003
semblance	6000
▁Tele	5999
cou	5995
sidér	5994
parents	5991
tour	5991
▁bag	5990
nale	5987
timid	5986
▁tourn	5986
-96	5985
cell	5985
▁Heure	5985
▁attaché	5985
▁3,00	5984
▁perquisition	5983
▁following	5982
▁tend	5981
journée	5980
ost	5980
▁Aviation	5978
▁Commandit	5978
▁RRD	5977
▁Simon	5977
jan	5976
▁descriptions	5976
▁aim	5975
▁quinz	5975
fructu	5974
ok	5974
▁audits	5974
gypt	5972
▁comp	5971
nda	5970
ENCE	5969
▁vérifiée	5969
▁3855	5966
▁doctrine	5966
▁end	5966
▁Shi	5965
férée	5964
▁Dieu	5964
▁ultra	5964
▁Inuit	5963
DD	5962
UF	5960
jours	5960
▁RR	5960
▁impacts	5959
Scholes	5956
▁MARS	5956
▁Phillips	5954
neige	5950
▁ProMetic	5950
▁étiquet	5949
ington	5948
TRA	5946
▁compilation	5945
chan	5943
▁POWER	5942
421	5941
▁Ki	5940
▁Mulroney	5938
AN	5935
▁Out	5935
ouches	5932
IO	5928
▁assassin	5928
▁foncière	5926
▁roulant	5926
PVA	5925
cules	5924
▁LTD	5924
mpé	5923
odi	5923
▁omnibus	5923
▁repère	5923
REIT	5922
▁Private	5920
▁Albert	5919
▁CPR	5917
▁Granite	5917
▁barème	5917
INSTRUMENTS	5914
▁corr	5913
▁radical	5912
gal	5911
▁juv	5911
règ	5910
▁Voy	5908
▁25,00	5904
NO	5902
métrique	5899
urner	5899
▁Maroc	5899
▁Committee	5894
▁motivation	5894
croît	5893
gueur	5893
rine	5893
cycl	5892
▁Hy	5892
apatri	5891
▁exemptions	5891
▁And	5890
▁Philip	5888
▁ambassade	5882
▁déboursé	5881
▁immense	5881
▁indien	5881
gg	5880
ical	5878
▁diplômé	5878
▁Générale	5877
cations	5875
-2013	5874
▁devi	5873
▁Hor	5872
PV	5871
ffichage	5868
▁analytique	5866
hen	5865
.14	5864
▁Hay	5864
comptable	5861
▁regrette	5861
ella	5859
20,00	5855
shi	5855
FO	5854
▁Wellington	5854
▁gang	5853
▁Versement	5851
RIT	5849
▁Connor	5849
▁blanch	5849
▁Country	5847
▁if	5847
▁Résumé	5843
.05	5842
Gene	5842
▁Wil	5842
ocalisation	5841
¶	5840
▁billion	5839
ng	5838
MAN	5835
▁conform	5834
LT	5831
nile	5831
chien	5830
agan	5828
▁naval	5827
▁survie	5827
egorie	5826
▁AV	5826
▁War	5826
aba	5825
▁MBA	5824
▁psych	5824
RICT	5823
bro	5822
OW	5820
▁activit	5820
▁2030	5819
▁synth	5818
▁controvers	5817
-83	5816
0.00	5815
▁issued	5815
▁vér	5813
▁contentieu	5812
▁coura	5812
▁operation	5812
ordonn	5811
engrowth	5809
▁ISA	5809
▁LIÉ	5809
▁atmosph	5809
▁Bu	5808
omet	5806
uis	5805
▁finis	5803
▁extinction	5799
responsable	5798
.15	5797
Pacifi	5797
TIN	5797
▁Quatre	5797
▁1,75	5794
tract	5793
awa	5792
pla	5791
▁Sands	5790
▁Mutual	5788
▁Certificat	5787
UEL	5785
▁NOVA	5785
▁habilit	5785
▁Art	5784
▁cigarettes	5783
of	5779
ough	5779
▁RS	5774
fic	5773
jugé	5773
ésie	5772
dépôt	5769
▁impossibilit	5765
▁empi	5764
ker	5763
▁BB	5762
0,35	5760
▁10-	5760
unification	5755
▁ACHAT	5754
ules	5753
▁1-800-	5753
▁hybrid	5753
▁Terra	5752
▁mexicain	5749
▁Plu	5748
dron	5747
héri	5747
▁sécuris	5747
▁aménag	5745
bin	5742
ntèle	5742
▁toxicomanie	5742
▁Recouvre	5741
▁oriente	5741
.0000	5739
malh	5738
otte	5736
▁banc	5736
itié	5735
fit	5734
▁8,8	5734
lop	5730
▁intérim	5730
▁flagrant	5728
ock	5727
RIF	5726
▁incertain	5726
▁McGill	5725
▁observat	5725
▁qualifier	5724
▁Chen	5723
▁Semest	5720
▁dég	5720
▁Kar	5718
▁catastrophe	5718
▁PBR	5717
burg	5714
nique	5712
▁rach	5712
▁milit	5710
DE	5708
▁COVID	5708
▁Cundill	5708
▁Lang	5708
▁gangs	5707
▁GES	5706
ew	5704
▁Appellant	5704
▁1867	5703
▁dilutif	5701
▁Jane	5700
▁Kaur	5700
▁Rouge	5700
▁adept	5698
▁reports	5697
▁5,25	5694
▁Ber	5694
▁EXP	5694
ébé	5693
▁domicili	5693
▁punis	5693
▁Solution	5692
▁piste	5692
▁Approuv	5690
othérap	5689
▁immatricul	5689
connexion	5688
oral	5686
▁Crédits	5684
irconstance	5683
▁trace	5682
xigences	5681
▁ascendant	5681
▁sollicité	5681
riat	5680
▁one	5680
▁pyrite	5680
.16	5677
▁bénévolat	5677
▁cibl	5675
▁positionné	5674
-95	5673
acé	5672
▁7,6	5672
▁Fargo	5672
diffus	5669
▁SS	5669
celer	5668
▁élémentaire	5667
▁Intimé	5666
bert	5665
PAC	5661
▁Composition	5661
▁Déduction	5661
▁ceinture	5660
▁Rail	5659
avé	5658
▁magazines	5658
alli	5657
▁Rappelons	5657
factur	5654
▁SITUATION	5653
▁records	5653
▁Boeing	5652
▁app	5651
terri	5649
vit	5649
▁concrétis	5649
▁exerçable	5649
-69	5648
▁Panama	5648
ssais	5645
rière	5644
▁Formation	5644
▁8,6	5643
OMME	5642
▁Sentinel	5642
▁influe	5641
▁quota	5641
▁FARC	5640
bours	5638
▁protest	5637
▁ridicule	5634
▁promulg	5633
Nevada	5632
ction	5629
HAR	5628
DONNÉE	5627
issez	5626
▁ACTION	5626
-52	5625
▁ATCO	5625
▁Dubé	5624
▁sava	5623
rubrique	5620
▁extérieure	5620
lubri	5619
▁Entrée	5619
▁finalisé	5618
▁House	5617
▁Télécopie	5617
▁COMMUN	5615
▁trésorie	5615
nex	5613
ush	5613
▁anonym	5613
otentiel	5612
énu	5612
▁Brook	5611
▁Dia	5611
▁Gill	5610
▁FTQ	5609
▁duration	5606
bell	5605
▁commercialise	5605
▁voyag	5605
-90	5604
0,80	5604
▁broy	5604
compté	5601
-82	5600
ord	5599
pli	5597
▁dict	5597
ech	5596
issée	5595
volution	5593
▁totalise	5593
-86	5592
dommag	5592
écem	5592
▁PERSONNE	5591
▁1971	5590
▁Line	5590
arabe	5588
▁Banc	5588
▁FSL	5588
Ex	5586
ONG	5585
itz	5580
▁PRINCIPALE	5579
pel	5578
▁négocie	5577
▁June	5575
▁magnétique	5575
▁Certe	5574
positive	5572
▁pand	5569
rappe	5567
ATIF	5565
▁0,12	5562
▁Consult	5562
▁THE	5562
peau	5561
nterdiction	5560
▁recoupé	5560
semble	5558
▁optimiste	5558
▁Pâte	5557
▁ÉLÉMENT	5557
GR	5556
▁AAA	5555
▁approximati	5553
▁pause	5552
héro	5551
ANC	5550
▁Vol	5550
▁10,5	5549
▁SEPTEMBRE	5548
parentale	5543
▁SECTEUR	5539
achar	5538
▁émet	5538
-61	5537
EANT	5535
av	5535
▁Provisions	5535
mporte	5532
▁retardé	5532
umes	5531
▁CFC	5531
▁Mail	5531
▁délégu	5531
▁GMA	5530
▁compos	5529
cerie	5528
nnuaire	5525
▁August	5525
stinataire	5523
▁Nickel	5520
▁sélecti	5520
▁Énoncé	5520
more	5519
▁Obje	5519
▁Partenariat	5519
tourné	5518
▁CM	5516
▁assiste	5515
▁transf	5515
▁COGECO	5511
▁véri	5510
▁relie	5509
▁Vérifi	5506
▁strat	5505
▁Gri	5504
EG	5503
▁standards	5502
▁Second	5501
GM	5500
▁Avance	5499
▁SOLLICIT	5498
▁Paragraphe	5497
▁certifié	5496
pillage	5495
rud	5495
▁céd	5495
▁manoeuvre	5494
▁REN	5493
ibilité	5489
▁Assur	5489
▁collabore	5489
▁fournisse	5488
Œ	5487
▁itinéran	5486
▁Dorel	5484
▁JV	5481
▁lobbyiste	5480
▁Far	5479
▁NCECF	5479
▁résilié	5479
2,50	5478
cierie	5478
▁absorption	5478
▁hôte	5477
AB	5476
bul	5476
NH	5475
▁Genuit	5474
▁Excellence	5473
▁faun	5473
ortement	5472
chauffe	5470
-150	5469
▁concepts	5468
▁concrétiser	5465
▁formidabl	5465
▁out	5461
▁FINANCIER	5460
▁Bor	5457
▁collaborat	5456
▁Région	5455
▁prisons	5454
MISSION	5452
▁Considéra	5452
Zé	5451
ALI	5450
▁OP	5449
VIH	5448
service	5447
▁navig	5447
▁soussigné	5447
3.1	5446
PM	5446
▁Oliver	5446
nocide	5444
système	5444
▁BTB	5444
▁pouce	5444
▁géologue	5443
▁robuste	5443
0,13	5442
réparer	5441
▁DIRIG	5440
▁FASB	5439
▁conserv	5437
▁tiendr	5437
gui	5436
pac	5436
udite	5436
▁8,2	5436
oeil	5435
▁imputation	5435
▁recueillie	5435
TU	5434
▁simulat	5433
▁Carl	5432
GP	5431
▁condo	5431
▁intitul	5431
tec	5430
▁Facebook	5430
INS	5429
arm	5429
▁distingue	5429
tem	5425
▁Teck	5425
▁event	5425
acquer	5424
cel	5424
▁agroalimentaire	5424
alloway	5422
ize	5418
organi	5416
▁Ali	5415
▁biotechnologie	5415
.04	5413
▁Brien	5413
▁Center	5413
▁Traitement	5411
▁reproduction	5410
FCP	5409
TON	5409
▁reclassée	5409
▁Site	5408
▁comm	5408
bor	5407
▁indispensable	5406
situent	5405
▁Côté	5404
▁intimidation	5404
▁expresse	5403
▁PMA	5400
▁SOMMA	5395
▁explorer	5395
▁Historique	5394
auté	5391
▁Quatr	5391
IV	5390
▁IFRIC	5390
glica	5388
▁constructeur	5388
hol	5387
Com	5383
▁ASU	5383
RAN	5382
▁Sino	5382
2.1	5381
fou	5379
▁Désign	5379
▁suspect	5379
▁imprim	5377
erence	5376
ouvernance	5376
▁RUBRIQUE	5375
▁Tech	5375
▁Tor	5375
-54	5373
Mo	5370
omett	5366
▁Carignan	5364
▁démonstration	5363
▁substitut	5363
▁promotionnel	5362
oratoire	5358
▁loss	5358
▁prior	5358
▁coins	5357
▁recommenc	5357
▁supra	5357
▁transformé	5357
ermiss	5355
▁NQ	5353
flamm	5352
voi	5352
▁inhabituelle	5352
ome	5350
▁Austin	5347
ALE	5346
tranché	5346
NL	5345
auvage	5343
▁abolition	5342
▁MISE	5341
▁Brands	5338
▁desservi	5338
▁territori	5338
▁Delta	5335
PI	5334
â	5334
▁Florid	5333
RÉSIDENT	5332
▁CORP	5332
▁pomme	5332
bar	5331
voy	5331
cosse	5330
▁débours	5330
▁sauvegarde	5328
▁Franco	5327
wi	5326
▁Wind	5325
▁représentative	5325
ouill	5323
▁reserve	5323
▁Bilan	5322
pen	5321
▁4,00	5320
ictoire	5319
▁8,9	5319
▁Mill	5319
▁VAN	5319
0,70	5318
▁assemble	5316
▁Neil	5315
FS	5314
▁temp	5314
▁résulté	5312
AII	5311
ë	5310
▁Sc	5310
▁libér	5309
▁magnifi	5309
▁Vidéotron	5306
ISS	5305
▁Call	5305
▁6,00	5304
tain	5303
▁commenter	5303
▁innoc	5303
▁limitation	5303
0,18	5302
LEMENT	5302
▁COM	5300
fr	5299
▁Taï	5299
▁PROPRIÉTÉ	5298
ÉRÉ	5297
▁Kingston	5295
▁My	5294
▁Neptune	5294
▁Tarif	5294
voqu	5293
▁consortium	5293
▁DIS	5291
▁typique	5291
ND	5290
▁EI	5288
visage	5286
canada	5285
▁9,6	5283
▁Remis	5283
▁sélectionné	5283
▁Arabi	5281
▁termina	5279
▁René	5278
istage	5277
▁Ten	5276
▁Gazette	5275
▁Hart	5275
▁IRS	5275
RR	5274
cia	5274
iée	5274
SO	5272
▁importateur	5272
mélioration	5271
▁Resource	5271
▁touristique	5270
▁Big	5268
▁Foundation	5268
nomb	5267
▁GÉNÉRALE	5267
mbassadeur	5266
▁Bangladesh	5266
▁facultati	5266
volontaire	5264
▁Gulf	5263
▁mérit	5257
conomiste	5256
gy	5256
haussure	5256
ML	5254
▁Churchill	5254
▁calibre	5251
▁prévisionnel	5249
ulé	5247
3,75	5245
HW	5245
0,14	5243
WH	5243
▁combine	5243
▁camionn	5241
▁dissuasi	5240
▁Estimation	5239
▁aggra	5239
▁aérospatiale	5239
Staun	5237
Tech	5235
▁CIC	5235
clam	5233
▁chevron	5232
anne	5231
▁Entit	5231
▁Brompton	5230
▁Lawrence	5228
▁cpa	5228
,37	5227
rou	5227
appe	5226
▁Statut	5225
▁Ya	5224
▁pilot	5224
7.1	5222
OSS	5222
▁far	5222
evée	5221
chères	5219
▁Christian	5219
▁catalogue	5217
▁énergi	5217
mate	5216
ompétent	5215
▁Arcti	5214
nar	5213
▁étrange	5210
▁loisir	5208
6.1	5206
▁TCPL	5206
ubrique	5205
▁ARTICLE	5204
▁vain	5204
LANTS	5203
▁accentu	5202
LL	5201
IENS	5200
alise	5200
-2010	5199
▁RAD	5198
vel	5196
▁COURS	5196
▁aéro	5196
▁impliquant	5196
▁abstraction	5195
▁courtes	5195
ANTS	5194
▁Argentine	5194
▁Dar	5192
▁remerci	5192
chir	5190
lisé	5190
▁REM	5190
VENT	5189
ondation	5189
osa	5187
portefeuille	5187
TAUX	5186
▁Project	5186
▁2029	5184
▁7,9	5182
▁spécialise	5182
tenues	5181
▁LO	5181
▁Laurier	5181
▁optimale	5180
▁Prise	5179
▁Thunder	5176
▁cuisine	5174
▁Falconbridge	5173
douce	5171
justifié	5171
▁CU	5169
▁each	5169
loi	5168
▁Middlefield	5168
▁recevr	5168
Compétence	5167
AVEUR	5165
▁sportif	5165
▁Government	5163
érig	5162
▁Renard	5161
▁brill	5161
▁kg	5161
▁VENTE	5160
▁Prépar	5159
ilité	5158
ETTE	5157
▁IND	5156
ançai	5155
esente	5155
▁PERTE	5155
▁intensit	5154
▁Établi	5154
ikh	5152
▁confession	5152
gén	5151
▁dissim	5151
▁imminent	5151
▁invit	5151
▁SAIL	5149
prenant	5148
▁Collège	5147
▁Diamond	5147
BO	5146
eriode	5146
eureux	5146
-2015	5143
▁Tkachuk	5142
8,50	5140
lité	5139
▁Chicago	5136
▁conceptuel	5136
▁ombudsman	5135
▁partialit	5133
▁introdui	5131
▁surviv	5131
▁Liberty	5130
EAU	5129
HER	5129
▁GWh	5129
▁constructive	5129
ator	5127
▁littéra	5127
▁juil	5125
ologue	5124
▁Bowater	5124
apper	5123
trants	5123
▁Dividend	5123
omb	5122
▁foule	5122
just	5121
gni	5120
por	5119
▁9,0	5119
▁CAPIT	5119
▁notification	5119
RB	5118
▁PD	5117
▁Shares	5117
▁rate	5117
DL	5116
▁2,25	5116
▁Lloyd	5115
▁partagée	5115
▁Exposition	5114
▁Serge	5114
▁Dickson	5113
▁Composante	5112
▁propane	5112
▁déménagement	5110
gou	5109
▁incorrect	5109
-71	5108
▁Principe	5108
▁Ratios	5107
▁FIRST	5103
emball	5102
▁Reuters	5102
▁propri	5101
Ma	5099
▁Kelly	5099
▁Wayne	5097
▁Healthcare	5095
0,17	5094
▁intrusion	5093
obi	5092
▁préside	5092
▁embar	5091
▁Westminster	5090
4,75	5088
▁9,3	5088
▁rehausse	5088
▁compil	5085
portent	5084
▁9,1	5081
▁soul	5081
▁artificiel	5079
▁caus	5079
▁multinationale	5079
▁VIA	5078
▁neutral	5077
écutée	5076
▁Bouchard	5076
▁fragment	5075
▁hospital	5072
▁whip	5072
▁lentille	5070
Un	5069
▁8,4	5069
-170	5068
▁fine	5068
▁Canoe	5067
érées	5066
▁2028	5066
SPÉ	5065
intégr	5065
▁inaction	5063
féri	5062
ÉG	5062
▁coordonn	5061
illage	5055
▁centralis	5054
▁relev	5054
▁spont	5054
ky	5053
0,65	5051
LW	5051
ERS	5050
ÈRE	5050
▁bibliothèque	5050
IAL	5049
▁Aimia	5049
▁responsabilit	5047
imi	5046
▁socio	5046
▁conciliation	5044
▁densit	5041
▁related	5040
stitution	5039
▁Effective	5039
▁Microsoft	5038
▁Gary	5037
▁Québécoise	5036
▁PASSIF	5034
▁Ridge	5034
CDI	5032
▁issues	5032
BN	5030
▁new	5030
VÉ	5028
assaini	5028
emun	5025
▁Excédent	5025
eral	5024
xpérience	5024
▁Exception	5024
-74	5023
AISON	5023
EMENTS	5023
▁INTÉRÊT	5023
▁poursuivie	5023
brouill	5022
▁Gouverneur	5022
▁Yu	5021
CON	5018
mus	5018
OSE	5017
esident	5016
ÉT	5015
▁Kan	5014
visuelle	5013
▁planifié	5011
▁conf	5009
vor	5007
ératif	5005
phé	5004
ISE	5001
ographie	5001
▁CRH	5001
▁rédacteur	5001
▁Maurice	4996
▁Federal	4995
.20	4993
▁5.1	4993
▁Southern	4993
▁fenêtre	4993
bord	4990
ilia	4989
▁SFM	4989
tré	4988
▁Manufacturers	4988
▁conv	4985
▁Ze	4984
NP	4982
cessaire	4982
cueil	4981
▁Time	4981
EI	4980
clusion	4978
9.1	4977
bel	4977
▁Recommand	4977
▁traverse	4977
▁Pages	4976
▁timb	4976
quent	4975
main	4974
▁quo	4974
▁Okanagan	4973
▁12,0	4972
usée	4971
▁6,25	4970
▁Miller	4970
▁absorber	4966
approprié	4963
registrement	4963
▁Perspectives	4961
▁proc	4961
inder	4959
▁Stratton	4958
▁Absence	4957
▁independant	4957
bec	4956
▁Term	4956
▁2035	4955
▁Joyal	4955
▁massif	4955
gate	4954
onction	4954
▁2.2	4954
▁clôturé	4954
AND	4952
▁9,7	4952
▁EEP	4952
otés	4951
▁Prairies	4951
▁VII	4951
▁jui	4951
-88	4950
▁Allan	4950
▁GMi	4950
▁systém	4949
▁RÉSU	4946
chissement	4944
amine	4943
▁Essenti	4941
▁than	4940
nic	4939
▁CHARGE	4939
▁synthèse	4939
▁EXPLORATION	4938
▁Aston	4937
▁opt	4937
clinique	4935
▁Cie	4935
RIX	4932
▁catégori	4931
uck	4930
▁chirurgi	4930
ê	4927
▁9,8	4927
▁Rick	4927
▁détiendr	4923
SPA	4922
matique	4922
▁ACI	4920
▁exc	4920
existant	4919
▁Grè	4919
ués	4917
▁pompe	4917
▁Hartford	4916
▁Marine	4916
ontrepartie	4915
▁austral	4915
▁Parkland	4914
OM	4913
traitant	4913
uaire	4912
aisie	4910
▁grandissant	4910
script	4906
▁regret	4904
▁Bois	4902
▁Core	4901
PORT	4900
▁GH	4899
▁Adven	4895
▁escompté	4895
ÉGI	4894
▁Cré	4894
▁cycles	4894
▁BPA	4893
▁Cam	4892
▁licencié	4891
▁cardia	4890
MONDI	4889
fond	4889
▁modé	4889
▁appos	4888
▁concentrée	4887
▁discute	4887
▁grandi	4884
▁Sherritt	4883
▁grevé	4883
▁lies	4883
▁Dix	4882
▁insiste	4882
toile	4878
▁0,16	4878
▁Putnam	4878
▁VIS	4876
▁École	4876
ollicit	4873
IBLE	4872
RC	4869
▁FPA	4868
▁Strat	4868
▁rajuste	4865
▁dresser	4863
guiche	4862
REEI	4860
▁1968	4860
motion	4858
▁11,0	4858
▁Micro	4857
einture	4856
▁Astral	4856
▁Charlotte	4855
ranger	4853
-81	4852
▁Huru	4852
0,85	4850
▁Good	4849
▁conservée	4849
vier	4848
MAX	4847
BCA	4846
▁JOUR	4846
▁1933	4845
RF	4842
▁catastrophes	4842
▁their	4842
ajustement	4841
▁télévis	4841
-53	4838
trap	4838
bran	4837
▁coopérati	4837
DEV	4836
versée	4834
▁Jud	4834
▁matérialis	4834
▁modificat	4834
ELS	4833
▁privil	4833
ANA	4832
IOL	4832
pres	4830
water	4828
▁Talisman	4828
▁Arrangement	4827
▁coul	4827
.5	4826
▁Fed	4826
▁data	4826
▁9,2	4825
▁planifiée	4825
▁Initiative	4824
▁Atlantic	4823
▁novo	4823
mique	4821
-57	4820
0,45	4819
▁pur	4816
SOLUTION	4814
nai	4812
portive	4812
bande	4810
▁Industrial	4810
▁visitez	4809
oyez	4807
Autorisation	4806
▁automatisé	4806
▁major	4806
torsion	4805
▁Gatineau	4805
▁militant	4805
▁milli	4805
NN	4804
éraux	4803
▁11,8	4803
▁Mah	4802
omo	4801
evrier	4800
▁contaminé	4800
▁recevable	4799
cri	4798
▁désa	4798
▁Capacit	4797
▁Axcan	4796
yne	4795
HQ	4794
ittératie	4794
▁Council	4794
▁Supra	4794
8.1	4793
▁Kin	4793
RON	4792
▁parcelle	4790
▁Sobeys	4789
suffisance	4785
bâ	4784
▁débuter	4784
ANR	4783
onze	4783
RQ	4781
▁means	4780
dira	4778
LY	4777
stituer	4776
▁TRUST	4776
▁régle	4776
Pierre	4775
▁Not	4773
▁Économi	4773
▁States	4770
▁emission	4770
▁Delaware	4769
▁Ian	4769
▁Nature	4769
▁Wright	4769
loyal	4767
fonc	4765
5-4	4763
oïde	4763
▁Souscription	4762
▁Chez	4761
NOUVEL	4760
▁homicide	4760
▁interurba	4760
▁DEX	4759
ABLES	4758
var	4753
▁Boy	4753
▁Côte	4753
-76	4752
▁NC	4752
▁also	4752
provincial	4751
▁11,4	4751
VA	4750
▁PH	4750
tournée	4748
▁bureaucrati	4745
▁lord	4745
▁Rimouski	4742
▁properties	4742
REGISTR	4737
▁GLOBAL	4737
▁McDonald	4736
ucie	4731
▁SFAS	4730
▁Work	4730
▁méta	4730
▁11,1	4729
▁Entertainment	4729
▁Immobilier	4729
▁facultative	4729
▁BO	4728
▁Penn	4728
.17	4727
▁Knight	4726
▁bond	4726
▁palliati	4726
érable	4725
▁Consommat	4724
▁fusi	4722
VR	4721
EDS	4720
étail	4718
▁FEC	4718
▁MS	4718
▁Pr	4718
▁métallique	4718
▁Coutu	4716
▁act	4715
▁compli	4715
▁connect	4715
▁quarant	4715
0,11	4714
▁Price	4711
▁diminuera	4711
▁respon	4711
dame	4710
▁cliqu	4710
▁islami	4710
dants	4709
▁Chase	4709
versa	4708
▁qualifie	4708
mobil	4706
▁MacKay	4706
▁trésor	4705
En	4703
▁MFC	4703
▁BE	4702
▁Leaf	4702
▁Ri	4702
▁Virginia	4702
▁evalu	4701
▁domestique	4700
lieu	4699
veloppement	4697
▁Share	4697
▁propice	4697
▁Evolve	4696
▁Steve	4696
▁évite	4696
▁Comp	4695
stan	4693
▁PROJET	4693
vraisemblable	4692
ovi	4690
inter	4689
▁Fourni	4688
fort	4687
▁abrégé	4686
▁contradict	4686
VOUS	4685
quière	4685
rite	4684
-87	4683
▁Parl	4683
0,90	4682
▁CRÉDIT	4680
▁Souven	4680
▁Journal	4679
-2012	4678
▁Imm	4678
▁textile	4678
▁ontarien	4677
▁prometteuse	4676
▁conviction	4675
▁CPN	4674
▁Directrice	4674
▁Créditeurs	4672
▁Liste	4671
▁Za	4671
adeau	4670
premier	4670
élécommunication	4669
▁Decision	4669
▁Low	4668
▁forum	4668
▁serré	4668
▁Belgi	4667
Ab	4666
egi	4666
▁entrant	4666
RÉE	4665
TES	4665
40,00	4664
▁LAB	4664
▁mil	4663
7,25	4660
isseur	4660
▁Chemtrade	4660
▁endos	4660
▁price	4659
alco	4657
▁Free	4657
▁collection	4656
ouple	4655
haussé	4654
▁CRC	4654
▁Cable	4654
▁breveté	4654
▁compétiti	4654
▁Harder	4653
▁empir	4653
ALEX	4652
Ï	4652
▁Marshall	4652
▁Valene	4652
▁occasionnel	4652
▁anticip	4651
▁rein	4651
udaine	4650
▁Local	4649
explo	4648
ink	4647
ÉNERGI	4646
▁Dallaire	4645
▁menu	4645
▁éditeur	4645
▁facilitate	4644
▁financi	4644
▁STRATÉGI	4643
-62	4641
▁Aecon	4640
▁Manning	4640
verbal	4639
berge	4638
éposit	4637
▁tur	4637
▁ém	4637
▁Morin	4636
▁Sky	4636
▁tables	4634
▁cruel	4633
NCE	4632
ibi	4631
▁Allocation	4631
▁Fiscal	4631
▁Conférence	4630
▁francophone	4630
▁Process	4629
▁habitant	4629
▁Richmont	4626
▁TORONTO	4626
▁classes	4626
▁continent	4626
▁magistrat	4626
oux	4625
▁Sar	4625
▁réévalue	4625
phy	4623
▁AR	4621
▁oral	4621
▁socie	4620
▁Cession	4619
▁évènement	4619
▁Authority	4618
▁recyclé	4618
NMM	4617
▁CMA	4617
génération	4616
▁Prud	4615
TY	4614
eme	4614
-84	4613
ENS	4613
GEN	4613
▁Wajax	4612
▁impliquée	4612
UH	4611
▁RÈGLEMENT	4611
my	4610
▁Watson	4610
▁tester	4610
▁poursuivron	4609
fghan	4606
IVE	4605
▁number	4605
cipro	4604
▁Guyana	4601
▁Synergy	4601
▁sav	4601
▁épuis	4600
▁employe	4599
uration	4598
▁matérielle	4598
tude	4597
▁rénov	4597
DAC	4596
ologne	4594
▁vétérinaire	4594
▁It	4593
MEX	4591
minative	4589
cept	4587
▁hoc	4587
▁limitations	4587
▁Alt	4586
▁anglophone	4586
▁bilingue	4586
gam	4585
▁Mr	4585
chargé	4584
▁Fil	4584
.1.1	4583
7,75	4581
▁District	4580
rûl	4579
Bret	4578
▁1969	4578
▁Cowan	4577
élection	4576
caiss	4575
▁11,6	4573
▁PAGE	4573
▁pluri	4572
TV	4571
▁magazine	4570
▁Diane	4569
▁PRINCIP	4569
▁NOTICE	4567
duction	4563
▁Installation	4562
▁economi	4562
chaland	4561
▁Haute	4561
▁piè	4561
AO	4560
four	4560
résence	4560
▁these	4560
-160	4559
▁décor	4559
▁outrage	4558
▁rencontrée	4558
▁equity	4557
▁couch	4556
XU	4554
▁Ga	4554
▁rec	4554
▁exp	4553
▁recueill	4551
-75	4549
low	4549
▁diffuser	4549
▁ensuit	4549
▁Pla	4548
▁statutaire	4548
▁coch	4546
Breton	4545
frère	4544
élai	4543
▁GGOF	4543
OIT	4542
▁Brampton	4541
▁Preferred	4539
▁4,25	4537
▁GENIVAR	4537
▁harmoni	4537
▁mining	4537
▁aigu	4536
▁inspect	4536
note	4534
pour	4533
▁McLachlin	4533
SERV	4532
▁Kent	4531
texte	4529
▁recherch	4529
▁Funding	4528
▁Mexico	4527
▁MODIFI	4526
▁during	4525
▁10,6	4524
▁Tra	4524
▁Yield	4524
▁Algérie	4522
▁canal	4522
gressif	4521
lion	4521
mex	4521
▁Peace	4520
-004	4519
▁UK	4519
▁Yves	4519
kraini	4518
▁suspens	4518
▁group	4517
egoci	4515
icence	4515
▁saurai	4514
▁6,75	4513
▁antic	4513
▁SOUS	4512
▁11,9	4511
aquet	4509
▁convoqué	4509
▁Saputo	4508
top	4506
▁Financiers	4506
▁8,7	4505
▁boulevard	4504
oudan	4503
RY	4502
ÉC	4502
▁diagramm	4502
▁exhaust	4502
RAT	4500
▁Duncan	4500
▁log	4500
▁Conséque	4498
▁DÉC	4497
▁PRIVÉ	4497
▁affin	4497
▁assemblage	4496
▁fluid	4495
oirée	4494
▁Element	4492
yez	4491
▁11,3	4491
▁Khan	4491
UG	4490
▁stérile	4490
▁9,4	4489
▁champion	4489
▁intensification	4489
▁method	4489
FE	4488
▁Mois	4488
▁Deutsche	4487
ave	4486
▁paradis	4486
Bro	4485
DES	4485
▁affection	4484
▁repr	4484
rose	4483
élib	4482
▁concurrente	4482
are	4481
▁analysée	4481
▁inspire	4481
▁Ve	4480
▁mainten	4480
▁psychologue	4479
▁11,2	4476
▁Kim	4476
▁MWh	4476
▁Expli	4475
▁Particul	4473
▁Petite	4473
▁Roger	4473
PEP	4472
▁expropriation	4471
▁Examin	4470
▁espec	4470
▁ACT	4468
▁signatures	4468
▁my	4467
CVM	4466
▁Acuity	4466
VEN	4465
▁minuti	4465
.6	4464
ttard	4464
▁Loan	4464
▁Strategic	4464
▁cont	4464
traîne	4463
▁tube	4463
▁chevauchement	4462
▁Niagara	4461
▁Vision	4461
▁Norv	4460
▁agreement	4460
EO	4459
oria	4458
▁réalisera	4458
mine	4457
tax	4456
▁1.2	4456
▁plong	4456
prouvé	4455
érique	4455
▁privatisation	4455
Rivières	4452
▁Airlines	4452
▁Indon	4452
▁81-107	4450
ben	4449
▁immobilis	4449
▁sollicitée	4448
ARI	4446
▁intense	4446
PO	4445
FA	4442
blissement	4442
▁Débit	4441
▁Timmins	4441
ara	4440
▁Aurora	4440
▁Matière	4440
▁Ron	4440
vastat	4439
▁Ram	4439
bouch	4438
▁modalit	4438
▁INVESTISSEMENT	4437
▁vétér	4437
▁ASSET	4436
▁extradition	4434
▁gras	4434
▁irrecevab	4434
voisin	4433
▁Neuf	4433
▁Anthony	4432
▁éva	4431
Au	4430
conventionnelle	4430
ple	4429
▁Minister	4429
▁business	4429
▁salon	4429
▁Hat	4428
▁SCP	4428
▁Métis	4427
▁SO	4427
▁explor	4427
▁composite	4426
range	4425
▁figurer	4425
▁fonctionnel	4425
▁inexact	4424
▁AUC	4423
▁Eh	4423
▁JPY	4423
▁visibilit	4423
▁Occasion	4422
▁Ryan	4421
′	4420
▁CONVENTIONS	4420
▁Richelieu	4420
▁Smart	4420
▁Belle	4419
▁Gerald	4419
▁discr	4419
▁ristourne	4419
vil	4418
▁subsidiaire	4418
ESTIONNAIRE	4416
▁oz	4414
▁stagiaire	4414
-2008	4413
via	4413
▁Gray	4413
▁indexation	4413
.06	4411
▁vallée	4409
▁Food	4407
▁Gendarme	4407
▁LIBOR	4407
▁Ronald	4407
▁guid	4407
▁13,5	4406
▁critiqu	4404
▁Talvest	4403
gout	4402
▁Musé	4402
▁Élément	4402
-64	4398
▁anxi	4398
-56	4397
CHÉ	4397
▁gasp	4396
IDE	4395
▁1960	4395
alphabétis	4394
rill	4394
▁Cash	4394
▁Chorus	4394
▁Keith	4394
▁regrettabl	4392
terna	4391
▁croisé	4390
▁extrémité	4390
▁promett	4390
gouvernementale	4387
▁India	4387
▁PROTECTION	4387
▁2,75	4386
▁minéralisée	4385
▁Med	4383
▁Spectrum	4383
ELL	4382
▁Pay	4382
▁You	4382
▁LONG	4381
-58	4380
▁Cahier	4380
▁bovin	4380
haut	4379
▁approvisionne	4379
LAC	4378
VOIR	4378
olabor	4378
uteur	4378
gr	4376
oureuse	4376
▁zon	4376
brook	4375
▁altération	4375
endett	4373
▁Morris	4373
▁Très	4373
▁cessionnaire	4373
onge	4371
▁affr	4370
rnes	4368
BOURS	4367
▁noire	4365
▁10,2	4364
▁SRC	4364
▁suggestion	4362
oulée	4361
▁IS	4361
▁Best	4360
▁Agnico	4359
▁Revue	4358
cott	4357
ificateur	4356
law	4355
oise	4355
▁JHN	4353
▁Kitchener	4353
.19	4352
▁WTI	4351
-2019	4350
▁commandé	4350
FAR	4349
▁rég	4349
ONS	4348
▁Lou	4348
-89	4347
▁Alto	4347
▁Apple	4347
▁élimine	4347
▁amplifi	4346
▁taxi	4345
-2009	4344
▁Jaffer	4343
▁Key	4342
▁Performance	4342
▁ambiti	4342
▁pat	4341
▁Ancienne	4340
▁NA	4340
▁Hypothè	4339
▁Pipelines	4339
tribution	4337
▁virus	4337
▁Motor	4336
▁fix	4336
▁tournant	4335
graphe	4334
oiseau	4334
▁Administratri	4333
0,22	4331
ison	4331
▁ponder	4331
autorit	4330
fié	4330
▁locomotive	4330
0,19	4329
Agroalimentaire	4329
▁CODE	4329
▁SV	4328
▁Drive	4325
LF	4324
▁pesticide	4323
▁entreprend	4322
ERG	4319
▁Arthur	4317
▁automatis	4317
▁rapproché	4317
tric	4316
▁Expansion	4316
▁bruit	4315
▁psychiatri	4315
ibliothèque	4313
▁declaration	4313
▁illiquidit	4313
Gold	4312
OUT	4312
quant	4312
WA	4310
UC	4309
▁merci	4309
finir	4308
▁Barry	4308
▁SUITE	4307
▁over	4306
▁maternit	4304
pargne	4303
COMPTE	4302
ÉNA	4302
▁10,3	4302
lera	4301
▁solid	4300
▁How	4299
▁BT	4298
▁Parties	4298
-65	4297
▁Imp	4296
mobilisation	4294
kel	4292
▁11,7	4292
▁Combatt	4292
▁viole	4292
▁Germain	4290
▁Direct	4288
proche	4287
▁lithium	4287
gh	4283
▁ADN	4283
▁Robichaud	4283
▁traumatis	4283
sphère	4282
▁doctorat	4282
▁patron	4282
enonc	4281
FER	4280
ELLES	4279
▁Hospital	4279
▁13,0	4278
nçon	4277
▁GAML	4277
conformit	4276
▁Proposition	4276
▁special	4275
endrai	4274
tier	4274
0,24	4273
▁years	4273
croch	4272
▁Eric	4272
▁Lamer	4271
▁Sport	4271
▁energie	4271
due	4270
▁Radiation	4269
▁rotati	4269
▁rétro	4269
-2017	4268
▁Figure	4268
▁September	4267
▁Kinross	4266
-140	4265
JAN	4265
▁Sudbury	4265
▁lock	4264
▁conventionnel	4262
▁Farm	4261
-2002	4257
▁Stan	4257
▁diesel	4256
▁Value	4255
diction	4254
▁CONSOLIDÉ	4254
aria	4253
hon	4253
▁QUESTIONS	4252
▁souf	4251
▁Mission	4250
▁pacifi	4248
▁Swaps	4246
▁Tour	4245
bury	4243
▁Caroline	4243
▁MANDAT	4243
▁Saxon	4243
▁conseillère	4242
▁dilu	4241
Maxxum	4240
hill	4239
tia	4239
▁occidental	4239
▁Av	4238
▁Imagin	4237
▁RPA	4237
▁sanitaire	4235
chasseur	4234
▁Hudson	4234
▁calm	4233
▁ev	4233
▁renonce	4233
▁Équipement	4233
tête	4231
▁GM	4230
BU	4228
DB	4228
▁BCI	4228
▁mono	4228
▁temporelle	4228
▁Rouyn	4227
▁ULC	4227
-2000	4226
onna	4226
pose	4226
▁Larry	4226
version	4225
▁Camp	4225
▁CERTAIN	4223
NY	4221
▁Andreychuk	4220
▁Mis	4219
▁Stella	4219
terni	4218
▁Copper	4218
▁coordonnat	4218
▁Sand	4217
▁diligente	4217
▁Portugal	4216
APER	4212
caissement	4212
missile	4212
▁fich	4212
▁résulter	4212
▁implication	4211
rayer	4210
▁sports	4210
▁absurd	4209
thane	4208
caution	4206
▁her	4206
méra	4205
▁monument	4205
▁subséque	4205
HP	4204
▁Evans	4204
logie	4202
QUES	4200
▁référ	4198
▁Light	4197
▁SCHL	4197
▁HE	4196
rôle	4195
▁TRIMESTRIEL	4195
oll	4193
▁PARTICIPATION	4192
CSN	4191
nan	4191
▁Longueuil	4191
▁illég	4191
▁succ	4191
bridge	4190
▁Hub	4190
▁TSXV	4190
TECH	4189
▁including	4189
vasion	4188
DW	4187
▁2049	4186
▁Base	4186
▁Dirigeant	4186
▁incorpor	4186
▁proclamation	4186
Demande	4185
▁Nigeria	4185
▁Sharon	4185
▁imprimerie	4184
rick	4183
▁BILAN	4183
▁BOR	4183
▁CONSO	4182
▁TRANS	4182
uf	4181
▁contingent	4181
▁Brad	4179
▁Nolin	4179
▁PROGRAMME	4179
▁artistique	4179
▁PP	4178
▁FINANCEMENT	4177
▁Haw	4177
FD	4176
omi	4175
▁contamination	4174
NES	4172
institutionnelle	4168
▁donat	4168
▁his	4168
▁1,02	4167
▁Financier	4166
▁Glen	4166
▁TSE	4166
TÉ	4165
▁implanté	4165
IX	4164
▁Ban	4163
▁Symbole	4163
égation	4162
▁transform	4161
démi	4159
acca	4158
▁adjacent	4158
▁Compensation	4155
ebec	4154
▁ART	4154
▁Pizza	4154
DG	4152
ISSEMENT	4152
▁Atrium	4152
▁Cook	4152
▁mécanicien	4152
▁russe	4152
8,25	4151
▁GTAA	4151
AUTE	4150
▁Disposition	4150
affirm	4148
president	4147
▁Sam	4145
annuel	4144
▁CANADIAN	4144
▁PO	4144
OYEN	4143
▁JPMorgan	4142
▁Commissariat	4141
▁FRANKL	4141
▁horribl	4141
▁GWL	4139
▁Tembec	4139
Acc	4138
aga	4138
fensive	4138
▁Ap	4138
▁ATTRIBU	4137
canadienne	4136
qualifi	4136
▁admir	4133
▁préparatoire	4132
▁NOR	4131
▁Surplus	4131
semblé	4129
▁diff	4128
▁adapt	4127
NS	4126
▁10,4	4126
mag	4124
▁Chan	4124
▁GARANTIE	4124
▁Revenue	4124
adéquate	4123
▁Waterloo	4123
▁Jay	4122
TATS	4121
▁NOUVEAU	4121
0,95	4120
secteur	4120
▁Crown	4120
9.2	4118
▁séparat	4118
hin	4116
ull	4115
oxyd	4112
▁abrogation	4111
▁tragi	4111
▁Bow	4110
▁prec	4110
cule	4109
▁Sho	4109
▁fret	4109
app	4108
▁imaxx	4108
▁Intégr	4107
▁Sélection	4107
trie	4105
▁Formule	4104
▁Observation	4104
Quest	4103
▁Geo	4103
▁Terry	4101
DQ	4100
OINS	4100
inuit	4099
▁Colline	4099
▁1967	4098
▁Introduction	4098
▁SFK	4098
▁manufacturière	4098
▁norm	4098
HR	4097
▁nomm	4096
UA	4095
▁7.1	4095
▁Motors	4095
ppée	4094
▁descend	4094
▁4,50	4093
uni	4092
▁amend	4091
owell	4090
gov	4089
▁AFFÉRENTE	4089
gold	4088
-78	4087
CAN	4087
verre	4086
▁diamantifère	4086
ness	4085
▁Dave	4085
▁Corn	4084
zz	4083
▁Profil	4083
▁quarter	4083
▁bât	4081
▁inculp	4081
egime	4080
▁10,1	4080
▁Communiqué	4079
▁Pol	4079
▁Ward	4079
▁cheval	4079
▁expédi	4078
-66	4077
rk	4077
▁dorm	4077
opéra	4074
▁15,0	4074
▁CHANGEMENT	4073
▁innovatrice	4073
▁recrut	4073
▁Doc	4071
▁EXFO	4071
▁8540	4070
▁SIMPLIFI	4070
rasser	4068
▁Mari	4067
▁incorporée	4067
ball	4066
gesse	4066
▁agréée	4065
▁DROIT	4064
▁Portland	4064
▁3.2	4061
▁Char	4061
▁Tinto	4061
chem	4060
▁12,8	4060
▁Plc	4059
▁coop	4059
▁profitable	4059
minée	4058
riode	4058
▁masculin	4058
RCE	4056
illo	4056
ommissariat	4056
8,75	4054
KE	4053
▁Salvador	4053
ordonnée	4052
Madeleine	4051
▁Stéphane	4051
cur	4050
put	4050
▁Dor	4050
▁indivise	4050
ogène	4049
▁Carol	4049
▁12,6	4048
▁explicative	4048
▁Tolgoi	4047
ernière	4046
▁privilégie	4046
TT	4045
STA	4044
WT	4044
ébut	4044
▁sympathi	4044
▁Kings	4042
▁Plat	4041
archandise	4039
pondéré	4039
▁Rep	4039
USION	4037
grad	4037
▁Goldman	4037
▁TransForc	4037
eutique	4034
vage	4034
▁Dennis	4034
▁Monte	4034
▁préco	4034
rian	4033
étit	4033
cipit	4032
▁Sol	4032
▁By	4031
Mart	4030
VALUATION	4030
prix	4030
assemble	4029
rob	4028
▁logo	4028
▁validation	4028
▁Cinq	4027
0,21	4026
irn	4026
ors	4026
▁Australia	4026
▁rationalis	4026
▁Etobicoke	4025
▁accus	4025
▁interruptions	4025
▁12,1	4024
lér	4023
VUE	4022
▁capitalisée	4022
▁turbine	4022
inal	4020
▁product	4020
▁Mario	4018
Restriction	4017
prime	4017
▁culti	4016
nal	4015
odo	4015
▁Cambior	4015
▁Langley	4015
▁DIRECT	4014
▁tum	4014
rouille	4013
phéri	4012
évalué	4012
▁ontarienne	4012
▁strict	4012
AIR	4010
▁procédera	4010
0,55	4009
paragraphe	4009
▁PIMCO	4009
abi	4007
▁ASC	4005
▁TÉLÉ	4005
bouche	4004
▁coïncid	4004
vache	4003
▁syndrome	4003
Lévesque	4002
▁Network	4002
▁articul	4002
▁AN	4001
▁Cartier	4000
bol	3999
oke	3999
▁clandestin	3999
accorde	3996
MOBILIÈRE	3994
▁1,05	3994
▁1,10	3994
▁ISO	3994
▁explosif	3994
▁homologation	3994
▁Husky	3993
solvable	3992
104	3991
▁extraite	3991
NX	3990
chéant	3990
▁DEMANDE	3990
▁Bélanger	3988
▁Table	3988
▁NS	3987
ergent	3985
mini	3985
ICA	3984
▁XX	3984
USE	3983
▁capture	3983
mill	3982
onnée	3982
▁grammes	3982
roge	3980
▁12,9	3980
▁Rain	3980
▁quantifi	3979
▁reconstruction	3979
,44	3978
▁Eggle	3977
cède	3975
transige	3975
▁FH	3975
▁NOC	3975
▁Échéanc	3972
▁Harvest	3971
bauche	3970
▁amendé	3969
▁Lévis	3968
▁trac	3968
0,50	3967
TEL	3967
titude	3967
▁Karen	3967
▁Phil	3967
ichier	3966
▁vena	3966
▁Dane	3965
▁Commonwealth	3964
▁Occupation	3964
▁uniform	3964
▁Oak	3962
point	3961
▁DiagnoCure	3959
pati	3958
▁Barbad	3957
▁Metals	3956
▁réserv	3956
9,50	3955
▁Elizabeth	3954
TF	3953
▁Fête	3953
leuve	3952
trat	3952
▁LRT	3952
▁Fo	3951
▁NSR	3951
▁Oxford	3951
▁1,01	3948
▁4.3	3947
▁SH	3945
HIP	3944
âtiment	3944
▁Bancorp	3944
▁6.1	3942
▁APPEL	3942
dommage	3941
▁alternati	3941
▁accounting	3940
▁chronologi	3940
FH	3938
GH	3938
IRC	3938
▁Tro	3938
▁curie	3938
olo	3937
▁3,50	3937
▁Général	3937
ulation	3936
▁Acadie	3936
▁VOTER	3936
▁caractérise	3936
▁fum	3936
tta	3935
▁Kelowna	3935
▁Matthew	3935
▁engrai	3935
tablie	3934
traver	3934
▁pneu	3934
ACC	3933
▁10,8	3933
▁PFP	3933
politique	3932
▁cadet	3932
▁identifi	3932
media	3931
▁Conc	3929
▁applaud	3929
BD	3928
lienne	3928
▁intercept	3928
▁transfér	3928
▁Cart	3927
PUC	3923
TITU	3923
▁Dessin	3923
▁commodit	3923
▁appar	3922
.8	3921
ATI	3921
mal	3921
▁Fairmont	3920
VW	3919
ffer	3919
ava	3918
LR	3916
▁compétition	3916
▁2036	3915
iran	3914
▁Johnston	3914
▁Ventures	3914
DIC	3913
▁1,30	3913
▁Gre	3913
▁golf	3913
ormis	3912
▁Plaza	3912
▁ventil	3912
▁Rembours	3911
▁Sceptr	3910
▁créditée	3910
tamer	3909
▁Albani	3909
▁Certification	3909
▁Iron	3909
▁13,4	3907
TX	3906
▁Mobil	3905
▁Banking	3903
▁coli	3902
▁psychiatr	3902
VAL	3900
ifique	3900
akh	3899
ctualité	3899
worth	3899
▁prélev	3899
rveau	3898
▁Bear	3897
▁Ray	3897
▁développ	3897
▁progresse	3897
double	3896
rès	3896
▁12,4	3895
▁spéculative	3895
omme	3894
▁Wild	3894
▁implant	3894
DO	3893
ucci	3893
▁Pet	3892
▁copropriét	3892
épartement	3891
▁Yvon	3891
ric	3890
mêlé	3885
romp	3885
▁Garda	3885
381	3884
tuée	3884
vah	3884
éloign	3884
▁insens	3884
▁réussit	3884
▁14,0	3883
▁10,7	3881
▁Sydney	3881
▁abuse	3880
▁attribut	3880
▁costs	3880
▁recoup	3878
ifférence	3877
▁Amaya	3877
▁Deer	3877
▁Sachs	3877
▁14,5	3876
gra	3875
oz	3875
érivés	3875
▁élabore	3875
élu	3874
▁Pal	3874
-63	3873
▁Consolidation	3873
cénario	3872
▁commandant	3872
▁transmett	3872
▁Alimentation	3871
▁Redevance	3871
▁blanche	3870
▁pensionna	3870
.18	3869
▁Gla	3868
-2007	3866
GB	3866
▁mini	3866
-70	3865
▁Clarke	3865
▁Concern	3865
rimper	3864
▁AH	3864
▁douz	3864
▁rectifi	3864
▁répartit	3864
Pargesa	3863
kar	3863
▁PRÉSENTE	3863
KO	3861
chose	3861
▁ADF	3861
▁CHA	3861
▁Centrale	3861
▁cost	3861
▁rattache	3861
▁convictions	3860
▁tangible	3860
.07	3858
ERE	3858
êne	3858
▁DOLLAR	3858
▁hyper	3858
▁GT	3857
▁industrialis	3857
▁impatient	3856
ménag	3854
▁Guelph	3853
igan	3852
▁transit	3852
licat	3851
▁Condition	3851
▁plénier	3851
JA	3850
▁CEO	3850
▁President	3850
▁Apport	3849
fectu	3848
▁Chemin	3848
Maintien	3847
▁géologie	3847
aye	3846
▁platine	3846
▁1966	3845
▁Lord	3845
▁comprimé	3845
▁12,7	3844
▁EM	3844
▁fruct	3844
assa	3843
longée	3842
0,26	3841
uir	3841
érant	3841
▁Instruction	3841
▁1,03	3836
EV	3835
dien	3834
med	3833
▁DIFF	3833
▁0,28	3832
▁Alex	3832
▁lixiviation	3832
Indemnit	3831
▁Hunter	3830
arbor	3827
▁Relative	3827
munition	3826
▁Bat	3826
ésolution	3825
▁hydrauli	3825
aid	3824
questre	3822
olée	3821
▁brochure	3821
▁patent	3821
▁rail	3821
▁retran	3820
mul	3819
▁Lunn	3819
volt	3818
▁Prairie	3818
▁Rod	3818
ulée	3817
conservat	3815
▁Rép	3815
▁Fox	3814
azi	3813
▁appellation	3813
oi	3812
IIF	3811
▁15,5	3811
▁Limite	3811
▁Mpi	3811
▁infect	3811
▁VP	3810
▁exista	3810
▁mesur	3809
▁Kosovo	3808
▁MON	3808
▁spectacle	3808
▁Asia	3807
▁rive	3806
-67	3805
HL	3805
▁hospitali	3805
abituelle	3804
▁Davis	3804
▁contraint	3804
▁courses	3804
▁maturit	3804
▁Cotisation	3803
▁antidiluti	3803
ièce	3802
nali	3802
roy	3800
urre	3800
gradation	3799
pri	3797
▁Craig	3796
yk	3793
▁past	3793
VISION	3792
▁collect	3791
▁1,33	3790
▁Carleton	3790
▁Oyu	3790
observation	3789
▁Aliment	3789
▁pile	3789
entendu	3788
vert	3787
▁DPA	3787
▁engendrer	3787
▁vérifie	3787
wal	3785
▁émergen	3785
▁mobilit	3784
ricain	3783
▁FISCAL	3783
▁Norre	3783
▁ran	3783
▁mutation	3782
APE	3781
▁text	3781
semence	3778
▁audaci	3778
▁monopol	3778
▁réalisable	3776
AIS	3775
▁univers	3775
ition	3774
▁Hughes	3774
▁Software	3774
Corp	3773
gua	3773
▁Summit	3773
tourne	3772
▁Segal	3772
JET	3771
STR	3771
oyauté	3770
▁MAI	3770
5.1	3769
▁plausible	3769
anim	3768
loge	3768
▁reposition	3768
-411	3766
offre	3766
rête	3765
▁12,3	3765
▁revêtement	3765
■	3765
▁51-102	3764
▁intelligence	3764
mani	3763
▁expos	3763
0,23	3762
vid	3761
▁Ribic	3760
▁détecté	3760
▁system	3760
▁1,35	3757
▁cache	3757
▁join	3757
chever	3756
cy	3756
gas	3755
TD	3754
▁Commune	3754
▁secr	3754
▁Consulting	3753
▁made	3752
▁redress	3752
imité	3750
▁Métaux	3750
▁ORGANIS	3750
▁optimism	3750
Infraction	3749
▁Citi	3749
▁Module	3749
chargement	3747
graphie	3747
▁MILLION	3747
ake	3746
ÔT	3746
▁séquence	3746
1.1	3745
RANG	3745
istan	3745
▁FORMUL	3745
▁Mobile	3745
▁provena	3745
▁System	3744
▁notori	3744
emises	3743
▁Alexis	3743
▁TCA	3743
eglement	3741
ryden	3741
▁Village	3741
▁diminu	3741
sexuel	3740
spatiale	3740
▁just	3740
écout	3739
▁1,20	3739
▁RCP	3738
▁Montreal	3737
œu	3736
cision	3735
0,99	3734
▁filtre	3733
▁OSB	3732
▁grossiste	3732
▁institut	3731
hab	3730
▁TRANSFERT	3730
▁Force	3729
▁ficti	3729
▁CRA	3727
bot	3725
ort	3722
écoule	3722
▁12,2	3722
▁Raj	3722
sident	3721
▁virtuelle	3721
UDE	3720
capitul	3719
▁CONTRÔLE	3719
▁Fu	3719
▁Japan	3719
mac	3718
▁Syn	3718
▁Normand	3716
▁Police	3716
▁Réal	3716
pétition	3715
▁Eastern	3715
▁CG	3714
▁Trade	3714
▁Wha	3714
ody	3713
rich	3713
▁PDG	3713
-77	3712
méga	3712
▁Thaï	3710
CD	3709
EB	3709
▁Leon	3709
▁Lien	3709
entrepreneur	3708
mann	3708
▁Pac	3708
ressé	3707
▁Beaudoin	3707
▁Murphy	3707
pouse	3705
zer	3705
▁Communauté	3705
▁camps	3705
▁Forum	3704
ENCES	3703
pathie	3703
888	3701
▁Major	3701
ACI	3700
▁qualita	3700
▁POLITIQUE	3699
▁puniti	3699
▁Thornton	3698
ENSE	3697
▁MCI	3697
Nova	3696
▁Target	3692
▁intersectoriel	3692
▁CST	3691
▁transférable	3691
-2006	3688
▁TECHNOLOGIES	3687
▁déca	3685
▁you	3685
illant	3682
tionnelle	3682
SH	3681
▁Chartered	3681
▁dédié	3681
▁1965	3680
▁Luxembourg	3680
▁annual	3680
chen	3679
war	3678
TENUE	3677
▁Crescent	3677
▁McClellan	3677
cord	3675
MER	3674
ject	3674
412	3673
▁Ivanhoe	3673
▁identifie	3673
▁douan	3672
ook	3671
▁Mid	3671
utilis	3670
▁changes	3670
▁liabilities	3670
▁prédéterminé	3670
▁COMMUNIQU	3669
ngle	3668
▁Professional	3668
▁Saguenay	3668
▁descendant	3668
house	3667
far	3666
.0.1	3665
auto	3665
▁caractéris	3665
▁Greg	3664
▁MONTRÉAL	3664
Lantic	3663
▁RCI	3660
▁Imperial	3659
▁Mall	3659
▁Security	3657
TIONNAIRE	3656
rgie	3656
▁corresponda	3656
▁Mercier	3655
▁Vincent	3655
▁ép	3654
▁Reid	3653
▁dynamism	3653
▁Langue	3652
▁PUBLIC	3652
citant	3651
licitation	3651
▁Burlington	3651
▁galerie	3651
▁EU	3650
▁Jason	3650
▁Jeff	3650
lomb	3649
évaluée	3648
▁INCOME	3648
▁Medicine	3648
▁dissuad	3648
lié	3647
bral	3645
heur	3645
▁2.3	3645
▁Cohen	3645
▁cartographie	3645
GL	3644
▁Coll	3644
▁UAP	3644
▁accréditif	3644
▁MIX	3643
▁balle	3643
▁SUB	3642
EW	3639
manip	3639
▁Bridge	3639
▁Compren	3639
▁fragile	3639
▁repren	3639
ERA	3637
ERT	3637
NU	3637
▁term	3637
ACIA	3636
location	3635
logique	3635
▁Cole	3634
▁Algonquin	3633
▁Clear	3632
▁Jeffrey	3632
▁Exclusion	3631
▁Paladin	3631
▁inaugur	3630
MV	3628
▁Lui	3628
▁Remplace	3628
surable	3627
▁Control	3627
SRA	3624
VS	3623
cheminée	3623
▁PRÊT	3623
orge	3622
neuv	3621
▁20,0	3621
▁Banco	3621
▁Filiale	3621
▁Norman	3620
▁Boudria	3619
▁Moncton	3619
▁internet	3618
▁particular	3617
▁impré	3616
chin	3614
prive	3614
▁barrage	3614
ITI	3613
igner	3612
xia	3612
▁Building	3611
chimie	3610
▁grav	3610
▁prostate	3610
▁Azimut	3609
prise	3608
▁disa	3608
sédimentaire	3607
▁CAR	3607
▁sismique	3607
▁annexé	3606
▁disproportion	3606
▁10,9	3605
▁Honduras	3605
▁Simcoe	3605
bourg	3604
▁1,32	3604
▁Dion	3604
▁compt	3604
citation	3603
▁FB	3603
ACTIONS	3602
▁Aug	3601
MBRE	3600
TÉE	3600
▁PROMOT	3599
▁litre	3599
▁LifePoints	3598
▁Spectra	3597
èche	3596
▁Précis	3596
DX	3595
▁caractérisé	3595
mation	3594
▁Howard	3594
Hébert	3593
ense	3593
examiner	3593
▁amateur	3593
▁8561-	3592
céd	3591
▁testament	3591
▁Kh	3590
▁Nat	3590
▁fractur	3590
▁objections	3590
tionnel	3589
▁boug	3589
mpliqué	3588
LAND	3587
▁Bush	3587
NER	3585
▁TH	3585
▁tô	3585
oisse	3584
xtrême	3584
▁nerve	3583
astre	3582
ocateur	3582
▁baie	3582
échéance	3581
▁Fire	3581
▁particul	3580
▁Chuck	3579
▁SEMAFO	3577
▁CFP	3576
concurrence	3575
▁miner	3575
.22	3573
DR	3573
▁adjudication	3573
▁Nov	3572
onnaissance	3571
▁risk	3571
tempér	3570
▁Bertrand	3570
▁he	3570
▁préva	3570
trém	3569
▁13,6	3569
▁Gau	3569
▁INTÉR	3568
▁Serie	3568
ETTRE	3567
rosion	3567
▁facie	3564
▁annule	3563
▁mena	3563
▁Dub	3562
▁Eldorado	3562
▁Prestige	3562
▁arm	3562
▁OH	3560
opérant	3559
tell	3559
▁Benoit	3559
▁Peterborough	3559
▁exclusivit	3559
▁reseau	3559
▁warrants	3559
▁Amalco	3558
▁Bennett	3558
▁Nanc	3558
berry	3557
couru	3557
montagne	3557
thier	3557
ctu	3556
▁Portfolio	3556
borough	3555
▁EC	3555
▁Nav	3555
▁RETRAIT	3555
ndue	3554
▁Canam	3554
▁sélectionnée	3554
CISION	3553
▁manger	3553
▁vacance	3553
elée	3552
AW	3550
▁Jaunes	3550
▁CAA	3548
Point	3547
▁Fri	3546
▁nécessiter	3546
▁If	3545
HY	3544
-2014	3543
licate	3543
▁UBS	3543
▁required	3543
GRA	3542
équitable	3542
▁organise	3542
▁renversé	3542
▁sacrifices	3539
IFICATION	3538
▁would	3538
Hubert	3537
flo	3537
Définition	3536
raj	3536
▁mg	3536
TIC	3535
had	3535
▁ASSURANCE	3535
▁Expert	3534
COUVERT	3533
▁FPE	3533
rrach	3532
▁conç	3531
▁horizontal	3531
▁loterie	3531
▁syn	3531
▁Liby	3530
▁deposit	3530
boni	3529
▁Gon	3528
ika	3527
▁Cote	3527
▁stimulant	3526
alais	3525
verse	3525
▁Stores	3525
▁portrait	3525
▁13,9	3524
▁Socie	3524
▁réservation	3522
Règlement	3521
ku	3521
▁schist	3520
cifique	3518
▁décr	3518
▁100,0	3516
▁VIII	3516
▁engagera	3516
LAR	3515
vention	3515
gare	3514
▁potas	3514
▁promu	3513
▁Hal	3511
▁condensat	3511
▁Meilleur	3510
remani	3508
▁Gildan	3508
▁rapprochée	3508
OE	3507
anna	3507
groupe	3507
▁infection	3507
jit	3506
▁DÉVELOPPEMENT	3506
IENT	3505
TIQUE	3505
donné	3505
▁Mutuel	3505
▁Saanich	3505
▁Francis	3504
▁IQ	3504
▁lobbying	3504
▁ML	3503
ido	3502
▁Pen	3502
▁Mad	3501
ota	3500
tache	3500
▁Gomery	3500
▁Grafstein	3500
▁Matéria	3500
quérir	3499
Suspension	3498
pré	3498
NELLE	3497
▁Sim	3497
▁migration	3497
▁PET	3496
▁transformateur	3496
cour	3495
icole	3494
▁NB	3494
actif	3492
cker	3492
igna	3492
igoureuse	3492
▁plain	3492
.21	3491
0,32	3491
nonça	3491
cut	3490
lourd	3490
▁Davies	3490
▁Gibson	3490
▁reprendr	3490
cras	3489
▁TDN	3489
▁aspiration	3489
▁séque	3488
fection	3487
ambe	3486
▁13,8	3486
▁Drilling	3486
▁Tony	3486
appert	3485
oy	3485
▁1,15	3485
▁Dofasco	3485
▁Test	3485
honnête	3484
tino	3484
▁Équ	3484
▁successive	3483
▁funérai	3482
▁Maximum	3480
OIRE	3479
▁Henderson	3479
odie	3478
▁Dawson	3478
▁FE	3478
▁Yamana	3478
nyl	3476
pharmaceutique	3476
‡	3475
▁interprovincial	3474
huit	3473
▁Christopher	3473
▁PLAN	3472
▁palladium	3472
-101	3469
▁TROIS	3469
▁ÉLE	3469
▁Town	3467
▁LIQUID	3466
▁Maria	3466
▁Transaction	3465
▁pollu	3465
Hyacinthe	3464
reuse	3462
▁Milne	3462
▁Organisme	3462
▁Szabo	3462
cade	3461
OY	3460
max	3460
▁Appar	3460
▁Consumer	3460
Franc	3459
africain	3459
▁invalid	3459
élan	3458
ONE	3457
hr	3457
▁Islands	3457
▁AVANT	3456
▁ENGAGEMENT	3456
▁Community	3454
▁Investi	3454
Â	3453
bou	3452
versé	3452
▁Martineau	3452
cheminé	3451
▁3000	3451
▁Fabrication	3451
▁Henry	3451
▁Rev	3451
courager	3450
posant	3450
▁Nelson	3450
ÉÉ	3449
LER	3448
menée	3448
partition	3448
soup	3448
Temp	3447
▁Sprott	3447
▁objectivit	3447
crimin	3446
▁debentures	3446
▁assertions	3444
▁alpha	3443
▁0,27	3442
▁Flow	3442
▁INTERNATIONAL	3442
TEM	3441
-2016	3440
dmissible	3440
▁racism	3439
▁routière	3439
▁archiv	3438
ORDRE	3437
▁Cooper	3437
▁Holdco	3437
liant	3436
▁14,4	3435
TAIRE	3433
aractéristique	3432
▁Context	3432
ANG	3431
▁Nanaimo	3431
▁Reed	3429
POSIT	3428
fusion	3428
gne	3428
▁MDN	3426
▁mince	3426
▁Explor	3425
▁Godin	3425
▁Médi	3425
105	3424
AEO	3424
yna	3423
▁caract	3423
ALL	3422
fugi	3422
▁Pratique	3422
▁Potash	3421
▁préétabli	3420
▁panne	3419
Loi	3418
▁Cara	3418
WU	3417
itatif	3417
▁ACCEPT	3416
▁Duffy	3416
▁ACF	3414
▁sombre	3414
guer	3412
nick	3412
▁photocopie	3412
garde	3411
▁Para	3410
avr	3409
kan	3409
INT	3408
effondrement	3408
▁tunnel	3408
uch	3407
dumping	3405
▁Liquid	3405
▁Will	3405
DJ	3404
lig	3404
▁GAZ	3404
▁manipulation	3404
▁Planification	3402
-73	3400
ANDE	3400
redi	3400
▁Canal	3400
▁4.2	3399
▁Octro	3399
▁SK	3399
▁classifié	3398
1,50	3397
pente	3397
ÈRES	3396
▁Atlas	3396
▁Los	3395
mém	3394
racine	3394
▁Superior	3394
FIN	3393
jardin	3393
▁Preuve	3392
▁SAP	3391
▁bala	3391
market	3390
▁13,3	3390
▁Herb	3390
▁oeuvr	3389
gestionnaire	3388
▁carc	3388
▁désign	3387
▁exporter	3387
▁générateur	3387
émence	3386
▁interro	3385
ISES	3384
compétence	3384
quette	3384
▁Airbus	3384
▁Joan	3384
▁négociant	3384
▁Internal	3383
▁Équipe	3382
-100	3381
▁LRO	3381
▁CMP	3379
cription	3377
▁13,7	3377
▁Classement	3376
lum	3375
▁Rappel	3375
.08	3374
patite	3374
LQ	3373
▁Samson	3373
▁Sorti	3373
Témiscamingue	3372
avan	3372
soleil	3372
▁Alta	3372
▁Jackson	3372
▁Midland	3372
SANTÉ	3371
champ	3371
▁Dartmouth	3371
ago	3370
▁Effect	3369
▁régul	3369
▁set	3369
110	3368
nna	3367
▁pipeli	3367
▁2.4	3366
▁17,5	3365
▁TSO	3365
▁transformée	3365
scolaire	3364
▁Chabot	3364
▁Collins	3363
361	3362
▁13,2	3362
▁Kenya	3362
▁intra	3362
▁racial	3362
▁equip	3361
Med	3360
XV	3360
▁outstanding	3360
log	3359
▁Regime	3359
▁14,8	3358
▁Rem	3357
pisode	3356
sec	3356
▁Nota	3356
éche	3355
▁first	3355
▁interlocut	3354
▁CX	3353
▁EFC	3353
cér	3352
▁corporations	3352
casti	3351
▁Alb	3351
▁Alexander	3351
▁divergen	3351
▁14,7	3350
▁Pool	3350
▁coca	3350
Noranda	3349
othérapeute	3349
▁Vend	3349
▁Allen	3348
▁Jersey	3348
▁Matrix	3348
▁Medi	3347
▁souveraine	3347
assurer	3346
glo	3346
ignante	3346
CORP	3345
▁magné	3345
▁Kerr	3344
▁2037	3343
UALITÉ	3342
mirat	3342
rang	3342
▁artisan	3342
▁adjacente	3341
▁embryon	3340
▁Lakes	3339
▁NORME	3339
▁PROPOS	3339
▁pursuant	3337
GNE	3336
omni	3336
rison	3336
▁LaSalle	3336
▁Magna	3335
vigil	3334
éviation	3334
▁Aurizon	3332
▁choc	3332
0,31	3330
▁accuse	3330
▁LME	3329
▁Robinson	3329
onnement	3328
▁Sullivan	3328
▁anticipe	3328
▁effor	3328
▁DÉCLARATION	3327
▁Electronics	3327
▁illicit	3327
▁Venture	3326
▁luxe	3326
migr	3325
oirie	3325
▁Bathurst	3325
▁Redwood	3325
abopharm	3324
▁Richardson	3324
skin	3323
▁prodig	3323
▁3862	3322
▁persiste	3322
fumer	3321
▁failli	3320
alo	3319
▁maximis	3319
▁INDICE	3318
▁aggrava	3318
▁assum	3318
▁festival	3318
▁illustration	3317
▁multitude	3317
▁WSP	3316
-2.1	3315
tume	3315
HG	3314
tai	3314
vacuation	3314
▁Beta	3314
▁Hunt	3314
COMMUNICATIONS	3312
▁Jov	3312
▁Loyer	3312
Obligation	3311
▁Accountants	3311
spectat	3309
NONC	3308
▁NAV	3307
issance	3306
▁Well	3306
▁integr	3305
vest	3304
▁more	3303
▁Mention	3302
Heureux	3301
▁Opsens	3300
▁fraud	3299
▁imprévisible	3299
▁sanguin	3298
phone	3295
pondérée	3295
▁Pétrolia	3295
▁Spring	3295
agh	3294
content	3294
▁Susan	3294
▁recent	3294
VRIL	3293
umée	3293
uvre	3293
▁Stein	3293
gawatt	3292
propuls	3292
▁autism	3292
mari	3291
▁MasterCard	3290
▁January	3289
OV	3288
anga	3287
plan	3287
▁Bourassa	3287
▁kimberlite	3286
▁récréatif	3286
▁Consolidated	3285
▁Pine	3285
▁OPG	3284
60,00	3282
▁Message	3282
▁dyke	3281
▁Oct	3280
▁fossil	3280
▁sacrifi	3280
Droit	3278
éfaut	3278
▁australi	3278
▁béné	3278
cial	3277
▁14,6	3277
▁Strah	3277
▁encourue	3277
▁Réunion	3276
▁assistant	3276
▁prohib	3276
▁AI	3273
▁Morneau	3273
CHI	3272
aska	3272
llemand	3272
production	3272
▁Investor	3272
▁Pit	3272
▁conc	3272
adéquat	3271
stauration	3271
▁IMMOBILISATION	3271
▁Sym	3270
lèche	3268
▁directors	3268
▁Illinois	3267
AZ	3266
STAR	3266
▁féminin	3266
itch	3265
NC	3263
▁16,0	3263
▁LIÉE	3263
-2001	3261
CHEF	3261
LIC	3261
even	3260
▁Louise	3260
iculture	3259
ondée	3259
▁continental	3259
▁optimal	3259
▁plag	3258
▁rapidit	3258
gerant	3257
sistance	3257
▁Premium	3257
nav	3256
▁Fla	3256
▁appropri	3255
▁irrégulière	3255
MAC	3254
dissoci	3254
▁Owen	3254
▁alumine	3253
▁SW	3252
▁boucl	3252
▁Reynolds	3251
▁casino	3251
▁finan	3249
▁Coast	3248
courag	3246
▁SmartCentre	3246
▁consigne	3246
▁écha	3246
-2003	3245
TENTE	3245
chez	3244
▁compromise	3244
assignation	3243
0,98	3242
▁Adresse	3242
▁STRUCTURE	3242
▁stipulation	3242
▁éloigné	3242
globe	3241
▁polluant	3241
▁Manulife	3240
BILITÉ	3239
▁Sigma	3239
▁alerte	3239
aya	3237
▁Abbott	3236
▁Déficit	3236
▁métropolitaine	3236
▁propagand	3236
-72	3235
▁Rating	3235
caisse	3234
▁Philippe	3234
favorable	3233
▁Sk	3233
ken	3232
pic	3231
▁Avocat	3231
dier	3230
tachée	3230
▁16,5	3230
ANN	3229
▁successor	3229
ritère	3228
▁Jacob	3228
▁plasma	3228
entraide	3227
ndi	3227
▁prestigi	3227
▁results	3226
▁5.2	3225
▁Department	3225
▁Parent	3225
3,60	3224
RÈS	3224
jour	3224
égion	3224
▁Mann	3224
▁Kal	3223
▁Vale	3222
Louis	3221
cote	3221
▁Subvention	3221
▁gai	3221
heure	3220
▁Categorie	3220
SCRIPTION	3219
▁Sheila	3218
▁machinerie	3218
▁securities	3218
taille	3217
ÉRO	3217
▁Angu	3217
▁Dean	3217
▁variabilit	3217
ÉPAR	3215
▁Xstrata	3215
SG	3214
▁Elk	3214
▁Phoenix	3213
▁diligent	3213
▁exploitable	3213
ZA	3211
éenne	3211
▁Dick	3211
EUX	3210
▁Apo	3209
▁Nino	3208
▁favorit	3207
cam	3206
▁Kootenay	3206
oratif	3205
▁Retail	3205
▁Sources	3204
▁catastrophi	3204
UAS	3203
lab	3203
▁détermin	3203
9,25	3202
▁tonnage	3202
CAISSE	3201
marin	3201
▁Markham	3201
▁Royalty	3199
RIER	3198
▁ICI	3198
▁juriste	3198
HE	3197
▁kb	3197
présent	3196
▁Robertson	3196
▁market	3196
direct	3195
▁1.3	3195
▁DETTE	3195
▁Caron	3194
▁Roth	3193
▁multilatéral	3193
▁Plain	3192
▁OSK	3191
▁mati	3191
▁3,25	3190
▁Broad	3190
▁Priv	3190
▁Mirabel	3189
vingt	3188
▁13,1	3188
NG	3187
▁bombe	3186
0,29	3185
▁NSPI	3184
▁depos	3184
▁Fournisseur	3183
QUEL	3182
▁ATTEND	3182
▁Athabasca	3182
▁McIntyre	3182
▁Aéroport	3181
▁PROCÉDURE	3181
▁claim	3181
hou	3180
SURES	3179
VOCATION	3179
iron	3179
▁Bélair	3179
▁10.1	3178
-80	3177
Wh	3177
▁Hôpita	3177
▁grade	3177
intégrer	3176
leau	3176
▁Dollarama	3176
0,74	3175
gaz	3175
▁organisat	3174
face	3173
femme	3172
▁CAS	3171
▁ouvrier	3171
▁sauv	3171
Dame	3170
▁Brascan	3170
▁brutal	3169
▁Superfici	3168
▁plaint	3168
▁Ringuette	3167
ourchette	3165
▁1,04	3165
▁Carte	3165
▁IPC	3164
▁radiée	3163
Document	3162
▁Bermud	3162
▁Visa	3162
▁purchase	3162
uffle	3161
▁offens	3161
oh	3160
▁indign	3160
▁renou	3160
roche	3158
▁Other	3158
▁Brandon	3157
▁construct	3157
▁litres	3157
élicoptère	3156
▁RESPONSABILITÉ	3156
▁Téléc	3156
abl	3154
icaine	3153
▁Var	3153
▁spéc	3153
0,25	3152
TACH	3152
rivilège	3151
▁Mai	3151
VO	3150
▁Alan	3150
▁Common	3150
▁project	3150
valeur	3149
▁ENERGY	3149
▁Industry	3149
▁Agri	3148
▁expir	3148
DN	3147
PRISE	3147
filtration	3147
▁AUTO	3147
hier	3146
▁visuel	3146
OLOG	3145
mplain	3145
ÉTÉ	3144
nemi	3143
énitencier	3143
▁margin	3143
UALR	3142
beault	3142
▁CSA	3142
▁Initial	3142
▁Sh	3142
brési	3141
▁Ash	3141
▁Parc	3141
▁1,40	3140
jou	3139
rod	3139
ister	3138
▁REAL	3138
▁humid	3138
▁taxation	3138
▁Dynamic	3137
▁Manufacturing	3137
▁Cage	3135
CEE	3134
scission	3134
▁découvr	3134
YS	3133
féré	3132
poux	3132
▁Emergis	3131
pot	3130
icrocell	3129
▁58-101	3129
▁Dun	3129
▁SICAV	3129
▁Carter	3128
▁relat	3128
SCI	3126
▁Maison	3126
▁aspir	3126
▁14,2	3125
DH	3124
IEN	3124
▁14,3	3124
▁invention	3124
itique	3123
‒	3123
aterpillar	3122
▁IX	3122
▁conditionne	3122
fund	3121
▁DAT	3121
▁architecture	3121
Application	3120
▁fiancé	3120
▁sale	3120
old	3119
▁different	3119
Cap	3118
▁series	3118
pain	3117
▁Mason	3117
VV	3116
▁Band	3116
façon	3115
hot	3115
▁soixante	3114
▁Manley	3113
▁boulangeri	3112
▁golfe	3112
isco	3111
▁SPC	3110
complète	3109
▁escal	3109
▁paid	3109
ressource	3108
▁Bru	3108
PipeLines	3107
émoire	3107
▁somm	3107
▁Dexi	3106
▁rival	3106
▁AltaLink	3105
▁accou	3105
▁frustration	3105
aveugle	3104
pell	3104
▁Eaton	3104
▁budg	3104
alestini	3102
avrix	3102
disposition	3102
▁Laboratories	3102
Livre	3101
OH	3101
TEURS	3100
▁short	3098
iquant	3097
pharm	3097
▁Reports	3097
▁Engagement	3095
▁14,1	3094
▁terms	3094
▁accordance	3093
▁caractérisée	3093
physi	3092
UGE	3091
-005	3090
ettra	3090
oît	3090
▁hygi	3089
▁Advisor	3088
▁Future	3088
▁Gagné	3088
GD	3087
Sc	3087
cipien	3087
▁Proven	3087
▁corrections	3087
assembler	3086
cru	3086
▁prompt	3086
▁sp	3086
▁Xi	3085
▁Rober	3084
▁Tardif	3084
120	3083
125	3082
ANTE	3081
UELLE	3081
rock	3080
emme	3079
▁Linda	3079
▁Morningstar	3079
cinq	3077
première	3077
▁Square	3077
▁adju	3077
caissée	3075
tienne	3075
▁Ménard	3075
lanc	3074
⁄	3074
OÛT	3073
ffectif	3072
▁Alzheimer	3072
▁Harvard	3072
▁MDS	3072
▁Venezuela	3072
▁Wallace	3072
▁Watt	3072
▁souc	3072
No	3071
▁SUN	3071
APR	3070
oya	3070
▁Commentaires	3070
AUT	3069
▁Mount	3069
▁paralys	3069
uma	3068
▁15,6	3067
▁detail	3067
ombre	3066
1,25	3065
ULT	3065
▁DTC	3065
▁criminal	3065
AK	3064
▁médiati	3064
iqu	3063
▁Eli	3063
▁Just	3063
2,40	3062
NF	3062
mart	3062
▁Hui	3062
▁Max	3062
~	3061
▁amorcée	3061
▁BCO	3059
▁uniformit	3059
rieur	3058
Canadien	3057
ood	3057
▁GOLD	3057
▁IMMOBILIER	3057
Champ	3056
▁Élite	3056
national	3054
▁1,28	3054
▁after	3054
annon	3053
▁Rompkey	3053
▁perturbat	3053
COR	3051
▁Croix	3051
▁16,7	3049
▁Hard	3048
▁Matt	3048
▁biographi	3047
LIM	3046
west	3046
▁Nad	3046
▁SOCIAL	3046
▁Operations	3045
▁Retraite	3045
Link	3044
Supremex	3044
▁Gaspésie	3044
▁Walker	3044
ntérieur	3043
▁gold	3042
▁1,29	3041
▁Top	3041
▁fame	3041
▁IAMGOLD	3040
002	3039
▁Harmon	3039
▁SANS	3039
▁électora	3039
▁Hartco	3038
▁obstruction	3038
RV	3037
complice	3037
▁Kamloops	3037
ward	3036
111	3035
communication	3035
tenai	3035
▁Bergeron	3035
▁professionnal	3034
DOC	3033
▁Engineering	3033
▁interactif	3033
section	3032
▁Wall	3032
rica	3031
trier	3031
veillé	3031
▁Mana	3031
▁ski	3031
ote	3030
récupérable	3030
▁14,9	3030
▁Vérificateur	3030
▁Respect	3029
gné	3028
▁DS	3028
Possibilit	3027
▁Oshawa	3027
▁informant	3027
conditionnelle	3026
couvert	3026
distribution	3026
▁Trinité	3026
▁enseign	3026
▁repro	3026
▁Terrain	3025
▁passable	3025
IALE	3024
▁orphelin	3024
IAN	3022
▁PK	3022
onde	3021
▁2031	3021
BG	3020
arry	3020
ppant	3019
▁Lewis	3019
nancière	3018
▁Chemical	3018
▁Kha	3018
▁Railway	3018
hai	3017
▁NETTE	3017
▁orientée	3017
pproche	3016
▁Taxes	3016
▁Intact	3015
▁outillage	3015
burn	3013
bilit	3012
reault	3012
▁Bonne	3012
laine	3011
▁Messi	3011
emande	3010
▁Design	3010
▁Kit	3010
0,77	3009
group	3009
▁redev	3009
5000	3007
▁Garant	3007
▁Secréta	3007
IRES	3006
À	3006
▁Walt	3006
charger	3005
▁1,45	3005
▁Emerging	3004
EXERCICES	3003
▁PROSPECTI	3002
▁esp	3002
Loup	3001
▁ASI	3001
▁Tru	3001
▁Legacy	3000
▁nutrition	3000
▁model	2999
▁Harb	2998
▁Catherine	2997
▁Chap	2997
▁VARIATION	2997
DEM	2995
bat	2995
thanol	2995
▁Plans	2995
▁Year	2995
▁QUATR	2994
▁granted	2994
afou	2993
formateur	2993
▁1,85	2993
▁AVANTAGE	2993
▁15,4	2992
nterprétation	2991
▁Tab	2991
▁prostitution	2991
▁DYNAMI	2990
2,60	2989
▁Assets	2989
▁GDI	2989
▁sédiment	2989
aliban	2988
AFFAIRES	2987
▁contigu	2987
▁More	2984
AU	2983
▁1,34	2983
emblée	2982
invalidit	2980
nciation	2979
▁sociét	2978
▁théâtre	2978
agiss	2977
odeur	2977
▁Blair	2977
▁Modèle	2976
▁Ocean	2976
▁SUI	2976
LAN	2975
RIM	2975
▁Milliken	2975
▁Consultants	2974
▁convergence	2974
▁Pel	2973
▁Skeena	2973
▁investment	2973
familiale	2970
osh	2969
▁consacr	2968
ACHE	2967
DEN	2967
lôture	2967
▁Ball	2967
▁Wong	2966
▁Jonathan	2965
▁multiplic	2964
▁verification	2964
▁ÉVÉNEMENT	2964
normal	2962
WEST	2960
▁Cliff	2960
▁alternative	2960
500	2959
JUST	2959
▁15,3	2959
▁KL	2959
PN	2958
▁Education	2958
▁orienté	2958
pureté	2957
▁Daimler	2957
▁disséminé	2957
HAN	2956
ndre	2956
▁15,1	2956
▁April	2956
▁Procur	2956
▁Victor	2956
onner	2955
servir	2955
ÉRIEUR	2954
éreux	2954
▁Chartwell	2954
▁bill	2954
titre	2953
AIT	2952
▁Coquitlam	2952
Lab	2951
▁SOCI	2951
▁15,7	2950
▁CERTIFICAT	2950
▁tranquill	2950
.23	2949
.26	2948
inqu	2948
▁DISTRIBUTION	2948
▁before	2948
▁concomitant	2948
aku	2947
rate	2947
▁15,8	2947
▁inhibit	2947
▁pain	2947
▁Gil	2946
▁Taiwan	2946
▁COMPLÉMENTAIRES	2945
▁Residential	2945
▁mental	2945
aventure	2944
herty	2944
matur	2944
▁Horizon	2944
▁alternatives	2944
▁mobili	2944
CV	2943
▁COMPAR	2943
assureur	2942
QUI	2941
▁Google	2941
▁Héroux	2941
FÉREN	2940
▁Atkins	2940
▁RELATI	2940
▁Sarnia	2940
▁disque	2940
▁webina	2940
▁MT	2939
▁Pur	2939
finition	2938
lix	2938
▁protect	2937
ramas	2936
triche	2936
▁Mobi	2936
▁Signal	2936
MH	2935
OO	2935
jab	2935
▁Sound	2935
eck	2934
ionnelle	2934
▁Family	2934
▁Cameron	2933
▁Maine	2933
▁ramp	2933
Devtek	2932
gran	2932
▁Lethbridge	2932
▁Regional	2931
chand	2930
puce	2930
▁DR	2930
▁SF	2930
foli	2929
▁liquidit	2929
DEL	2928
Pay	2928
etti	2928
num	2927
▁BP	2927
▁Cory	2927
▁ABC	2926
▁enrichissement	2926
entreprise	2925
▁Usine	2925
▁XXX	2925
MU	2924
assemblé	2924
copi	2923
▁15,9	2923
▁Beaufor	2923
▁conduits	2923
endance	2922
sastr	2922
VIER	2921
WLRQ	2921
▁tena	2921
▁Ted	2920
▁commencement	2920
ameco	2919
technologies	2919
terminera	2919
riété	2918
étées	2918
▁GOUVERNEMENT	2918
LH	2917
llah	2916
lett	2915
▁1,31	2915
▁accro	2915
mée	2914
2,70	2913
défini	2913
▁Cross	2913
▁LM	2913
▁Etat	2912
▁Blaikie	2911
▁available	2911
▁Cold	2910
9,99	2909
▁humili	2908
génique	2907
▁1,27	2907
▁CAT	2905
▁Institutions	2905
▁Kilg	2905
▁Michigan	2905
▁NR	2905
▁Tan	2905
▁Témiscouata	2905
▁poulet	2905
vigne	2904
▁PAY	2904
▁cyn	2904
▁édu	2904
ussé	2903
▁Kow	2903
gressive	2902
▁Impact	2902
-00	2900
▁Ami	2900
▁CGA	2900
▁Pty	2899
▁provided	2899
▁normalis	2898
▁Digital	2897
▁archive	2897
DEC	2896
▁1,12	2896
▁colomb	2896
KA	2895
fonte	2895
▁Forrestall	2895
▁Grill	2895
▁These	2895
▁RTA	2894
▁1,60	2893
▁Comparative	2893
▁between	2893
▁Minière	2890
▁Laboratoire	2889
épendance	2888
▁animat	2888
▁neuro	2888
▁Nettoye	2887
▁angulaire	2887
▁extraire	2887
▁Turner	2886
ATE	2885
▁Indian	2885
wick	2884
capital	2881
installation	2881
ÊT	2881
▁ASA	2881
▁English	2881
▁TRI	2881
▁compagn	2881
▁abrite	2880
dina	2879
AMI	2878
▁Cris	2878
▁During	2878
▁Mobilité	2878
▁Press	2877
▁Fortis	2875
▁ONTARIO	2875
canadien	2874
▁Bern	2874
▁récréati	2874
▁traf	2874
▁Century	2873
faisabilit	2872
▁Mondial	2872
▁NOVEMB	2872
▁LIMITÉ	2871
▁Senior	2871
▁Short	2871
ista	2870
▁BV	2870
▁Blake	2870
Chem	2869
DWLRQ	2869
pêch	2869
réglementation	2869
▁ASSOCIÉ	2869
OX	2868
iva	2866
▁Bulletin	2866
▁Simpson	2866
DT	2865
aka	2865
niable	2865
▁BPI	2865
Audience	2864
Bay	2864
petrole	2864
▁3856	2864
▁Esquimalt	2864
▁Inco	2864
▁différenc	2864
rogative	2863
▁upon	2863
▁Dispense	2862
▁Juan	2862
BB	2859
▁Licence	2859
▁consequent	2859
▁cosm	2859
▁SSP	2858
▁Yorkton	2858
croya	2857
gouv	2857
ridge	2857
▁transfrontali	2857
Plett	2856
ahn	2856
gentil	2856
▁Arch	2856
0,76	2854
▁Européen	2854
▁Fred	2854
.09	2853
▁w	2853
DON	2852
Mégantic	2852
▁Lalonde	2851
106	2850
▁ECT	2850
▁Return	2850
pagnol	2849
▁Morrison	2849
▁Ore	2849
▁Questionnaire	2849
0,48	2848
médicament	2847
▁Télébec	2847
▁bicycl	2846
-79	2845
▁Housing	2845
▁Teneur	2845
0,42	2844
public	2844
▁Stornoway	2844
▁Beck	2843
▁Gér	2843
Rapport	2842
TG	2842
bois	2842
▁Conference	2842
▁SUPPLÉMENTAIRE	2842
▁architecte	2842
omptoir	2841
▁1,65	2841
▁Hél	2841
▁months	2841
▁Confli	2840
stock	2836
9,75	2835
egal	2835
▁EXTRAORDINAIRE	2835
3,15	2834
▁Clause	2834
▁dédui	2834
Jones	2832
désir	2832
▁BNP	2832
misse	2831
▁Open	2831
▁distinctive	2831
OLI	2830
exécuti	2830
localisé	2830
rationnelle	2830
▁NATURE	2830
▁strategie	2830
quill	2829
-201	2828
lock	2828
▁Notation	2828
▁amass	2828
lberg	2827
▁encadr	2827
Lorsqu	2826
▁15,2	2826
HQW	2825
▁Newton	2825
▁SERVICE	2824
▁based	2824
▁patronal	2823
▁external	2821
TOR	2820
▁CONVENTION	2820
▁Log	2819
▁Whit	2819
agon	2818
ature	2818
0,36	2817
sionné	2817
Îles	2816
▁PJC	2816
ibrek	2815
▁Margaret	2815
.50	2814
▁1,06	2814
▁Carr	2814
atorz	2813
▁Beauce	2812
▁NOS	2812
▁chiffr	2812
▁song	2812
▁Cliqu	2811
▁RDI	2811
▁3.3	2810
yton	2809
▁consider	2809
concili	2808
coulant	2808
▁Beach	2808
▁médic	2807
pyrite	2806
▁22,5	2806
▁minéral	2806
oulign	2805
▁toxico	2804
▁Pension	2803
▁Ven	2803
▁impatien	2802
comb	2801
▁Personnelle	2801
▁Pembroke	2798
▁martiale	2798
▁suppr	2797
351	2796
ega	2796
▁Gur	2796
▁Parkdale	2796
▁VERS	2796
▁2033	2794
source	2793
▁FCPA	2793
▁VÉRIFICATEUR	2793
▁mackenzie	2793
▁1.5	2792
▁Girard	2792
ravie	2791
▁week	2791
AGNIE	2790
Claire	2790
LÉ	2790
▁Provident	2790
▁disciplin	2790
▁mineral	2790
.2.1	2789
org	2789
▁50,00	2789
▁concentrate	2789
▁PAIEMENT	2788
Paul	2787
▁Genworth	2787
▁bilingu	2787
3,20	2786
gulari	2785
▁cisaillement	2785
▁used	2785
▁16,1	2784
▁LL	2784
▁Logistics	2784
▁explosion	2784
▁observ	2784
ifférent	2783
▁Tar	2781
▁pleur	2781
oentreprise	2780
▁studio	2780
▁Split	2779
▁COMMIS	2778
0,39	2777
▁Rwanda	2777
▁nullit	2777
▁reunion	2777
pêcher	2776
TEC	2775
gestion	2775
Di	2774
licit	2774
▁Computer	2774
▁Therapeutics	2774
▁8.1	2773
▁ONE	2771
▁reconduit	2771
▁use	2771
beck	2770
▁Flo	2769
▁Lincoln	2769
▁Normal	2768
Rouge	2767
rème	2767
▁Algoma	2767
▁instantan	2767
▁triple	2767
▁work	2767
bil	2766
outien	2766
▁TRADUCT	2766
bond	2765
ü	2765
▁Stuart	2765
BE	2764
▁McG	2763
▁Mira	2763
▁Nasdaq	2763
▁restaur	2763
otage	2762
▁Duceppe	2762
▁UTILIS	2762
▁viré	2762
▁Magasin	2761
DCC	2760
alta	2760
igi	2760
ring	2760
▁photograph	2760
▁appendice	2759
▁multic	2759
marque	2758
▁annul	2758
▁clan	2758
NOV	2757
incaille	2757
▁COUR	2757
▁Lise	2757
VH	2756
geons	2756
▁Bert	2755
▁Ever	2755
▁numér	2755
Bagot	2754
gislation	2754
Î	2754
▁Wang	2754
fondateur	2753
mic	2753
▁FINANCIAL	2753
cast	2752
major	2752
▁OCTOB	2752
▁sembla	2752
0,43	2751
AOÛT	2751
403	2749
▁PRIVIL	2749
▁commut	2749
▁reli	2749
BER	2748
▁Nunavik	2748
UX	2747
▁Dec	2747
▁cpacanada	2747
tachement	2746
▁0,33	2746
▁Boul	2746
▁Manifest	2746
▁collégial	2746
▁incomplet	2746
▁McKi	2745
▁Ritchie	2745
▁concass	2745
.30	2744
sacré	2744
▁Mali	2744
Comm	2742
dom	2742
généré	2742
link	2741
▁CONFORM	2741
▁February	2741
James	2740
formation	2740
reparti	2740
▁Sierra	2740
.7	2739
▁Allegro	2739
▁Case	2739
▁Gateway	2739
▁McMurray	2739
Mont	2738
▁Intel	2738
▁feuillet	2738
0,41	2737
102	2737
COMMAND	2736
Inc	2736
tyl	2736
▁Minera	2736
tek	2735
▁BELLU	2735
▁Employé	2735
▁Hearing	2735
▁Enerplus	2734
▁1.4	2733
chère	2732
▁FACT	2732
▁Rich	2731
▁emis	2731
embou	2730
path	2730
▁APEC	2730
▁Contact	2730
▁Rest	2730
▁Simard	2729
▁diversifie	2729
Chrysler	2728
ohn	2728
▁61-101	2727
▁Quantum	2727
13597	2726
2.2	2726
François	2726
VERTU	2726
▁16,9	2725
▁McCarthy	2725
▁géochimique	2725
▁reserves	2725
PLM	2724
▁Durham	2724
▁Mul	2724
▁corrélative	2724
▁internal	2724
▁stratag	2724
occupation	2723
éché	2723
▁Drummond	2723
▁Environmental	2723
▁pyro	2723
▁tortur	2723
JUSTE	2722
vierge	2722
▁Adam	2722
▁Agrium	2722
▁Ak	2722
▁FORMA	2722
▁Yellow	2722
VU	2721
▁Energie	2721
▁Francophonie	2721
▁Restaurant	2721
▁accuser	2721
FFI	2720
▁1934	2719
▁Ye	2719
RET	2718
▁Nan	2718
▁GS	2717
▁Iraq	2717
▁Surveillance	2717
▁TQM	2717
▁Macquarie	2716
▁Telbe	2716
▁edit	2716
haï	2715
▁MONTAN	2715
▁Unit	2715
▁strategi	2715
▁végéta	2715
▁Nisg	2714
▁charit	2714
▁Cassel	2713
▁effracti	2713
▁intermedi	2713
▁1964	2712
▁Congo	2712
vancé	2711
▁clandestine	2711
OLD	2709
reign	2709
▁AMF	2709
▁Fredericton	2709
▁INVESTMENT	2709
▁MÉTHODE	2709
▁traversier	2709
▁Éduc	2709
▁ALL	2708
▁Copie	2708
▁Automotive	2707
▁Fitch	2707
▁prolif	2707
IGN	2706
▁18,5	2706
▁GmbH	2706
▁Sommet	2706
▁decision	2706
▁pât	2706
Bruno	2705
culturel	2705
▁ASS	2705
▁Transmission	2705
▁losses	2705
▁three	2705
▁Appli	2703
▁suc	2703
2,80	2702
zza	2702
▁déform	2702
▁1⁄	2701
▁Treasury	2701
.24	2700
emmen	2700
▁Macdonald	2700
boit	2699
iège	2699
▁Iacob	2699
GX	2698
hand	2698
▁16,4	2698
0,52	2697
0,97	2697
pie	2697
déc	2696
hib	2696
▁affiliation	2696
OLE	2695
▁Preston	2695
CSF	2694
alienne	2694
chimique	2694
nerie	2694
▁Rôle	2694
UNE	2693
brasserie	2693
chantillon	2693
▁percée	2693
capitalisation	2691
linéa	2691
pine	2691
▁Nihon	2691
▁Operating	2691
▁Souris	2690
▁Telephone	2690
Net	2689
gorge	2689
▁Finland	2688
▁Tenu	2688
▁grippe	2688
4.2	2687
miel	2687
▁banqu	2687
IÈRE	2686
Am	2683
NR	2682
SMO	2682
rythr	2682
▁Harvey	2682
UIT	2681
nui	2680
▁Bev	2679
hode	2678
▁Pointe	2678
erek	2677
▁Kenne	2677
▁Publi	2677
▁Wireless	2677
▁chimi	2677
0,34	2676
▁INTENTION	2676
▁exercise	2676
ritable	2675
▁RÉFUGIÉ	2675
▁intéress	2674
NNÉE	2673
filtr	2672
titu	2672
4,40	2671
anche	2671
▁Coalition	2671
▁Hancock	2671
▁IAASB	2671
▁exhort	2671
▁FIXE	2670
▁instruct	2669
ficient	2668
imp	2668
▁Brent	2668
5,20	2667
▁DFA	2667
▁complét	2667
▁contrast	2667
▁vigilant	2667
aractère	2666
aïb	2665
▁LeBlanc	2664
dicat	2663
kh	2663
▁Pure	2663
▁RAFI	2663
▁équival	2663
lect	2661
▁OBJECTIF	2661
▁Kennedy	2660
▁simplification	2660
nita	2659
▁Fortin	2659
▁Geoff	2659
▁syri	2659
voca	2658
▁Moi	2658
▁FÉDÉRA	2657
▁Kenny	2657
▁vest	2657
-2005	2656
Non	2656
▁AUGMENT	2656
▁Coal	2656
▁Depot	2656
estim	2655
▁AUD	2655
▁spectacula	2655
BP	2654
▁Fairba	2654
▁pétro	2653
▁Barrie	2652
▁Pelletier	2652
0,37	2651
▁reconducti	2651
.28	2650
▁VAR	2650
MED	2649
▁DESJARDINS	2649
▁Win	2649
▁toilette	2649
rna	2648
▁Leroux	2648
▁innocence	2648
▁pape	2648
Idem	2647
KI	2647
aro	2647
▁25,0	2647
▁Cochrane	2647
2,30	2646
vasive	2646
ordi	2645
▁Attorney	2645
▁kilogramme	2645
EMA	2644
ILI	2644
ory	2644
page	2644
vendra	2644
▁Metal	2644
0,96	2643
ANS	2643
▁Berg	2643
BAN	2642
essie	2642
tablir	2642
oyer	2641
Chin	2640
îner	2640
▁CDN	2640
▁rights	2640
▁appro	2638
scind	2637
▁Cardinal	2637
▁Cordy	2637
▁Desmarais	2637
▁cobalt	2637
▁Arca	2636
▁GLV	2636
▁October	2636
oda	2635
rah	2635
▁Lapointe	2635
▁Vir	2635
▁vertica	2635
▁Hôtel	2634
▁Transcona	2634
¡	2633
▁Pattern	2633
▁DB	2632
andis	2631
ever	2631
performance	2631
▁Dumont	2631
▁Municipalité	2631
atixis	2630
clu	2630
renfermant	2630
▁Anna	2630
▁Trop	2630
ondération	2629
upermarché	2629
▁pardon	2629
3.2	2628
flu	2628
iden	2628
▁50,0	2628
▁stages	2628
▁ferm	2627
▁16,3	2626
▁CPC	2626
▁PU	2626
▁Patricia	2626
▁Up	2626
ENNE	2625
OK	2625
unette	2625
▁Equi	2625
▁Import	2625
▁Modern	2625
AH	2624
▁CHF	2624
▁Chicoutimi	2623
▁rayonnement	2623
aver	2622
▁Hochelaga	2621
Basques	2620
▁Station	2620
▁VaR	2620
▁stimulation	2620
▁Ralph	2619
FPI	2618
nay	2618
udes	2618
▁CPG	2618
pourv	2616
▁Uranium	2616
▁défen	2615
enouvellement	2614
▁dispute	2614
▁popularit	2614
work	2613
Ô	2613
0,78	2612
combinant	2612
▁Tobacco	2612
NB	2611
PROBATION	2610
not	2610
rame	2610
▁bombard	2610
▁empo	2610
▁CVP	2609
▁activities	2609
▁saura	2609
▁Énergi	2609
amér	2608
▁2040	2608
▁RÉPARTI	2608
▁SAS	2607
▁Doug	2606
▁Lambert	2606
ISÉ	2605
uteau	2605
Fund	2604
pliqué	2604
▁BMG	2604
▁NOTRE	2604
▁Shop	2604
SIGNÉ	2603
▁Gui	2603
▁antenn	2603
▁pharmaco	2603
Fi	2600
▁Cambod	2600
▁Wealth	2600
▁Ingénie	2599
0,46	2598
▁Executive	2598
▁branch	2598
▁material	2598
▁21,5	2597
▁Legault	2597
heim	2596
ortho	2596
[...]
