▁	48672529
▁the	46055178
▁,	33363397
▁.	31824798
▁of	27358883
▁to	20159032
▁and	18496114
s	16335046
▁in	14343077
▁a	10984842
▁that	8209660
▁is	8174194
▁The	7376790
▁for	7137299
.	6784693
-	6203792
(	6087211
)	6049804
▁on	5687363
▁be	4490728
$	4375348
▁by	4352762
▁as	4317258
▁are	4237542
▁or	4226705
▁with	3988665
▁not	3972495
▁at	3387696
▁was	3369259
▁this	3116768
:	2974403
▁I	2929989
ing	2881052
▁from	2820722
▁have	2801257
▁will	2747067
’	2634516
▁an	2615788
%	2555047
'	2478918
▁it	2418051
▁has	2316673
ed	2223584
▁Canada	2169210
d	2109345
▁its	1865420
▁which	1840234
;	1830892
▁we	1713271
▁million	1688501
▁Fund	1664917
e	1652967
▁In	1563644
▁our	1551692
▁other	1496271
▁1	1479355
▁any	1447405
▁were	1420822
▁A	1413371
▁would	1395786
▁may	1385130
▁Company	1377343
"	1376682
▁31	1325580
▁he	1310262
▁his	1294016
▁all	1286767
▁Mr	1284407
/	1280450
▁year	1278721
▁their	1274781
▁been	1264657
▁under	1241315
▁financial	1204089
▁Canadian	1180586
“	1134200
”	1129385
▁This	1091677
▁also	1087215
▁they	1061834
▁government	1053822
▁We	1024906
▁no	1008191
▁2	981558
▁appellant	981081
▁time	976673
▁It	969938
t	965568
S	954226
▁had	945955
▁such	923778
▁December	921164
▁30	914787
▁value	913681
ly	910693
▁these	910180
▁one	906929
▁period	900417
▁C	891563
▁income	890175
▁her	870393
▁de	864280
▁who	854888
▁there	848067
▁about	845156
▁Corporation	840713
▁3	839267
▁As	807659
▁information	803073
▁than	801933
▁if	799085
y	796490
▁more	792102
▁do	790042
▁per	782359
—	781985
–	776571
▁Inc	760113
▁can	748936
▁but	748653
▁Series	744071
▁assets	726723
▁following	722520
▁Board	720614
▁years	710347
▁Act	706696
▁you	699459
▁net	697447
▁tax	691036
▁quarter	689034
▁over	686314
▁interest	685668
▁investment	682108
▁shares	676037
▁first	675637
▁ended	674915
▁into	673908
▁when	672682
er	672121
n	670515
▁securities	669014
▁should	665946
▁c	662698
▁new	662092
▁management	659405
▁S	651150
▁each	639727
r	638914
▁made	637977
▁4	635580
▁cash	632022
▁out	631431
▁business	629687
?	610804
▁capital	608660
▁she	603415
▁market	593766
▁5	592090
▁Speaker	575443
▁risk	571158
▁respect	564660
▁member	563233
1	561821
▁statements	557876
▁Minister	556126
▁amount	553774
▁10	553709
▁He	553164
▁Class	549333
▁Shares	546099
▁did	542621
▁For	541169
▁could	539763
▁U	537178
▁does	536013
▁some	531186
▁June	529879
▁what	527969
▁only	525923
▁before	525801
▁evidence	523225
▁share	523026
▁must	522712
▁those	520918
▁March	514314
a	513228
▁my	512896
▁date	510414
2	510180
▁during	509280
▁up	508559
▁No	500032
▁number	494982
▁same	491958
▁two	488122
▁after	485935
▁rate	485871
▁well	484880
▁people	483965
&	482857
▁costs	482558
▁including	481952
▁fund	481637
▁through	475678
▁so	471542
▁2013	471264
▁because	469110
▁price	468515
▁2014	464322
▁2012	463200
▁6	462636
▁2015	461293
▁2011	459831
▁Financial	456659
3	453411
▁them	452472
C	451468
▁units	449648
▁2010	446746
▁services	443164
▁very	442339
▁expenses	439544
▁CanLII	439508
▁members	438714
▁B	438253
▁work	437871
▁2016	437673
▁15	437232
▁non	437093
▁There	436314
▁three	436163
▁September	435954
▁increase	435021
▁due	433441
▁Committee	433372
▁compared	432502
▁v	432035
▁based	431933
▁If	430659
▁On	428665
▁order	424875
▁between	424072
▁total	423951
▁case	423308
▁applicant	420609
▁make	418972
5	417930
▁shall	415571
▁section	414285
▁related	411462
▁performance	409609
▁2017	408740
▁7	408674
▁Trust	406710
▁operations	403444
▁Management	401800
▁12	401622
▁being	400615
▁F	398231
▁support	396885
▁us	396868
▁issue	395461
▁2009	393566
▁months	392284
▁your	391209
▁paid	389835
▁used	388273
▁certain	388013
▁long	387843
▁credit	385896
▁P	384097
8	381638
▁provide	381487
▁where	381213
▁R	380717
▁plan	379868
▁sales	379679
▁un	378744
▁part	378001
▁These	377753
▁2018	375298
▁cost	374397
▁common	373742
▁result	373516
▁11	373348
▁Bank	372855
▁8	372812
▁M	372608
▁9	372259
▁fair	372161
▁provided	371653
▁January	371448
4	370970
▁issued	370307
0	370266
▁available	369651
▁future	369145
▁subject	368551
▁Units	366831
▁bill	366346
▁2008	364159
▁That	363463
▁Appellant	363137
▁company	361219
▁Notes	360761
▁person	360291
▁Canadians	359021
▁basis	358396
▁operating	357351
▁within	353570
▁said	353309
▁2007	352274
▁use	352252
▁annual	350924
▁decision	347736
▁required	347007
▁results	345078
▁House	344653
▁2006	344043
▁portfolio	343779
▁change	342679
▁second	339891
▁last	338321
▁agreement	337691
▁since	337563
▁20	336613
▁However	336570
▁report	335294
▁public	335179
term	332629
▁loss	332343
▁impact	331307
▁They	330697
▁Portfolio	330659
▁held	329738
▁appeal	328898
▁debt	328500
▁find	326680
▁May	326035
es	322772
▁2005	321645
▁investments	317573
▁now	316798
▁equity	316700
▁am	316348
▁Income	316165
l	315009
▁fiscal	314974
▁approximately	314093
▁significant	313662
▁Net	313205
▁end	312244
▁question	310633
▁increased	310543
▁see	309587
▁October	308758
▁return	308065
▁how	308018
▁like	307427
▁13	307029
▁current	306845
▁right	306484
▁whether	305954
▁growth	305478
▁US	304520
▁2004	301021
▁know	300756
▁set	300725
▁changes	300484
▁day	299851
▁property	296696
▁committee	295933
▁April	295775
▁both	295692
▁les	295433
▁take	291734
▁terms	290773
▁outstanding	290672
▁fees	289959
▁Index	289757
▁activities	289523
▁2019	289309
▁received	288761
▁additional	287530
▁him	287167
▁14	287139
▁important	285826
al	285693
▁forward	285468
R	285075
▁development	285027
▁16	284329
▁XXXX	284081
▁country	283884
▁application	283647
▁earnings	283556
▁want	283345
▁fact	283083
6	282518
▁d	282442
▁pay	281359
▁Date	280791
▁need	279980
▁addition	278478
▁Manager	277172
▁position	276770
▁Note	276242
▁place	276083
▁many	274477
▁E	274092
▁funds	273714
▁Funds	272141
▁General	272066
▁25	271481
▁United	270248
▁Quebec	269850
▁T	269434
▁billion	269398
‘	269112
▁process	268942
▁service	268661
▁against	268187
▁most	267934
›	267170
▁O	266967
▁At	266689
▁18	266117
▁claimant	265716
▁Bill	264986
▁2003	264217
▁purchase	263496
▁directors	262921
▁Group	262653
▁November	262406
▁prior	261030
▁include	260691
▁foreign	260669
[	260251
▁options	259864
▁program	259046
▁companies	258984
▁February	258440
▁term	258170
▁asset	258040
▁OF	257534
▁consolidated	257223
▁liabilities	257095
▁July	256964
▁compensation	255955
▁upon	255867
▁included	255765
▁documents	255739
A	255699
▁17	255038
able	254647
▁Securities	254563
▁means	253816
▁D	253456
▁system	253401
▁receive	252682
▁review	252362
▁without	252007
▁law	251897
▁payable	251552
▁re	250116
▁applicable	250021
▁third	249860
]	249809
▁further	248970
▁expected	248475
▁conditions	248441
▁products	248047
▁rights	247153
▁panel	246568
▁below	246009
▁me	245376
▁family	245169
▁She	244875
▁2002	244475
▁Senator	244455
▁exchange	243528
▁continue	242639
▁average	242412
▁way	241935
▁L	241395
▁19	238470
▁Common	236459
▁August	234533
▁Investment	234308
▁Directors	233986
▁accounting	232280
▁Immigration	232070
▁See	231814
▁President	231746
▁Capital	231231
▁form	231096
▁hearing	230673
▁industry	230373
▁Ltd	229485
▁28	229368
▁table	229358
▁primarily	228782
▁own	227775
▁rates	227148
▁above	226918
▁employees	226903
▁2001	226750
▁accordance	226134
▁legislation	225704
▁Total	224775
▁Court	224650
x	224339
▁CA	224212
▁effect	224204
▁benefit	223764
▁economic	223112
▁Plan	222717
▁given	221716
▁follows	221043
▁present	219567
▁States	219513
▁stock	219289
▁federal	219057
▁short	218570
▁minister	217742
▁get	217659
▁revenue	217624
▁ensure	217585
▁Officer	215078
▁until	215040
▁purposes	214700
▁note	213848
▁balance	213633
▁21	213490
*	213455
▁shareholders	213388
▁fee	213196
▁expense	213085
▁taxes	212997
▁Equity	212629
▁higher	212614
▁money	211974
▁stated	211492
▁just	209953
▁general	209926
▁Chief	209762
▁To	209588
▁amounts	209410
▁provides	208920
▁material	208872
▁During	208683
▁help	208249
▁p	208139
▁Ontario	206839
▁risks	206475
▁considered	206400
▁24	206009
▁When	205880
▁days	205775
re	205650
▁All	205415
o	205138
▁Executive	205033
th	204741
in	204715
▁circumstances	204347
▁Global	203962
▁cannot	203621
▁22	203514
▁described	203508
▁Corporate	202969
▁back	202948
▁principal	202088
▁board	201957
▁Ms	201871
▁27	201750
▁sale	201682
▁today	201518
▁requirements	200626
▁six	200387
m	200228
▁Section	200145
▁high	200075
▁determined	199532
▁working	199478
▁think	198740
▁using	198643
▁effective	198431
▁acquisition	198202
▁good	198097
▁meeting	197355
▁G	197340
▁losses	197173
▁An	196936
▁health	196616
▁parties	196611
▁J	195189
▁while	194892
▁Our	194526
7	194476
▁pursuant	193905
▁production	193728
▁RPD	193414
▁another	193399
▁testified	193317
▁recognized	192523
▁account	192442
▁revenues	192363
▁la	192320
▁2000	192290
▁IFRS	191458
▁29	191328
▁level	191267
▁subsection	190997
▁23	190377
▁Other	189847
▁say	189845
▁past	189803
▁why	189712
▁New	189667
▁N	188361
▁lower	188207
▁believe	187871
▁option	187656
▁particular	187564
▁going	187136
▁Agreement	187068
▁put	186934
▁issues	186929
▁consider	186474
▁AND	185828
▁recorded	185661
▁party	185654
▁factors	185496
▁trade	185449
▁policy	185436
▁able	185204
▁children	185001
▁point	184657
▁even	184234
▁officer	183542
▁notes	183403
▁Government	183325
▁International	183096
c	183060
▁benefits	182824
▁dollars	182517
▁found	182476
▁markets	181905
▁26	181451
▁five	181258
▁contracts	180657
▁hon	180385
▁THE	179776
▁notice	179517
▁every	179247
▁series	178972
▁transactions	178646
▁decrease	177614
▁50	176733
▁Honourable	176389
▁record	176340
▁security	176291
ment	176044
▁statement	175838
▁Limited	175360
ation	174423
▁plans	174150
▁best	174129
▁equal	173862
▁distribution	173650
▁currently	173604
▁document	173122
▁page	172686
▁unit	172471
▁full	172305
i	172040
▁prices	171981
▁different	171480
▁here	171440
com	170712
en	170179
▁What	169702
▁completed	169297
▁control	168660
▁appropriate	168612
▁le	168559
▁corporate	168523
▁potential	168325
▁life	168293
▁matter	168271
▁dated	168130
▁Share	168072
▁ETF	167905
▁instruments	167403
▁provisions	166518
▁payment	166056
▁Federal	165997
▁l	165272
▁Exhibit	165161
▁H	165101
▁reasonable	164882
▁marriage	164729
▁asked	164674
▁go	164110
▁gains	163912
month	163511
▁100	163140
▁care	163050
▁directly	162828
u	162310
▁Annual	162259
▁regarding	162213
▁reasons	162149
▁Tribunal	162093
▁world	161916
▁fixed	161910
▁specific	161856
▁periods	161789
on	161184
▁equipment	160960
▁established	160371
▁investors	160072
▁Cash	159946
▁come	159869
▁Vice	159838
▁protection	159726
▁give	159510
▁Toronto	158927
▁apply	158841
▁purpose	158641
▁Information	158589
▁legal	158557
▁independent	158527
▁Reference	158509
▁meet	158490
▁motion	158316
▁sector	158301
▁necessary	158267
▁Corp	158152
▁much	158056
▁allow	157608
B	157606
▁interests	157531
▁portion	157465
▁generally	157255
▁exercise	156629
▁Prime	156037
▁paragraph	155186
‐	155181
▁prospectus	154996
|	154321
▁currency	154294
▁gas	154266
▁consideration	154096
refore	153899
▁next	153733
▁Q	153554
▁Report	153553
▁TSX	153522
▁includes	153452
▁Return	153041
▁access	152829
▁vote	152800
▁filed	152670
▁taken	152337
▁claim	152173
▁Co	152009
▁offer	151947
▁insurance	151583
▁obligations	151522
▁IRB	151491
▁budget	151259
▁granted	151016
▁measures	150913
▁Services	150889
▁having	150833
▁presented	150737
▁Division	150463
▁key	150320
▁down	150279
▁Tax	149841
▁First	149601
▁analysis	149598
▁relating	149522
▁Director	149392
▁policies	149155
▁product	149068
▁North	149033
▁relationship	149032
▁trading	148950
▁individual	148723
▁project	148619
▁Partnership	148557
▁done	148406
▁area	148147
▁exposure	148146
▁senators	147733
▁Level	147626
▁various	147527
▁example	147481
▁National	146166
▁Hon	145720
▁clear	145587
▁continued	145539
_	145391
▁across	145187
▁group	144929
▁Business	144644
▁W	144482
ies	144362
▁employment	144146
▁distributions	144069
▁entitled	143976
▁customers	143975
▁gain	143698
▁financing	143694
▁Re	143535
▁contract	143447
▁action	143263
▁relevant	143175
▁experience	143153
9	143149
▁reporting	143107
▁agreements	142693
▁dollar	142352
▁payments	142307
▁40	141966
▁properties	141925
▁referred	141637
▁transaction	141563
▁office	141520
▁opportunity	141409
▁1999	141349
▁otherwise	141333
▁proposed	141330
▁debate	141086
▁flow	141077
▁testimony	140998
▁request	140446
▁private	140426
▁name	140346
▁power	140193
▁director	140028
▁course	138959
▁sold	138601
▁indicated	138455
▁real	138446
▁proceeds	138155
▁strong	137774
▁class	137117
▁amended	137059
▁view	137032
▁responsible	136960
▁previous	136776
▁four	136594
▁beginning	136541
▁child	136280
▁oil	136273
▁registered	136270
▁You	136238
le	136095
▁REIT	136080
▁become	136021
▁act	135669
▁still	135451
▁charge	135229
▁making	135150
▁Senate	134986
▁Value	134940
▁together	134715
▁things	134506
▁address	134092
▁officers	133659
▁Statements	133518
▁defined	133472
▁facility	133427
▁invest	133381
▁base	133074
P	132865
▁associated	132865
▁employer	132777
▁Parliament	132473
▁Québec	132323
▁major	132153
▁least	132118
▁regard	132018
▁look	131904
▁en	131174
▁trust	131102
▁Risk	130991
▁situation	130990
▁possible	130902
▁liability	130564
▁approved	130408
▁b	130407
▁Offering	130354
▁counsel	130189
▁estimated	130118
▁acquired	129823
▁ability	129786
▁Non	129167
▁again	129152
▁accounts	129065
▁national	129059
▁read	128812
▁pension	128667
▁dividends	128317
▁regulatory	128032
▁Offer	127703
▁data	127698
▁home	127599
▁resources	127484
▁Asset	127459
▁Appeal	127391
▁reference	126736
▁loans	126710
▁community	126595
▁loan	126470
▁sur	126345
▁reported	126147
T	126118
entered	126062
▁approach	125707
▁month	125546
▁Growth	125347
▁Code	125346
year	125319
▁standards	125316
▁special	125271
▁opinion	125000
▁several	124877
▁Stock	124751
▁better	124718
▁Commission	124713
▁similar	124618
▁needs	124402
▁cause	124395
▁determine	124235
▁returns	124158
▁met	123480
based	123330
D	123213
▁Exchange	123160
to	123113
▁written	123100
▁programs	123032
▁limited	122828
▁mutual	122827
▁nine	122775
▁line	122657
▁great	122156
or	122056
▁Public	121220
▁des	121096
▁strategy	120896
▁police	120802
▁Liberal	120241
▁already	120168
▁Preferred	120026
▁Energy	119977
▁bank	119767
▁Under	119721
▁Interest	119708
▁exploration	119493
▁invested	119374
▁letter	119225
▁reduce	119216
▁Resources	118996
▁agree	118973
▁ask	118937
▁facilities	118701
▁Applicant	118489
▁flows	118436
▁hold	117825
▁approval	117657
▁connection	117281
▁among	117212
▁La	117199
▁Refugee	117179
▁times	117090
f	117056
▁few	116930
▁affect	116824
▁questions	116655
▁understand	116429
▁existing	116306
ity	116187
▁SCC	116078
▁Mackenzie	116073
▁Consolidated	116012
▁greater	115770
▁international	115658
▁Investments	115619
▁deferred	115567
▁claims	115544
▁Unit	115526
▁laws	115512
▁except	115222
▁reason	114831
▁objectives	114826
▁prepared	114637
▁items	114568
▁respectively	114567
▁either	114222
▁however	114113
▁offering	113976
▁applied	113806
▁With	113803
▁submitted	113697
▁provinces	113613
▁Rights	113412
ent	113399
E	113304
▁appear	113298
▁leave	113026
▁employee	112907
▁nature	112816
▁K	112678
▁obtain	112619
▁court	112483
▁provision	112129
▁PS	112117
▁matters	112095
▁RAD	112064
▁Home	111867
▁refer	111751
▁initial	111472
-1	111376
▁behalf	111294
▁large	111076
▁segment	111051
▁natural	111007
▁amendments	110975
▁American	110648
▁Price	110629
▁Life	110547
▁global	110486
▁state	110347
▁colleague	110156
▁standard	109830
▁rules	109817
▁noted	109576
▁conclude	109558
▁businesses	109541
▁Regulations	109506
▁low	109334
▁dividend	109331
▁personal	109129
▁called	109073
▁60	108996
▁establish	108671
▁capacity	108549
▁minimum	108316
▁executive	108289
▁job	108276
▁economy	108256
▁Finance	108168
▁doing	108094
▁regulations	107806
▁investing	107695
▁pre	107693
▁closing	107682
▁audit	107654
M	107620
▁et	107491
▁countries	107490
▁assessment	107185
▁calculated	107098
▁obligation	106990
creased	106936
▁provincial	106896
▁Bond	106830
▁event	106808
▁i	106768
▁35	106711
▁underlying	106703
▁concerns	106541
▁incurred	106420
p	106359
▁2020	106313
▁small	106268
▁responsibility	106237
▁never	106172
▁status	106172
▁www	106139
▁Each	106016
▁objective	105997
▁quality	105908
▁require	105553
▁fourth	105519
▁Audit	105471
▁environment	105457
▁permanent	105402
▁call	105302
▁Shareholders	105265
b	105050
▁Meeting	104794
▁land	104787
▁might	104773
▁women	104656
▁deal	104488
▁positive	104399
▁One	104379
▁areas	104378
▁response	104353
▁majority	104330
▁open	104276
▁manager	104199
▁complete	104144
▁mainly	104082
▁located	103986
▁research	103912
▁voting	103805
▁announced	103636
▁China	103582
▁gold	103364
▁direct	103247
▁events	103025
▁estimates	102852
▁du	102841
▁cases	102716
ive	102624
▁levels	102565
▁commercial	102394
▁Credit	102202
▁EBITDA	102144
▁redemption	102052
▁sub	101943
▁affected	101840
▁conduct	101752
▁Principal	101725
=	101678
▁Development	101492
▁serious	101473
▁percentage	101463
ized	101388
▁problem	101369
▁persons	101365
▁role	101305
▁sell	101218
▁subsidiaries	101214
g	101158
▁carrying	101103
▁lease	101077
▁off	101076
▁customer	101013
▁meaning	100943
▁St	100841
▁jobs	100790
▁close	100680
▁visa	100588
▁corporation	100557
h	100421
ness	100348
▁ratio	100239
▁transfer	100170
▁projects	100147
▁later	99950
▁technology	99845
▁involved	99791
▁Assets	99693
▁Valuation	99404
▁entity	99196
▁senior	99170
▁attributable	99047
▁offset	98955
▁Compensation	98894
ra	98835
▁speak	98633
▁unless	98598
▁pages	98481
▁cent	98413
▁amendment	98177
▁election	98133
▁aggregate	98100
up	97962
▁taking	97936
▁Operating	97926
▁Since	97758
▁method	97490
▁values	97442
▁Prospectus	97384
▁gross	97375
▁n	97246
▁charges	97214
▁By	97075
▁adjusted	96953
▁concerning	96937
▁accept	96913
▁plant	96779
▁around	96362
▁safety	96256
▁Citizenship	96228
▁social	96176
▁criminal	96158
▁Senior	96108
▁maximum	96036
▁demand	96010
▁answer	96007
▁Conservative	95872
▁negative	95741
▁Party	95679
▁adopted	95621
▁procedures	95540
▁providing	95504
▁Maturity	95458
▁free	95421
▁agreed	95405
▁interim	95399
▁Any	95374
▁sufficient	95336
▁longer	95183
▁signed	95067
▁outside	95035
▁...	94927
▁opportunities	94900
▁disclosure	94720
▁internal	94496
z	94450
▁holders	94431
While	94419
▁manner	94385
▁CPA	94275
▁heard	94243
▁administrative	94095
▁impairment	94060
▁medical	94055
▁Montreal	93964
▁details	93963
▁final	93674
▁reflect	93644
de	93382
▁Amount	93320
▁remain	93248
▁De	93084
▁whole	93076
▁came	93052
▁previously	92968
▁something	92789
▁communities	92786
▁jurisdiction	92698
▁fully	92693
▁took	92681
▁authority	92465
▁funding	92404
ary	92335
▁returned	92287
▁extent	92192
▁believes	92188
ant	92153
▁Record	92064
▁reduced	91866
▁purchased	91421
▁45	91389
▁decisions	91338
▁try	91229
▁committed	91077
▁energy	90850
▁TD	90372
over	90350
▁obtained	90264
▁assumptions	90095
▁CAD	90063
▁profit	89999
▁retrieve	89963
▁mother	89873
▁Alberta	89571
▁NDP	89529
▁told	89441
▁Option	89345
▁overall	89261
▁contained	89249
co	89203
▁Le	89179
▁consistent	89103
▁32	89010
▁British	88991
▁maintain	88966
▁activity	88942
▁offered	88871
▁m	88859
▁listed	88769
it	88739
▁Health	88733
▁opposition	88540
▁proceeding	88522
▁goods	88477
▁reports	88350
▁discussion	88310
▁always	88226
▁little	88123
▁Market	88081
▁former	87875
▁province	87816
▁condition	87728
▁tell	87671
▁actual	87648
▁shows	87608
▁left	87594
▁36	87528
▁respondent	87491
▁wife	87451
il	87399
▁Therefore	87383
L	87329
▁team	87298
▁issuance	87249
▁Form	87194
▁show	87114
▁recent	87109
▁America	87102
▁treatment	87093
▁reduction	86982
▁mining	86975
▁finance	86640
▁34	86596
et	86457
▁ago	86215
▁protect	86160
▁realized	86149
▁subsidiary	86105
▁once	86083
▁expenditures	86073
▁certificate	86062
us	85981
▁bring	85977
▁human	85971
▁1998	85952
▁force	85750
▁age	85675
▁earlier	85625
▁shareholder	85599
▁local	85572
▁Payment	85395
▁recognize	85339
is	85259
▁half	85258
+	85235
▁receivable	85149
0,000	84999
▁live	84945
▁resulting	84860
▁TO	84853
▁assurance	84845
▁political	84778
▁Liberals	84769
▁33	84710
at	84541
▁consist	84474
▁deemed	84469
▁kind	84442
▁Circular	84414
▁Paper	84413
▁remaining	84337
▁organization	83995
▁states	83919
▁g	83880
▁summary	83847
I	83843
▁rise	83828
▁actions	83793
▁requires	83771
▁test	83769
▁Chair	83687
▁appointed	83686
▁grant	83666
▁talk	83623
▁facts	83504
ic	83503
▁knowledge	83457
▁focus	83409
▁represents	83316
▁monthly	83278
la	83165
▁strategic	83005
▁compliance	82928
▁Chairman	82828
@	82822
▁authorities	82782
▁administration	82632
▁stay	82590
ar	82548
▁problems	82529
▁represent	82445
▁range	82432
▁intend	82381
▁Dr	82356
▁known	82228
▁grievor	82208
▁joint	82165
▁Closing	82162
▁V	81930
▁yet	81867
▁owned	81688
▁Lib	81658
▁families	81646
looking	81485
▁Human	81312
▁education	81301
▁CIBC	81246
▁thank	81245
▁individuals	81232
▁measure	81105
▁lack	81094
▁co	81023
20	80921
▁positions	80907
▁Acquisition	80724
Q	80706
▁particularly	80689
▁likely	80677
▁authorized	80600
▁contact	80568
▁clearly	80510
▁raised	80494
▁IAD	80426
▁X	80383
▁1,000	80353
▁Insurance	80304
▁Service	80205
▁GAAP	80142
F	80127
▁systems	80105
▁expect	80076
K	79875
▁efforts	79735
▁After	79662
▁successful	79610
▁principles	79568
▁too	79514
one	79445
▁holder	79398
▁operation	79356
▁submit	79353
▁plus	79203
▁39	79164
▁Revenue	79054
▁Unitholders	78973
▁really	78954
▁went	78796
▁comprehensive	78760
▁identified	78695
▁resident	78686
▁continues	78469
▁accepted	78374
▁environmental	78361
▁file	78253
▁meetings	78215
▁Columbia	78168
▁amortization	78101
▁added	78040
▁move	77959
▁parents	77951
▁lives	77784
▁determination	77555
k	77426
▁workers	77345
▁single	77317
▁construction	77310
▁start	77302
▁clients	77193
▁Order	77189
▁actually	77177
▁school	77151
▁words	77143
▁copy	77067
▁ongoing	77065
▁create	76972
▁alleged	76960
▁training	76955
▁justice	76902
▁improve	76844
▁pro	76839
▁auditor	76799
▁38	76553
▁rathe	76548
▁mentioned	76326
▁contribution	76299
▁week	76235
▁release	76209
▁nothing	76175
▁shown	76142
ating	76130
▁simply	76091
▁early	76035
▁From	75929
▁participate	75849
▁derivatives	75835
▁changed	75834
▁Conservatives	75757
▁representing	75742
▁visit	75718
▁specified	75694
▁makes	75683
▁derivative	75639
▁client	75625
▁father	75611
▁investor	75610
▁judgment	75610
▁agent	75461
▁acquisitions	75450
▁Part	75384
▁lot	75277
▁Investors	75235
▁37	75072
▁judge	74974
▁wish	74964
25	74911
▁trial	74839
▁often	74816
▁keep	74771
▁consent	74652
▁How	74648
▁credibility	74590
est	74585
▁forth	74585
amounted	74564
▁More	74516
▁network	74444
▁relative	74418
▁Power	74345
ance	74324
▁contains	74309
▁thing	74253
▁Debentures	74214
▁designated	74204
▁Special	74173
immediately	74169
▁generated	74151
▁allowed	74137
▁target	74135
▁reviewed	74109
ate	74013
▁proxy	73994
.00	73866
50	73753
O	73748
▁selling	73709
▁professional	73627
▁commitment	73470
▁ownership	73294
▁throughout	73186
▁concern	73163
▁firm	73105
▁90	73094
▁BMO	73037
-2	72919
ling	72896
▁side	72895
te	72883
▁continuing	72878
ur	72819
▁post	72749
▁maturity	72746
▁nor	72683
▁riding	72677
▁represented	72580
▁achieve	72421
▁Respondent	72414
▁bonds	72405
▁developed	72397
▁Protection	72358
▁list	72320
an	72289
▁difficult	72192
▁sheet	72187
▁refugee	72150
▁allocation	71969
J	71877
▁according	71657
▁normal	71653
▁young	71482
▁Year	71399
▁yield	71397
▁moved	71396
▁external	71395
▁far	71392
▁Governance	71278
▁Accordingly	71266
▁intended	71222
▁brought	71220
▁RBC	71200
▁concerned	71153
▁seem	71145
President	71116
▁auditors	71002
®	70993
▁study	70916
▁Dividend	70852
▁water	70778
▁supply	70706
nt	70685
▁practices	70634
▁valuation	70587
▁light	70557
30	70493
▁aware	70451
▁reserves	70424
▁margin	70370
▁discretion	70207
▁looking	70173
▁son	70167
▁hope	70023
▁model	69926
man	69888
▁performed	69787
▁develop	69776
▁Property	69772
▁retirement	69713
▁face	69664
▁discussed	69660
▁history	69628
ci	69562
▁eligible	69510
15	69418
▁sent	69392
▁acquire	69374
▁My	69343
▁degree	69312
▁whose	69256
▁USD	69251
▁Notice	69205
▁recommendations	69199
▁Pool	69115
▁living	69094
▁explain	69086
▁definition	69056
▁quarterly	68965
▁IN	68908
▁Security	68818
▁equivalents	68748
▁criteria	68741
ce	68739
▁managed	68717
▁leader	68670
▁difference	68661
ion	68594
▁Standing	68493
▁main	68463
▁worked	68403
end	68354
ous	68337
▁old	68251
▁context	68244
▁recently	68220
▁husband	68194
▁Gold	68190
75	68055
▁MD	68040
▁preferred	67830
ING	67824
▁LP	67810
▁Foreign	67745
▁comes	67729
▁type	67717
ter	67680
▁Rate	67672
▁rating	67544
▁remains	67542
▁building	67541
▁II	67488
W	67483
▁hard	67437
▁accrued	67422
▁Air	67401
▁taxable	67374
▁charged	67279
▁practice	67172
▁hours	67131
▁failed	67123
▁Redemption	67103
▁Council	66949
▁website	66910
▁41	66894
▁structure	66889
▁assistance	66866
▁factor	66865
am	66829
▁Partner	66780
▁Additional	66728
▁hand	66711
▁Day	66663
▁FOR	66657
▁Investor	66643
▁created	66639
▁toward	66579
▁42	66552
▁infrastructure	66542
▁Sales	66522
▁retail	66469
▁largest	66452
▁FINANCIAL	66394
▁measured	66345
▁f	66301
▁comments	66264
▁points	66251
▁Underlying	66233
▁enter	66219
▁suggest	66142
▁representative	66129
▁2019-07-1	66066
▁Although	65985
▁Why	65961
▁Some	65908
▁Manulife	65865
▁Over	65792
▁55	65779
▁genuine	65743
▁submissions	65732
▁deposit	65600
▁immigration	65590
▁CEO	65548
▁prevent	65466
▁finding	65367
▁carried	65295
▁44	65286
▁success	65135
▁CI	65123
▁coming	65064
▁duties	65054
▁Counsel	64973
N	64817
▁decided	64812
▁fall	64811
▁marketing	64734
▁saying	64730
▁Province	64659
▁offence	64614
▁designed	64593
ry	64588
▁1997	64522
▁itself	64460
!	64459
▁partnership	64425
▁applies	64399
time	64349
corporated	64299
▁consult	64216
▁favour	64201
▁John	64195
▁explained	64174
▁recovery	64158
▁ground	64150
▁became	64137
▁Such	64126
age	64081
▁commission	64030
▁annually	63973
▁Scotia	63838
▁adoption	63794
▁buy	63744
▁increases	63678
▁Operations	63660
10	63657
▁amend	63622
▁speech	63587
▁Secretary	63577
▁à	63310
responsibilities	63278
▁According	63206
▁liquidity	63204
▁seen	63129
▁elected	63109
▁equivalent	63095
▁advisor	63049
▁significantly	63003
▁West	62997
▁estate	62916
line	62889
▁compound	62848
▁original	62836
▁groups	62754
▁identify	62670
▁limit	62623
▁partner	62616
▁satisfied	62613
▁FUND	62606
▁along	62605
▁dismiss	62569
▁weighted	62541
▁manage	62454
▁Certain	62387
▁adjustments	62323
#	62267
▁hear	62238
▁Balanced	62236
▁excluding	62198
▁relate	62188
▁His	62121
▁Advisor	62091
▁warrants	62069
5,000	62043
V	62003
▁intention	62003
▁direction	61972
▁society	61967
▁union	61857
▁ending	61742
▁cited	61720
▁error	61695
▁Change	61681
ca	61609
▁honourable	61475
▁43	61429
▁ID	61361
▁comply	61282
▁contributions	61138
▁conclusion	61093
▁Holdings	61078
▁constitute	61068
▁competitive	61036
ED	61028
▁complainant	60999
▁Performance	60884
▁World	60869
▁Private	60850
▁primary	60836
▁thousands	60801
▁specifically	60799
▁Centre	60794
▁Final	60783
▁Review	60783
▁region	60695
▁accounted	60650
▁permitted	60643
ton	60627
▁enough	60540
▁Bell	60516
▁Fidelity	60451
é	60439
Y	60410
▁holds	60409
▁Fees	60384
▁resulted	60382
▁sectors	60361
▁whom	60302
▁Justice	60269
▁served	60197
▁organizations	60166
▁Commons	60156
▁Short	60153
▁Adjusted	60138
▁High	60048
.1	60036
▁mine	60029
▁description	59987
▁se	59979
▁daily	59958
▁attempt	59936
▁70	59869
quite	59798
▁deposits	59787
▁content	59760
▁India	59759
▁needed	59732
▁relation	59698
▁materials	59676
▁exercised	59545
ne	59522
▁resolution	59476
▁seek	59427
▁lead	59398
▁Let	59390
▁classified	59389
▁site	59368
▁treat	59292
▁Department	59254
▁pricing	59228
40	59141
▁Distribution	59129
▁rule	59088
▁presentation	59062
▁stand	59045
▁sets	59035
▁dealer	58994
pleased	58960
▁says	58944
▁Balance	58878
80	58865
▁80	58855
▁complaint	58826
▁Analysis	58794
▁active	58721
▁failure	58685
▁decline	58677
▁Europe	58648
▁replaced	58645
▁married	58639
▁65	58593
▁spent	58583
▁leases	58581
▁determining	58567
▁mortgage	58533
▁expressed	58517
▁crime	58456
▁unaudited	58417
▁travel	58399
▁settlement	58377
▁weeks	58351
▁INC	58343
▁recognition	58315
▁away	58237
▁true	58229
ated	58188
▁prescribed	58181
▁Project	58105
▁follow	58071
▁Employment	58061
▁completion	58049
▁credible	58049
▁telephone	58015
▁basic	57940
▁48	57916
▁passed	57912
▁pp	57876
▁Accounting	57870
▁debentures	57870
son	57773
▁partners	57752
▁Markets	57720
▁excess	57676
▁SOR	57670
▁talking	57657
▁implement	57635
▁govern	57633
▁Fixed	57561
▁permit	57548
▁strategies	57491
▁separate	57464
▁colleagues	57408
▁contributed	57304
▁drilling	57260
▁o	57233
▁FC	57212
G	57044
▁volatility	57041
▁occurred	57025
▁collective	56945
.2	56883
▁entities	56875
▁leading	56873
▁wanted	56791
▁Where	56765
▁Regulation	56719
▁Period	56653
▁interview	56618
▁corresponding	56583
▁receivables	56576
▁Mark	56531
▁Affairs	56524
▁Madam	56472
▁01	56465
▁index	56435
▁giving	56427
▁Mutual	56407
▁registration	56398
▁Long	56388
▁detailed	56347
▁governance	56329
60	56326
▁issuer	56287
▁please	56229
▁regular	56206
▁add	56193
▁University	56191
▁Motion	56181
▁labour	56136
▁File	56104
▁500	56085
▁remove	56041
▁raise	55996
▁conducted	55964
▁Number	55954
▁holding	55919
▁requirement	55868
▁Furthermore	55857
▁subsequent	55788
▁75	55786
▁Based	55782
▁European	55674
▁Pro	55656
▁involve	55651
▁Term	55631
▁evaluation	55581
▁relief	55576
▁spending	55560
49	55550
▁52	55481
▁initiatives	55420
▁introduced	55418
▁combined	55309
▁staff	55252
▁book	55184
Sessional	55102
▁leadership	55019
▁South	55012
▁adverse	54968
▁Trade	54921
▁arrangements	54886
▁assist	54837
▁component	54790
17	54731
▁privilege	54703
▁fundamental	54591
▁controls	54584
▁qualified	54562
▁top	54561
▁Schedule	54551
27	54543
29	54499
▁Callable	54499
▁termination	54496
▁Statement	54482
▁certainly	54433
▁regulation	54431
▁percent	54374
▁uses	54367
▁paper	54351
ization	54339
▁Real	54296
▁salary	54267
▁unitholders	54221
▁couple	54169
▁committees	54166
▁Royal	54106
▁Debt	54065
99	54022
▁historical	54012
▁respective	53998
▁Voting	53935
▁food	53913
▁discuss	53855
▁1996	53828
began	53818
▁commissions	53803
▁substantially	53800
▁resource	53795
tic	53787
▁46	53775
▁conversion	53775
▁intangible	53739
▁serve	53687
▁Options	53675
▁herein	53624
▁division	53616
▁hedge	53536
▁planning	53534
▁explanation	53523
▁Earnings	53502
▁So	53419
▁earned	53411
▁audited	53371
▁accompanying	53361
39	53356
▁Desjardins	53344
▁depreciation	53341
▁LLP	53326
▁occur	53303
▁volume	53273
▁disclosed	53249
▁Initial	53191
11	53155
▁advice	53113
▁adjustment	53110
▁repurchase	53089
▁Holders	52983
▁medium	52981
▁consequences	52917
▁considerations	52855
▁49	52819
▁Ottawa	52792
ons	52772
▁absolute	52710
▁department	52697
▁warrant	52692
▁Reg	52690
▁implementation	52663
▁declared	52645
▁institutions	52608
▁perform	52535
▁themselves	52527
specially	52497
law	52489
▁grounds	52480
les	52401
▁dis	52364
▁house	52358
▁mineral	52356
▁beyond	52338
▁Deferred	52310
▁differ	52302
▁Au	52286
▁attention	52274
▁lost	52244
▁design	52239
▁item	52168
▁Please	52143
▁Prior	52094
▁convertible	52055
36	52046
▁Bloc	51996
▁partially	51974
00	51967
▁Changes	51961
▁advantage	51898
▁par	51896
16	51875
▁00	51870
▁thereof	51836
▁Sun	51821
▁discount	51760
▁para	51749
▁manufacturing	51738
▁Program	51727
▁residence	51717
▁appointment	51711
▁progress	51702
▁principle	51689
▁Cite	51671
67	51644
▁Agency	51638
▁Not	51633
▁Mar	51628
▁death	51617
▁mandate	51537
▁solutions	51529
▁gave	51516
um	51506
▁proposal	51489
▁square	51484
▁operational	51456
▁Discussion	51451
▁maintenance	51414
▁indirectly	51278
▁Alliance	51273
18	51266
▁IRPA	51211
▁proceed	51211
12	51178
▁47	51112
▁NAV	51088
▁000	51079
▁understanding	51055
▁commitments	51025
24	51019
▁expects	51013
▁indicates	50954
28	50946
▁comprised	50899
▁thought	50894
▁sections	50887
79	50853
▁delivery	50847
▁French	50774
▁records	50750
▁anticipated	50734
▁Nova	50712
off	50698
for	50618
77	50602
▁estimate	50565
▁Les	50522
▁Holder	50503
▁differences	50493
▁carry	50414
▁51	50408
▁allocated	50393
▁qualify	50393
▁requested	50342
▁Shareholder	50263
▁diluted	50244
▁increasing	50216
▁damage	50076
▁vary	50071
▁language	50049
H	49958
▁Of	49938
▁goodwill	49883
▁58	49861
▁seven	49774
▁recommend	49759
▁substantial	49735
▁City	49701
▁refusal	49679
19	49665
▁63	49644
▁indicate	49589
▁millions	49564
▁supported	49504
▁--	49460
▁sense	49389
improved	49366
▁daughter	49362
▁step	49361
▁53	49311
▁expectations	49281
▁Criminal	49272
▁comparable	49268
▁Charter	49265
named	49261
▁incentive	49260
▁though	49254
▁duty	49223
-15	49191
▁thereto	49138
▁Facility	49129
▁outline	49100
▁And	49074
▁weight	49071
▁consumer	49070
▁official	48975
▁dates	48901
▁seeking	48841
▁reached	48792
▁self	48791
▁Effective	48787
▁almost	48736
▁heading	48728
▁Association	48668
▁Internet	48651
▁reflects	48647
▁Treasury	48591
▁evaluate	48587
▁But	48561
▁although	48546
▁inventory	48494
▁cut	48481
▁Your	48453
▁works	48450
▁Transaction	48410
▁turn	48374
▁clause	48315
▁cross	48309
14	48305
▁spouse	48278
▁entire	48262
▁takes	48245
▁transportation	48197
▁delivered	48184
▁bid	48152
▁assess	48144
▁core	48088
▁ten	48081
▁Safety	48026
▁citizens	47994
▁Second	47984
▁85	47962
▁Loan	47962
▁ever	47878
▁stores	47865
13	47833
▁technical	47789
▁Can	47769
▁proud	47750
▁Agent	47734
▁head	47720
▁reading	47718
▁highly	47670
▁au	47659
-10	47658
▁fuel	47640
▁produced	47618
-12	47588
▁Office	47585
▁translation	47563
▁lines	47534
▁alternative	47490
▁Fee	47462
▁contractual	47403
▁size	47347
▁Standards	47336
▁attend	47314
▁military	47264
▁awards	47259
▁MANAGEMENT	47250
▁valid	47250
▁writing	47234
▁powers	47196
▁deficit	47179
▁Member	47171
▁transferred	47160
▁Quarter	47136
▁Leader	47103
▁licence	47060
▁restrictions	46975
▁Crown	46964
▁supporting	46963
▁Her	46960
▁Gas	46879
▁Supplement	46872
▁Page	46800
▁witness	46736
▁removal	46712
▁savings	46677
▁collect	46661
▁dealing	46652
▁Properties	46642
▁deliver	46637
▁steps	46626
▁Social	46605
-11	46590
▁started	46522
▁LLC	46503
▁Y	46487
▁retain	46466
▁guidance	46455
▁importance	46454
▁drug	46423
▁calculation	46375
▁reasonably	46374
▁benchmark	46248
▁67	46227
▁remained	46212
▁hedging	46211
AL	46203
▁framework	46199
▁bargaining	46188
▁car	46135
▁Vancouver	46133
▁begin	46124
▁invests	46103
▁Standard	46091
▁regional	46047
69	46015
▁selection	45957
▁properly	45945
▁build	45929
▁IAS	45875
59	45860
▁stage	45854
▁Expenses	45847
▁orders	45800
▁housing	45717
▁Street	45676
▁anything	45672
▁components	45663
▁Un	45637
▁operate	45605
▁types	45600
▁parliamentary	45587
▁representation	45579
▁candidates	45565
▁word	45526
▁banks	45512
▁mind	45507
▁1985	45368
▁industrial	45358
▁supplement	45344
related	45335
▁Call	45272
▁taxation	45268
46	45264
X	45235
▁Oil	45215
▁investigation	45209
▁contain	45182
▁Trustee	45162
▁generate	45153
▁fear	45150
▁mis	45090
▁association	45051
▁Partners	45021
▁h	45004
▁lending	44985
▁Warrants	44948
▁allowance	44894
▁reflected	44878
▁correct	44875
▁State	44850
▁applications	44826
▁asking	44769
▁domestic	44753
▁Fair	44734
▁focused	44707
▁closed	44701
▁retained	44690
▁engaged	44631
▁Those	44627
26	44615
▁56	44615
spite	44593
▁wants	44591
▁considering	44571
▁sources	44549
▁chair	44545
▁holdings	44532
▁exceed	44517
ability	44470
▁witnesses	44373
▁documentary	44369
▁secured	44318
▁play	44311
▁recommendation	44248
22	44231
▁arising	44173
▁getting	44150
talled	44113
▁1995	44092
▁Further	44006
▁54	44001
▁amortized	43998
33	43989
▁air	43967
▁restructuring	43958
▁fluctuations	43954
0.00	43942
▁defence	43940
▁Distributions	43911
21	43886
▁relationships	43884
▁Opponent	43862
▁57	43830
▁volumes	43830
▁refused	43821
▁Underwriters	43783
▁owner	43775
▁REPORT	43760
▁findings	43760
▁institution	43734
▁card	43714
U	43667
▁argument	43660
▁Communications	43644
▁Pension	43625
▁decide	43619
▁challenge	43609
▁absence	43605
▁grade	43578
▁Purchase	43553
▁maintained	43553
▁growing	43541
▁Jean	43531
▁employed	43531
▁temporary	43521
▁traded	43498
▁courts	43485
▁East	43482
▁Cap	43459
▁advisors	43445
47	43434
▁population	43412
▁inception	43411
89	43405
▁Coupon	43403
▁credits	43396
▁processes	43389
▁Yield	43365
▁confirm	43337
▁disposal	43336
▁extend	43313
▁goes	43264
▁wrong	43224
▁accused	43213
▁brand	43155
▁cover	43144
▁strengthen	43144
▁confirmed	43141
lived	43136
▁assume	43053
▁guarantee	43040
85	43026
▁presence	43013
▁Companies	42981
▁friend	42956
▁undertake	42914
▁doubt	42843
▁Supreme	42771
▁Deputy	42747
▁processing	42707
▁Policy	42705
▁suffer	42683
▁1990	42679
▁purchases	42652
▁Sub	42618
▁experienced	42617
▁campaign	42600
▁expansion	42600
▁victims	42590
ac	42589
▁effects	42586
▁late	42548
▁implemented	42517
▁ways	42496
▁join	42420
▁combination	42416
▁materially	42391
▁statutory	42390
▁Subscription	42340
▁transition	42293
▁conflict	42279
▁agency	42262
▁schedule	42262
▁EN	42248
ty	42182
▁exposed	42177
▁probabilities	42158
▁candidate	42156
▁corporations	42147
▁length	42118
▁Also	42115
▁segments	42112
▁farmers	42106
▁mean	42097
un	42029
▁200	41999
▁1993	41946
▁Results	41934
▁operates	41933
▁useful	41926
of	41916
▁grow	41898
▁encourage	41863
▁Technology	41841
ir	41773
▁targets	41764
▁achieved	41763
▁measurement	41747
▁Current	41742
▁letters	41718
▁body	41701
▁feet	41699
▁influence	41684
▁remember	41680
▁Per	41667
▁surplus	41649
▁respond	41638
Pursuant	41632
▁ON	41627
ve	41609
▁award	41591
▁receipt	41588
▁aircraft	41556
▁negotiate	41539
▁variable	41534
▁capitalization	41508
informed	41503
▁publicly	41499
▁himself	41490
▁source	41434
▁acting	41427
driven	41417
▁limits	41380
▁64	41372
▁stop	41317
▁broad	41282
▁advance	41250
4,000	41240
▁wholly	41239
▁redeemable	41220
ism	41187
and	41157
▁chart	41155
45	41144
▁1.5	41136
▁approve	41125
▁Every	41115
▁appreciation	41085
▁Manitoba	41066
▁developing	41042
▁critical	41040
▁communication	41031
▁brother	41022
▁improvement	41000
▁equities	40980
▁personnel	40966
▁multiple	40954
▁extended	40919
suring	40854
▁forecast	40854
▁selected	40847
nd	40801
▁Sold	40795
ted	40725
▁eight	40719
▁attached	40699
-13	40661
con	40650
▁reserve	40635
▁Lake	40625
-3	40609
adversely	40602
▁citizen	40589
▁Table	40571
▁run	40537
▁English	40491
▁comment	40472
▁Will	40470
▁physical	40460
▁engage	40450
▁Fiscal	40364
▁pursue	40325
▁born	40317
▁parts	40287
▁elements	40260
▁Mortgage	40254
▁97	40250
▁opposite	40239
▁export	40214
▁breach	40196
▁receiving	40156
▁distributed	40093
▁press	40088
37	40064
▁store	40051
▁argue	40043
▁safe	40030
▁pas	40022
▁mark	39979
▁River	39978
▁honour	39963
▁threat	39944
▁feel	39910
▁delay	39908
ever	39869
▁scheduled	39851
▁addressed	39847
ical	39835
▁Forward	39782
▁Independent	39778
▁oral	39778
82	39748
▁disposition	39730
ch	39725
▁identity	39721
▁stocks	39712
▁affidavit	39686
▁burden	39676
▁instrument	39644
▁redeem	39639
the	39635
▁minutes	39617
▁engagement	39581
▁sponsor	39573
▁realize	39568
▁Research	39559
▁Bought	39555
▁expertise	39520
▁instructions	39468
▁centre	39463
▁followed	39460
▁comparative	39447
▁Average	39440
ize	39400
▁Client	39381
▁choice	39373
▁Description	39304
70	39298
44	39285
▁Z	39285
▁grievance	39279
▁imposed	39265
▁send	39247
▁default	39236
▁Inter	39231
▁vehicle	39184
▁Calgary	39183
▁near	39115
▁extension	39087
doc	39078
day	39069
ian	39067
ally	39046
▁Reporting	39039
▁instead	39018
▁unrealized	39014
▁thus	39003
▁59	38992
▁bond	38987
▁code	38975
86	38899
▁chance	38888
▁patient	38877
▁man	38867
▁update	38780
▁61	38775
▁reform	38774
▁dispute	38765
▁exist	38752
▁Industrial	38698
▁write	38682
▁humanitarian	38677
▁Trustees	38672
▁redeemed	38652
.8	38641
▁representatives	38628
▁indebtedness	38625
88	38598
▁Interim	38589
▁extreme	38586
▁forego	38544
▁priority	38532
ator	38531
▁Attorney	38526
6,000	38521
▁SC	38514
▁standing	38500
▁Brunswick	38479
cash	38448
▁Brookfield	38423
▁sentence	38420
▁Administration	38397
▁assumed	38394
\	38389
▁ultimate	38387
▁Does	38383
▁1994	38367
▁Before	38364
▁denominated	38317
▁Given	38310
▁dependent	38277
tax	38272
▁paying	38269
▁0.5	38156
▁Many	38130
▁ETFs	38124
▁York	38102
▁media	38091
▁pressure	38081
▁Russell	38050
▁68	38046
▁field	38033
▁reviews	37978
▁TM	37956
▁nations	37949
8,000	37943
▁premium	37930
▁contribute	37915
owned	37908
▁owns	37906
▁Do	37903
▁96	37871
▁Saint	37856
▁friends	37800
▁soon	37781
ting	37760
▁interpretation	37743
▁Saskatchewan	37742
▁rest	37713
▁saw	37698
▁happened	37696
▁essential	37654
▁coverage	37640
ish	37636
▁placed	37636
▁Convention	37633
-19	37620
▁acts	37615
▁Media	37609
▁establishment	37586
▁Increase	37563
▁participation	37551
▁Finally	37501
▁covered	37491
▁platform	37483
▁violence	37469
▁men	37465
▁scope	37459
▁disability	37452
▁possibility	37448
▁Issue	37435
▁balances	37406
▁commodity	37398
▁constituents	37394
▁Small	37376
▁abuse	37375
▁calendar	37357
▁sexual	37353
me	37329
w	37312
land	37306
▁Now	37283
▁automatically	37283
pe	37270
▁sister	37256
▁timing	37224
▁charter	37222
▁Dec	37193
▁allegations	37182
▁62	37150
▁discussions	37104
-20	37090
▁senator	37080
▁integrated	37070
▁produce	37070
▁anti	37068
▁category	37061
▁ex	37045
▁En	37017
▁Dynamic	37013
▁95	37009
▁bills	36980
▁Panel	36956
v	36933
23	36923
▁effectively	36886
▁proper	36879
▁released	36862
▁examination	36852
▁knows	36845
▁challenges	36836
▁issuers	36823
▁mention	36822
▁metres	36792
▁66	36790
▁Trading	36779
▁forms	36758
▁Declaration	36727
▁Due	36720
▁placement	36712
▁simplified	36705
▁producers	36667
▁72	36663
▁function	36652
▁CDS	36644
▁advised	36633
▁planned	36617
-14	36605
▁favourable	36557
▁managers	36549
87	36532
▁Officers	36532
▁sitting	36532
▁Arrangement	36529
▁Three	36528
▁software	36524
▁Mining	36512
▁arrangement	36478
▁Consequently	36476
▁names	36390
▁Union	36383
▁reach	36375
▁venture	36365
▁appreciate	36353
▁adequate	36347
▁alone	36346
▁choose	36300
▁guidelines	36281
▁gives	36234
▁happen	36222
▁aboriginal	36200
▁Registered	36169
▁Time	36162
versus	36148
▁everyone	36099
▁legislative	36092
▁students	36089
▁Pre	36074
▁initially	36073
.3	36060
▁currencies	36012
▁classes	36007
▁trustee	35983
▁Products	35951
▁voted	35919
▁Currency	35901
ATION	35872
ors	35868
▁assessing	35842
▁figures	35833
▁competition	35771
▁studies	35747
▁avoid	35734
▁track	35722
ro	35720
▁tonnes	35717
▁ordinary	35695
▁bad	35682
84	35676
▁Offeror	35666
▁Paul	35662
▁seeks	35616
57	35612
▁guaranteed	35605
▁mix	35575
▁rely	35554
▁quickly	35535
▁expire	35527
▁Revenues	35521
▁Estate	35497
▁monitor	35494
▁largely	35488
▁Sector	35478
▁Accounts	35431
▁civil	35426
▁parent	35425
▁SA	35397
▁tribunal	35397
▁earn	35391
▁enhance	35368
▁solution	35312
mark	35295
▁front	35275
▁advisory	35268
▁profitability	35257
▁sole	35251
▁knew	35239
▁STATEMENTS	35224
▁residential	35224
▁regions	35208
sedar	35202
▁skills	35179
▁simple	35152
97	35144
▁complex	35142
▁worth	35130
▁Indian	35117
out	35116
▁Commissioner	35114
▁war	35108
▁inquiry	35100
▁Nations	35080
▁effort	35078
▁symbol	35028
▁appoint	35025
▁banking	34975
▁Both	34963
▁consultation	34955
▁agencies	34918
ssigned	34872
▁Post	34846
▁relatively	34838
▁subsequently	34825
▁proof	34817
▁wide	34801
▁terminated	34799
65	34758
▁110	34698
▁highest	34696
▁documentation	34690
▁Following	34685
31	34676
▁strength	34671
▁crisis	34663
▁pipeline	34662
▁mid	34641
▁Even	34620
▁Strategic	34592
▁Factors	34580
▁Institute	34579
▁declaration	34574
▁necessarily	34549
▁initiative	34544
▁filing	34477
▁classification	34394
1,3	34328
▁promote	34256
7,000	34252
alt	34252
▁culture	34248
▁industries	34229
▁council	34210
▁adopt	34196
▁Subject	34194
▁carefully	34183
▁Loss	34149
▁preparation	34114
advisor	34111
ti	34108
42	34083
-5	34073
▁affairs	34039
▁nation	34029
▁officials	34023
▁David	34022
▁published	34006
▁restricted	33981
▁Reform	33963
▁judicial	33954
▁coast	33938
▁goal	33937
▁affiliates	33903
▁Parliamentary	33893
▁Summary	33882
▁chief	33871
▁space	33847
Z	33837
ial	33822
▁controlled	33810
▁sign	33799
▁mill	33793
▁Decision	33779
▁tables	33778
▁stable	33768
ably	33755
reating	33752
▁confidence	33751
▁generation	33736
▁conference	33711
▁derived	33697
▁willing	33691
▁Future	33690
▁Exploration	33689
▁big	33681
▁switch	33681
-01	33673
90	33669
▁Bay	33661
▁claimed	33637
▁faith	33630
-16	33625
▁chapter	33621
▁05	33600
▁Proceeds	33600
▁spend	33587
-02	33566
▁email	33559
▁tender	33556
▁Resource	33528
▁ratings	33522
▁procedure	33506
▁creation	33482
▁extensive	33459
▁Rules	33458
▁Once	33413
▁talked	33410
volving	33385
▁assessed	33363
▁Variable	33357
▁arrest	33356
▁profile	33347
▁version	33286
▁Consumer	33282
▁nil	33199
▁aspects	33193
rgued	33159
▁compassionate	33137
▁Members	33123
▁enable	33111
▁Appellants	33108
1,0	33083
▁regularly	33065
ure	33060
78	33056
▁People	33055
▁perhaps	33044
controlling	33042
di	33027
▁protected	33019
▁Proxy	33004
▁contrary	33002
▁1981	32995
▁communications	32964
35	32956
61	32956
▁06	32937
▁Application	32931
▁III	32925
▁IRC	32897
▁propose	32895
▁Law	32894
3,0	32893
▁rental	32873
▁premiums	32817
▁spoke	32817
▁dealers	32745
▁diversified	32732
▁1992	32725
▁Unitholder	32722
▁harm	32679
▁renew	32668
▁search	32646
▁prepare	32631
▁Western	32616
▁chamber	32594
▁numerous	32592
▁dossier	32586
▁demonstrate	32579
▁replace	32579
▁calls	32516
▁formal	32491
▁Auditor	32480
▁anyone	32463
▁constitutional	32463
clined	32461
▁inter	32442
▁2021	32441
▁summarizes	32422
2,0	32417
▁Barrier	32380
▁annualized	32367
▁border	32367
83	32354
▁Cost	32344
▁Jun	32325
76	32317
▁seniors	32317
▁executives	32316
▁Upon	32303
▁99	32301
▁AGF	32292
▁got	32238
▁improvements	32218
▁1.1	32215
-03	32214
38	32206
▁France	32191
▁uncertainties	32166
▁exactly	32157
▁valued	32138
▁Atlantic	32126
▁bar	32097
▁regulate	32096
▁strike	32090
▁Because	32083
▁behaviour	32073
▁multi	32063
▁idea	32061
▁Third	32050
▁passport	32043
3,000	32042
▁Chartered	32038
▁everything	32028
▁150	32024
▁Natural	32017
-18	32011
▁owners	32011
▁denied	31993
▁69	31990
▁bearing	31981
34	31972
▁managing	31966
▁mortgages	31965
▁lose	31959
▁RCMP	31942
▁demonstrated	31912
▁unique	31898
▁inform	31875
▁Individual	31857
▁starting	31841
▁piece	31838
▁98	31829
im	31823
▁suitable	31819
63	31818
▁expand	31789
ine	31779
▁functions	31768
▁conjunction	31761
▁Issuer	31753
▁room	31750
▁completely	31725
•	31720
1,1	31713
▁Name	31688
▁integrity	31669
48	31618
▁paragraphs	31591
▁Gross	31584
▁w	31548
▁preceding	31538
way	31520
▁Position	31504
▁collateral	31497
▁monitoring	31492
▁INFORMATION	31475
ap	31449
56	31446
▁Industry	31441
▁secretary	31439
▁city	31438
▁variety	31429
▁president	31421
▁relations	31410
▁Montréal	31400
▁INCOME	31375
▁PLC	31353
▁prove	31342
▁une	31335
▁Relations	31299
▁climate	31282
▁express	31279
▁Robert	31272
▁grants	31222
▁disclose	31214
▁Mexico	31211
▁detail	31197
▁interested	31197
▁rent	31186
▁Governor	31183
▁sought	31167
9,000	31148
▁SEDAR	31148
▁intent	31145
5,3	31137
0,0	31117
▁discontinued	31092
▁location	31071
-17	31065
tion	31060
73	31059
▁reality	31050
▁Certificate	31039
▪	31034
▁advertising	30986
▁phase	30986
mp	30974
▁remind	30968
▁methods	30959
▁unsecured	30956
1,4	30946
▁composed	30925
▁AT	30914
▁votes	30907
▁effectiveness	30880
▁draw	30827
▁stakeholders	30826
▁71	30787
▁accumulated	30781
96	30764
▁impaired	30747
▁Instruments	30727
▁Claimant	30713
▁Professional	30679
▁preliminary	30663
▁Great	30657
▁NI	30654
1,8	30653
09	30652
▁suggested	30651
43	30634
0.0	30622
▁2.5	30620
▁transfers	30602
▁solid	30589
▁title	30589
▁namely	30570
▁reverse	30565
ner	30548
▁84	30534
converted	30526
▁Money	30518
▁Most	30504
-4	30491
▁offices	30485
8,3	30475
ory	30473
▁cumulative	30473
▁300	30467
▁goals	30463
▁Al	30462
▁twelve	30447
▁broker	30441
ge	30430
▁maintaining	30424
▁Se	30419
▁Last	30416
▁phone	30408
▁emerging	30400
▁bear	30390
66	30358
6,3	30354
▁91	30335
der	30328
▁awarded	30312
ley	30305
▁hardship	30304
ut	30303
▁Commercial	30302
▁Labour	30280
2,3	30279
▁reinvested	30278
▁clinical	30270
▁typically	30254
▁drill	30232
1,000	30188
▁trusts	30150
▁Event	30141
▁waste	30130
▁81	30117
1,2	30099
▁Select	30095
▁CPC	30080
▁Related	30065
▁elect	30062
▁0.6	30056
▁else	30047
▁reside	30040
▁testing	30012
▁communicate	30006
▁exists	30006
▁Pricing	29962
▁jurisdictions	29913
▁Be	29894
2,000	29884
▁sound	29845
au	29837
▁73	29803
▁09	29774
▁reducing	29765
▁attack	29758
▁Amortization	29742
▁behind	29726
▁sa	29716
▁offences	29701
▁Subsection	29652
▁Con	29633
▁guarantees	29629
▁Plans	29560
▁register	29549
▁fine	29536
72	29532
discretionary	29515
▁inc	29500
▁online	29485
▁Today	29464
▁Black	29463
▁discrimination	29456
▁technologies	29442
▁wind	29431
▁Newfoundland	29383
▁mail	29383
ma	29377
▁allowing	29376
▁secondary	29376
▁repayment	29347
▁linked	29342
▁pool	29323
▁92	29316
▁categories	29310
▁Venture	29272
ful	29236
▁93	29184
▁membership	29178
▁sum	29176
ring	29173
▁forces	29154
▁municipality	29154
▁execute	29151
▁moving	29146
▁ANNUAL	29131
▁residency	29120
▁formerly	29100
▁margins	29088
▁youth	29072
4,0	29061
▁revised	29054
▁summer	29049
▁Transfer	29041
neither	29036
▁depending	29033
▁sponsorship	29016
led	29008
▁Franklin	28982
▁Martin	28981
▁break	28980
▁subscription	28957
▁draft	28938
iv	28931
▁Signed	28919
▁opening	28903
▁applying	28897
▁74	28854
68	28826
▁Refer	28778
▁Despite	28768
▁efficiency	28759
▁central	28757
▁consumers	28743
▁heart	28737
▁minor	28732
▁road	28696
▁incident	28687
▁select	28679
▁76	28673
▁participating	28613
▁IT	28611
▁Thus	28609
▁Asia	28605
▁exception	28604
▁accurate	28598
▁03	28590
3,4	28581
▁Hill	28579
▁wrote	28572
▁cuts	28561
▁proposals	28538
▁BCE	28526
▁computer	28521
▁calling	28512
▁rendered	28509
▁secure	28499
▁fulfill	28496
▁1.2	28485
▁actively	28479
▁pays	28469
▁System	28455
▁Transport	28438
▁tools	28436
▁Bonds	28426
▁sponsored	28390
▁quoted	28373
▁regime	28347
▁London	28302
ow	28299
▁Queen	28285
▁commenced	28270
▁Legal	28269
▁consolidation	28253
7,3	28248
▁Control	28232
▁remuneration	28222
▁Ended	28205
▁94	28203
▁Foundation	28201
▁attended	28189
▁Right	28177
▁77	28173
▁bonus	28149
▁negotiations	28143
▁Use	28138
1,9	28124
▁posted	28116
▁setting	28107
▁07	28101
▁survey	28096
-04	28091
▁targeted	28091
▁disclosures	28090
▁depend	28078
▁Payments	28077
54	28074
▁Details	28024
▁2022	28012
DA	28006
▁bit	28002
▁annum	27971
condensed	27961
▁birth	27961
.10	27958
▁Flow	27861
▁electronic	27856
ou	27852
▁immediate	27849
4,3	27832
▁comparison	27830
▁Risks	27828
▁entirely	27827
▁probably	27823
▁text	27823
▁Defence	27817
▁facilitate	27809
▁situations	27784
mo	27774
▁excellent	27753
▁0.8	27744
▁built	27739
▁territories	27738
▁taxpayers	27722
▁Dividends	27698
▁83	27663
▁moment	27652
▁78	27621
▁beneficial	27620
▁sustainable	27616
▁introduce	27611
.50	27609
▁democracy	27609
▁entry	27609
ard	27598
▁persecution	27597
▁mandatory	27565
2,1	27562
izing	27560
▁opposed	27559
▁02	27538
55	27531
ville	27521
▁changing	27501
▁revolving	27492
▁drugs	27491
▁Société	27464
ill	27453
▁enjoy	27442
▁Pierre	27427
▁Letter	27411
▁prime	27390
ver	27383
▁integral	27379
▁residents	27374
▁examples	27368
▁transport	27363
▁accordingly	27357
▁existence	27356
▁Economic	27349
81	27341
▁authorization	27337
by	27321
▁100.00	27298
▁territory	27297
▁inherent	27293
▁Organization	27290
ite	27285
ho	27282
▁vested	27270
usually	27249
▁con	27239
▁participants	27225
adding	27221
ette	27193
▁08	27189
excluded	27177
▁EI	27174
▁yesterday	27172
ler	27169
▁1991	27169
TM	27143
▁Dealer	27136
▁covenants	27120
1,5	27115
▁Or	27102
▁timely	27089
▁larger	27078
▁speaking	27064
▁forma	27058
▁statute	27018
▁clean	27017
▁indirect	27014
▁ministers	27013
▁message	27003
▁mission	27001
op	26987
▁arise	26983
07	26979
bringing	26957
ence	26916
▁indeed	26911
▁meets	26899
6,1	26881
▁Emerging	26864
▁swaps	26855
▁gone	26843
.01	26824
▁Disclosure	26819
▁allege	26819
▁Infrastructure	26815
ub	26814
▁mental	26814
▁Hav	26801
▁vehicles	26782
▁Environment	26771
▁aside	26761
if	26759
▁Hydro	26746
▁Master	26737
▁recoverable	26734
▁Loans	26730
▁BC	26703
▁uncertainty	26699
▁modified	26686
▁Pacific	26685
▁Subsequent	26656
▁Appendix	26636
▁satisfy	26618
be	26604
▁characteristics	26569
▁crude	26554
▁James	26546
Term	26537
▁ahead	26535
▁acceptable	26533
▁Accountants	26530
▁distribute	26530
▁integration	26521
-05	26511
▁Winnipeg	26491
▁municipal	26491
▁north	26485
▁HSBC	26467
▁shift	26461
▁redemptions	26458
▁kept	26450
▁GD	26448
▁perspective	26427
▁improving	26422
▁answers	26420
-7	26417
▁veterans	26387
▁tried	26384
-6	26373
▁88	26339
▁AG	26334
ship	26329
▁Enbridge	26327
▁showing	26304
3,3	26300
▁TELUS	26295
▁Island	26279
▁reconciliation	26277
ES	26256
▁Indenture	26250
stood	26249
▁directe	26238
▁leaders	26234
▁CO	26231
▁straight	26206
32	26203
date	26203
▁considerabl	26202
▁SAI	26194
▁cease	26190
▁invite	26187
ig	26183
▁Banking	26181
▁actuarial	26168
▁Emergency	26164
▁sometimes	26161
▁Convertible	26156
▁Unless	26142
▁DE	26123
62	26113
▁117	26095
▁renewal	26091
▁2.1	26077
▁developments	26077
▁collection	26076
▁determines	26069
▁86	26066
▁restated	26064
▁Incentive	26046
▁82	26043
ties	26039
▁felt	26033
▁save	26032
▁Data	26024
▁availability	26016
▁joined	26016
▁hands	26008
▁learned	25996
▁Transactions	25988
▁cancelled	25965
▁reclassified	25946
▁concentrate	25914
▁emissions	25892
▁mitigate	25889
▁surface	25888
▁article	25887
▁freedom	25868
-06	25855
▁retire	25854
▁FCA	25844
▁0.4	25827
▁Technologies	25792
ell	25782
▁efficient	25779
▁Mine	25773
▁electricity	25739
▁anticipate	25737
ri	25722
▁leverage	25720
▁penalty	25717
▁1.0	25709
▁closely	25680
▁79	25658
▁career	25657
▁1.00	25653
▁recall	25652
▁lawyer	25650
▁wait	25650
▁petition	25629
▁Phase	25623
▁assault	25611
71	25606
▁middle	25597
▁quote	25595
▁GST	25593
▁MER	25591
▁enforcement	25590
▁drawn	25585
-21	25574
▁pointed	25571
▁story	25571
▁replacement	25566
▁Clause	25557
▁OR	25529
▁traditional	25517
▁wonder	25499
▁Are	25497
5,0	25493
▁utilize	25488
▁vesting	25471
▁ce	25457
95	25456
ph	25455
▁exclusive	25446
per	25440
▁locations	25421
tro	25417
do	25414
reliable	25413
▁Managed	25393
-26	25381
64	25365
▁indication	25351
▁Their	25319
▁check	25312
▁views	25301
6,0	25295
▁arguments	25294
▁outlook	25268
▁sites	25268
▁accountability	25265
▁87	25254
▁suppliers	25237
GAAP	25224
▁terminate	25205
▁Monthly	25193
▁operated	25190
▁wage	25186
▁Retail	25184
▁admitted	25172
▁interesting	25170
▁independence	25167
ip	25140
▁04	25139
no	25126
▁ounces	25119
▁lender	25081
▁royalty	25077
▁Peter	25054
▁drive	25054
▁putting	25054
▁Me	25043
▁Outstanding	25043
▁Financing	25035
▁sit	25032
▁tru	25008
▁ratios	24984
▁brokerage	24976
▁USA	24968
▁listing	24963
▁Costs	24959
▁execution	24953
▁Low	24946
▁affecting	24946
▁Pipeline	24945
▁rose	24935
▁attractive	24928
▁cultural	24917
▁inputs	24913
ger	24912
▁oversight	24898
▁1.3	24891
▁ii	24881
▁count	24877
▁impacts	24874
▁listen	24857
▁semi	24854
ie	24849
old	24848
▁element	24821
▁happy	24819
▁consulting	24817
5,4	24815
▁89	24805
▁reflecting	24797
▁permits	24792
▁Includes	24777
▁task	24761
-07	24749
▁zone	24744
▁solely	24716
▁arrived	24714
▁digital	24707
▁Ref	24700
▁100,000	24696
▁vision	24671
▁acquiring	24668
▁hedges	24668
▁shared	24657
▁fraud	24652
▁CONSOLIDATED	24628
▁art	24623
2,5	24617
▁rated	24613
OR	24611
leaving	24611
▁urge	24611
▁Australia	24599
▁Considerations	24598
▁voice	24593
interest	24583
ha	24573
▁Again	24570
▁RE	24568
▁2023	24565
▁enterprise	24551
▁minority	24535
1,7	24533
▁rejected	24518
▁farm	24513
▁calculate	24497
▁0.7	24494
▁fairness	24492
▁separately	24485
▁cancer	24475
▁helping	24472
▁George	24455
▁impose	24455
▁poverty	24448
▁advanced	24445
▁slightly	24445
7,4	24443
▁Support	24440
▁Ma	24434
▁Science	24420
▁agents	24418
▁Basic	24415
▁IASB	24414
1,6	24389
▁patent	24369
ni	24368
▁background	24367
▁profits	24365
▁refuse	24365
▁Japan	24344
ascribed	24332
▁poor	24317
▁maintains	24304
▁submission	24287
▁discharge	24286
▁Marketing	24272
▁UN	24271
▁Unfortunately	24264
▁Core	24253
▁examine	24226
▁floor	24224
▁merger	24213
4,4	24210
▁Agreements	24208
▁contingent	24199
ach	24190
▁trend	24170
▁pour	24161
▁student	24158
▁incur	24156
▁settled	24149
▁Yes	24133
▁formula	24122
▁reject	24096
▁Production	24079
▁circular	24079
.20	24044
▁matur	24044
▁serves	24031
▁articles	24021
▁borrowing	24010
▁elsewhere	23997
53	23972
▁Sched	23957
▁Preparedne	23956
▁peace	23956
▁woman	23938
▁priorities	23930
▁operator	23904
▁users	23869
▁accident	23866
▁divided	23865
▁Education	23862
▁QUARTER	23862
▁complaints	23861
qui	23854
▁democratic	23850
▁replacing	23842
▁0.9	23824
CO	23823
tabled	23816
▁practitioner	23812
▁exemption	23807
▁Northern	23790
ul	23780
▁promise	23767
▁Joint	23734
▁hundred	23723
▁trends	23721
▁cast	23720
▁funded	23720
▁swap	23719
41	23687
▁acceptance	23676
ious	23649
▁launched	23635
▁holes	23629
nstead	23627
▁1989	23623
▁conviction	23603
▁collectively	23595
▁pertain	23589
▁wedding	23588
▁aim	23583
▁carbon	23576
▁outcome	23569
▁Michael	23567
-23	23553
▁Significant	23546
▁futures	23540
▁involvement	23533
▁samples	23533
▁provider	23518
▁Indeed	23514
▁unanimous	23498
▁Grant	23480
▁rural	23479
▁undertaking	23479
▁Book	23455
IN	23454
▁victim	23450
work	23448
▁withdraw	23445
▁Edmonton	23441
▁est	23438
6,7	23424
2,2	23405
▁commit	23396
▁Only	23387
▁AS	23386
4,2	23385
▁BQ	23371
▁nearly	23326
▁disease	23297
▁don	23286
▁Jan	23274
▁forced	23269
▁foundation	23269
▁Two	23259
▁Systems	23253
94	23229
▁essentially	23224
▁expert	23216
▁finally	23210
▁injury	23192
ice	23187
▁Amendment	23184
2,9	23181
▁instance	23179
▁hereby	23162
°	23144
▁Weighted	23106
▁ruling	23106
▁Agents	23099
▁1.4	23095
▁exceeds	23089
▁occurrence	23086
▁geographic	23082
▁returning	23076
▁scale	23072
▁unlimited	23053
▁Premium	23052
▁centres	23050
▁false	23039
▁duration	23034
▁eliminate	23019
min	23016
▁Si	22999
▁Personal	22996
▁depends	22985
▁Ex	22981
▁Care	22978
▁DSUs	22974
▁Who	22971
▁fairly	22971
▁buying	22951
▁storage	22938
▁balanced	22937
.40	22933
▁Land	22930
▁constant	22926
▁depth	22923
▁organized	22923
▁Administrative	22914
▁inspection	22908
ight	22897
▁tariff	22897
-09	22893
▁institutional	22893
▁describe	22884
ities	22861
▁Park	22857
▁Registrar	22852
▁seriously	22846
The	22840
▁approximate	22794
▁difficulty	22791
▁Basket	22785
▁inconsistent	22779
▁performing	22778
ER	22770
▁afford	22768
▁None	22759
▁Through	22759
-25	22745
▁400	22743
attributed	22741
▁CANADIAN	22741
▁Free	22739
▁Mc	22728
▁convicted	22725
▁crimes	22720
▁designation	22705
▁Internal	22697
▁liable	22697
enacted	22696
▁compare	22658
oc	22655
▁Account	22653
he	22641
▁supra	22635
▁announcement	22631
▁inflation	22622
▁proportion	22617
2,4	22616
-22	22603
>	22594
▁television	22571
7,8	22559
▁possession	22559
▁agenda	22547
▁define	22547
▁flexibility	22547
▁via	22545
▁identification	22529
▁fight	22506
▁hospital	22502
▁Deposit	22492
▁liquid	22477
▁qualification	22474
▁rank	22466
▁exempt	22465
▁reputation	22463
▁PC	22459
▁Kingdom	22456
▁learn	22446
▁1988	22444
▁granting	22438
▁concept	22432
income	22419
▁plants	22350
▁NEO	22334
▁affiliate	22334
▁Key	22327
▁hedged	22327
-08	22322
▁SCR	22322
▁Constitution	22313
▁exercisable	22309
▁requir	22306
▁occurs	22282
▁drop	22275
our	22271
▁consisting	22218
▁acknowledge	22217
5,1	22215
▁insufficient	22209
▁divorce	22201
▁succeed	22161
▁summarized	22159
▁negatively	22153
▁fire	22148
▁sample	22129
▁RSP	22111
▁convert	22100
.60	22098
▁Liabilities	22098
▁thereafter	22097
▁becoming	22088
7,5	22082
▁reimburse	22077
Series	22076
▁Sa	22064
8,9	22027
▁deposited	22008
▁Man	22002
▁Dealers	21999
▁facing	21975
erred	21966
▁514	21966
▁evaluating	21966
6,8	21956
▁Hearing	21947
▁Mac	21939
▁experts	21933
▁adjust	21924
▁fix	21924
▁Chinese	21917
▁station	21909
▁watch	21906
▁aspect	21895
▁contemplate	21885
▁misrepresent	21877
▁Mineral	21872
▁El	21871
▁prospective	21863
ck	21861
▁MSCI	21861
ier	21851
▁Solutions	21846
▁Amounts	21842
Named	21841
▁manages	21840
nother	21819
▁CICA	21818
down	21810
▁proportionate	21803
▁DIVISION	21777
▁foot	21761
▁cell	21759
▁prohibited	21759
▁vest	21751
▁undermine	21741
▁photograph	21737
▁driving	21730
▁female	21685
▁Invesco	21683
▁Republic	21681
men	21678
▁proven	21673
74	21670
▁waiting	21667
▁Employee	21662
.15	21650
▁120	21647
▁Handbook	21647
▁composition	21632
▁CRA	21624
€	21603
▁stronger	21598
▁bottom	21597
▁morning	21583
▁borrow	21573
▁municipalities	21573
▁announce	21568
▁remarks	21544
▁iShares	21532
▁Dis	21530
lin	21525
▁books	21524
6,4	21518
▁align	21511
▁spread	21509
▁10,000	21497
▁defend	21497
fi	21486
body	21477
▁potentially	21477
▁protecting	21477
▁meaningful	21470
▁tests	21461
▁Green	21459
▁establishes	21439
▁closure	21433
▁emergency	21426
▁borrowings	21412
▁launch	21406
5,5	21405
▁cap	21397
,16	21392
×	21391
▁Here	21384
▁Superior	21381
▁grew	21368
98	21363
▁believed	21360
ak	21353
-24	21349
▁advise	21349
thereby	21326
▁Depositary	21316
▁complie	21288
▁Calculation	21284
▁Auto	21277
▁Large	21272
▁TA	21262
▁video	21249
▁ready	21224
▁km	21221
▁Plus	21220
wishes	21218
▁employers	21217
▁approvals	21194
▁withdrawal	21192
▁references	21189
▁brief	21185
▁link	21174
use	21170
ue	21160
▁repair	21160
ative	21149
▁rail	21146
2,8	21136
▁deals	21136
52	21131
▁suspension	21123
6,9	21107
▁Central	21095
▁passenger	21094
▁competitors	21073
▁keeping	21069
▁innovation	21066
▁substance	21062
▁serving	21051
market	21045
▁truth	21039
▁acted	21025
▁copper	21016
▁belief	21007
▁etc	21004
▁Retirement	20997
▁conditional	20997
▁license	20992
▁engineering	20983
▁2024	20965
.30	20963
▁penalties	20963
▁Budget	20959
▁Excluding	20957
▁2.0	20956
▁Vol	20954
51	20933
▁250	20918
▁Aboriginal	20918
▁pain	20914
ath	20909
▁NOTES	20906
▁Minimum	20899
▁telecommunicati	20886
ect	20884
▁traffic	20883
▁equally	20875
▁abandon	20872
▁deducted	20871
▁boards	20870
▁nominees	20868
▁constitutes	20865
▁privacy	20847
▁BY	20836
Co	20827
▁Prince	20819
4,8	20798
io	20797
▁western	20792
▁Strategy	20779
▁taxpayer	20776
▁happening	20773
▁subordinated	20767
▁CANADA	20751
marks	20743
▁Liquidity	20740
8,1	20734
▁Opposition	20733
▁unemployment	20726
▁pending	20725
▁NET	20716
▁Eastern	20695
▁Gain	20692
laws	20671
▁buildings	20671
▁producing	20671
▁Merger	20670
▁Simplified	20670
▁Qu	20669
.25	20667
▁occasions	20666
▁fails	20662
▁Port	20655
▁0.00	20640
▁Du	20638
▁Depreciation	20633
▁steel	20619
▁northern	20610
9,0	20602
▁1986	20590
▁vessel	20581
▁adviser	20578
▁aid	20577
▁FT	20565
▁Environmental	20553
93	20552
▁workplace	20550
▁unchanged	20547
▁1.6	20543
-30	20541
leting	20534
▁certification	20533
▁danger	20530
▁limitations	20523
▁Target	20517
▁huge	20496
entering	20495
▁Richard	20493
▁qui	20492
▁Forces	20490
EL	20486
▁input	20453
field	20452
ST	20440
▁violation	20438
,38	20436
▁CAPITAL	20436
▁hereof	20424
▁cheque	20417
▁publication	20414
▁1987	20412
chosen	20400
▁Reserve	20388
▁Article	20386
▁innovative	20381
ast	20377
▁Contracts	20370
▁CQLR	20360
▁religious	20347
▁firms	20324
▁raising	20323
▁School	20322
▁relied	20321
▁commissioner	20312
▁purchaser	20304
-9	20302
▁Unrealized	20272
mer	20267
▁continuous	20262
▁onus	20243
▁Diversified	20240
▁examined	20238
West	20224
▁south	20223
▁host	20208
▁compete	20198
▁Charge	20194
▁deserve	20191
j	20186
▁Warrant	20184
LY	20176
▁Fraser	20176
▁guilty	20176
▁formed	20175
▁mature	20167
▁wireless	20157
▁monetary	20152
party	20147
▁CLASS	20145
▁CN	20135
▁illegal	20131
free	20124
▁deduction	20122
08	20121
▁expired	20102
▁recover	20102
▁Consider	20089
▁night	20077
▁occasion	20069
▁sharing	20033
▁Mines	20023
▁functional	20008
▁enhanced	19990
▁Industries	19989
ol	19986
▁Additionally	19986
,34	19982
▁Conversion	19982
▁easy	19972
go	19966
▁Restricted	19958
▁features	19953
▁failing	19950
▁somewhat	19946
backed	19943
▁citizenship	19937
▁faced	19936
▁copies	19934
▁worldwide	19929
▁congratulate	19924
4,5	19921
▁Subordinate	19915
.11	19913
▁purchasers	19913
-31	19908
▁repeated	19905
▁reductions	19900
.80	19899
▁showed	19895
▁admit	19891
▁Instrument	19877
▁Authority	19874
▁cabinet	19868
▁fit	19867
▁Nos	19861
back	19856
-8	19844
▁dangerous	19832
▁substitute	19831
▁threshold	19813
▁floating	19806
▁3.5	19801
▁Wealth	19798
▁lands	19797
▁strongly	19794
pa	19786
▁Offered	19770
▁prospects	19753
▁IA	19752
▁Issued	19732
▁Contract	19710
▁parliament	19710
▁Access	19706
4,7	19695
▁difficulties	19692
▁latter	19679
▁initiated	19670
▁Holding	19666
▁2.2	19659
▁probable	19656
▁assuming	19646
▁salarie	19642
▁transparency	19633
ju	19632
5,6	19626
ide	19587
▁attendance	19585
▁Guidelines	19576
▁Specific	19574
▁1.8	19566
▁IMM	19564
▁Dollar	19549
▁Material	19546
▁flight	19546
▁Commerce	19535
▁payout	19527
▁male	19523
▁Rule	19520
▁Africa	19503
▁responded	19493
▁science	19493
ung	19477
▁ANALYSIS	19477
▁load	19462
▁stress	19444
▁litigation	19443
▁expiry	19440
em	19437
▁promised	19432
▁k	19426
▁purchasing	19421
▁125	19410
ka	19405
▁regardless	19405
▁Percentage	19403
▁Universal	19386
3,2	19383
▁Maximum	19365
▁y	19358
.13	19344
▁sort	19339
▁Signature	19328
▁desire	19323
▁Base	19318
▁park	19316
▁Complainant	19305
RE	19301
▁Valley	19300
▁2025	19292
7,0	19291
wa	19291
58	19281
▁zero	19275
▁Paragraph	19270
▁generating	19237
▁Afghanistan	19217
ham	19215
▁SST	19213
self	19211
▁stands	19209
side	19206
▁session	19195
▁Yet	19190
▁About	19188
▁obviously	19182
▁securityholder	19180
▁productivity	19178
▁Young	19175
▁Pakistan	19172
▁Di	19142
all	19140
▁Selling	19135
▁alcohol	19131
▁validity	19127
▁addresse	19126
pro	19122
▁severe	19122
▁trip	19120
▁UK	19117
DI	19115
▁display	19114
▁round	19113
5,8	19110
▁package	19079
▁containing	19077
▁Mo	19069
▁Early	19068
we	19046
.70	19042
▁abroad	19031
▁scheme	19019
▁12-	19015
▁fail	18999
▁premises	18996
▁extra	18981
▁Conduct	18979
▁OTHER	18979
▁Gaz	18974
▁hour	18974
▁metal	18973
que	18963
▁Benefits	18954
▁yes	18948
▁Issuance	18947
▁driver	18945
▁movement	18934
▁Acting	18927
01	18921
▁gun	18908
eau	18902
▁jury	18902
▁diamond	18897
5,9	18895
▁translated	18893
▁pilot	18863
tain	18858
tive	18858
▁certified	18851
▁understood	18849
▁marks	18842
▁thereon	18839
▁custody	18835
▁Caisse	18829
▁mostly	18826
tech	18825
▁updated	18822
▁Loblaw	18812
▁pleasure	18809
▁caution	18795
cor	18786
▁Labrador	18780
▁restaurant	18776
▁acknowledged	18771
▁ventures	18771
▁RSUs	18759
▁1982	18756
▁ve	18755
▁0.3	18744
▁repay	18735
▁judges	18724
▁3.1	18716
▁transmission	18716
▁Am	18710
▁counterparty	18709
▁brokers	18702
registry	18698
▁smaller	18695
IC	18692
-27	18690
▁1.7	18690
▁manufacture	18681
▁implications	18674
▁Smith	18672
▁justify	18665
▁tend	18665
▁covering	18657
▁Drug	18645
▁looked	18636
▁agriculture	18633
▁grain	18629
▁dedicated	18625
.05	18623
▁Ibid	18622
▁Composite	18619
▁CPP	18617
IM	18614
▁partnerships	18613
▁repaid	18606
▁practical	18603
▁tenants	18602
▁Six	18598
▁concentration	18588
sale	18581
▁models	18573
▁Regulatory	18568
▁listened	18556
lo	18555
▁participant	18545
▁surrounding	18521
▁Could	18520
▁Except	18520
▁preparing	18519
▁eliminated	18507
▁withholding	18501
▁0.1	18498
▁departure	18497
▁rising	18493
ations	18491
▁yields	18482
adjourned	18475
▁Advisory	18471
ag	18462
▁reserved	18459
▁Water	18454
▁capable	18454
▁profession	18443
tracted	18438
▁Resolution	18435
through	18431
▁authorize	18426
▁subordinate	18426
▁Should	18424
04	18414
va	18407
▁wealth	18406
▁Transportation	18396
▁notional	18390
RI	18386
▁trademark	18370
▁love	18365
▁cancellation	18364
▁conversation	18351
▁settle	18351
▁nuclear	18350
▁conclusions	18348
▁ENDED	18343
▁Example	18337
▁Floating	18332
▁4.5	18322
wood	18303
▁commenc	18296
▁perfect	18293
▁Solicitor	18281
▁144	18264
▁agricultural	18258
▁Cdn	18256
ron	18248
▁underground	18246
▁Awards	18244
IL	18243
rate	18241
▁Sch	18241
▁declare	18233
▁Allocation	18229
▁mineralization	18228
▁Obligations	18227
▁INVESTMENT	18226
▁seeing	18225
▁Ne	18222
▁Unaudited	18218
▁town	18209
▁ne	18207
▁personally	18194
▁ADR	18191
▁suspended	18191
▁achieving	18188
▁refund	18177
▁Comprehensive	18172
▁murder	18171
▁departments	18170
▁2.3	18163
▁homes	18161
ack	18159
●	18159
.6	18155
.12	18152
expanded	18144
▁Head	18144
▁university	18142
Allotment	18139
des	18130
▁Construction	18130
▁CORPORATION	18128
▁IV	18111
▁projected	18097
▁Hong	18084
▁cards	18079
▁600	18056
▁0.2	18055
nce	18054
▁Red	18044
▁Ownership	18042
▁Exercise	18040
▁Women	18031
▁2.4	18029
8,0	18025
cent	18009
ten	17991
ought	17988
▁normally	17976
▁ethics	17975
,28	17973
▁leased	17965
specialized	17951
IA	17950
▁Quebecor	17948
▁Overall	17918
▁turnover	17911
▁Measures	17908
▁chose	17892
ik	17882
▁vulnerab	17876
▁Goodwill	17871
▁rehabilitation	17868
▁block	17867
parliamentarians	17866
▁Bombardier	17844
▁chain	17828
ink	17824
▁prevailing	17813
▁welcome	17813
▁treaty	17804
▁Québécois	17799
▁unreasonable	17793
▁capabilities	17790
▁Imperial	17785
▁Trans	17778
▁5,000	17776
▁Item	17770
▁Equities	17769
▁entirety	17764
▁Tel	17762
4,6	17755
▁Did	17751
▁800	17745
▁``	17736
▁superior	17731
dicating	17725
▁unusual	17725
▁Savings	17713
▁providers	17712
▁Termination	17705
▁Society	17695
ITY	17685
lu	17680
aught	17669
▁advances	17660
▁tool	17657
▁manufacturers	17651
▁IS	17646
-28	17641
fin	17636
SI	17632
▁Managing	17630
▁toll	17618
▁Horizons	17612
▁silver	17577
▁attract	17573
▁rang	17571
▁issuable	17568
▁guide	17567
▁Lifeco	17564
▁blood	17564
▁accountable	17563
▁Utilities	17557
▁Chapter	17554
.45	17550
▁assure	17543
▁Impact	17541
▁Bar	17540
duc	17534
▁inventories	17532
▁successor	17532
-07-09	17531
▁ch	17526
▁associates	17505
▁exceptional	17504
▁Materials	17493
▁Kong	17481
▁supposed	17478
▁Up	17476
▁anniversary	17475
▁originally	17471
▁investigate	17470
▁Compliance	17466
met	17456
▁Assessment	17444
▁professionals	17444
▁5.00	17442
▁supplier	17439
▁Police	17438
▁AD	17436
▁130	17434
▁credited	17433
▁lumber	17425
▁Past	17416
ise	17408
▁latest	17404
q	17403
▁schools	17401
▁consultant	17399
▁Par	17398
▁arbitration	17391
▁exposures	17390
vi	17387
3,5	17364
▁compensate	17360
▁accelerate	17357
RO	17353
▁White	17343
▁Derivative	17338
▁Medical	17338
▁MW	17337
ang	17335
▁PART	17335
▁valuations	17323
PP	17317
06	17315
▁beneficiary	17303
▁zones	17297
▁physician	17283
▁Zone	17275
▁Enterprise	17273
▁calculating	17272
▁moderate	17271
▁recording	17268
▁Regional	17267
▁Assurance	17265
era	17259
9.8	17255
▁consultations	17255
▁double	17242
▁specialty	17241
par	17239
▁Opportunities	17231
▁installation	17224
▁recovered	17224
▁diversity	17220
.65	17208
▁calculations	17199
▁EQUITY	17198
▁terrorist	17192
▁gap	17187
▁Eligible	17184
▁door	17176
▁whatever	17161
▁inspector	17160
▁War	17155
▁airline	17155
▁touch	17155
▁ignor	17154
▁older	17138
.75	17136
▁subparagraph	17132
▁substantive	17121
IS	17118
▁Ethics	17117
▁Clarington	17113
▁entitlement	17091
▁ideas	17085
▁CAE	17070
ward	17065
lic	17057
▁Germany	17057
ko	17056
▁Nominating	17042
▁trailing	17042
po	17040
▁minimize	17039
hether	17038
▁Suncor	17033
▁happens	17031
▁lowest	17023
▁raw	17020
▁west	17015
▁graph	17001
▁variation	16999
▁Food	16994
gen	16989
▁ounce	16981
▁consultants	16978
▁nominee	16978
▁conform	16976
-29	16975
▁Aliant	16968
▁figure	16952
▁Alternative	16951
,27	16948
▁PRO	16948
▁Multi	16944
UR	16934
▁legitimate	16934
▁workforce	16932
▁Rath	16931
▁marry	16928
wi	16921
tes	16912
▁introduction	16909
▁offenders	16904
▁Go	16902
▁varie	16901
▁Would	16900
▁Edward	16897
▁bought	16896
part	16881
▁Reports	16879
▁sensitive	16870
▁registrar	16869
▁resolve	16862
▁therein	16859
▁Semi	16858
9.4	16854
▁Van	16849
▁counterparties	16846
▁CASH	16844
▁Bio	16839
▁indicative	16835
MENT	16829
▁arm	16829
▁Effect	16826
▁undue	16825
▁consecutive	16820
▁treasury	16820
mail	16816
▁secret	16812
▁clarify	16807
▁pharmaceutical	16807
4,1	16792
9.2	16790
AR	16790
▁Val	16785
▁disagree	16775
▁repeat	16775
▁deductible	16774
▁Family	16770
▁exhibit	16768
▁suite	16766
▁discipline	16755
▁airport	16744
▁eligibility	16739
ped	16734
▁assessments	16732
▁50,000	16723
▁certainty	16721
,33	16712
ome	16710
▁1.9	16708
91	16705
▁wood	16704
▁insured	16688
▁connected	16686
▁vendor	16675
▁Provide	16673
8.6	16670
▁increasingly	16670
▁Deliver	16667
▁accuracy	16667
TS	16662
▁proprietary	16661
▁sex	16625
▁observed	16622
▁CON	16620
▁slow	16620
▁twice	16620
▁remedy	16616
▁unitholder	16614
istic	16613
▁refugees	16612
7.9	16610
IT	16607
▁minimal	16598
▁inference	16593
▁partly	16593
▁End	16589
▁highlights	16587
ification	16582
▁Continue	16576
▁Sri	16574
▁healthy	16571
▁subscribers	16569
▁exclusion	16567
▁vice	16564
▁weigh	16560
▁royalties	16558
▁listening	16549
▁prohibit	16549
▁DISCUSSION	16538
▁Quebecois	16529
▁manufacturer	16520
▁producer	16519
▁comprise	16513
▁respondents	16507
IES	16506
▁consumption	16501
▁inclusion	16500
▁meant	16492
▁weather	16492
▁4.1	16488
killed	16478
▁legally	16474
▁Work	16459
▁SECURITIES	16455
▁worst	16446
▁alternatives	16436
▁Employees	16435
▁maturities	16432
▁Just	16422
▁Perhaps	16422
▁opened	16416
▁Exposure	16413
▁bodies	16402
9,1	16401
mon	16400
▁gender	16392
▁educational	16386
▁Fiera	16384
▁Bo	16369
▁laid	16351
▁expression	16348
▁MA	16347
▁scientific	16343
▁Don	16333
▁NBC	16331
▁pulp	16329
▁animal	16326
.14	16325
▁red	16322
owing	16308
▁Amendments	16308
ium	16297
Within	16295
▁ourselves	16290
▁binding	16288
9.6	16287
her	16284
▁Sea	16283
▁Currently	16276
▁seasonal	16271
rig	16268
▁fish	16264
▁Scott	16261
▁dans	16261
▁2.6	16258
▁Rogers	16250
▁Métro	16246
▁highlight	16243
can	16241
▁Provincial	16241
cap	16240
▁CNW	16234
▁SI	16223
▁Ni	16217
9.7	16211
▁Iran	16209
▁assumption	16206
lor	16201
▁oversee	16196
.4	16193
▁telling	16176
▁AutoCall	16174
▁structures	16174
▁emphasis	16169
▁bears	16168
ux	16166
▁languages	16163
▁methodology	16161
ERS	16154
▁district	16143
ency	16142
.16	16133
ists	16132
▁debenture	16122
▁RESULTS	16121
▁assignment	16116
▁Orders	16115
▁diligence	16110
ology	16100
,12	16096
▁Local	16084
.35	16072
▁cycle	16070
▁Impairment	16069
▁addressing	16069
▁networks	16069
▁obvious	16060
▁stations	16058
3,8	16053
8,4	16044
▁counter	16042
▁learning	16031
OW	16023
▁Nov	16020
▁ethical	16015
ign	16012
▁fluctuate	16003
▁Receipts	16001
gate	15992
consisted	15984
▁3.2	15979
▁Heritage	15976
Canada	15975
▁frequently	15967
▁worker	15966
▁heavy	15965
▁500,000	15964
▁peer	15963
▁suffering	15963
▁Euro	15961
▁Lac	15960
,36	15956
▁stating	15951
▁Line	15946
▁chemical	15942
board	15940
▁tobacco	15939
▁stream	15936
▁accord	15924
▁totally	15918
Through	15917
▁stability	15916
▁exceeding	15899
▁Front	15886
SU	15880
▁expenditure	15879
▁Derivatives	15878
cities	15874
▁accomplish	15874
port	15873
ual	15873
▁delivering	15873
▁weighting	15872
▁sending	15870
▁occupation	15866
▁hotel	15865
▁marketplace	15865
5.0	15863
7,1	15863
▁feature	15857
▁adult	15853
▁construct	15848
bb	15832
▁Des	15830
registered	15829
load	15822
▁voluntary	15820
▁Without	15816
▁cannabis	15814
▁1980	15811
▁Sale	15811
▁attempted	15803
8.7	15801
▁Years	15800
▁techniques	15792
▁specify	15791
▁HST	15787
▁Pay	15785
▁knowing	15782
▁identical	15780
9.0	15770
.95	15762
▁intervention	15762
▁VI	15760
▁virtual	15752
▁recommends	15749
.02	15748
▁season	15739
▁Tire	15738
aw	15737
▁diversification	15737
▁politics	15736
▁elections	15735
▁illustrates	15729
»	15727
▁distinct	15723
▁household	15722
9.9	15721
▁intellectual	15721
▁borrower	15719
▁marine	15718
mi	15716
▁Area	15713
dit	15706
▁Civil	15704
▁CRTC	15702
−	15701
▁picture	15700
▁Hedged	15697
reaching	15696
▁Aeroplan	15694
▁Bid	15693
.19	15685
▁discounted	15670
▁ship	15669
▁died	15654
▁confirmation	15650
▁incidents	15650
▁SHARES	15643
▁Mid	15642
▁101	15635
▁securitization	15635
▁TransCanada	15633
▁presently	15626
▁species	15620
▁organic	15604
▁processed	15593
▁AC	15577
▁Ho	15577
▁marked	15576
▁renewable	15567
▁unpaid	15566
▁tenant	15564
ions	15562
▁fault	15559
▁conflicts	15557
▁3.0	15556
▁predict	15554
▁files	15552
▁Highlights	15550
▁416	15547
▁distance	15546
▁Actual	15521
▁GP	15521
▁pursu	15519
▁solicitation	15517
▁push	15516
▁suit	15516
8.9	15510
▁4.3	15510
▁bridge	15503
ney	15495
▁AcSB	15495
▁reinvestment	15482
▁east	15480
▁10-	15477
▁satisfaction	15465
▁pound	15463
▁Document	15462
▁ASSETS	15459
▁Thank	15459
▁repli	15456
point	15449
pre	15449
▁Brazil	15449
.04	15447
gi	15431
▁Quarterly	15431
cu	15430
▁tomorrow	15421
▁Renaissance	15417
▁threatened	15417
▁device	15410
▁auto	15407
class	15404
▁preserve	15400
▁illness	15392
▁sides	15392
▁consistently	15387
ement	15378
▁omission	15375
▁confidential	15373
▁AIF	15370
▁Equipment	15368
▁NOTE	15365
▁Facilities	15364
▁motor	15352
▁running	15351
▁merits	15350
▁reorganization	15348
▁shelf	15347
«	15344
bo	15341
▁detention	15337
▁Ke	15332
▁offender	15328
▁complet	15324
▁sensitivity	15321
ified	15319
making	15318
▁forest	15318
▁pledge	15317
▁Neither	15310
mm	15302
▁machine	15291
▁TMX	15288
▁railway	15281
▁tolerance	15276
▁overweight	15275
▁harassment	15272
▁urban	15270
ug	15267
▁mobile	15265
▁narrative	15265
▁quantitative	15261
▁sustained	15259
▁102	15257
▁Web	15255
▁Focus	15253
▁Represent	15243
▁allegation	15235
▁resolved	15234
▁speed	15234
▁signing	15232
▁channels	15230
▁budgets	15219
LA	15207
▁profitable	15203
7,2	15202
UN	15194
Pro	15193
▁2.7	15193
3,9	15189
▁tested	15188
▁Federation	15183
▁pattern	15181
▁Cable	15180
▁administer	15177
▁roles	15177
▁trades	15174
▁Halifax	15168
▁cancel	15165
▁truck	15162
▁weak	15160
Templeton	15157
▁financially	15153
.17	15150
▁turned	15148
▁easily	15143
▁web	15142
▁satisfactory	15138
▁arises	15137
ay	15136
▁Nor	15131
▁prison	15130
▁electoral	15117
▁Card	15116
▁sheets	15116
▁withdrawn	15116
▁thinking	15108
▁licensed	15106
▁bio	15101
▁broader	15091
▁caucus	15086
▁Mountain	15084
▁describes	15084
▁Forest	15079
▁distinction	15076
▁confident	15074
▁kilometres	15071
▁promises	15065
▁Purpose	15062
▁incentives	15061
▁orientation	15060
▁Product	15057
▁unrelated	15051
br	15047
.5	15046
US	15045
▁reply	15044
▁Continuing	15043
▁Decrease	15033
▁periodically	15032
▁Question	15030
▁Nigeria	15029
▁compris	15025
▁immigrant	15024
pp	15014
▁fell	15011
▁awareness	15009
cy	15004
▁leasing	15002
▁equality	14997
▁Placement	14996
▁indicators	14986
▁label	14983
▁BE	14976
▁whereby	14972
▁pick	14968
▁Telecom	14966
▁Com	14965
▁misstatement	14961
▁Building	14952
▁promotion	14951
5,7	14947
▁imp	14947
▁PORTFOLIO	14946
▁structured	14944
▁retroactive	14935
▁180	14934
▁exceeded	14924
.55	14923
▁terminal	14917
atory	14916
▁Request	14916
▁mechanism	14900
▁unacceptable	14893
▁Agriculture	14880
examination	14877
▁fashion	14874
▁partial	14873
▁port	14871
▁style	14871
IFRS	14862
ush	14861
▁reimbursement	14859
▁economies	14857
proved	14850
ible	14847
▁SAR	14847
▁unions	14847
spoken	14839
▁challeng	14830
▁metals	14827
▁Provisions	14819
▁impossible	14814
▁Assembly	14808
▁admission	14808
▁doctor	14808
▁indigenous	14806
▁King	14802
ble	14801
▁1984	14801
▁covers	14796
▁vital	14779
▁aux	14776
Annual	14771
▁Je	14768
stone	14766
▁separation	14764
▁Design	14761
▁explanations	14736
▁pit	14727
▁consequence	14725
▁Colombia	14724
▁Vote	14723
▁invoice	14716
▁supplie	14709
▁spirit	14699
▁3.3	14690
▁issu	14690
▁Major	14683
▁commencement	14683
▁700	14681
▁assign	14681
2,500	14677
▁master	14675
▁Fort	14673
▁presumption	14673
▁Lynch	14668
▁belong	14664
LI	14661
▁coal	14661
`	14656
▁Oct	14647
▁borne	14646
tal	14634
▁PERFORMANCE	14634
▁passage	14634
▁Michel	14632
▁confusion	14632
▁path	14631
▁adequately	14629
▁analyze	14628
▁Redeemable	14627
▁supervision	14625
▁whereas	14620
▁Source	14619
tel	14614
▁reliance	14613
▁Sep	14612
▁Historical	14610
▁achievement	14609
▁beneficially	14609
▁remainder	14609
▁eventually	14607
▁7.5	14598
▁0.01	14597
▁Friday	14595
▁TB	14593
▁train	14592
▁Avenue	14589
▁AB	14587
▁concrete	14577
▁incremental	14570
▁roll	14562
▁Boralex	14556
site	14551
▁projection	14551
ON	14549
▁FUNDS	14545
▁Notwithstanding	14542
▁deadline	14542
▁SEC	14537
▁origin	14537
▁apparent	14527
-38	14522
merely	14516
▁plaintiff	14511
▁reliabilit	14510
▁2.8	14509
▁Suite	14499
▁narrow	14499
.03	14497
▁accompanie	14496
▁deem	14477
▁band	14474
▁modest	14471
▁match	14469
▁revoke	14462
▁Staff	14455
In	14454
▁insert	14454
▁concession	14451
▁que	14448
▁Sentry	14439
▁Registration	14436
▁Procedure	14431
▁111	14425
ana	14420
cul	14419
▁Gains	14415
.06	14414
▁devices	14412
▁referring	14411
-35	14408
▁greenhouse	14407
BCA	14406
▁tough	14405
▁5.5	14402
▁cable	14402
ash	14393
▁tremendous	14391
▁historic	14387
▁commence	14380
▁dispose	14380
▁Taxation	14374
▁designate	14371
▁Direct	14366
7,6	14359
▁qu	14358
▁grand	14357
▁inappropriate	14356
▁Feb	14353
▁Fisheries	14353
▁recession	14353
▁radio	14348
▁200,000	14339
▁independently	14333
▁teams	14327
profit	14322
.38	14321
uk	14321
▁drilled	14320
▁employ	14315
SA	14314
▁Telecommunicati	14314
TER	14311
▁Settlement	14302
▁Ka	14301
▁restrict	14290
▁user	14289
▁Autocall	14287
▁RSC	14285
▁Tri	14285
▁retrospective	14285
▁105	14283
▁heritage	14281
mb	14280
▁DBRS	14277
▁highway	14270
▁Community	14267
▁audits	14266
▁Available	14264
▁hole	14256
▁bound	14245
▁Lease	14242
▁limitation	14241
MC	14240
act	14237
▁tonne	14228
▁distributor	14225
cal	14220
▁ET	14216
▁Reserves	14213
reunder	14211
▁instruction	14210
▁Renewable	14196
tru	14189
▁Ra	14186
▁Ce	14184
▁Jul	14183
mate	14179
▁resignation	14173
▁maximize	14165
▁prevention	14154
▁exclude	14153
▁signature	14153
▁Returns	14139
▁2026	14128
▁convention	14122
▁hit	14120
▁NYSE	14113
SE	14112
▁disposed	14110
▁recogniz	14104
▁preference	14101
house	14099
▁Payable	14099
▁Former	14094
▁merit	14092
wares	14082
ral	14079
▁unfair	14074
▁defendant	14064
quality	14058
▁CBSA	14058
▁Custodian	14058
▁creates	14057
▁likelihood	14056
ration	14050
▁bi	14047
▁correspond	14044
▁exceptions	14043
▁inconsistencie	14041
▁133	14034
▁Add	14029
▁Sheet	14027
▁Status	14013
▁talent	14011
▁Acquisitions	14002
▁trustees	13999
▁Gu	13992
▁visits	13992
AT	13989
ook	13986
▁Christian	13980
▁honest	13965
.85	13960
▁discovery	13959
▁waived	13957
▁Dundee	13953
▁feedback	13942
▁Resident	13941
▁Nine	13935
sta	13932
05	13919
og	13919
▁Fonds	13918
▁FIRST	13915
▁statistics	13914
▁4.2	13910
▁PSUs	13905
▁voter	13903
ot	13902
LE	13896
▁volunteer	13895
▁Months	13885
▁administrator	13884
▁Estimates	13883
▁uncle	13877
▁Dominion	13873
▁discovered	13870
▁firearms	13847
kin	13838
tre	13838
▁customary	13835
▁Wind	13829
du	13827
▁CFO	13824
▁Petroleum	13820
ple	13816
▁retention	13810
om	13808
▁ACT	13802
▁testify	13798
▁accommodation	13792
▁Privacy	13791
▁Monday	13784
ping	13782
▁Similarly	13781
▁Jones	13777
▁sells	13775
.18	13766
ber	13765
▁travelle	13765
▁sentences	13763
▁accessible	13761
▁thousand	13756
▁Official	13751
▁IIROC	13747
▁vast	13736
▁fi	13730
▁Subordinated	13729
▁causes	13728
requesting	13725
val	13723
▁outperform	13723
▁missing	13717
vis	13715
ference	13707
▁District	13706
▁TV	13703
▁fill	13695
03	13689
star	13686
▁Marc	13684
▁CGI	13683
5,2	13679
.28	13677
▁celebrate	13667
inability	13666
▁backlog	13660
▁jointly	13660
▁spring	13659
▁unfavourable	13656
▁College	13650
▁respected	13644
▁collaboration	13643
▁lesser	13640
▁EPS	13639
▁Partial	13636
▁volatile	13630
.22	13629
▁Out	13629
▁Good	13627
▁possibl	13623
▁SNC	13621
▁Gar	13617
▁Th	13615
▁Advantage	13613
▁Transmittal	13610
▁green	13609
▁character	13607
▁discrepanc	13607
.07	13605
▁petitioner	13605
▁box	13603
▁attitude	13597
ick	13596
▁delays	13595
▁separated	13594
▁Segment	13592
▁Arm	13590
aging	13587
▁Citation	13587
▁Well	13583
service	13568
▁offerings	13567
.08	13561
▁Presentation	13561
▁losing	13560
▁INTERIM	13553
▁Ro	13553
ENT	13551
▁Messrs	13542
▁Top	13538
▁Housing	13534
▁print	13532
ITT	13529
▁5.1	13528
▁DIRECTORS	13528
▁regulators	13526
▁reinsurance	13523
▁branch	13521
▁familiar	13515
▁custodian	13514
▁careful	13511
▁enclosed	13503
▁Railway	13502
▁licences	13501
▁trials	13495
▁Singh	13493
▁RioCan	13489
▁affiliated	13486
▁arrival	13479
▁TOTAL	13478
▁Administrator	13477
secondary	13476
-32	13475
▁Held	13473
▁forget	13473
▁disciplinar	13466
▁propos	13466
▁territorial	13455
.24	13454
ries	13450
che	13443
▁meters	13434
▁choices	13431
▁shortly	13429
▁Amended	13424
▁Korea	13423
▁fishing	13406
▁newly	13405
▁hurt	13403
▁auditing	13401
lia	13400
▁Investing	13400
▁Exhibits	13393
▁Included	13389
▁Ab	13385
▁140	13379
▁aimed	13379
▁103	13376
▁opponent	13370
▁monitors	13360
▁animals	13347
▁underweight	13346
▁transparent	13344
▁fleet	13341
▁possess	13331
▁Osisko	13328
2,6	13327
▁spot	13326
▁2,000	13323
.26	13321
exclusively	13319
▁Funding	13311
▁approving	13309
2.5	13308
vin	13308
▁opinions	13307
ran	13305
▁broken	13304
▁AIC	13303
▁winter	13299
▁subscriber	13298
▁RRSP	13297
SC	13292
▁dropped	13291
▁Bi	13290
▁motions	13287
▁installed	13283
▁anywhere	13282
.29	13278
▁cutting	13278
▁Proposed	13271
9,6	13270
ong	13261
▁wording	13254
▁recourse	13252
-46	13251
▁uncertain	13250
▁contributing	13248
▁Condensed	13247
▁notify	13241
▁Approximately	13240
▁engineer	13227
▁115	13225
MI	13224
▁reconsideration	13224
▁CP	13220
myself	13206
▁expensed	13198
ven	13193
▁108	13189
▁Policies	13189
▁walk	13189
▁adjournment	13176
ici	13173
ab	13169
OC	13163
▁PIF	13162
▁duly	13162
bu	13159
hi	13153
▁Mont	13153
▁justifi	13148
▁4.4	13147
▁won	13147
▁856	13146
▁Network	13142
▁Yukon	13130
▁adequacy	13125
▁modifications	13120
▁104	13107
▁ballot	13106
▁kill	13106
▁exit	13099
cre	13094
▁repealed	13092
▁Creek	13090
▁3.6	13087
ock	13083
▁movements	13083
AP	13076
▁mixed	13076
▁sampling	13076
▁CDN	13067
▁column	13066
TI	13065
▁FFO	13055
▁operators	13055
ez	13044
▁360	13044
▁valuable	13044
▁Americans	13042
▁terrorism	13040
▁6.5	13035
▁finished	13035
▁Institutional	13033
▁mistake	13032
▁Lanka	13030
▁Choice	13027
▁GE	13024
▁carrie	13020
▁transit	13019
▁readily	13018
▁0.15	13016
▁1983	13012
▁Goodman	13009
▁10.00	13005
▁apparently	12995
▁encouraged	12991
▁attending	12984
▁Repayment	12973
IP	12970
▁signal	12969
▁CBC	12964
▁Owner	12960
rolled	12959
▁demonstrates	12956
▁3.4	12951
▁Stephen	12946
▁cents	12940
▁Airport	12939
▁Type	12932
▁chairman	12931
▁maybe	12931
▁rebate	12928
.27	12924
▁Laval	12923
gun	12919
001	12917
week	12916
▁Apr	12915
▁worse	12909
▁Tab	12900
▁Louis	12898
▁competent	12895
▁450	12894
▁object	12887
rop	12886
▁supervisor	12885
▁4.8	12880
▁2.9	12878
▁Lead	12877
▁TMOB	12876
▁reward	12867
third	12866
▁procedural	12863
▁extraordinary	12859
▁Electric	12856
▁exemptions	12855
-33	12844
▁tangible	12840
▁Activities	12835
▁administered	12835
▁San	12833
▁inmate	12832
▁Place	12828
rain	12825
.23	12824
▁CORPORATE	12822
▁imprisonment	12822
▁bankruptcy	12821
▁Canaccord	12818
computing	12813
▁PER	12813
▁Participant	12812
▁negotiation	12808
▁Na	12798
▁MPs	12795
▁hazard	12795
▁split	12795
gu	12793
▁evening	12788
▁FTSE	12786
▁advocate	12786
▁prefer	12786
▁convictions	12784
▁stopped	12777
▁expanding	12774
current	12773
▁accommodate	12767
▁Wood	12765
Secured	12764
▁hierarchy	12763
wear	12761
▁Metals	12760
▁identifies	12757
▁allowances	12753
92	12752
▁CT	12748
anc	12746
▁TRUST	12740
▁severance	12732
▁horizon	12728
▁succession	12726
▁ou	12725
▁technological	12724
▁holiday	12718
▁Li	12716
▁Case	12712
▁servant	12710
▁prudent	12700
▁Vietnam	12697
▁IG	12696
▁assert	12696
-45	12694
▁SHAREHOLDERS	12694
4.1	12688
▁passing	12687
▁Bureau	12686
▁Ste	12685
▁Nortel	12679
▁amounting	12678
▁André	12676
▁associate	12676
▁mines	12674
▁receipts	12674
ai	12673
▁Trimark	12673
▁procurement	12672
▁Brian	12647
▁sick	12647
▁leads	12643
▁Combined	12638
▁franchise	12631
ient	12626
▁teacher	12626
Canadian	12624
capital	12619
▁attribute	12618
,37	12610
▁medication	12608
▁Star	12597
▁obligat	12594
▁deep	12593
▁usual	12593
▁Wheat	12591
▁deductions	12590
▁Brown	12588
▁Tuesday	12587
ANCE	12583
▁Lieutenant	12582
▁aggressive	12576
well	12574
▁cousin	12572
▁declining	12572
▁Between	12569
▁SHARE	12564
CH	12562
tract	12559
▁geological	12559
▁accrual	12555
▁Expiry	12552
▁safeguard	12552
▁pe	12548
▁residual	12548
▁deduct	12535
▁deportation	12534
▁forestry	12532
▁PLAN	12530
▁hiring	12529
▁Intangible	12523
SP	12519
▁causing	12507
water	12506
▁gift	12500
▁enforce	12499
7.5	12498
▁mineralized	12496
OL	12495
▁graduate	12495
▁tel	12493
▁incorporate	12490
-36	12489
▁Mal	12487
▁bulk	12485
▁Estimate	12484
▁Approval	12477
▁rich	12477
▁appointments	12474
pi	12473
▁4.6	12473
▁inadmissible	12469
▁oppose	12469
.34	12464
▁periodic	12464
▁existe	12462
▁Provision	12461
▁observable	12459
▁diverse	12457
▁Evidence	12454
▁unemployed	12454
▁objection	12453
.7	12449
▁Mississauga	12449
▁350	12443
balance	12435
gre	12434
▁Taxes	12434
▁Plant	12430
▁virtue	12422
▁hired	12421
MO	12420
▁Measurement	12420
-37	12419
▁recipient	12416
▁Petro	12409
▁controlling	12407
▁Country	12406
RA	12405
▁violent	12405
▁107	12404
▁Po	12398
▁trouble	12393
▁Road	12385
9.5	12383
▁attorney	12383
▁CH	12382
▁deputy	12377
▁physically	12375
▁suspend	12374
ki	12373
▁scenario	12369
▁Morgan	12357
bank	12350
▁Cor	12348
▁Rock	12344
▁Cha	12341
▁Diluted	12333
mber	12330
▁relie	12321
▁Competition	12320
▁j	12320
▁sentencing	12319
▁5.0	12318
ke	12314
▁Computershare	12313
evertheless	12309
▁encounter	12303
▁Networks	12301
▁Pan	12300
▁4.0	12297
▁Tier	12292
▁zinc	12288
▁AltaGas	12287
▁Debenture	12285
▁Uni	12285
▁3.8	12282
▁repayments	12278
▁Adjustments	12273
▁feed	12273
▁109	12271
▁qualifie	12271
▁tradition	12270
▁subjective	12269
▁Hamilton	12260
bit	12259
▁Quadrus	12255
▁CGU	12250
▁Nation	12250
▁format	12250
▁Rating	12247
▁Matters	12246
ari	12245
gy	12241
▁internationally	12239
▁handling	12234
▁MB	12230
▁nominal	12225
▁Thursday	12223
▁comprises	12220
EA	12219
▁Engineering	12206
▁paras	12203
▁situated	12203
▁grades	12197
▁0.25	12196
cher	12195
▁Study	12192
▁deleted	12192
▁Realized	12190
▁persuad	12190
▁PR	12189
▁Point	12189
6.9	12180
used	12180
▁instances	12179
▁vague	12179
▁Daniel	12178
▁excessive	12178
nc	12177
▁FundSERV	12166
rie	12164
▁expressly	12164
.33	12163
likely	12155
▁surrender	12155
3,6	12154
▁feeling	12153
▁contacted	12148
PA	12147
▁Documents	12147
▁IGM	12147
▁Clearly	12143
▁neutral	12141
hor	12135
▁Blue	12134
▁Wednesday	12132
▁Highway	12130
▁EX	12129
▁intervene	12129
▁barrels	12128
▁Ko	12127
▁1979	12121
-42	12120
recurring	12119
▁Customer	12118
▁Aug	12117
▁consensus	12117
▁incorrect	12105
▁upgrade	12103
ION	12101
▁WITH	12101
.88	12100
▁Noteholder	12098
▁interpreted	12094
▁Ta	12093
6,5	12091
▁Receivables	12090
▁Supplemental	12090
▁reconcile	12088
▁vacation	12087
▁handle	12080
▁Among	12079
▁Award	12077
▁modern	12077
▁hire	12074
HO	12072
state	12070
▁BOC	12062
▁FORM	12057
6.4	12056
SL	12056
▁Silver	12052
ins	12050
▁sont	12044
▁CAS	12042
-44	12039
▁5.2	12037
▁Raymond	12035
▁Bachelor	12027
▁incorporation	12027
▁Kyoto	12026
7.4	12024
▁LTIP	12024
▁contrast	12023
▁assay	12022
▁Excel	12015
▁notwithstanding	12011
▁enterprises	11994
▁massive	11994
▁Groupe	11991
▁employs	11991
hen	11987
▁fifth	11977
upplementary	11974
▁author	11968
▁106	11963
▁Northwest	11963
▁investigations	11960
▁Coast	11957
pen	11956
▁apartment	11956
6.7	11955
▁remote	11955
▁Cogeco	11954
▁image	11953
▁1,05	11951
▁GLOBAL	11949
3.3	11947
▁Person	11945
▁exchanged	11936
▁punishment	11928
▁affordabl	11926
▁Like	11922
^	11918
▁sands	11915
▁Auditors	11908
▁game	11908
▁Unsecured	11907
▁3.7	11904
▁deducting	11899
▁20,000	11897
▁underwriters	11893
▁packaging	11889
▁Lawrence	11886
▁financed	11886
.31	11881
▁Look	11881
▁QC	11871
▁compelling	11868
▁Observation	11865
▁divorced	11864
▁Su	11862
▁NGL	11861
▁Terms	11858
sky	11855
▁Bur	11854
▁declines	11854
▁decid	11852
▁black	11851
▁cooperative	11849
ault	11843
AD	11841
▁Recent	11841
▁church	11835
▁elimination	11834
▁variance	11833
▁jail	11832
▁Iraq	11831
▁commend	11830
.36	11827
▁drivers	11827
▁iii	11824
▁easier	11818
tained	11816
GI	11815
▁VALUE	11812
▁occupie	11812
▁Ch	11810
mar	11807
qua	11806
▁protocol	11806
RP	11801
▁occurr	11798
▁trans	11795
▁founded	11793
ail	11787
ani	11784
▁instruct	11778
▁signs	11777
RU	11774
▁exhaustive	11772
▁imports	11771
theless	11768
▁Claude	11768
▁misconduct	11765
▁commodities	11759
3,1	11756
▁pensions	11752
OS	11746
CT	11744
▁channel	11743
3.1	11736
▁Beneficial	11732
▁segregated	11721
ba	11720
4,9	11719
▁Cominar	11713
.09	11711
▁predecessor	11711
▁HR	11707
▁dismissal	11706
▁Purchases	11702
▁focuses	11702
▁lists	11701
tandardized	11700
▁DU	11699
▁reversal	11695
▁shipments	11693
▁Employer	11692
▁Lower	11692
▁Incorporated	11691
▁instalments	11689
▁Premier	11685
2.1	11673
▁rejection	11672
▁Customs	11666
viewed	11665
IF	11664
-34	11662
▁Tactical	11662
▁retailers	11662
▁Reconciliation	11656
meter	11653
▁AM	11651
▁thanks	11650
gue	11647
▁afraid	11646
uck	11645
hand	11640
▁123	11637
▁licensing	11634
ME	11625
AM	11621
,	11620
▁1,00	11619
▁Ac	11618
ves	11611
▁AA	11607
▁Statistics	11607
ily	11603
▁flat	11603
▁GDP	11599
▁NOT	11598
adopting	11597
UM	11596
king	11596
▁YEAR	11594
▁Element	11593
▁religion	11588
▁Deloitte	11585
▁variations	11582
▁fabric	11580
tant	11579
▁IP	11575
▁25,000	11574
▁′	11574
▁1,02	11567
▁Grand	11567
▁appropriately	11564
▁allocate	11561
▁rock	11561
.37	11560
▁apart	11557
ga	11554
▁interpret	11546
front	11536
▁decades	11532
ali	11531
▁promot	11518
END	11513
▁Response	11512
▁Technical	11512
▁papers	11509
▁expectation	11507
▁grown	11503
▁unfortunately	11503
▁AO	11499
▁landing	11498
▁fellow	11492
▁Moody	11488
▁Interests	11484
▁street	11484
▁licensee	11482
TH	11481
▁1,01	11474
Coopers	11472
▁Fourth	11471
▁Op	11470
▁4.7	11468
▁interfere	11466
▁proxie	11463
sized	11459
▁Regarding	11458
▁Representative	11458
0,000,000	11456
▁occupancy	11448
art	11440
▁Cu	11440
quarter	11438
▁prejudice	11438
▁focusing	11436
Cap	11433
exercising	11433
▁expir	11431
▁5.6	11430
▁Ministry	11430
TERM	11427
▁breakdown	11422
▁underwriting	11421
8,2	11415
half	11414
▁Associates	11414
ford	11411
▁referendum	11408
ibility	11407
▁Telephone	11402
Lavalin	11401
▁soldiers	11401
▁payables	11398
▁KPMG	11395
▁Purchaser	11394
▁prosecution	11393
town	11387
Class	11386
.99	11384
▁spouses	11384
▁legislature	11382
▁insurer	11377
app	11376
▁BUSINESS	11372
▁parameters	11369
ceased	11364
▁clauses	11361
arose	11359
aries	11358
▁expensive	11353
▁DATED	11350
▁individually	11350
edge	11344
▁160	11344
CA	11339
▁Foods	11339
▁combat	11337
▁ban	11333
▁shopping	11331
.63	11329
▁EBIT	11329
·	11328
▁Repurchase	11328
▁dynamic	11328
▁shut	11327
▁stages	11325
▁112	11322
▁cont	11322
ji	11319
▁compromise	11318
▁marijuana	11315
▁render	11315
▁ceremon	11314
▁arranged	11309
▁Bou	11308
▁Superintendent	11308
▁excludes	11308
▁formation	11308
▁ma	11304
inquiries	11303
▁TDAM	11300
rom	11298
▁Release	11297
▁probation	11294
5.9	11293
annual	11292
▁courses	11292
compliance	11291
▁Rose	11291
▁Mon	11289
financial	11286
▁NOI	11284
7.1	11281
02	11280
▁explicit	11275
▁Obviously	11273
▁trigger	11273
▁absent	11267
▁delegate	11264
▁Asian	11262
▁Profit	11261
▁win	11261
▁tank	11257
ET	11252
▁village	11249
▁Working	11248
▁175	11241
▁CAN	11238
ABLE	11236
▁1,04	11230
urs	11229
▁correctly	11229
▁Participation	11228
7.0	11224
▁topic	11220
▁EUR	11215
▁spreads	11214
EC	11213
▁Cambridge	11211
MA	11210
▁Victoria	11209
▁Pharmaceutical	11208
▁ACE	11204
▁Poor	11199
operation	11198
▁Accumulated	11193
ans	11192
▁Car	11190
▁Steel	11190
▁rapidly	11187
▁EURO	11183
▁sp	11183
chi	11180
▁Elections	11180
▁engine	11179
.21	11176
▁AP	11175
8.4	11174
▁Advisors	11174
▁Falun	11171
▁Region	11168
7.6	11162
▁underperform	11133
3.5	11131
▁5.3	11130
▁Sponsor	11122
▁Jim	11119
ARY	11113
▁inclusive	11101
▁Assuming	11100
▁Opinion	11097
▁PSLRB	11097
ris	11096
▁Take	11095
▁Neutral	11094
▁Losses	11091
▁troops	11082
▁Title	11081
6.6	11079
ID	11079
ano	11075
7.7	11074
characterized	11073
9.1	11072
▁113	11067
▁Jacques	11066
traded	11063
▁Emera	11062
▁precedent	11062
ough	11054
▁Multiple	11047
wide	11046
▁6.1	11046
▁Basis	11046
▁governmental	11043
▁prohibition	11043
▁exhibits	11042
▁Drilling	11039
burn	11038
grade	11032
▁Complete	11032
▁implied	11031
▁MFS	11024
rated	11018
▁fresh	11018
▁Process	11017
▁buyer	11017
▁Planning	11012
▁Acceptance	11007
▁foster	11007
▁wonderful	11007
▁ran	11003
▁Shaw	10998
▁Latin	10996
▁convenience	10993
shore	10988
▁Repeal	10988
▁critic	10987
▁Ratio	10985
▁conventional	10976
▁Quebecker	10972
▁IFA	10968
▁Futures	10962
6.1	10958
▁strict	10949
▁pipelines	10938
▁190	10937
▁Israel	10937
▁discusses	10937
▁disaster	10923
har	10919
▁sessions	10916
▁Pools	10914
▁Expense	10908
▁attacks	10901
▁retainer	10901
▁unknown	10899
▁trafficking	10898
▁Harper	10896
▁fast	10893
▁Comp	10891
Reasons	10889
-43	10886
▁118	10885
▁gradual	10884
▁Volatility	10882
▁widely	10881
▁recoveries	10880
▁inside	10878
SM	10875
▁bias	10873
▁jurisprudence	10873
▁Radio	10869
▁frequency	10863
▁RISK	10862
▁Claymore	10861
▁Da	10861
▁5.4	10860
▁FROM	10856
▁Grade	10854
▁Pricewaterhouse	10853
▁William	10853
alities	10852
▁adduce	10850
ria	10848
8.1	10847
▁GROUP	10846
▁Express	10845
.39	10841
▁128	10840
▁145	10840
▁biological	10839
▁Assistant	10838
▁significance	10837
▁enables	10834
5,000,000	10832
▁Tele	10831
▁ticket	10826
low	10819
▁1,03	10817
▁flexible	10812
GA	10810
▁organizational	10809
-40	10807
▁waters	10804
▁bus	10803
▁playing	10803
▁900	10802
▁fears	10800
▁contend	10799
▁structural	10799
▁shelter	10798
▁disabilities	10796
▁Failure	10794
▁Recognition	10789
8,6	10788
stra	10788
▁complement	10784
▁earning	10784
▁43-101	10777
▁flaw	10777
▁Pharma	10770
▁Contingent	10768
tier	10765
▁Haiti	10765
▁encouraging	10760
▁perceived	10760
▁patents	10758
▁ignore	10757
.67	10756
▁Philippines	10755
▁feasibility	10754
2,7	10752
▁0.20	10751
ef	10749
▁Conference	10749
.44	10744
▁disabled	10743
▁Commodity	10738
▁reveal	10737
▁prescrib	10734
▁Veterans	10733
▁subscribe	10733
▁owed	10732
▁quantity	10728
▁introduc	10726
▁Dan	10724
▁helpful	10724
▁servicing	10723
▁Guardian	10722
▁dissolution	10718
▁arrear	10715
▁disruption	10715
▁4.9	10714
▁NAFTA	10708
▁automobile	10706
eration	10701
▁sports	10700
▁suggestion	10696
▁weapons	10696
▁college	10695
▁score	10695
rac	10692
▁Sands	10691
▁enhancement	10690
▁sufficiently	10689
▁connect	10688
▁parole	10686
▁GROWTH	10684
held	10682
▁121	10675
▁programm	10675
cle	10673
▁NO	10673
▁clerk	10673
▁sustainability	10671
VE	10668
▁Chrétien	10668
-41	10665
view	10661
▁constituent	10653
IVE	10652
▁constructive	10651
▁petroleum	10651
▁distributors	10644
▁comfortable	10640
▁114	10636
▁6.3	10634
▁Conditions	10632
▁visitor	10632
▁Designated	10630
uff	10629
8.0	10628
▁Fax	10621
▁Guaranteed	10617
ATE	10616
▁170	10615
▁Scotiabank	10615
▁embedde	10615
▁Ed	10614
▁Far	10613
OP	10611
▁legacy	10611
fold	10608
▁LIMITED	10608
bre	10606
▁arbitrator	10606
▁LA	10601
▁pocket	10591
▁Beginning	10589
▁Abitibi	10587
allotment	10586
▁contracted	10586
▁generations	10580
-48	10579
▁Volume	10578
▁utility	10578
0.9	10575
▁JJ	10569
eur	10568
▁unfortunate	10565
▁ACCOUNTING	10563
▁TFSA	10563
▁Johnson	10562
▁DSU	10556
ense	10555
▁manufactured	10553
▁outcomes	10551
▁Works	10548
▁vertical	10541
operative	10539
▁AN	10539
▁qualitative	10539
▁Ask	10536
bor	10534
▁3.9	10533
▁metric	10531
†	10516
▁Best	10516
▁Statutes	10516
▁122	10513
ging	10512
being	10510
▁Thomas	10508
▁0.10	10507
▁lock	10505
▁Action	10502
▁minute	10502
.46	10497
▁fraudulent	10497
▁throw	10492
▁limiting	10491
top	10487
▁Bruce	10485
reclassification	10482
IST	10480
▁wine	10477
▁1,12	10475
▁MFC	10475
▁armed	10474
tri	10472
▁Week	10472
▁psychological	10470
▁Main	10469
▁automatic	10469
oriented	10468
net	10467
▁distinguish	10465
▁Russia	10459
▁119	10457
▁prett	10451
▁seal	10441
▁confidentiality	10436
OUR	10434
,000.00	10432
Monitor	10430
fit	10430
▁Aggregate	10423
▁transitional	10423
▁civilian	10422
▁sincere	10421
-51	10420
▁0.05	10418
▁memorandum	10417
▁debat	10416
▁Hospital	10414
▁1,07	10413
▁die	10412
▁licenses	10411
▁supervise	10409
drew	10407
▁supersede	10405
▁screen	10403
▁lies	10402
trained	10400
▁MI	10391
▁discriminator	10387
▁Maple	10386
lock	10385
▁Five	10380
▁MP	10379
▁Transcript	10379
TION	10371
6.5	10370
issenting	10370
▁Team	10360
absorbed	10359
average	10358
▁partisan	10357
▁illustrate	10353
▁1970	10350
▁prosperity	10349
.48	10345
▁inadequate	10341
▁1,15	10340
▁135	10336
▁skilled	10334
founded	10330
▁lawyers	10329
▁loyalty	10329
▁société	10329
▁warning	10329
▁torture	10327
▁Issuers	10326
▁OPERATIONS	10326
▁Gong	10323
▁England	10322
▁5,0	10319
▁divisions	10318
resumed	10316
▁1,09	10302
▁Consideration	10302
vo	10301
▁Invest	10299
▁philosophy	10299
1.5	10297
▁poll	10293
▁escrow	10289
apped	10287
▁determinative	10287
▁enabling	10284
▁delegated	10282
▁container	10279
.49	10277
▁soft	10275
4.5	10273
▁Citigroup	10273
▁convinced	10273
▁Wireless	10267
▁Strong	10257
sible	10255
Scholes	10252
▁ASSET	10252
▁Agri	10250
▁300,000	10249
.43	10241
▁emphasize	10241
3,7	10239
▁stake	10238
2.0	10237
▁Che	10237
▁super	10235
▁robust	10228
.56	10227
CB	10227
▁volunteers	10227
6,2	10226
▁module	10226
▁bbl	10225
▁affirm	10224
▁conservation	10223
▁1978	10220
▁été	10220
NI	10217
▁surprised	10217
▁Democratic	10216
ker	10215
▁BOARD	10215
▁creditors	10215
▁briefly	10212
▁7.1	10211
▁0.50	10210
▁TC	10210
▁interpreter	10205
cha	10204
▁fighting	10204
going	10197
▁speculative	10192
1.0	10191
.47	10190
▁liquidation	10189
han	10183
worthy	10180
▁differently	10180
▁Extraordinary	10178
▁race	10176
▁Roy	10173
▁Developments	10171
▁Proposal	10169
9.3	10168
ommercialization	10163
Several	10155
fund	10155
▁Chi	10155
product	10152
▁mechanisms	10152
▁endorse	10151
▁Secondary	10148
▁Weston	10147
▁Advance	10142
▁synergie	10141
▁weekend	10138
▁Classes	10137
▁wall	10135
▁steady	10133
▁recurring	10128
▁approaches	10126
▁delayed	10126
▁disorder	10125
▁Judge	10124
7,500	10123
▁Medium	10122
▁moral	10122
▁pace	10122
▁basically	10119
▁printed	10117
▁Majesty	10115
▁Farm	10114
▁gather	10114
8.5	10113
media	10112
▁imagine	10112
SERIES	10111
Qualifying	10103
VI	10103
ture	10103
ose	10100
▁frame	10100
▁129	10099
ov	10097
▁laboratory	10097
▁Higher	10093
9,7	10088
▁barriers	10088
▁California	10087
▁merchant	10085
▁Ukraine	10083
▁Liability	10081
▁biggest	10079
▁deferral	10079
▁economically	10079
▁parking	10079
▁decade	10078
▁Accrued	10075
▁Has	10072
▁Australian	10070
▁wholesale	10068
▁universal	10066
▁petitions	10065
▁Murray	10057
Advisor	10056
▁refine	10053
store	10039
▁Processing	10039
▁contradict	10038
▁envelope	10038
▁white	10037
▁Bridge	10035
▁identifiable	10029
▁unanimously	10027
▁analyses	10018
▁healthcare	10018
IR	10015
▁entitles	10012
▁116	10008
▁8545-	10006
▁Ha	10006
▁Cumulative	10003
ib	9996
iz	9996
fully	9995
▁didn	9993
BC	9991
Based	9991
pecifically	9990
▁Expected	9989
▁Broker	9988
▁Williams	9986
▁Flows	9979
No	9975
▁124	9975
van	9972
▁Royalty	9971
▁crucial	9970
▁finish	9970
▁MEETING	9968
▁mere	9968
▁Middle	9944
,000	9941
▁Turkey	9940
▁voluntarily	9939
▁prescription	9938
▁repayable	9935
cur	9929
▁30,000	9929
RM	9926
▁250,000	9926
▁plu	9926
▁Wells	9925
▁globally	9925
▁Exchangeable	9921
▁quorum	9918
▁Para	9913
ori	9912
▁Potential	9909
8.00	9908
bal	9908
▁immigrate	9907
▁thorough	9907
▁Keyera	9905
AG	9904
▁1,06	9904
MS	9898
9,5	9896
▁terribl	9893
called	9892
ob	9891
▁lift	9891
▁shop	9891
wing	9890
▁Subsidiaries	9884
▁imported	9882
▁Windsor	9879
mont	9878
▁analysts	9877
▁168	9876
▁Texas	9876
▁TransAlta	9873
▁financiers	9870
▁3,000	9868
▁continuously	9867
4.4	9865
▁exact	9865
▁AL	9864
▁caisse	9863
MP	9862
UP	9862
tation	9860
▁Diamond	9860
▁restriction	9859
▁theft	9856
▁Residential	9848
▁milk	9844
▁Events	9837
2.4	9835
▁Entities	9834
▁STATEMENT	9834
▁offshore	9833
▁ext	9831
▁produces	9831
▁Sears	9830
▁alter	9827
▁Roma	9826
́	9819
1.9	9818
▁Restated	9818
.87	9816
BI	9813
▁evolve	9810
▁Manufacturing	9807
▁deny	9803
ama	9802
▁Election	9801
AC	9800
▁Municipal	9800
▁Har	9798
▁Oceans	9797
▁AFFO	9795
▁Mi	9794
-50	9793
▁Thi	9792
▁Items	9790
▁Japanese	9790
▁brothers	9786
▁fl	9785
▁mass	9785
tie	9784
▁combinations	9784
▁metrics	9784
▁Ag	9778
▁kids	9777
▁Gen	9776
▁Bra	9775
▁Original	9773
▁hypothetical	9773
▁Persons	9771
▁greatly	9767
▁Globe	9766
▁welfare	9766
IG	9765
▁construed	9763
ew	9761
▁FI	9757
▁enhancing	9753
stein	9752
▁insist	9752
▁Greater	9751
▁Nex	9750
.59	9747
▁Bisset	9746
▁0.75	9745
resident	9742
wan	9742
▁2027	9742
▁Islands	9742
▁misleading	9734
▁1,16	9729
▁assisted	9726
▁1,13	9725
▁SIFT	9725
▁contributor	9725
necessary	9721
▁reaction	9721
▁annuity	9713
FL	9711
▁List	9711
▁adapt	9711
▁measuring	9708
▁speaker	9707
▁whatso	9703
▁Was	9698
bearing	9696
▁capture	9692
▁Guy	9690
▁softwood	9689
FI	9688
level	9686
.68	9683
jo	9681
lan	9680
▁root	9679
▁126	9675
▁Revolving	9675
▁arrive	9673
▁custom	9671
3.0	9670
▁attest	9670
are	9667
▁filled	9666
▁Fin	9665
▁Next	9664
pan	9660
HI	9659
▁Articles	9659
▁Listing	9658
2.2	9657
avi	9653
zz	9650
▁ranking	9645
▁spectrum	9639
aud	9638
▁utilities	9638
▁Washington	9637
▁INVESTMENTS	9631
▁PWGSC	9625
CI	9624
▁CPR	9621
▁Counterparty	9620
▁sustain	9619
▁THIS	9618
.57	9617
HOLD	9614
▁BBB	9611
▁printing	9609
▁OFFER	9606
-39	9605
▁Overview	9605
▁historically	9605
ball	9604
▁upcoming	9602
▁Quality	9600
▁dilution	9594
▁internet	9591
▁scandal	9582
▁adjudicator	9581
▁internally	9579
▁restore	9577
▁repurchased	9576
▁lieu	9575
▁seller	9575
▁tab	9574
air	9573
▁Until	9573
▁acceptances	9570
▁fisheries	9564
▁complexity	9563
oli	9561
▁Discount	9560
§	9559
▁younger	9559
▁underway	9558
▁Dated	9553
3.4	9551
▁arrange	9548
ich	9544
▁newspaper	9543
▁waive	9543
▁Participants	9540
▁Ver	9540
▁relatives	9535
▁utilization	9532
▁CC	9531
while	9529
▁Universe	9528
▁Underwriting	9527
▁Pembina	9522
▁automotive	9515
▁overcome	9515
▁extending	9508
▁harmoniz	9508
hold	9506
gram	9504
▁Wilson	9504
onsequently	9503
▁taxed	9503
oxi	9502
▁somehow	9501
▁1977	9496
studied	9495
▁finalized	9495
▁progressive	9495
▁corruption	9492
▁TR	9491
▁SCHEDULE	9489
6,6	9481
▁supportive	9479
▁Appointment	9478
core	9476
▁Lord	9475
▁Il	9469
▁Sp	9468
▁clarification	9465
.74	9464
▁150,000	9464
RRQ	9458
▁averaged	9452
▁DECEMBER	9442
▁carrier	9441
▁Adjustment	9438
▁127	9435
▁Framework	9429
SO	9428
▁Conflict	9427
▁CU	9425
tions	9424
▁fibre	9423
▁Democrats	9422
▁gained	9422
▁notified	9416
PR	9415
RS	9414
▁SSTAD	9410
▁2.00	9408
2.7	9407
▁Excess	9407
▁Restructuring	9407
▁siblings	9404
ost	9402
▁SR	9401
▁TAX	9399
▁emerge	9399
pousal	9395
tar	9395
▁inconsistency	9394
dicat	9392
▁1,20	9391
za	9390
▁Thompson	9385
ng	9383
▁assesse	9383
▁Minerals	9382
elle	9379
▁worrie	9379
▁releases	9378
▁subscriptions	9376
▁amalgamation	9373
ache	9368
▁striking	9367
▁eastern	9366
▁diversify	9365
4.7	9361
▁nomination	9361
▁suspect	9359
▁warehouse	9358
▁Update	9357
▁carriers	9357
▁Barrick	9353
.84	9348
▁Ru	9348
▁constantly	9348
yer	9347
▁NEW	9347
relevance	9346
▁persuasive	9346
▁Mount	9344
.64	9342
▁expiration	9342
▁seat	9342
▁outset	9340
▁1,08	9337
PS	9335
▁5.7	9335
▁Requirements	9331
▁continually	9331
pect	9330
▁Discretionary	9330
▁optimize	9327
▁emotional	9322
light	9321
▁factual	9321
cut	9320
▁memory	9319
▁acres	9318
▁LE	9317
▁permission	9315
▁filings	9314
▁Structure	9311
▁Stone	9309
▁negotiating	9309
▁Strategies	9308
av	9307
3.9	9305
bi	9305
iev	9298
▁realizable	9297
7.8	9294
▁Border	9294
.66	9291
▁BA	9291
▁LTD	9291
▁tied	9291
ix	9289
med	9289
▁Pi	9289
-93	9286
ported	9285
▁impression	9284
▁Benefit	9280
.69	9277
bel	9272
▁crop	9272
▁divid	9272
▁Force	9271
wh	9268
▁Em	9268
▁Pulp	9268
pression	9267
▁Ca	9267
▁Cross	9266
▁doesn	9265
ek	9258
▁quick	9257
.77	9256
▁downturn	9254
▁drinking	9252
▁marketable	9252
▁pollution	9249
▁1,10	9246
▁Jazz	9243
▁Italy	9241
▁Merrill	9241
EN	9240
▁stories	9239
▁routine	9238
▁Parties	9235
▁Freedoms	9234
▁assured	9233
▁shortage	9232
eng	9229
larity	9229
▁Bal	9229
▁corroborate	9226
▁si	9226
▁viable	9225
▁eye	9224
▁dairy	9222
ica	9221
inc	9220
win	9219
▁refus	9218
▁1,11	9216
▁afternoon	9216
▁merchandise	9216
▁Mart	9213
▁weekly	9211
4.6	9208
▁RONA	9208
EX	9203
▁electrical	9198
▁Douglas	9195
▁5.8	9193
▁tonight	9192
▁elder	9190
.79	9189
Dominion	9182
▁143	9181
▁Ti	9181
▁explore	9181
▁Amalgamation	9178
▁Fuel	9178
▁sanctions	9178
TC	9174
▁Bonus	9174
▁STOXX	9174
▁blame	9173
▁renovation	9173
▁Concern	9169
▁crown	9169
▁positively	9167
▁Margin	9165
risk	9162
▁Innovation	9162
▁tape	9161
ferred	9160
▁Conseil	9160
▁Jamaica	9159
▁138	9158
▁apologize	9157
▁insight	9157
Gen	9156
DS	9154
▁Circumstances	9154
▁curve	9151
-55	9150
▁premier	9148
▁Experience	9142
▁achievements	9142
▁verify	9142
▁customs	9138
▁offsetting	9138
fer	9136
children	9131
4.9	9130
ological	9130
▁TVA	9130
▁Charles	9128
▁1,000,000	9123
desirable	9114
3.2	9113
▁surveys	9113
▁15,000	9112
▁transcript	9111
▁permanently	9106
3.6	9105
▁defeat	9101
TO	9100
▁Mill	9100
▁notion	9095
▁146	9094
entry	9090
person	9090
gg	9089
▁RRIF	9089
8,5	9085
posed	9085
▁Block	9083
▁revealed	9083
▁tranche	9082
▁bonuses	9081
▁Gal	9079
▁Mor	9079
PL	9078
▁lengthy	9077
2.6	9076
4.0	9075
▁Objectives	9074
▁PSB	9072
flow	9070
▁Pat	9070
.86	9066
▁6.2	9065
▁GENERAL	9065
▁Procedures	9065
▁supplemental	9065
▁colour	9063
.78	9060
▁Candidate	9060
▁Taiwan	9060
TY	9052
▁commonly	9052
▁DO	9050
▁modification	9049
▁É	9049
▁Read	9048
▁Graham	9043
▁screening	9043
▁134	9042
ANT	9039
▁132	9038
▁heavily	9038
▁rata	9032
EST	9031
▁BlackRock	9031
▁lawsuit	9031
▁judgement	9029
sol	9026
voting	9019
AF	9018
▁supplied	9018
▁drawing	9016
▁remedie	9016
▁8.5	9013
▁Hall	9013
▁solve	9012
▁productive	9010
▁cooperation	9009
▁1.25	9007
▁Rio	9007
▁resign	9007
▁Draft	9006
▁Residence	9005
.42	9004
▁shape	9004
BO	9003
▁Frank	9001
▁Press	9001
Voting	8999
▁Andrew	8999
▁adjacent	8998
▁payroll	8997
.89	8995
▁BANK	8994
▁1,14	8993
▁COMPENSATION	8988
.62	8985
▁PT	8985
▁Tim	8985
qu	8983
▁recognise	8983
wo	8982
ATED	8981
▁precisely	8981
▁stipulate	8980
▁Ba	8977
▁Nunavut	8977
▁Realty	8977
▁1,27	8973
EF	8971
▁Sur	8969
▁indicator	8967
▁indices	8965
▁feels	8961
▁stem	8961
▁barrel	8959
▁equalization	8959
hy	8957
▁suicide	8955
▁database	8954
▁measurements	8954
▁Maritime	8950
▁contractor	8949
▁Focused	8948
Symmetry	8946
▁5,5	8946
4.2	8945
▁electric	8945
-2018	8944
▁Languages	8942
▁seats	8942
AND	8941
▁Practices	8941
▁violations	8941
▁Supply	8940
ult	8937
▁Same	8936
3.7	8931
▁acknowledges	8930
▁Hy	8928
▁contravention	8928
▁intelligence	8919
ques	8918
▁mandates	8918
▁Healthcare	8917
▁CERTIFICATE	8916
▁NV	8915
▁Gulf	8913
▁Barclays	8909
▁pose	8909
▁efficienc	8907
▁integrate	8902
Com	8901
▁assistant	8900
▁Reinvestment	8899
▁Present	8897
▁positioning	8897
▁indefinite	8896
.76	8895
▁131	8895
▁injuries	8895
▁cre	8894
6.0	8886
▁closer	8886
.73	8885
Mellon	8885
▁weakness	8883
▁Bel	8882
▁film	8882
EP	8873
▁Bor	8869
▁Guide	8864
mailed	8862
▁heat	8862
▁Taylor	8861
▁accountant	8860
1.7	8856
▁Shi	8853
▁Copper	8852
▁Moderate	8850
▁Pipelines	8850
pr	8844
▁corner	8842
▁6.4	8841
▁Wa	8837
▁destination	8837
▁Test	8831
distributable	8830
▁observe	8828
▁Hungar	8825
asi	8824
▁Old	8824
▁helicopter	8823
▁Arctic	8822
▁prevail	8822
▁consolidate	8819
LP	8817
roll	8817
▁Child	8816
▁rapid	8815
▁1,17	8813
▁750	8809
▁Maybe	8805
▁Ireland	8804
▁Step	8804
▁evident	8803
▁Leases	8800
▁daughters	8800
▁fields	8800
▁euro	8799
▁Relationship	8795
oved	8791
▁Clark	8789
▁twenty	8789
▁1,21	8788
▁Computer	8783
▁specification	8782
TV	8778
▁1-800-	8778
▁136	8775
▁Arrangements	8774
▁Have	8774
▁pride	8774
▁Transition	8773
▁oath	8770
▁camp	8767
▁constituency	8766
▁rewards	8766
mic	8758
▁investigator	8755
▁route	8755
▁interpretations	8753
▁equitable	8752
2.9	8750
atch	8749
▁6.0	8749
▁prepaid	8747
▁admissibilit	8746
▁fines	8745
▁Lock	8742
.97	8741
AN	8741
▁Parent	8741
▁Ph	8741
▁7.2	8740
▁139	8738
▁81-102	8738
▁promptly	8738
room	8735
▁continuity	8732
▁convey	8732
car	8731
▁struck	8729
▁harvest	8724
▁1,24	8721
▁Jack	8721
▁Terminat	8721
▁7.3	8715
vision	8707
zo	8705
▁Dow	8705
▁shipping	8701
▁usage	8701
lip	8700
▁Burns	8700
life	8699
▁CHAPTER	8698
▁Chemicals	8696
▁Children	8695
▁Eligibility	8694
▁intervener	8694
▁suggestions	8694
▁Southern	8692
ja	8690
mentioned	8689
CE	8683
▁Elliott	8683
ull	8678
▁resume	8678
take	8676
▁audio	8676
▁entertainment	8676
FC	8675
▁Consolidation	8674
▁Increased	8667
CC	8666
▁substances	8666
PT	8665
▁Indigenous	8663
▁reasonableness	8662
▁Harris	8660
▁preclude	8659
▁refundable	8659
.32	8653
BOX	8653
▁camera	8653
▁correspondence	8653
nov	8652
▁tribute	8650
▁CF	8647
▁guard	8644
▁Hedge	8638
▁micro	8637
▁Tariff	8636
▁LeBreton	8635
▁revise	8635
▁Nothing	8634
▁NB	8633
▁POWER	8627
▁Professor	8627
▁nickel	8626
▁broadcast	8625
▁literacy	8624
▁excellence	8622
▁confront	8621
RY	8620
▁137	8620
▁Analyst	8620
CL	8614
▁DIS	8611
▁Campbell	8609
▁reportable	8609
nish	8608
▁precious	8605
ctor	8600
▁proactive	8596
▁Joe	8595
▁dignity	8594
.96	8592
▁Encana	8592
▁examining	8592
▁banner	8591
arian	8587
ended	8584
▁Marie	8581
▁boe	8579
▁typical	8576
▁mergers	8574
▁descriptions	8572
▁forum	8571
▁competitiveness	8563
▁exchangeable	8562
▁fundamentals	8562
acy	8561
▁destroy	8556
▁DNA	8554
,44	8552
▁tolerate	8552
▁sharp	8549
GC	8548
IRB	8548
▁investigat	8548
▁Certainly	8542
.41	8540
▁hid	8539
▁147	8537
▁sport	8531
▁stamp	8530
▁spaces	8525
▁exploitation	8523
7.50	8519
▁bag	8514
▁Fi	8513
▁questionnaire	8513
▁nurse	8511
annually	8510
▁1,19	8510
berg	8509
▁Baker	8507
ancy	8506
TA	8499
▁perception	8498
▁capability	8496
OD	8493
▁Previously	8491
▁publish	8488
▁gr	8478
▁Lo	8476
▁Territories	8473
▁shortfall	8472
▁injure	8471
▁Anti	8467
▁Shell	8466
▁essence	8465
▁Contact	8463
▁engaging	8463
tric	8461
▁Hu	8459
▁SUB	8458
▁intersect	8456
▁Joseph	8455
Ma	8450
▁141	8450
▁1,18	8448
▁solicitor	8444
MB	8440
aff	8439
▁Sports	8439
▁falling	8437
▁Export	8435
▁op	8430
▁freight	8429
▁Relating	8428
.92	8426
▁games	8426
-47	8425
▁analyzed	8423
▁reversed	8421
▁Mail	8420
▁deeply	8420
▁Memorandum	8419
▁PowerShares	8419
▁subsidi	8418
Laurent	8415
responding	8415
adjusted	8413
Produc	8410
▁priced	8410
▁spin	8410
▁music	8409
▁DR	8408
▁SERVICES	8406
▁billing	8406
▁ramp	8405
▁rare	8405
▁defer	8403
▁map	8402
▁Goods	8396
▁travelling	8396
OU	8395
specific	8395
▁modify	8395
▁temporarily	8395
▁1976	8390
Year	8388
ati	8387
▁strip	8383
▁Gri	8380
▁Min	8380
▁Stewart	8371
holders	8370
▁NOTICE	8369
▁Restrictions	8367
FO	8362
▁IPO	8362
▁RESP	8361
.83	8355
Ex	8355
▁academic	8355
oke	8352
▁poly	8351
▁Geo	8350
▁1,33	8348
▁Principles	8347
▁166	8345
▁CFA	8345
▁App	8342
pal	8340
▁phrase	8338
pha	8337
1.1	8336
Con	8334
▁diseases	8334
▁Drive	8333
▁foreseeabl	8329
evolving	8328
wave	8328
▁African	8328
▁resale	8327
▁plays	8326
▁guess	8325
▁External	8323
▁pure	8323
▁dispositions	8322
OVER	8320
©	8320
▁urgent	8319
6.2	8309
▁407	8308
▁appearance	8308
BL	8305
▁ROC	8305
.94	8301
▁indenture	8301
▁STOCK	8300
itting	8295
▁Strip	8290
▁Contributions	8289
▁furniture	8289
▁sorry	8289
▁overhead	8288
▁Center	8287
cho	8286
▁Tremblay	8284
▁surprise	8284
NCE	8283
▁interference	8281
▁chronic	8278
▁proposition	8276
▁Inuit	8274
▁Staples	8274
authorized	8273
TU	8270
▁Digital	8269
▁owe	8269
▁Thomson	8268
▁Figure	8267
▁LIBOR	8267
▁CHF	8265
Saint	8264
▁RSU	8263
ada	8262
EM	8261
war	8261
▁Pri	8261
▁scientist	8261
▁hydro	8260
▁interval	8260
vested	8256
▁License	8255
▁Model	8255
5.5	8254
appearing	8253
▁Cal	8253
cial	8250
.98	8249
▁Lang	8246
▁Bernard	8244
▁1,35	8242
▁FDA	8241
▁roads	8240
▁Moore	8237
▁1,28	8234
▁girls	8230
▁0.02	8229
▁1,25	8220
▁Rail	8220
TE	8216
▁Peru	8216
▁Denis	8214
ines	8213
▁Occupation	8210
aid	8209
▁Mexican	8209
▁parallel	8209
▁Bri	8208
▁assertion	8207
pol	8205
▁sisters	8205
-227	8202
▁161	8202
▁Netherlands	8196
DC	8194
▁Forma	8194
▁Supplementary	8194
▁1,22	8193
▁Quebecers	8192
FT	8188
▁gang	8188
cker	8187
▁142	8185
▁Shore	8183
gar	8182
▁stabilize	8182
,500,000	8179
▁Autocallabl	8178
▁40,000	8175
▁struggle	8173
▁authoriz	8171
ify	8168
stan	8168
▁glad	8167
.54	8165
▁5,6	8165
▁contractors	8163
WA	8155
▁Metro	8155
2.3	8153
▁sworn	8152
▁CS	8151
▁Pass	8149
▁competence	8149
▁generic	8149
▁weaker	8145
▁evidenced	8144
-49	8142
▁Extension	8139
▁soil	8139
wer	8138
▁Benchmark	8138
▁MANULIFE	8138
▁Respect	8138
Transcontinental	8137
▁Gauthier	8135
▁Defined	8133
▁Four	8133
▁ED	8130
▁Proceedings	8130
GE	8128
▁Securityholders	8128
▁coordinate	8127
▁evidentia	8127
▁1,34	8126
▁Metal	8126
ski	8125
▁criticize	8124
▁sovereign	8124
▁Retained	8122
▁Donald	8117
▁155	8116
rial	8114
▁Ben	8113
▁1,32	8112
▁Full	8112
lon	8111
▁gasoline	8110
yard	8108
▁Previous	8108
▁violate	8105
▁experienc	8102
▁pipe	8101
▁Harbour	8100
▁Guarantee	8098
▁EXP	8096
▁compet	8096
▁pu	8096
nom	8094
▁ST	8094
AIR	8093
▁defect	8093
▁clothing	8091
▁protest	8091
form	8090
▁rid	8089
▁Condition	8087
▁tour	8086
▁Ford	8085
▁tourism	8085
▁Alcan	8078
▁Chamber	8075
PO	8073
standing	8072
▁alliance	8070
▁Ten	8069
▁therapeutic	8068
bra	8065
▁159	8065
hole	8063
▁Qualifie	8063
hol	8062
▁faster	8059
▁artist	8056
▁questioning	8056
▁Operational	8053
▁165	8051
▁Bre	8051
▁allie	8051
els	8050
▁slowdown	8045
.93	8044
▁covenant	8044
arch	8043
▁DES	8043
▁cat	8043
▁definitive	8038
▁exp	8037
MAN	8030
▁disappear	8028
▁COMPANY	8026
▁TMA	8024
▁deceased	8023
▁Ernst	8022
▁1,36	8019
▁upper	8019
▁hereto	8018
▁scenarios	8017
▁ont	8016
▁220	8014
▁MBA	8014
▁Travel	8012
▁1975	8006
▁1,26	8004
▁SPECIAL	8003
▁throne	8002
▁1,37	8001
▁enormous	8001
▁SE	7995
▁Alpha	7993
▁contravene	7993
▁lie	7993
▁window	7992
▁225	7991
▁EARNINGS	7990
▁frequent	7990
▁210	7988
▁boat	7988
▁149	7987
tan	7986
▁appraisal	7986
pressed	7982
▁import	7982
▁uniform	7980
AGE	7978
▁Empire	7973
▁slight	7973
▁notification	7972
▁extract	7970
▁il	7970
▁Tower	7967
▁broadly	7967
▁undergo	7966
SD	7964
ram	7962
▁southern	7959
trusted	7958
▁Ventures	7958
-92	7957
▁Complaint	7956
▁flag	7955
▁152	7949
▁everybody	7947
▁DESCRIPTION	7946
▁Electronic	7943
▁ses	7940
▁streets	7939
▁lessee	7935
Throughout	7930
▁Software	7930
▁marital	7925
▁157	7920
▁pregnant	7920
▁Age	7913
▁McLean	7911
dia	7906
OE	7905
mal	7905
▁cold	7904
▁deficiency	7903
▁placements	7901
▁unlawful	7898
SON	7894
▁5.9	7893
.72	7891
▁headquarter	7890
▁incredible	7888
▁elector	7887
▁treatie	7883
▁Crombie	7882
▁Authorized	7881
▁God	7881
fired	7879
▁trustworth	7879
▁Speech	7878
▁Million	7876
▁equippe	7876
▁Subsidiary	7875
OG	7868
▁OPERATING	7867
▁detect	7865
dale	7864
▁Load	7864
▁ITS	7857
seemed	7856
▁mal	7856
▁dry	7854
▁deployment	7851
▁Jordan	7850
▁powerful	7849
7.3	7847
▁conservative	7845
▁revision	7844
▁6.6	7843
▁log	7843
▁http	7842
▁Sha	7841
▁differential	7840
▁momentum	7840
GO	7839
.91	7838
▁Workers	7836
▁Electoral	7834
8.3	7828
▁scar	7828
▁demonstrat	7827
▁postponed	7827
bin	7822
▁transformation	7821
▁repeal	7820
▁Active	7819
-98	7818
▁insider	7817
▁Vi	7814
▁resigned	7813
▁1973	7811
KE	7808
▁171	7806
▁0.04	7804
nic	7796
▁Package	7795
▁Notional	7794
▁err	7793
▁paint	7793
▁Facts	7792
▁resid	7791
▁beneficiaries	7790
▁Golden	7789
▁disciplined	7789
▁studying	7789
▁satellite	7788
▁730	7785
tem	7783
▁Disruption	7783
▁hide	7783
▁Paris	7782
6.3	7781
▁Interpretation	7781
▁shot	7781
▁NATO	7780
▁Tom	7780
▁Peace	7777
-60	7776
row	7775
hu	7771
▁Allowance	7770
▁fulfil	7766
.125	7764
▁expose	7763
▁Seller	7762
▁ren	7758
▁Falls	7757
ais	7755
▁efficiently	7755
▁computed	7754
▁branches	7750
force	7748
▁Singapore	7746
▁prima	7746
▁attain	7744
ounty	7742
▁criminalit	7742
4.3	7741
ILL	7741
▁1,29	7735
▁Implementation	7733
▁observations	7732
CON	7731
blended	7729
pin	7724
▁deficienc	7723
▁waiver	7723
£	7720
▁promising	7719
▁fishery	7717
head	7716
▁1974	7712
▁Carstair	7711
▁Nickel	7709
vide	7708
▁151	7708
chair	7707
tex	7707
▁1,38	7707
▁Light	7707
hr	7705
▁indemnification	7704
▁Transat	7702
HIP	7701
▁History	7700
▁shorter	7699
▁Laurentian	7698
▁merged	7696
gin	7693
▁Allied	7691
▁boundar	7691
▁messages	7689
signed	7686
▁ENERGY	7686
ova	7684
▁dilutive	7683
▁subscribed	7682
▁Revised	7681
▁Sal	7681
▁accountants	7681
▁debtor	7678
▁Associate	7676
▁lifetime	7676
▁doctrine	7675
▁uranium	7675
1.3	7673
▁hectares	7672
▁escape	7670
▁disregard	7669
mit	7667
▁148	7667
▁Existing	7667
▁Northland	7665
1,200	7664
▁ethnic	7660
▁PSU	7659
▁Art	7656
▁quota	7653
prov	7652
esterday	7650
▁mailing	7650
▁Lending	7648
▁registrant	7647
▁continuation	7646
▁empower	7644
▁Chairperson	7643
▁Firm	7643
▁UNDER	7642
▁167	7641
▁AASB	7641
▁realization	7640
▁Fundserv	7639
▁incumbent	7636
employment	7634
▁855	7634
▁Specialty	7633
unicipality	7632
▁ships	7632
▁temperature	7631
▁contest	7630
OB	7629
▁gathering	7629
▁guided	7629
▁ROE	7628
▁hydroelectric	7627
▁violated	7627
▁army	7626
▁row	7625
▁CIG	7622
▁deliveries	7622
▁proxyholder	7622
▁scrutin	7618
▁240	7617
election	7614
HA	7612
▁output	7612
▁400,000	7609
▁admissible	7605
▁Definition	7604
▁facie	7604
▁Open	7603
▁SUMMARY	7603
AW	7601
▁Bu	7601
▁Prospective	7601
▁doctors	7599
▁8.1	7595
▁TSE	7595
,550	7594
▁sovereignty	7594
▁Develop	7591
▁Son	7590
▁strive	7589
▁junior	7587
pack	7582
▁Coupons	7582
ima	7578
▁MARKET	7578
▁plain	7577
▁broadcasting	7574
▁Had	7573
appointing	7571
▁charitable	7571
fill	7568
▁doors	7567
5.1	7564
OM	7564
▁Commitments	7563
▁Ki	7556
▁Mean	7555
{	7548
▁circumstance	7548
▁Stanley	7544
▁ease	7542
▁CHANGES	7540
▁COMMITTEE	7540
▁punish	7540
▁finances	7539
▁dialogue	7538
▁Tr	7537
▁absorb	7537
▁Regina	7533
▁logical	7533
orrectional	7531
▁pull	7531
▁subjected	7531
▁sums	7530
UT	7529
▁BR	7529
▁trips	7529
▁players	7528
▁rationale	7528
▁Acquired	7527
Jean	7526
▁politicians	7526
ugg	7525
▁PROXY	7524
▁Pearson	7523
▁assembly	7522
▁negligence	7522
▁Christmas	7519
▁Student	7518
▁opt	7518
performance	7513
▁excuse	7513
▁minorities	7512
▁contributors	7511
▁doubtful	7511
▁5.75	7508
holder	7507
▁intersection	7507
▁Shelf	7502
▁quantiti	7502
▁consistency	7501
place	7500
▁Additions	7500
}	7499
▁Customers	7496
▁Maintenance	7493
▁Consulting	7490
▁OSFI	7490
BA	7489
▁403	7489
▁valeur	7486
ake	7485
▁7.4	7485
▁Gordon	7485
fo	7484
▁SO	7484
▁Selected	7484
▁1,44	7483
▁visible	7483
round	7479
▁Town	7479
▁postponement	7479
▁REAL	7477
▁donations	7477
▁Anderson	7476
▁vein	7476
▁AU	7467
▁Ivy	7467
▁PM	7464
▁trailer	7463
▁extraction	7461
▁intermediary	7461
▁arriv	7460
▁Shoppers	7459
IE	7457
ition	7457
▁7.6	7457
▁Nu	7457
cam	7456
under	7453
mount	7451
book	7450
iversities	7446
▁RES	7446
▁resort	7444
▁156	7443
▁Pa	7439
▁RRSPs	7438
▁pump	7438
▁Big	7435
▁Franco	7435
▁GLA	7435
▁overview	7435
lib	7434
▁7.0	7434
▁Guideline	7431
▁CM	7430
▁courage	7430
▁230	7429
▁Zealand	7426
lot	7424
▁158	7423
▁PERIOD	7423
▁Communication	7422
▁Leaders	7422
▁committ	7421
▁Cools	7419
▁UNITS	7419
LB	7417
▁NON	7416
WE	7412
▁Distributable	7412
▁Beau	7411
inal	7410
LG	7408
ida	7405
▁straightforward	7403
▁GL	7402
▁hospitals	7401
▁1,500	7400
▁Cover	7399
▁Nesbitt	7399
▁153	7392
Entry	7391
▁Cape	7390
▁native	7389
▁recruit	7389
fa	7388
MR	7386
OQ	7384
▁Responsibility	7384
ALE	7382
▁Ghana	7382
▁VP	7381
▁accrue	7381
▁adults	7381
▁DIVIDEND	7378
writ	7376
▁innocent	7376
▁machinery	7376
▁1,30	7372
▁rolling	7372
president	7368
▁meat	7368
dding	7366
▁Establish	7366
▁erroneous	7366
-99	7365
▁switches	7364
▁Enhanced	7363
▁FR	7358
▁evolution	7357
▁plead	7357
ric	7356
▁unsuccessful	7354
▁Nil	7351
▁9.5	7350
▁convincing	7350
▁unclear	7350
▁Unlike	7349
▁Write	7348
▁footnote	7346
▁Jo	7345
▁nancial	7345
ray	7341
3.8	7339
▁sugar	7339
hill	7338
▁probative	7338
▁AIM	7337
▁criterion	7337
los	7336
▁visual	7336
5.7	7334
▁Combination	7333
▁iron	7332
▁optional	7331
bar	7328
▁Marine	7328
▁competencies	7328
▁surgery	7328
▁engagements	7327
▁slip	7327
nying	7326
▁lots	7326
▁Sustainable	7325
▁Wal	7324
ically	7321
▁Chris	7320
▁prolonged	7320
▁absorption	7317
▁dedication	7316
▁Rand	7315
burg	7314
▁occupational	7313
▁Back	7312
▁Parks	7312
2.8	7310
▁freedoms	7310
-91	7306
care	7303
leg	7301
▁Laws	7301
▁0.30	7299
▁Throne	7299
▁411	7298
▁1000	7295
▁Bob	7293
▁alteration	7291
▁162	7288
▁Reduction	7283
PI	7282
▁summarize	7282
▁Keystone	7281
listed	7279
lie	7277
▁Sunday	7277
▁approached	7277
▁exam	7277
▁Indebtedness	7275
▁derive	7274
cept	7273
▁contradictions	7273
shi	7272
▁nice	7271
▁Broadcasting	7269
BU	7268
hal	7264
▁1,31	7264
▁Ross	7262
▁Nord	7259
▁Switzerland	7258
▁6.8	7256
▁tragedy	7256
▁estimation	7255
▁hypothec	7255
▁Club	7250
▁Ordre	7249
▁eliminat	7248
▁ARE	7247
▁liquids	7246
-180	7244
gan	7244
▁Fr	7242
COM	7241
▁1,23	7240
▁boy	7240
▁8.0	7238
▁Hol	7238
▁Pol	7237
▁OP	7235
▁complicate	7235
▁5,9	7234
▁billed	7233
cost	7232
▁disappointed	7232
▁wheat	7232
▁Repayments	7228
▁Rental	7227
▁Training	7227
▁prompt	7227
000	7226
▁motivation	7226
▁1,45	7224
4.8	7223
5.4	7219
nor	7218
▁COMP	7218
nominated	7215
5.6	7214
▁syndicate	7214
▁Luc	7213
▁boost	7213
▁Artis	7210
▁SECOND	7209
▁Mills	7208
▁mode	7208
▁indemnity	7205
cast	7204
▁Adviser	7201
▁skill	7199
▁HE	7198
▁altered	7196
▁contradictor	7196
ELL	7194
▁complementar	7193
tom	7192
DD	7190
▁comp	7190
▁1.50	7189
▁entitle	7189
▁Kevin	7188
▁Questions	7188
ular	7187
▁Activity	7184
▁COMMON	7184
▁warm	7183
▁EF	7182
ICAL	7180
like	7180
▁clinic	7180
▁conjugal	7180
▁reinstate	7179
▁Deposits	7178
▁1,48	7177
iff	7175
▁Proposals	7175
▁saving	7175
▁CSA	7174
ARD	7172
makers	7172
▁5,4	7172
▁cyber	7171
9,9	7168
consolidated	7166
▁Practice	7166
▁adjudication	7166
▁Citi	7165
▁Concurrent	7165
▁0.03	7162
▁Buy	7162
▁Administrators	7161
weighted	7157
▁Rob	7156
▁promoted	7156
▁revocation	7156
▁Issues	7154
▁212	7153
▁Lin	7153
▁homeless	7153
▁unprecedented	7153
▁concepts	7145
OUS	7142
▁bankers	7140
▁ocean	7140
▁popular	7138
▁Serge	7136
▁Col	7135
▁medicine	7134
▁unlike	7133
▁remov	7130
1.4	7129
▁weaken	7128
.82	7127
▁154	7124
▁viability	7124
▁killing	7122
other	7120
corp	7119
▁Receipt	7119
▁directive	7119
CP	7115
▁blue	7115
tage	7114
hat	7113
▁Olympic	7113
dated	7108
HER	7104
▁8.3	7101
▁hardware	7101
▁Mat	7100
▁di	7100
▁Entertainment	7098
▁1,49	7097
DM	7096
MIN	7096
▁Chile	7096
▁contradiction	7096
▁Muslim	7094
▁battle	7094
▁endeavour	7093
mis	7092
try	7092
ken	7090
▁Attributable	7089
2,70	7084
▁Affiliate	7084
▁Kinsel	7081
▁1,39	7080
▁enactment	7080
200	7079
LD	7079
▁AR	7077
▁distinguished	7077
▁reinvest	7075
▁Preference	7073
▁Consultant	7072
▁aerospace	7071
▁THIRD	7070
▁novo	7069
▁probability	7068
▁FVTPL	7067
depreciated	7066
une	7066
▁Receivable	7065
▁isolate	7061
ivity	7060
vent	7059
▁destroyed	7056
▁commented	7055
▁generous	7054
▁wondering	7053
▁Ham	7052
▁Start	7052
rum	7051
▁acid	7050
▁warranty	7050
▁Depositor	7048
▁Clarica	7047
▁Mike	7047
▁dumping	7047
▁newspapers	7042
DER	7041
▁Box	7040
MONTH	7038
▁LTTE	7038
▁Journal	7035
▁conferr	7035
ployed	7033
▁hot	7033
▁418	7032
ANNOUNCES	7031
▁10.1	7031
▁AGREEMENT	7031
▁GBP	7030
▁Priv	7030
▁Vivendi	7030
▁4,5	7028
▁rents	7028
▁Translation	7027
3,15	7026
▁Mag	7026
▁vacanc	7026
▁clearing	7025
RG	7023
▁verifi	7022
retirement	7021
▁manual	7021
ait	7020
▁Which	7018
▁Honour	7015
ini	7014
▁Band	7014
▁German	7010
▁Han	7010
▁worry	7009
▁410	7008
bell	7004
▁Adoption	7001
▁6.7	7000
▁CIRCULAR	6998
▁prosecutor	6998
An	6996
LL	6993
▁ideal	6993
▁oz	6992
▁transform	6992
1.6	6991
NE	6991
▁frankly	6990
tribu	6989
▁Saturday	6988
▁Trudeau	6988
Marie	6987
▁prepayment	6987
▁combine	6986
▁geo	6985
▁precise	6984
▁Linked	6983
▁Marcel	6982
▁preservation	6977
▁Fed	6975
▁asylum	6975
▁dé	6975
▁necessity	6973
BM	6970
▁guest	6970
▁celebration	6969
▁Lakes	6968
▁OFFICERS	6965
▁sleep	6965
▁federation	6964
▁hate	6961
▁journalist	6960
▁secur	6958
EB	6957
amortized	6957
▁creditor	6957
▁interaction	6957
bl	6956
▁ABCP	6956
RT	6955
▁overseas	6955
▁solicit	6955
▁inspect	6953
▁Tech	6951
▁shipper	6951
▁1,41	6949
▁Scarborough	6949
▁Aviation	6948
▁365	6947
▁PSAB	6947
103	6946
▁Threshold	6946
▁Remain	6945
▁adjourn	6944
▁OT	6943
▁Including	6940
inder	6939
▁farms	6939
▁blind	6937
▁shipped	6936
▁Regular	6932
▁prospectively	6931
▁Del	6930
▁1,40	6926
▁Lebanon	6925
▁promoter	6923
▁Burnaby	6920
added	6919
▁consume	6919
ery	6915
▁Syncrude	6914
▁enabled	6914
▁Indice	6912
▁react	6911
▁Privilege	6907
▁tight	6906
▁163	6905
▁injection	6905
▁recommending	6904
▁Hi	6902
▁magazine	6902
▁reopen	6902
▁1,46	6901
solicited	6900
▁QL	6898
▁Prov	6897
▁6.00	6895
3,20	6893
tte	6893
cat	6891
nie	6889
▁centrale	6889
▁mon	6888
▁restrictive	6888
▁teleconference	6887
▁practicable	6883
RC	6882
avail	6881
LAND	6880
▁1,42	6879
▁warranted	6879
loomberg	6878
▁3.00	6878
ordinat	6877
▁GMP	6876
▁Ken	6875
iel	6874
producing	6869
▁correctional	6869
▁2.50	6865
▁Yellow	6865
▁Wi	6864
-85	6863
titled	6863
▁Sheets	6863
▁rec	6863
▁Cascades	6862
▁Fire	6862
▁rigorous	6862
▁diagnose	6861
9,99	6860
▁summons	6860
▁dead	6859
▁Put	6858
pel	6857
▁impos	6856
▁blank	6855
▁Beneficiar	6852
▁delegation	6849
▁recruitment	6848
▁Payout	6846
-97	6844
▁anchor	6843
coll	6842
▁prisoner	6838
PE	6837
▁bilingual	6835
IRE	6832
▁eyes	6831
▁nevertheless	6831
itch	6830
tat	6830
Resident	6829
▁surprising	6829
ICE	6828
▁Subscriber	6828
EG	6827
skin	6827
▁depletion	6827
▁Classification	6825
friendly	6824
▁refinancing	6823
▁quotation	6820
gel	6819
▁tracking	6819
▁NA	6817
▁po	6817
▁Steven	6816
▁fax	6814
▁MS	6812
▁rhetoric	6812
TF	6811
▁Calculate	6811
▁guideline	6811
6.8	6810
▁mes	6808
graph	6807
▁transmit	6807
▁Gagnon	6803
▁club	6802
▁Comment	6798
▁plastic	6795
mile	6788
2,26	6787
▁4,8	6787
▁Lien	6785
▁Tu	6785
▁52-110	6784
▁desired	6784
▁installment	6784
▁abolish	6781
▁justification	6781
-94	6780
▁Sure	6780
▁fruit	6780
▁Syria	6779
▁Terminal	6778
100	6777
▁practise	6777
ffer	6776
▁dissolve	6775
Québec	6771
▁Collateral	6770
▁similarly	6770
FA	6769
▁restatement	6768
2,77	6766
▁entail	6765
▁RESOURCES	6762
▁Saskatoon	6757
▁25.00	6756
▁Institutions	6756
more	6755
▁defensive	6754
▁Identify	6752
▁mayor	6752
▁advertise	6751
▁dream	6751
▁neighbours	6751
bul	6750
▁173	6750
▁Contribution	6749
▁remarkable	6748
▁teaching	6748
gro	6747
▁marginal	6747
▁Disclosures	6746
7.2	6745
2,74	6742
▁CD	6741
▁9.1	6740
▁placing	6738
▁bullion	6736
▁lawful	6736
yield	6734
-003	6731
working	6731
▁Guarantor	6730
acre	6729
▁0.06	6727
▁Equivalents	6727
▁PF	6727
2,60	6726
2,99	6726
▁phases	6725
generation	6724
▁Sometime	6724
FR	6723
▁Noranda	6722
▁reminded	6719
▁topics	6718
▁6,9	6717
▁fractional	6717
▁rape	6717
▁Spain	6713
1.2	6712
▁overlap	6712
▁rocks	6712
▁164	6711
Gene	6710
▁650	6709
▁0.12	6707
speed	6706
▁catch	6705
apitalcorp	6703
▁broke	6703
▁copyright	6701
▁unilateral	6701
▁Fa	6699
▁Mary	6698
▁contempt	6698
▁dial	6698
▁Liquid	6696
▁205	6694
▁crossing	6694
▁SP	6693
▁Inventory	6692
▁Mitchell	6692
▁demonstration	6692
▁pupil	6691
▁5.25	6690
▁Motor	6690
EAS	6688
▁Alain	6688
▁restoration	6683
2,39	6682
ok	6682
▁immovable	6682
2,49	6680
É	6680
‟	6675
▁Albert	6674
▁Approved	6674
ole	6673
▁Surrey	6673
▁forfeit	6673
▁stimulus	6672
▁ingredient	6671
▁neglect	6671
name	6670
▁185	6670
▁REC	6669
▁Catholic	6666
▁wire	6664
rian	6662
zi	6661
▁GAM	6659
▁Recently	6659
2,46	6658
gni	6658
▁Adams	6658
▁anomalies	6657
¢	6656
▁1,43	6655
activ	6654
tors	6654
▁proportional	6654
▁DRIP	6652
▁INTEREST	6652
▁plate	6652
▁Reported	6650
▁edge	6650
2,67	6649
▁replicate	6649
▁Mercer	6647
▁investee	6647
rib	6645
▁submitt	6645
Law	6641
UAL	6641
▁cubic	6641
▁Sherbrooke	6640
▁Hills	6639
▁Recovery	6639
▁crew	6639
▁corrected	6636
▁rational	6636
with	6632
▁Expert	6630
REIT	6626
▁Expenditures	6626
▁excit	6626
▁hereinafter	6626
▁bitumen	6624
▁promotional	6624
.61	6623
▁river	6622
▁tragic	6620
▁quartz	6618
-190	6617
▁survivor	6617
DU	6616
oul	6614
▁Budden	6611
▁DSC	6605
▁Nominee	6605
▁Fairfax	6604
▁earth	6603
▁mentor	6602
▁scholarship	6601
awa	6600
band	6600
▁Import	6600
▁uphel	6600
EI	6599
▁FY	6599
▁bail	6596
▁PROSPECTUS	6595
▁MacDonald	6591
▁Mel	6591
▁diagnostic	6591
▁hence	6591
▁Rep	6590
▁cours	6590
▁Basel	6589
▁motivated	6589
▁Fairness	6588
▁coupon	6585
EW	6584
-59	6583
▁François	6583
▁supporter	6581
▁Job	6580
▁permitting	6577
fr	6576
▁Reorganization	6576
▁fin	6573
▁lowered	6573
▁362	6569
▁geophysical	6569
▁neighbour	6569
▁circulation	6568
▁oblig	6566
▁jet	6565
▁Ja	6564
▁SW	6564
Up	6562
note	6562
▁capitalize	6558
▁profound	6558
osis	6555
unk	6555
▁denial	6554
▁189	6553
▁breache	6553
▁Airlines	6552
▁vi	6552
▁favorable	6551
▁smoke	6549
▁Norbord	6546
▁SECTION	6546
▁Virginia	6545
▁miles	6545
FP	6544
▁Breton	6544
▁1,50	6543
▁4.00	6543
2,65	6539
▁Completion	6538
▁JUNE	6538
HU	6537
▁EAP	6537
▁impugn	6537
-68	6536
ution	6536
▁vaccine	6536
▁178	6535
▁royal	6535
▁Collection	6533
▁initiate	6532
▁pan	6528
▁Documentation	6527
▁criticism	6526
▁earlie	6525
▁tri	6525
▁Paid	6524
▁peak	6523
▁symptoms	6522
-90	6520
ale	6520
▁Bear	6518
Reclassification	6516
▁slide	6515
2,19	6513
ico	6512
list	6511
▁Claim	6511
▁Ve	6511
▁unexpected	6508
▁Eagle	6507
▁realistic	6506
regulate	6505
▁Ethiopia	6504
▁Keep	6504
▁applaud	6504
abilities	6503
gui	6502
▁Generation	6502
▁choos	6502
▁verification	6502
nda	6501
▁Hedging	6500
▁Assistance	6499
▁PA	6499
▁constraints	6499
AS	6498
▁NASDAQ	6498
▁reinforce	6498
3,13	6497
definitely	6497
▁enact	6497
ood	6496
▁Stores	6496
▁Patrick	6495
▁tree	6495
splitting	6493
winning	6492
▁STIP	6490
▁Aerospace	6489
ady	6488
▁policyholders	6488
▁10.5	6486
▁staffing	6485
INE	6483
▁neighbourhood	6483
ami	6481
developed	6479
▁INVESTOR	6476
fu	6475
▁aforemention	6475
▁pornograph	6475
▁prescribe	6474
▁strongest	6474
▁Philip	6472
▁SPR	6470
matic	6469
▁readers	6469
▁sustaining	6469
▁169	6468
▁app	6468
▁packages	6463
▁Content	6462
▁baby	6462
▁mechanical	6462
▁10.0	6461
▁12.5	6460
▁Boston	6459
▁grandmother	6459
▁VA	6456
▁uphold	6456
▁412	6453
▁Precious	6451
▁describ	6451
▁reader	6451
-96	6450
▁3,00	6447
ction	6445
▁outsourcing	6445
▁endanger	6444
▁193	6443
▁Molson	6443
▁lump	6443
HAR	6442
▁176	6442
▁systematic	6442
▁172	6437
▁solar	6437
don	6435
▁Aggressive	6435
▁Preliminary	6435
UL	6434
petit	6434
▁1.75	6433
▁destruction	6431
ord	6430
▁Men	6428
tine	6427
▁counsell	6425
▁remediation	6425
▁Branch	6424
▁confused	6424
▁rescue	6424
TRA	6423
▁Kat	6422
▁divestiture	6422
gam	6421
▁turbine	6421
▁pi	6420
▁onto	6419
▁6.9	6418
▁inflows	6418
▁presid	6418
▁hockey	6417
than	6415
▁YTD	6415
▁Legislation	6414
▁Richmond	6411
pic	6410
▁ITEM	6410
▁selective	6410
▁174	6408
▁mistakes	6408
-2011	6407
government	6407
tres	6407
▁coalition	6404
▁purport	6404
conformity	6401
▁5,1	6401
▁Range	6401
tewardship	6400
▁fought	6400
▁GM	6399
▁ascertain	6397
▁multiplied	6397
▁Anne	6395
▁impartial	6394
▁privately	6394
▁421	6391
▁predominantly	6390
▁440	6389
▁EXECUTIVE	6389
vert	6388
▁UNITED	6386
2,85	6385
FM	6385
▁plc	6385
▁propriété	6383
▁reservation	6383
▁181	6382
▁183	6382
RB	6379
Tard	6378
▁TI	6377
2,40	6374
oid	6373
▁century	6373
▁irrevocabl	6373
▁memo	6373
▁trucks	6372
Food	6370
och	6369
▁Month	6369
▁disagreement	6368
▁OAS	6367
▁Ville	6367
▁Instruction	6366
▁Cooper	6364
▁dissent	6363
GU	6360
▁Tender	6360
▁statistical	6360
▁Couche	6359
▁Off	6358
lop	6356
▁5,7	6355
mor	6354
▁Claims	6352
idi	6351
▁6,4	6349
▁crack	6347
adly	6346
▁cargo	6346
▁Make	6345
▁Nature	6344
▁advisabl	6344
▁Recommendation	6343
▁Sept	6343
tatutory	6342
▁ALL	6340
▁bread	6340
▁categorize	6339
▁confer	6338
▁seizure	6336
ATIVE	6334
▁blocks	6334
▁Cuba	6333
▁Leverage	6333
▁LOSS	6332
ality	6331
Application	6330
▁champion	6330
▁anybody	6328
long	6327
▁BTB	6326
▁Florida	6326
▁ski	6326
crimin	6325
▁8.8	6322
▁Vehicle	6321
share	6319
trading	6318
▁revaluation	6316
URE	6314
▁HIV	6314
▁duplication	6314
▁McC	6313
▁arms	6313
▁grandparent	6313
▁Together	6312
▁NSR	6311
2,29	6309
stock	6309
▁Replacement	6309
born	6308
▁Hotel	6307
―	6306
▁DC	6306
▁Rou	6306
igh	6304
▁stick	6303
▁1,54	6301
EEN	6300
▁CR	6300
▁timber	6300
flu	6298
▁comfort	6298
2,30	6297
-2013	6296
▁Egypt	6296
▁wound	6296
pend	6295
ura	6295
▁351	6295
▁correlation	6291
▁comparing	6288
▁guns	6288
oma	6287
▁Royalties	6287
▁publications	6287
▁omnibus	6285
▁Gro	6284
LO	6283
onic	6283
▁60,000	6283
▁Domtar	6282
▁Phillips	6282
TED	6281
▁museum	6281
▁deprive	6279
▁prospect	6279
▁201	6278
▁Comeau	6277
2,59	6276
million	6276
mission	6275
▁invalid	6275
consum	6274
open	6274
▁concur	6274
▁fat	6269
WH	6268
▁0.40	6268
▁Somalia	6266
▁parental	6266
▁PPA	6265
▁Russian	6265
▁airports	6265
▁bankrupt	6265
▁Char	6263
▁Institution	6262
▁CAIP	6261
▁Treatment	6260
eral	6258
▁diagnosis	6258
▁Accountant	6257
▁fraction	6257
▁bps	6255
stituted	6254
rich	6253
▁361	6253
▁VB	6253
▁turning	6253
▁geographical	6251
▁reception	6246
▁213	6245
4,99	6244
-52	6241
▁1,58	6241
power	6240
▁1972	6240
▁Progressive	6240
▁analyz	6239
▁strictly	6237
serv	6235
▁mandated	6233
3,17	6232
▁CV	6231
ington	6230
PC	6229
▁BO	6228
branded	6227
▁Patent	6227
utter	6226
▁Micro	6226
▁TSXV	6226
▁webcast	6224
▁Stan	6223
ella	6222
▁Middlefield	6222
▁Outlook	6222
▁Confederation	6217
▁demande	6217
▁counterparts	6214
▁reconsider	6214
▁broaden	6213
▁Beutel	6212
▁Grey	6212
▁gaming	6211
▁accomplishment	6210
▁adhere	6210
.0000	6209
▁sentiment	6207
chan	6204
▁Achieve	6204
▁Gilles	6204
EV	6203
▁Indonesia	6203
▁advertisement	6202
▁Demand	6200
▁Ku	6199
▁ratified	6199
3,96	6198
▁Ordinar	6198
▁donor	6198
▁survive	6198
▁1,57	6197
▁GR	6197
lite	6196
▁8.2	6194
CHE	6192
▁6,7	6191
▁reset	6191
▁weapon	6191
Di	6190
2,76	6189
▁0.07	6189
▁1,55	6188
▁milestone	6187
-54	6186
▁Est	6184
▁furnished	6184
▁7.7	6182
▁therapy	6182
3,35	6180
▁Way	6180
▁advis	6179
-95	6176
▁su	6176
▁void	6176
AB	6174
II	6174
audit	6172
▁beverage	6170
▁heating	6167
▁landfill	6167
▁ultra	6166
▁1,59	6165
▁204	6164
arry	6163
▁Panama	6163
▁insult	6163
▁Assess	6157
▁meal	6157
▁1,52	6156
▁Goldcorp	6155
5.3	6153
▁oversees	6153
▁transact	6153
mobil	6152
USE	6149
conscious	6149
▁209	6148
bat	6145
▁corridor	6145
▁sulphide	6145
▁POLICIES	6144
gene	6141
▁Fargo	6141
▁Guard	6141
▁6,3	6140
▁GWL	6140
food	6139
▁strange	6139
▁Brands	6138
▁truthful	6138
▁SLF	6137
▁mitigation	6137
▁THAT	6136
▁census	6134
3,500	6132
▁syn	6127
lement	6126
▁fundamentally	6126
▁horse	6126
▁demanding	6121
▁CSC	6118
▁cite	6118
▁deviation	6118
▁busy	6117
▁Smart	6115
▁Later	6114
▁condemn	6114
PH	6112
▁FISCAL	6111
1.8	6109
ENCE	6109
▁260	6106
3,10	6104
▁compliant	6102
▁confusing	6096
▁requisite	6095
▁Down	6094
▁threatening	6093
BD	6092
▁Ber	6092
▁addiction	6088
▁irrelevan	6087
vel	6086
▁ISA	6083
3,24	6082
▁lien	6082
IO	6081
▁Inventories	6081
▁188	6078
▁completeness	6078
▁disadvantage	6076
-83	6075
avec	6074
▁Controlled	6074
▁objects	6074
▁Saudi	6073
▁1,65	6072
▁5,2	6072
▁Touche	6071
▁Charges	6070
▁SQ	6070
switching	6069
▁4,9	6069
▁demographic	6069
▁footprint	6069
2,69	6068
421	6068
▁1,60	6068
▁somewhere	6068
risen	6066
▁Tak	6066
▁MACKENZIE	6064
▁Solution	6063
▁Site	6062
vol	6061
uri	6060
▁Address	6060
ontingency	6059
▁Amalco	6059
operating	6058
▁subheading	6057
▁0.08	6055
▁Va	6055
▁parcel	6055
▁Ratings	6053
▁ProMetic	6051
▁marketed	6051
roughly	6050
▁Seven	6049
▁Swiss	6049
▁furnish	6048
engrowth	6046
▁grave	6046
▁fulfilled	6045
▁recycl	6045
ique	6043
▁ACB	6043
▁developer	6043
handled	6041
▁Hay	6040
▁Default	6036
▁NOVA	6035
claim	6034
Pacific	6033
▁veins	6033
▁Toll	6032
▁versions	6032
GM	6030
▁Entity	6030
▁191	6029
NY	6027
▁Compared	6027
▁player	6027
▁electronically	6026
▁fide	6026
▁Wholesale	6025
▁hunt	6025
ugh	6024
▁Simon	6023
▁1,53	6022
▁Jane	6022
▁diligent	6022
owners	6021
▁habitat	6018
▁constitution	6017
▁Determination	6016
▁protein	6016
▁1,62	6013
cla	6012
▁1,67	6011
▁Earlier	6011
-86	6010
▁1,51	6010
▁Written	6009
▁Field	6008
▁Wil	6008
▁posting	6006
fending	6005
▁Im	6004
▁RIGHTS	6004
▁550	6003
▁coffee	6003
▁Mobile	6002
3,74	6000
uit	5996
-69	5995
▁exercice	5995
▁sh	5994
HL	5993
▁breath	5992
▁325	5991
▁Mulroney	5991
▁duplicate	5991
▁mined	5990
▁CORP	5987
▁delight	5987
provincial	5985
▁10.2	5984
ALL	5981
▁RFP	5981
scale	5980
▁195	5978
4,15	5976
▁commercially	5976
3,95	5975
▁indications	5975
3,77	5974
▁Switch	5973
.71	5972
took	5972
rio	5971
▁184	5970
west	5969
▁revisions	5968
▁surveillance	5968
▁institute	5964
.53	5963
Power	5963
▁Ap	5962
▁Perpetual	5962
▁Wellington	5961
▁extinguish	5960
▁Cenovus	5958
▁fiduciary	5956
▁Régie	5955
▁compil	5955
8,60	5954
-61	5951
▁Eng	5951
cum	5949
▁BNS	5949
pur	5948
LT	5947
▁Université	5945
▁aviation	5944
▁3855	5943
▁defining	5943
RIT	5942
▁impair	5942
metric	5940
▁snow	5940
▁NCIB	5939
known	5938
▁Permitted	5938
▁enrolment	5938
STR	5937
▁Terra	5935
hour	5932
key	5931
pass	5931
▁regret	5931
▁summari	5927
▁safer	5925
4,20	5924
▁179	5923
▁Arts	5923
▁photo	5923
depth	5922
nounc	5922
▁Brook	5922
.81	5921
Notice	5921
own	5921
▁Email	5921
OUT	5920
▁BB	5920
▁CSIS	5920
▁throughput	5917
3,60	5916
▁undiscounted	5915
je	5914
fs	5913
▁diploma	5912
▁Leadership	5911
RES	5910
RR	5909
▁Looking	5908
▁struggl	5908
,680	5906
▁Variation	5906
▁177	5905
▁Super	5904
▁command	5903
▁compatible	5903
▁homosexual	5903
▁analyst	5902
▁Cundill	5901
col	5899
▁186	5899
▁1,47	5898
▁informal	5897
▁2,2	5895
▁forthcom	5892
phy	5886
lion	5884
▁Boeing	5884
nomination	5883
▁ineffective	5883
EE	5881
itz	5880
▁Clerk	5879
2,80	5878
▁187	5878
▁resell	5874
spread	5871
▁beautiful	5870
▁firearm	5870
arm	5869
how	5868
▁TRANSACTIONS	5868
▁scene	5868
▁420	5866
▁Membership	5866
▁DISTRIBUTION	5865
▁Answer	5862
▁Borrowing	5862
▁Delta	5862
▁thirty	5861
▁192	5858
▁Distributor	5858
▁bidder	5858
▁matures	5858
▁reflection	5858
▁sanction	5858
valued	5857
▁McGill	5857
▁analytical	5857
▁theatre	5857
▁improper	5856
▁spill	5855
▁plausible	5854
▁Method	5853
LF	5851
▁1,56	5851
▁3,1	5851
▁warrantie	5851
▁appropriateness	5850
▁ministerial	5850
4,95	5849
▁7.8	5849
▁Granite	5847
▁Hole	5846
▁Supp	5845
-82	5844
▁Communities	5844
▁reclamation	5844
▁winding	5841
▁Equal	5840
monetary	5838
▁presumed	5837
Le	5836
▁194	5836
ante	5835
lum	5835
▁Determine	5834
LU	5831
vote	5831
▁GHG	5830
▁brain	5829
Announces	5827
▁refinance	5827
▁6.25	5826
▁Ridge	5826
▁penetration	5825
▁unaware	5825
▁waivers	5821
▁aged	5818
▁gar	5818
CR	5816
capitalization	5816
ave	5814
oy	5814
▁bona	5814
▁Dia	5813
▁Carrying	5812
▁variances	5812
RF	5810
▁Inspection	5810
▁correction	5810
▁lend	5810
▁reiterate	5809
▁Afghan	5808
▁undivided	5808
▁Malartic	5806
bert	5804
▁stimulate	5804
hin	5802
▁EM	5802
▁NS	5802
▁352	5801
▁dog	5801
clu	5800
▁Ensure	5796
▁imbalance	5796
▁ratification	5795
▁passe	5794
nex	5793
wal	5793
▁RESPECT	5793
hearing	5792
▁Economy	5792
▁dramatically	5792
▁Sample	5790
▁postal	5790
▁Required	5786
▁Kar	5784
▁elaborate	5782
▁rescind	5782
cro	5781
▁convince	5780
value	5779
Nevada	5778
▁Church	5778
▁Floor	5777
▁MANAGER	5776
▁retailer	5776
▁downward	5774
▁Pages	5773
3,84	5772
▁weaknesses	5770
▁Evaluation	5769
▁promissor	5769
ontingencies	5768
▁Gi	5768
Select	5767
▁hop	5767
▁unobservable	5765
ease	5764
▁deliberate	5763
hedging	5761
▁Cam	5760
▁publishing	5760
▁Excise	5759
▁rush	5759
PAC	5758
▁intrinsic	5757
▁stored	5757
▁Converse	5756
▁Ultimate	5756
▁EXPENSES	5755
▁11.1	5754
▁320	5754
▁Weight	5754
▁wrap	5754
▁GOLD	5753
▁infringe	5753
▁1,70	5749
▁stabilization	5749
mpl	5748
▁arguabl	5748
▁alternate	5747
▁Broad	5746
▁sixth	5746
▁warn	5746
▁SG	5745
▁composite	5744
▁Canoe	5742
employee	5741
▁ASU	5741
▁EU	5740
▁verbal	5740
ban	5739
▁width	5737
▁Objective	5736
▁steam	5736
▁suspected	5736
▁1,63	5734
▁Dollars	5733
▁modernize	5733
▁abused	5732
▁Miss	5729
▁plea	5729
▁ASPE	5728
▁ensu	5728
▁upset	5728
established	5727
ulat	5726
▁broadband	5725
,760	5724
3,99	5724
▁imposition	5724
▁Associated	5723
▁Cree	5723
▁proving	5723
wife	5722
▁Found	5722
▁VOTING	5722
▁invitation	5722
▁COVID	5721
▁smart	5720
▁2030	5719
▁founder	5719
▁Tor	5718
▁9.3	5715
▁Climate	5714
▁Teck	5714
▁pursuit	5714
▁Debate	5713
▁1,99	5710
▁Tre	5710
▁francophone	5709
▁simulation	5709
▁metre	5708
▁FARC	5706
credibly	5705
▁NEB	5704
▁SHORT	5704
▁omitted	5704
▁BALANCED	5703
▁MEMBER	5703
▁conclud	5702
▁insurers	5702
▁minus	5701
2,66	5700
ogen	5700
▁PROVISIONS	5699
▁Survey	5698
▁ports	5698
,470	5697
▁tissue	5697
▁INTERNATIONAL	5696
▁arbitrar	5696
▁farmer	5696
▁logistics	5696
▁referral	5695
chem	5694
▁Capitalization	5693
-2015	5692
itic	5692
▁ATCO	5691
Pay	5690
▁182	5690
FE	5689
▁MAY	5688
▁bilateral	5688
page	5686
ption	5686
PUC	5684
▁227	5684
▁1867	5683
▁OECD	5683
▁median	5683
▁optimization	5683
3,07	5682
▁Kaur	5681
▁outweigh	5680
▁outflows	5678
▁Copie	5676
▁Chen	5674
▁freely	5673
▁proximity	5673
7,25	5670
▁Bon	5670
storm	5667
▁Gill	5667
refining	5664
thyl	5664
,720	5663
Call	5662
▁leak	5661
▁ci	5660
▁recreational	5660
▁ART	5658
▁Carl	5658
▁1,69	5656
▁Consultants	5656
gged	5655
▁DB	5654
▁Cat	5653
▁guy	5653
▁Sainte	5652
▁Leave	5651
recognized	5650
▁Fundamental	5650
▁farming	5650
▁CAP	5649
▁OCI	5649
▁Rivière	5647
▁Adopt	5645
▁Medicine	5645
NT	5644
stream	5643
IAN	5642
▁5,8	5641
▁securitized	5641
therwise	5640
▁aluminum	5640
▁translate	5637
▁1,66	5636
▁Comparative	5636
3,67	5635
▁yourself	5635
▁DEVELOPMENT	5634
▁Profile	5634
▁discover	5634
▁unexercised	5633
5.8	5631
▁5,3	5630
.52	5629
▁NBI	5628
▁commerce	5628
▁Get	5627
pac	5626
▁restructur	5626
▁1,77	5623
▁Summit	5623
3,18	5622
▁AAA	5622
▁TH	5622
▁diminish	5622
▁interrupt	5622
DEC	5621
▁HRC	5621
▁1,74	5620
▁COGECO	5619
alone	5617
counted	5617
▁transferr	5617
▁frais	5615
▁Mandate	5614
coupled	5613
AML	5612
Month	5612
Tech	5612
▁214	5612
▁Yu	5612
4,96	5610
▁4.25	5610
▁Supra	5609
FF	5608
▁EQUITIES	5607
▁emission	5607
currency	5606
▁Steve	5606
even	5604
8,25	5603
IGHT	5601
▁1971	5601
cia	5597
3,65	5594
denominated	5594
▁Genuit	5593
TIES	5592
▁takeover	5592
▁Constitutional	5591
▁PRE	5591
▁UNAUDITED	5591
ECT	5590
▁Relevan	5590
,660	5589
0,60	5589
▁Iron	5589
▁drink	5589
▁6.75	5588
▁domain	5587
▁breaking	5585
▁entrepreneurs	5585
▁alarm	5583
▁lessor	5582
,940	5581
▁FASB	5581
▁Opening	5581
case	5579
distinctivenes	5579
▁Registrant	5578
▁belonging	5578
▁incidental	5577
Dec	5576
▁deterioration	5575
▁6,8	5574
▁Advanced	5573
LV	5572
ore	5572
▁Jud	5572
,110	5571
▁fluctuation	5571
my	5570
▁Clear	5569
▁Youth	5568
due	5567
▁5.50	5565
vival	5564
▁215	5564
▁Maintain	5563
▁specifie	5563
▁Normal	5562
▁tailings	5562
Looking	5559
ependant	5559
▁infringement	5559
investment	5554
▁cru	5554
alloway	5553
▁270	5553
▁Primary	5551
▁Township	5551
LIC	5548
▁conceded	5548
8,10	5547
▁Exception	5547
▁Difference	5546
▁integrat	5546
▁mortality	5546
▁Oliver	5545
oil	5544
▁commissioned	5544
▁BOND	5543
adi	5542
▁whip	5541
▁Critical	5540
▁330	5539
▁Opportunit	5539
-150	5538
▁Visa	5538
▁MARCH	5537
▁Sentinel	5537
▁Trinidad	5536
▁caregiver	5536
Monetary	5535
Corp	5533
▁LIABILITIES	5533
▁Liberty	5533
▁8.4	5532
▁intense	5532
▁11.5	5530
▁CIC	5530
Integrated	5529
▁Engineer	5528
▁RC	5526
▁Treasurer	5525
▁subsidy	5525
▁Accept	5522
TIN	5520
▁Author	5520
▁grid	5520
▁movie	5520
▁abandonment	5519
▁EAFE	5518
▁switched	5518
▁Boy	5517
▁SEPTEMBER	5517
▁problematic	5517
▁Television	5516
▁thermal	5516
,288	5515
-53	5515
7,40	5515
▁motive	5514
curring	5511
▁Initiative	5511
forma	5510
▁Purchased	5510
▁metallurgical	5510
ues	5509
PW	5508
▁QUÉBEC	5508
▁Capitalized	5505
▁center	5505
encing	5504
▁Cut	5504
▁Facebook	5504
TAIN	5501
▁Neptune	5501
▁PP	5500
duct	5499
equity	5499
otential	5498
3,40	5495
cular	5495
▁Assumption	5495
ilia	5494
▁logic	5492
▁reproduced	5492
MAR	5491
▁cyclical	5491
▁RESPs	5490
▁exporter	5490
▁stolen	5490
▁INDEX	5489
▁Assume	5488
ND	5487
ambi	5487
gold	5487
▁craft	5486
▁formulation	5486
rk	5484
▁Dorel	5484
▁SH	5484
3,39	5483
8,70	5483
approved	5482
▁AMENDMENT	5482
▁Evolve	5482
3,70	5480
▁1,61	5480
Duty	5479
▁MUTUAL	5479
▁DS	5478
▁announc	5477
▁persecute	5477
▁ni	5476
▁pyrite	5476
▁ESTATE	5475
3,14	5474
ncillary	5472
▁coach	5472
box	5470
▁collaborat	5470
▁orally	5470
9,40	5466
▁600,000	5466
▁Holdco	5466
Fund	5463
▁1,76	5463
located	5462
gov	5461
▁donat	5460
char	5459
ben	5458
▁235	5458
▁Cont	5458
Duties	5457
▁DATE	5455
▁Hand	5455
pay	5454
3,30	5453
gainst	5453
management	5452
▁dental	5452
glica	5449
▁VIA	5449
▁educated	5448
▁enrich	5448
▁incomplete	5448
▁dozen	5446
▁overwhelming	5445
hear	5444
mond	5444
▁196	5444
▁milestones	5444
▁Aircraft	5442
▁remorse	5441
9,70	5440
▁alignment	5440
TOR	5439
hang	5439
-2010	5438
▁401	5438
▁Arabia	5438
▁Caribbean	5438
▁391	5435
▁distress	5435
ky	5434
▁Bangladesh	5434
RD	5432
substantiate	5432
▁rebalance	5432
▁2,01	5430
6,70	5429
▁lake	5429
▁legislator	5429
▁aggravat	5427
-74	5426
▁forgotten	5426
▁cpa	5425
▁Knowledge	5424
▁RELATED	5423
▁Ye	5418
▁standby	5418
▁verdict	5418
pli	5417
▁tenure	5417
▁Operation	5416
9,10	5415
▁CL	5415
▁bl	5415
▁Cas	5414
▁FX	5414
▁dominant	5414
▁isolation	5414
▁legislate	5414
GR	5413
▁bargain	5413
atic	5411
hum	5411
▁7,5	5411
▁LAB	5411
▁timelines	5410
▁Austin	5408
▁premise	5408
5,20	5407
▁Falconbridge	5404
▁Sir	5404
▁10.3	5402
▁2.25	5402
▁cure	5401
3,76	5399
▁APPEAL	5399
CHRT	5398
pit	5398
▁advancing	5398
▁authentic	5396
▁trace	5395
▁Kingston	5393
▁PO	5393
▁Participating	5392
economic	5391
▁Chicago	5389
▁Tamil	5389
,610	5388
0,10	5388
7,10	5388
trust	5387
▁275	5387
▁FIN	5387
4,09	5385
▁1,95	5385
▁Coal	5384
3,11	5383
▁Carignan	5382
Temp	5381
▁Actuarial	5380
▁ME	5380
▁Ship	5379
effective	5378
clock	5377
▁supplemented	5376
nous	5375
AA	5374
▁202	5373
▁1,73	5370
▁Argentina	5370
,510	5369
DG	5369
▁Improvement	5369
▁Mann	5369
▁Sc	5369
▁float	5369
▁relieve	5368
-57	5367
disputed	5366
obi	5365
▁IFRIC	5364
▁Hart	5363
▁consequential	5363
▁nominating	5363
Registered	5362
vor	5361
▁optimal	5361
4,13	5360
▁1,82	5359
▁contention	5359
▁meantime	5359
▁ref	5358
▁Depending	5357
▁certify	5357
▁gay	5357
▁NQ	5356
▁VOTE	5356
ORE	5355
▁Laurier	5355
▁Granted	5354
▁Synergy	5354
▁bottle	5354
▁detractor	5353
▁208	5352
dra	5351
▁Crude	5351
▁workshop	5351
▁Below	5348
AMI	5346
▁Limitation	5346
ables	5345
▁Que	5345
▁everywhere	5345
▁Scholarship	5344
▁counsellor	5344
▁communicat	5341
▁TCPL	5339
▁4.50	5337
9,98	5336
▁disclaim	5335
,066	5334
▁206	5334
▁7,0	5334
,810	5333
▁Georgia	5333
▁embarrass	5333
▁instant	5332
digit	5331
▁avenue	5331
6,10	5330
Inc	5330
hot	5330
,714	5329
▁199	5329
▁Ze	5329
COUNT	5328
▁Lot	5328
▁ca	5328
▁liquidate	5328
0,25	5326
▁entries	5326
▁Appelant	5324
Reviewed	5323
NL	5322
▁Domestic	5322
▁Intact	5322
▁matching	5322
▁smuggler	5322
▁Dissent	5321
9,25	5320
IV	5319
PM	5317
nction	5317
▁flood	5316
-71	5315
▁1,84	5315
▁advancement	5314
step	5312
▁1,72	5311
▁Churchill	5311
▁IND	5310
▁hybrid	5310
▁install	5310
ule	5309
▁Approach	5309
▁Imm	5309
▁observation	5308
INSTRUMENTS	5305
▁Disclose	5305
▁cheese	5304
2,79	5303
employed	5303
▁1,64	5302
▁hall	5302
▁predictable	5302
run	5300
▁ULC	5299
chip	5298
▁Bowater	5298
▁Engagement	5297
ont	5296
0,70	5295
▁Disposal	5295
▁PURCHASE	5295
,064	5294
▁7,4	5294
▁Provider	5294
▁disseminated	5294
,476	5293
▁indefinitely	5293
▁MPI	5292
▁norm	5292
▁harmful	5291
▁wildlife	5291
▁EST	5290
▁CREDIT	5289
▁federally	5289
FG	5288
▁12.1	5287
▁decreasing	5287
▁info	5287
▁Sherritt	5284
▁subdivision	5284
Staun	5283
▁conven	5283
Sc	5279
adviser	5279
jurisdictional	5279
▁galler	5279
▁persist	5278
▁concurrently	5277
▁fortunate	5277
▁upward	5277
▁distinctive	5276
▁265	5274
▁ER	5273
▁Kelly	5273
,970	5271
▁Excludes	5270
▁BOR	5268
▁Congress	5267
deliberations	5266
▁deploy	5266
6,20	5264
ifying	5264
▁Factor	5264
▁validate	5264
9,95	5263
▁maritime	5263
▁207	5262
▁Transmission	5262
,890	5261
▁tempore	5261
▁Category	5260
▁indemnify	5260
far	5259
▁cohabit	5258
counter	5257
▁Medi	5257
ado	5256
forcing	5256
mat	5256
STA	5255
▁rein	5255
▁concert	5254
▁dark	5254
▁Thunder	5253
▁triggered	5253
iste	5252
▁Parkland	5252
new	5251
▁deteriorate	5251
▁unionized	5249
▁STATES	5248
▁Brand	5246
▁blend	5246
7,96	5245
Bro	5244
▁alert	5244
nar	5242
▁Gazette	5242
▁passion	5242
,081	5241
▁technician	5240
kel	5239
▁Lloyd	5238
▁ob	5237
pec	5236
▁Reuters	5236
,648	5235
3,29	5234
▁rebalancing	5234
▁Leaf	5233
▁Exp	5228
▁Oversight	5228
otted	5227
▁balancing	5226
▁1,68	5225
▁Subscribers	5225
▁smoking	5225
.58	5224
▁Readers	5224
▁injustice	5223
bury	5222
ien	5222
▁2,05	5222
▁Brokerage	5221
pond	5220
▁Games	5220
▁Resum	5220
▁Promoter	5219
▁tactic	5219
,083	5218
agne	5218
▁lifestyle	5218
▁disbursement	5217
▁Microsoft	5216
▁Phil	5215
▁Swap	5215
haul	5214
▁mo	5214
▁Ore	5212
0,20	5210
▁odd	5210
trap	5209
▁caring	5208
▁être	5208
put	5207
tention	5207
▁2,04	5207
,197	5206
ESS	5206
ech	5206
read	5206
▁Qui	5206
▁1,98	5205
▁jump	5205
▁0.13	5204
rim	5203
rod	5203
,832	5202
,664	5201
-88	5201
▁Guidance	5201
▁Hor	5201
▁Investigation	5201
▁shame	5201
▁controvers	5200
court	5199
money	5199
▁1,92	5199
▁Corn	5199
▁vigorous	5199
,237	5198
0.90	5198
▁Spectrum	5198
▁preferential	5198
▁franchisee	5195
,267	5194
▁Daily	5194
▁Ratios	5194
2,90	5193
pplicable	5193
▁6,1	5193
,910	5192
▁Dickson	5192
▁Sho	5192
▁197	5191
▁pollut	5191
ATIONS	5190
▁Albania	5190
▁Morocco	5190
ML	5189
▁1,96	5189
7,70	5188
▁Storage	5188
4,70	5187
5,24	5187
▁Brazilian	5187
▁owning	5187
GEN	5186
▁photos	5186
NO	5185
flo	5185
▁Compound	5185
▁Nisg	5185
▁circuit	5185
▁leveraged	5185
3,59	5184
tch	5184
▁340	5183
jan	5182
▁Mis	5182
▁Tkachuk	5182
▁Westminster	5182
▁Permit	5181
▁dictate	5181
▁immunit	5181
▁montant	5181
▁PH	5180
▁THREE	5180
▁boundary	5180
-81	5179
▁inaccurate	5179
PV	5177
segment	5175
▁deliberately	5175
Link	5174
▁threaten	5174
FS	5172
▁1,85	5170
,566	5169
▁Wayne	5169
pher	5168
▁salmon	5168
▁accretion	5165
TON	5164
▁MC	5164
▁TABLE	5163
Out	5162
▁Vested	5162
dge	5161
ister	5161
udi	5161
▁2,000,000	5160
▁Renard	5159
0.7	5158
▁safely	5158
HD	5156
▁PROPERTY	5156
,032	5154
▁6.50	5154
▁Helicopter	5154
▁Selection	5154
▁accessibility	5154
9,90	5153
price	5153
▁Components	5152
▁apparel	5151
▁convenient	5151
▁Obtain	5150
▁AutoCallable	5149
▁Guyana	5148
▁Shar	5148
equent	5147
▁Attention	5147
▁Servicer	5147
▁pertinent	5147
888	5146
▁Gary	5146
▁Introduction	5146
▁2,02	5145
▁dying	5145
amalgamated	5144
▁Formation	5142
▁flee	5142
,576	5141
mouth	5141
gle	5139
▁Roche	5139
,835	5137
▁Tobacco	5135
,287	5134
▁answering	5134
,637	5129
zer	5128
▁Charlotte	5127
▁Geographic	5127
,937	5126
▁315	5126
▁Exemption	5125
,668	5124
2,87	5123
▁Hartford	5122
tries	5121
▁Disc	5121
▁Owned	5119
8,40	5118
▁prosecute	5118
▁10,0	5117
▁harsh	5117
PG	5116
▁248	5116
,519	5114
ff	5114
▁Much	5113
▁download	5113
8,20	5112
cembre	5112
group	5111
▁IRS	5111
▁grocery	5111
4,60	5110
▁Chemical	5110
▁PAR	5110
▁bench	5110
-170	5108
▁centers	5108
,432	5106
lacked	5106
▁Indicated	5106
,063	5105
▁dwelling	5105
CF	5104
▁contacts	5104
▁Location	5103
▁kick	5102
PSC	5101
▁magazines	5101
▁refrain	5101
▁0.09	5100
▁222	5100
▁Jurisdiction	5099
▁girlfriend	5098
,119	5097
▁Permanent	5097
▁Aimia	5096
4,500	5095
ott	5095
▁Ground	5095
▁polling	5095
▁Brompton	5094
Bill	5093
▁fun	5092
4,35	5091
GD	5091
▁280	5091
▁collaborative	5091
▁Knight	5087
▁firefighter	5087
▁turnaround	5087
▁Dossier	5085
ois	5084
▁HIGHLIGHTS	5084
,143	5083
▁198	5083
▁pillar	5083
,097	5082
‖	5081
,238	5080
,532	5080
,944	5080
▁resist	5079
cou	5078
had	5078
▁imperative	5078
▁6,0	5077
▁enforced	5076
▁Côté	5073
▁Disposition	5073
3,49	5072
▁kg	5072
,438	5071
▁detection	5071
por	5070
▁cautious	5070
▁cr	5070
▁relocate	5070
▁1,81	5069
▁Reinsurance	5069
▁333	5068
▁preserv	5068
ept	5067
▁ample	5067
▁prominent	5067
-75	5066
,734	5065
ddle	5064
▁Bouchard	5063
▁Skills	5063
ody	5062
▁CEE	5062
▁MM	5061
▁Self	5061
-62	5060
▁grab	5059
▁pandemic	5057
▁clearance	5056
▁Ya	5054
▁doubled	5054
▁sacrifice	5054
abl	5053
▁1,88	5052
▁Track	5052
▁incapable	5051
▁unrecognized	5050
▁Dairy	5049
▁funeral	5049
company	5048
▁sens	5047
▁relocation	5046
▁beaten	5045
▁2,00	5044
gua	5043
,568	5042
▁Imp	5042
▁Station	5042
▁computation	5042
▁Discuss	5041
▁Fil	5041
▁specialist	5040
▁Dubé	5039
▁sudden	5039
0.1	5038
▁AI	5038
,635	5037
,429	5036
▁DEX	5036
▁Miller	5035
▁immun	5035
▁Mah	5033
,564	5032
▁Conv	5032
▁Kan	5032
▁cattle	5032
▁silent	5032
,426	5031
riving	5031
,912	5030
range	5030
-76	5028
yne	5028
,647	5027
,156	5026
▁researchers	5026
,870	5025
bec	5025
▁Aid	5024
▁sophisticated	5022
7,20	5021
▁Turn	5021
▁variabilit	5021
,113	5019
,935	5019
1,20	5019
▁1,78	5019
▁1,87	5019
▁View	5019
,616	5018
TR	5018
▁Aston	5018
▁stringent	5018
,220	5017
▁Okanagan	5017
▁Scientific	5017
,224	5016
▁Complex	5016
alive	5015
written	5015
▁organ	5014
▁mitigat	5012
▁beef	5011
▁differentiate	5011
▁specialize	5011
▁technique	5011
▁temp	5011
,523	5010
▁EXPLORATION	5010
▁0.35	5009
▁Rick	5009
Offence	5008
▁noon	5008
7,99	5005
sponsored	5005
▁203	5005
0.5	5004
▁211	5004
▁dislocation	5003
0,15	5001
▁centraliz	5001
▁responsive	5001
▁2,6	4999
▁Attendance	4999
odo	4998
▁Stratton	4997
▁forfeiture	4997
,266	4996
0,13	4996
cours	4996
▁346	4996
▁Delaware	4996
▁carryforward	4996
0,21	4995
▁0.18	4995
▁Blvd	4995
▁VII	4995
▁Contractual	4994
,687	4993
-87	4993
▁224	4992
▁Joyal	4992
,584	4990
▁Chan	4990
▁leas	4990
,086	4989
,234	4989
▁shipment	4989
,178	4988
,419	4988
commerce	4987
▁Allan	4986
,474	4985
▁Axcan	4984
tia	4983
▁Waste	4983
▁Ren	4982
tected	4981
▁Kin	4981
▁valu	4980
▁intercompany	4979
▁novel	4979
▁regulator	4978
▁6,5	4975
▁silence	4975
,184	4973
▁cheap	4973
,326	4972
,938	4971
▁grading	4971
▁Italian	4970
▁scan	4970
▁Putnam	4969
-56	4966
NESS	4966
,987	4965
-58	4965
▁Sy	4965
4,10	4964
▁223	4964
▁1,86	4963
,976	4962
▁Ali	4962
▁Adv	4961
▁Huru	4961
HY	4960
aba	4960
▁Count	4960
▁Tra	4960
▁conc	4959
▁Grain	4958
▁alleg	4958
▁devoted	4958
▁DEPOSIT	4956
▁GMi	4956
9,30	4955
▁Hat	4955
▁Spring	4955
▁genocide	4955
▁optimistic	4955
▁237	4954
3,80	4953
▁fled	4952
▁Examin	4951
▁FA	4951
7,9	4950
UC	4950
▁downtown	4950
,796	4948
ike	4948
▁10.4	4948
▁traveller	4948
9,80	4947
Am	4947
▁Composition	4947
▁streamline	4947
,316	4946
,689	4946
pot	4946
▁psych	4946
5,99	4944
▁im	4943
▁literal	4943
REG	4942
▁2,7	4942
▁CONDENSED	4942
▁classify	4941
,077	4940
▁241	4939
▁officially	4938
,534	4937
enne	4937
▁Limit	4935
▁capita	4935
,409	4934
▁Acquir	4934
▁WTO	4934
imp	4933
▁ver	4933
▁Algeria	4932
▁devastating	4932
9,24	4931
▁2035	4931
▁216	4931
▁Gatineau	4931
,613	4930
▁solvency	4930
,546	4928
7,95	4928
gas	4928
▁2,07	4928
3,69	4927
direct	4927
paying	4927
,134	4925
Backed	4924
▁Discovery	4924
▁LL	4924
▁Rouge	4924
▁EIC	4923
▁Mad	4923
7,98	4922
▁citation	4922
▁ASS	4921
▁diplomatic	4921
-2017	4919
-64	4919
0,35	4919
▁appetite	4919
▁période	4919
,469	4918
3,57	4917
▁2.75	4917
▁Eric	4917
not	4916
▁MT	4916
gh	4915
,736	4913
▁218	4913
▁Sweden	4913
▁respectful	4912
,526	4911
gie	4910
via	4910
▁corrective	4910
-2012	4909
NA	4909
paid	4909
phone	4909
▁northeast	4908
▁bright	4906
▁Ob	4905
▁refinery	4905
severity	4904
▁Sar	4904
▁Talisman	4904
RN	4903
▁0.16	4903
▁adapted	4903
2,97	4902
ire	4902
▁Similar	4902
▁Treaty	4902
▁ces	4902
vir	4901
▁CTC	4901
▁Library	4901
▁Protocol	4901
▁Ocean	4900
▁Website	4900
,223	4899
▁Explor	4898
▁4,7	4897
▁Obligation	4897
9,20	4896
▁anticipation	4894
▁cleaning	4894
,786	4893
,716	4892
▁dia	4892
▁pregnancy	4892
6.00	4891
▁Conclusion	4891
,569	4890
▁Kings	4889
,535	4888
,718	4888
VA	4888
▁MATTER	4888
▁preamble	4888
2,89	4886
▁1960	4886
▁Astral	4886
,837	4885
▁policyholder	4884
▁état	4884
6,24	4883
UF	4883
canada	4883
▁372	4883
▁CG	4883
,148	4882
▁outflow	4882
OF	4881
,488	4880
,638	4880
,794	4880
num	4880
ures	4880
▁229	4880
▁vacant	4880
▁Expansion	4879
,614	4876
,684	4875
▁Ga	4874
▁Prairie	4874
▁northwest	4871
■	4871
,422	4869
,712	4869
▁induce	4869
▁loophole	4867
,458	4866
▁ARC	4866
,557	4865
▁Describe	4865
,585	4864
9,96	4863
▁Wright	4863
▁excited	4863
nan	4862
▁magnitude	4862
-84	4861
4,65	4860
▁abortion	4859
Edge	4858
▁Penn	4858
GB	4857
▁Sky	4857
,521	4856
staples	4856
vit	4856
▁1,75	4856
▁0.14	4855
▁Chemtrade	4855
abid	4854
executing	4853
fic	4853
,917	4851
▁AUM	4849
▁murdered	4849
WT	4848
▁belt	4848
▁bodily	4848
▁originated	4848
6,67	4847
▁Sobeys	4847
▁wild	4847
arn	4846
▁casual	4846
▁specialists	4846
,447	4845
▁Wajax	4845
,887	4844
▁75,000	4844
,975	4842
.51	4842
azi	4842
MV	4841
▁Affidavit	4841
▁Perform	4841
-65	4840
▁2029	4840
MET	4839
▁knee	4838
settled	4837
▁Comparable	4837
▁journey	4837
keeping	4836
privileged	4836
▁fly	4836
CTION	4835
DF	4835
NP	4835
▁Amend	4835
▁SFAS	4835
▁Prepaid	4834
▁exploit	4834
,789	4833
bridge	4833
fall	4833
▁2,03	4833
▁landlord	4833
▁Za	4832
PORT	4831
,733	4830
▁Deficit	4830
GF	4828
▁SS	4828
hak	4827
▁LONG	4826
▁NR	4825
▁Nomination	4825
3,75	4824
Removal	4824
▁ceiling	4824
,599	4823
▁importer	4823
efficient	4822
▁creative	4822
▁4,00	4821
,089	4820
▁emphasized	4820
▁retraction	4820
,729	4819
rock	4819
▁217	4819
▁René	4819
bas	4818
▁roof	4818
,674	4817
▁0.17	4817
▁acc	4817
,475	4816
▁Legislative	4816
▁excerpt	4816
,783	4815
5,15	4815
ATING	4814
Subsequently	4814
9,37	4813
8,77	4812
SH	4812
rench	4812
▁severely	4812
4,07	4811
▁1,79	4811
,644	4810
adian	4810
▁dimension	4810
cumulative	4809
▁successive	4809
5-4	4808
,728	4807
▁Outside	4807
tron	4806
,306	4805
drawn	4804
▁efficac	4804
▁1,80	4803
▁hunting	4802
▁utilizing	4802
,717	4801
▁Close	4801
9,48	4800
▁divest	4800
,856	4799
▁251	4799
▁lowering	4799
,839	4798
▁Belgium	4798
,318	4797
▁Aecon	4797
,948	4796
La	4796
▁nearest	4796
worth	4795
▁VaR	4795
▁disclos	4795
▁Bas	4794
▁Apple	4793
▁Result	4792
▁magnetic	4792
,141	4791
▁signatures	4790
▁JPY	4789
4,74	4788
▁accompany	4788
0,1	4787
press	4787
▁expressions	4787
Chairman	4786
▁niche	4785
ort	4784
▁Trial	4784
▁GENIVAR	4783
OSS	4782
▁Withdrawal	4782
▁Ri	4781
8,74	4780
▁Litigation	4780
▁Richmont	4780
▁predicted	4780
0,24	4779
▁2028	4779
,434	4778
0,95	4777
▁Rimouski	4777
▁illegally	4777
▁2,16	4776
▁renounce	4775
▁apology	4774
▁vis	4774
abil	4773
▁267	4773
▁exhaust	4773
▁CMA	4772
,186	4770
,464	4770
▁quo	4770
▁Acuity	4769
▁PRICE	4769
ride	4767
▁245	4767
▁Vision	4767
▁vol	4767
3,55	4766
,927	4765
▁Lender	4765
▁McDonald	4765
,816	4764
▁specializ	4761
▁3.50	4760
,574	4759
7,90	4759
nat	4759
7,77	4758
▁Licence	4758
▁MacKay	4758
,611	4757
▁CWB	4757
▁toxic	4757
▁7,8	4756
▁décision	4756
▁surviv	4756
,662	4755
,866	4755
▁850	4754
▁Packaging	4754
,451	4753
,727	4753
sustaining	4753
vil	4753
▁gainful	4753
▁inadmissibilit	4752
,562	4751
▁assent	4751
▁troubling	4751
8,82	4748
▁island	4748
▁Scenario	4747
,314	4746
▁conclusive	4746
,913	4745
▁TORONTO	4745
▁contracting	4745
aria	4744
▁notable	4744
▁simulator	4744
▁Suisse	4743
▁groupe	4743
▁226	4742
▁Military	4742
0,90	4741
▁2,09	4741
▁Pit	4741
▁Chase	4740
▁fluid	4740
6,60	4739
IZATION	4739
▁bigger	4737
▁donation	4737
6,65	4736
▁Concentration	4736
▁FTQ	4736
▁Marshall	4736
▁dramatic	4736
,631	4735
▁234	4735
▁Salary	4734
▁Hub	4733
▁Restaurant	4733
▁embrace	4733
▁0.60	4732
,233	4731
▁Hotels	4730
cation	4729
osa	4728
▁summit	4728
▁232	4727
RAN	4726
performing	4726
▁290	4725
▁11.2	4722
,472	4721
▁favor	4721
disproportionate	4720
▁Intelligence	4720
▁Sand	4720
▁estimat	4720
0,32	4719
poli	4719
gging	4718
nal	4718
oom	4718
▁Richelieu	4718
▁MONTHS	4717
▁spa	4717
▁375	4715
▁ITA	4715
uel	4714
▁221	4714
▁peaceful	4714
▁honestly	4712
▁AFS	4711
▁briefing	4711
▁540	4710
▁Idem	4710
,942	4709
▁comparator	4709
TIC	4706
,766	4705
4,19	4705
5,60	4705
aire	4705
-004	4704
▁insolvency	4704
▁Automotive	4703
▁Greece	4702
,919	4701
NER	4701
,645	4700
▁Enforcement	4700
▁intercept	4700
▁Harder	4699
▁Morin	4698
muni	4697
▁CCA	4697
optic	4695
4,40	4694
▁synth	4694
Chair	4693
▁lobbyist	4693
9,36	4692
MEX	4692
▁Identification	4692
,512	4691
,622	4691
DAC	4691
0,96	4690
▁Ram	4689
-89	4688
,539	4687
▁PERSON	4687
▁edition	4687
▁unwilling	4687
,418	4686
business	4686
surable	4686
▁GWh	4686
▁Sh	4686
,914	4685
▁Automatic	4684
▁biotechnology	4684
▁sympath	4684
,906	4683
▁scrap	4683
favourably	4681
,656	4680
▁231	4680
▁hike	4680
▁eleven	4679
7,60	4678
language	4678
omi	4677
▁13.1	4677
,932	4676
▁terme	4676
monies	4675
▁1,83	4675
▁Parts	4675
7,74	4674
terminable	4673
▁Coutu	4673
▁371	4672
▁Los	4672
5,05	4671
,643	4670
,925	4670
thwith	4670
▁harass	4670
ALEX	4668
▁2,12	4668
,295	4666
▁238	4666
▁REVENUE	4665
▁sequence	4665
0,77	4664
elli	4664
▁Inception	4664
▁Brampton	4663
▁accessori	4663
▁dose	4663
,868	4661
,231	4660
,878	4659
▁Watson	4659
▁Saputo	4658
LAR	4657
▁breast	4657
▁Ian	4656
▁Logistics	4656
▁custodial	4656
▁fatal	4656
,315	4655
9,35	4655
▁Reliance	4655
▁Bankruptc	4652
▁Manning	4651
▁Neil	4651
7,05	4650
▁1,89	4649
▁Dallaire	4649
▁11,0	4648
▁winner	4646
▁PRIVATE	4645
▁Legacy	4644
▁Valene	4643
▁219	4642
▁Southwest	4641
▁rebuild	4641
▁harbour	4640
,579	4639
security	4639
▁2,15	4639
▁Cancer	4639
▁Ressources	4639
0,48	4638
▁Apply	4638
▁Reflect	4638
▁Strat	4638
ara	4636
face	4636
rien	4636
▁RDSP	4636
serving	4635
terna	4634
▁compassion	4634
bro	4633
▁Inquiry	4633
▁depict	4633
▁checked	4631
5,50	4630
creditworthiness	4629
lease	4629
▁AGENT	4629
▁infer	4629
▁Ryan	4626
▁Square	4626
▁fifteen	4626
▁tip	4626
9,45	4625
▁reache	4625
,192	4623
,823	4623
0,99	4623
9,82	4622
.1.1	4621
0,30	4619
<	4619
▁233	4619
,849	4618
0,17	4618
▁Understanding	4618
,623	4617
,673	4616
4,18	4616
▁Deutsche	4616
,831	4615
▁FH	4615
▁Positive	4615
▁Hence	4614
▁Korean	4614
▁Excellence	4613
▁smelter	4612
,941	4611
▁birthday	4611
▁Div	4610
Comm	4609
DV	4609
▁Servicing	4609
▁distribut	4608
▁Kent	4607
▁environmentally	4607
,781	4606
-160	4605
▁12,000	4605
▁Village	4605
.90	4603
0,74	4603
ket	4603
mex	4603
script	4603
tting	4603
▁Salaries	4603
borough	4602
trial	4602
▁redevelopment	4602
,308	4601
ridge	4601
▁Going	4601
,974	4599
5,27	4599
▁NE	4599
,898	4598
▁MQP	4597
▁Prepare	4597
,713	4596
▁10.6	4596
▁Receive	4596
▁auction	4596
▁rebutt	4596
Gold	4594
MAX	4594
▁236	4593
▁cycles	4592
,812	4591
4,69	4591
5,88	4591
▁Cowan	4591
▁Rem	4591
▁conscience	4591
,681	4590
8,88	4590
LES	4590
ONS	4590
▁14.1	4590
▁228	4590
▁explor	4590
▁Brita	4587
,858	4586
wall	4586
▁landscape	4585
▁passionate	4584
▁inevitabl	4583
,171	4582
▁Harvest	4582
▁economist	4580
▁linguistic	4579
▁mois	4579
,809	4578
▁GGOF	4577
▁mediation	4577
▁rea	4577
national	4576
▁Gerald	4576
▁MATERIAL	4576
▁changeover	4576
▁rel	4576
▁drove	4575
Pierre	4574
▁ANY	4574
▁attachment	4574
eck	4573
▁attaching	4573
▁speculation	4573
explored	4572
▁Jewish	4572
▁grandfather	4571
medic	4570
▁leasehold	4570
▁professor	4569
▁cas	4568
0,45	4567
Mo	4567
▁Niagara	4567
▁Kinross	4566
▁gangs	4566
,711	4565
▁1969	4565
▁ACTIVITIES	4565
▁Diane	4565
▁Substantial	4565
,103	4564
▁observer	4564
log	4563
▁egg	4563
8,24	4562
▁392	4562
▁tension	4562
,542	4561
5,26	4558
▁1,97	4558
▁Chorus	4558
▁Keith	4558
▁Sudan	4558
▁Vendor	4558
ulation	4557
,211	4556
migr	4556
AIL	4555
5,09	4554
▁Ron	4554
evaluation	4553
ologist	4553
▁Prud	4553
▁1968	4552
▁CONDITION	4549
▁Norway	4549
▁overnight	4549
4,39	4548
FU	4548
▁1,71	4548
▁Med	4548
,865	4547
ASE	4547
hood	4547
▁Audited	4547
For	4546
▁multinational	4546
-2008	4545
5,40	4545
Jun	4545
▁McLachlin	4545
▁8,9	4543
▁Consent	4543
▁handed	4543
8,09	4542
▁risky	4542
5,77	4541
urre	4541
▁Aurora	4541
▁Ltée	4541
▁PARTNERSHIP	4541
,907	4540
ISH	4539
▁7.00	4539
▁Trois	4538
5,500	4537
▁Ext	4537
0.2	4536
dom	4536
▁Being	4536
▁PAGE	4536
▁sq	4536
4,49	4535
Premium	4535
▁Ann	4535
▁emb	4535
▁origination	4534
▁solidarité	4534
0,82	4532
▁Yves	4532
▁Boost	4531
Nova	4530
▁Brief	4530
▁CHANGE	4530
▁mistaken	4530
▁testimoni	4530
▁Av	4528
2,47	4527
bow	4527
▁avoided	4527
,183	4525
-2019	4525
▁Agnico	4525
,774	4524
▁Blend	4524
▁stockholders	4523
▁eventual	4522
,799	4521
rill	4521
▁restored	4521
▁enforceabl	4520
▁imaxx	4520
5,95	4519
pine	4518
▁2,13	4518
▁simultaneously	4518
▁impressive	4517
osity	4516
▁490	4515
▁Camp	4515
▁ISSUE	4514
▁clarified	4514
▁multiply	4514
▁Unlimited	4513
,541	4512
5,70	4512
9,09	4512
▁Cook	4512
,911	4511
oz	4511
,706	4510
▁Crime	4510
▁Kim	4510
▁Roger	4510
▁prisons	4510
▁random	4510
▁11.3	4509
▁FE	4508
▁reservoir	4508
▁fa	4507
,759	4506
▁2,24	4506
▁Duncan	4506
▁Fish	4506
▁oppos	4506
,792	4505
bot	4505
,698	4504
▁remedial	4504
▁Clearing	4503
ject	4502
▁CAPREIT	4502
▁Tru	4501
▁bind	4501
▁humanity	4501
,552	4500
▁amazing	4500
5,74	4498
pouse	4498
▁Monte	4498
▁Timmins	4498
sec	4496
▁Very	4496
AK	4495
nquiries	4495
▁MONTREAL	4495
▁liberty	4495
MAC	4494
▁Background	4494
▁Khan	4494
Segmented	4492
▁WM	4492
wealthy	4491
▁Establishment	4491
▁Alto	4490
▁incorporat	4490
,758	4486
wearing	4486
▁0.11	4485
▁Hard	4485
▁ph	4485
▁foresee	4482
-78	4481
5,19	4481
▁Ju	4481
▁condominium	4481
▁Mari	4478
▁Gray	4476
0,98	4474
▁Module	4474
3,86	4473
ANA	4473
▁2,20	4472
▁reassess	4472
▁Ward	4470
▁diabetes	4470
▁judicata	4470
▁implicit	4469
▁lapse	4469
▁competency	4468
▁freeze	4468
▁interruption	4468
▁irregularit	4468
voked	4467
▁compilation	4467
▁foremost	4467
7,09	4466
SERV	4466
partisan	4466
shell	4466
mann	4465
▁intimate	4464
▁81-107	4463
▁thoroughly	4463
▁Ukrainian	4462
,298	4461
▁complained	4461
▁Escrow	4460
▁Normalized	4460
-66	4458
▁CSR	4458
▁RR	4458
9,32	4457
,517	4456
▁Connor	4456
▁Roll	4456
▁reassessment	4455
▁Talvest	4454
▁Carbon	4453
▁decommissioning	4453
rou	4452
▁missions	4452
▁sooner	4452
LAN	4450
iers	4450
▁Bankers	4449
▁articulated	4449
▁automated	4448
▁Barry	4447
▁CRC	4447
▁EXCHANGE	4445
5,10	4443
9,75	4443
,392	4441
ional	4441
,905	4439
-2000	4439
▁819	4438
,621	4435
matched	4435
▁prong	4435
9,88	4434
▁Anthony	4433
▁Phoenix	4433
DB	4432
▁Hudson	4431
▁Morris	4430
▁TAXES	4430
▁okay	4430
4,14	4429
▁conventions	4429
logic	4428
pm	4426
,658	4425
▁Kitchener	4425
▁cloud	4425
▁levie	4425
4,59	4424
▁13.5	4424
▁outlets	4424
▁recycled	4423
▁2,10	4422
▁2,27	4420
▁Poland	4420
elected	4419
▁amorti	4419
▁locked	4419
MM	4418
brook	4418
maker	4418
▁WTI	4418
▁sulphur	4418
▁10,000,000	4417
▁grateful	4417
▁Bat	4416
0.4	4415
REE	4415
▁4.75	4414
▁anxiety	4414
,102	4412
4,55	4412
umped	4412
▁horizontal	4412
▁nurs	4412
▁Fu	4411
▁GTAA	4411
▁Laboratories	4411
▁Wha	4411
6,58	4410
▁Check	4410
▁Reverse	4410
▁Ronald	4410
9,46	4409
▁2,17	4409
▁252	4409
,498	4408
card	4407
▁stretch	4407
cycl	4406
ales	4405
▁255	4405
▁0.80	4404
▁elementary	4404
▁upgrad	4404
6,21	4403
numer	4403
▁Witness	4403
REP	4402
▁QUEBEC	4402
▁2,08	4401
HP	4400
nel	4400
▁Affect	4400
▁glass	4400
▁divide	4399
-2009	4396
▁JPMorgan	4396
▁Nanaimo	4396
▁immaterial	4396
▁matured	4396
▁onerous	4396
▁sight	4396
▁DISCLOSURE	4395
▁Essential	4395
▁Arthur	4394
▁ISO	4394
▁Wild	4394
▁2,06	4393
▁Malaysia	4393
▁Marriage	4393
▁UNIT	4392
▁organize	4392
urgeon	4391
▁click	4390
AUT	4389
olabor	4389
EO	4388
General	4388
PF	4388
▁380	4388
-2002	4387
▁Improve	4387
▁TRANSFER	4387
rick	4386
3,68	4385
7,00	4385
Sep	4385
▁266	4385
▁Southeast	4385
▁bribe	4385
berry	4384
▁Sam	4384
▁ap	4383
0,00	4382
′	4381
▁CMHC	4381
,805	4380
▁249	4380
▁pesticide	4380
▁Basin	4379
▁Ci	4379
▁concurre	4379
sourcing	4378
-63	4377
▁244	4377
▁Monitoring	4377
▁cooperate	4377
▁TELE	4375
▁discourage	4374
,931	4373
versa	4372
▁Forecast	4372
▁marché	4372
▁united	4372
executive	4371
▁basket	4371
,755	4370
▁intrusion	4370
9,74	4369
▁cruel	4369
▁girl	4369
▁2,25	4368
cel	4367
iscellaneous	4367
▁Gla	4367
,594	4366
7,76	4366
▁1,94	4366
taking	4365
▁1,90	4365
3,79	4364
▁285	4364
▁11,5	4363
▁Manufacturers	4363
▁commissioning	4363
▁systemic	4363
On	4362
▁fragment	4362
▁locate	4362
interrupted	4361
,471	4360
3,87	4359
ipping	4359
oll	4359
▁PIMCO	4359
aft	4358
▁12.0	4358
▁Saxon	4358
,881	4357
9,84	4357
▁Jaffer	4357
mise	4356
▁WHEREA	4356
,263	4355
▁premiers	4355
,191	4354
recognition	4354
▁2,35	4353
ICA	4352
▁objections	4352
▁HEALTH	4351
▁268	4350
▁Libya	4350
▁diesel	4350
▁Thereafter	4348
▁rally	4348
tec	4347
wind	4347
▁Longueuil	4347
0,67	4346
7,75	4346
▁empty	4346
▁navigation	4346
▁textile	4346
8,05	4345
▁Fluctuation	4345
VO	4344
▁Evans	4342
▁Sound	4342
fra	4341
▁EXFO	4339
▁KEY	4339
▁Sudbury	4339
▁reaffirm	4339
8,00	4338
earning	4337
ending	4337
▁2,33	4337
▁Glen	4337
▁marking	4337
▁575	4336
▁BCI	4336
▁Nuclear	4336
gon	4335
▁Rod	4335
4,29	4334
struct	4334
▁10,000.00	4334
▁Print	4334
▁blow	4334
▁irresponsible	4334
3,90	4333
4,46	4333
8,76	4333
▁Roman	4333
▁Sport	4332
▁outdoor	4332
▁364	4331
▁7,3	4331
▁charit	4331
▁tower	4331
0,46	4330
▁Bow	4330
▁Chip	4330
▁Submission	4330
▁suspicion	4330
▁Elizabeth	4329
▁fundraising	4329
urie	4328
▁poorly	4328
▁Remuneration	4327
,241	4326
▁SK	4325
▁YOU	4325
,507	4324
plat	4324
▁overdraft	4324
▁6,6	4323
▁affirmative	4322
▁242	4321
▁audience	4321
▁contra	4321
▁maximiz	4321
4,30	4320
▁Identifie	4320
▁bann	4320
7,24	4319
▁domicile	4319
SNB	4318
▁243	4317
6,90	4316
,592	4313
0,39	4313
▁OH	4312
Or	4310
ank	4310
▁13,0	4310
,391	4309
▁555	4309
▁CODE	4309
0,58	4308
▁provisional	4308
▁NC	4307
earned	4305
▁propane	4305
ebec	4304
▁425	4304
▁SPE	4304
▁2,11	4303
▁Quit	4303
▁grams	4303
▁Robichaud	4302
▁appellate	4302
▁1,93	4301
▁DPSP	4301
▁Haw	4301
▁sake	4301
▁simplify	4301
0,88	4299
0.3	4299
▁310	4299
▁Atrium	4298
▁Larry	4298
door	4297
▁concurrent	4297
▁NUMBER	4296
▁insignificant	4296
6,50	4294
6,500	4294
▁Salvador	4294
▁tourist	4294
▁Eli	4293
▁VIEs	4293
▁rapport	4293
eries	4292
integra	4292
uary	4292
▁272	4292
▁Germain	4291
▁guarantor	4291
,302	4290
▁veteran	4290
▁Vincent	4289
▁Waterloo	4289
▁Pet	4288
,692	4287
▁Need	4287
▁Rouyn	4287
0,76	4286
▁OPTION	4286
▁Proxie	4285
▁extracted	4285
▁NOR	4283
▁height	4283
assi	4282
▁wider	4281
,841	4280
cru	4280
-140	4279
9,33	4279
abo	4279
▁tur	4279
,492	4278
6,59	4278
Rivières	4278
ison	4278
taxable	4278
▁stakeholder	4278
▁boxes	4277
▁800,000	4276
▁Ban	4276
▁PURPOSE	4276
▁Stella	4276
▁CERTAIN	4275
▁INTER	4275
▁facsimile	4275
▁occupy	4275
production	4273
▁Motors	4273
▁ridiculous	4273
▁tabl	4273
0,14	4271
▁judiciary	4271
▁PE	4269
▁reiterated	4269
,791	4267
▁Oxford	4267
▁Tro	4267
inning	4266
ither	4266
▁Arch	4264
-70	4263
clos	4263
▁PCL	4263
▁Canal	4262
▁surpluses	4262
nna	4259
▁implausibl	4259
▁therefor	4259
▁Brad	4258
▁cigarettes	4258
ago	4257
▁301	4257
▁athletes	4257
▁intermediar	4257
,291	4256
▁frozen	4256
-2014	4255
▁Fri	4255
▁Split	4255
▁Alt	4253
▁Contributed	4253
▁FORWARD	4253
▁routes	4253
▁unconditional	4253
,200,000	4252
▁trail	4252
▁bon	4251
▁picked	4251
▁ORDER	4250
▁surcharge	4250
0,65	4248
▁evidenc	4248
▁CCD	4247
▁Fédér	4247
position	4246
3,89	4245
▁YPG	4245
7,50	4244
▁suddenly	4244
▁Various	4243
▁Cell	4241
▁importation	4241
▁weakened	4241
appe	4239
bility	4239
ploy	4239
dependence	4238
ocket	4238
▁253	4238
▁comme	4238
▁wisdom	4238
▁Commonwealth	4237
▁disturbing	4237
▁interactive	4237
▁offensive	4236
3,56	4235
▁everyday	4235
0,84	4234
,253	4233
0,09	4233
hab	4233
▁capped	4233
6,09	4232
▁Tembec	4232
▁2,34	4231
▁Museum	4230
,655	4229
nomic	4229
▁Andreychuk	4229
▁harder	4228
▁2,22	4226
ography	4225
vie	4225
▁JHN	4225
8,50	4224
▁239	4224
▁Boulevard	4224
▁Pr	4224
neau	4223
▁Sharon	4223
▁rendering	4223
▁tort	4223
,705	4221
0,92	4221
▁Jay	4221
▁QUARTERLY	4221
▁kilo	4221
Soft	4220
▁385	4220
▁annuities	4220
▁detrimental	4220
▁Plaza	4219
▁Plc	4218
▁Terry	4218
▁realiz	4218
,955	4217
5,29	4217
CAN	4217
▁PSSRB	4217
▁Protect	4217
▁headed	4217
ficient	4216
ido	4214
▁460	4214
▁asbestos	4214
▁Priority	4213
,351	4212
,962	4212
0,18	4212
8,84	4212
▁IMP	4211
,743	4210
CONTINUED	4210
▁habit	4210
bol	4209
▁TRANSLATION	4209
▁discontinue	4209
0,49	4208
▁REVIEW	4208
▁disappointing	4208
▁electro	4208
EU	4207
9,60	4206
▁Pizza	4206
▁confi	4206
▁filter	4206
generating	4205
▁247	4205
▁493	4205
▁governor	4205
from	4204
most	4204
olar	4204
▁7.25	4204
▁Dennis	4204
▁MILLION	4204
▁Cartier	4202
▁SFK	4202
▁illiquid	4202
,893	4201
6,99	4201
▁2,36	4201
pir	4199
▁2,38	4199
▁CFIA	4199
▁famous	4199
8,46	4197
▁Ultra	4197
▁je	4197
▁ticker	4197
ONE	4194
rail	4194
rank	4194
0,62	4193
6,40	4193
▁Portugal	4193
▁barrier	4193
104	4192
ewsprint	4192
▁ACC	4192
▁Electronics	4192
▁contamination	4192
hosting	4191
▁279	4191
▁peacekeeping	4191
▁Pfd	4190
0,41	4189
▁PSAC	4186
pati	4185
▁Ministère	4185
▁Nolin	4184
▁leverag	4184
,853	4183
▁rightly	4183
▁Mall	4182
▁2,28	4181
▁intensity	4181
▁layer	4181
4,80	4180
▁guardian	4180
,404	4178
5,80	4178
Requirement	4178
▁BONDS	4178
▁Concession	4177
▁programme	4177
WI	4176
9,86	4175
▁ACQUISITION	4174
nomaly	4173
▁Separate	4173
lph	4171
-67	4170
▁DTC	4170
4,75	4169
▁bri	4169
▁evasive	4168
7,92	4167
▁FLOWS	4166
▁overpayment	4165
9,39	4163
thane	4162
▁Karen	4162
omo	4161
▁netting	4161
▁2,14	4160
▁0.70	4159
▁11,4	4159
▁Clean	4159
▁Live	4158
▁methodologies	4158
,803	4157
▁Store	4157
▁library	4156
3,85	4155
▁passive	4155
▁timeline	4155
0,11	4154
▁Session	4154
5,49	4153
9,00	4153
▁8540	4153
▁Lamer	4153
5,35	4152
▁7.75	4152
▁Leon	4152
ORD	4151
▁publisher	4151
▁spare	4149
▁Electricity	4148
▁Etobicoke	4148
8,99	4147
onia	4147
▁perpetrator	4147
▁withhold	4147
alco	4146
plan	4145
▁Dean	4145
▁MWh	4145
▁believ	4145
9,87	4144
▁diminished	4144
1,100	4143
owell	4143
▁2,21	4143
▁rebound	4142
▁RELEASE	4141
▁Syndicat	4141
▁accredit	4141
TEN	4140
▁11.0	4140
▁Inspector	4140
▁2,18	4139
▁delete	4139
mittee	4135
▁2049	4135
▁Tolgoi	4135
▁accretive	4135
▁smooth	4135
0,3	4134
9,27	4134
▁walking	4134
▁Evaluate	4133
hipbuilding	4131
▁inaction	4131
▁Carol	4130
▁Freedom	4130
▁locally	4130
▁MIX	4129
▁Rev	4129
▁Tinto	4129
▁Dor	4128
▁levy	4128
7,07	4126
Discontinued	4126
▁fitness	4126
▁10.8	4125
▁frustration	4125
negotiable	4124
▁Flo	4124
▁intermediate	4124
▁Offenders	4123
▁269	4122
▁brave	4122
▁gen	4122
ctu	4121
▁284	4121
▁Belle	4121
▁Trend	4121
Where	4120
ain	4120
▁Incorporation	4120
9,44	4119
Mart	4118
▁Bancorp	4118
▁Drill	4118
abi	4117
▁Filing	4117
▁Tenant	4117
egardless	4116
fort	4116
▁explosive	4116
▁cow	4115
0,75	4114
▁Caution	4114
▁hopefully	4114
▁Matthew	4113
▁Rain	4112
waiting	4111
▁Collective	4111
▁Hunter	4111
OK	4110
▁Bermuda	4110
▁Portland	4110
▁2,32	4109
▁Animal	4109
▁Auditing	4109
▁DATA	4109
western	4108
▁dispos	4108
▁mar	4108
▁palliative	4107
▁True	4106
▁disrupt	4106
▁shaft	4106
9,50	4105
▁FS	4105
▁RETURN	4105
Pargesa	4104
▁backup	4104
▁competitor	4104
▁genetic	4103
0,22	4102
▁nos	4102
3,23	4101
▁Integration	4101
▁Stage	4101
▁Thousand	4101
,852	4099
sert	4099
nyl	4097
▁mirror	4097
mitted	4096
▁256	4096
▁Oak	4096
▁RATE	4096
▁beside	4096
7,15	4095
KO	4094
atically	4094
▁Matrix	4094
but	4093
▁Sikh	4093
▁1.10	4091
▁ecosystem	4090
▁Cambior	4089
▁302	4088
▁decisive	4088
▁1,91	4087
▁271	4086
cott	4085
▁7,1	4085
▁instalment	4085
3,66	4084
▁organizing	4084
▁rarely	4083
9,58	4082
▁prospecting	4082
▁2,37	4081
▁308	4081
▁reunite	4081
8,87	4080
▁11.4	4080
▁EEP	4078
▁conteste	4078
▁11,9	4077
▁Mario	4076
▁0.45	4075
▁254	4075
▁Algonquin	4075
▁Dam	4075
▁flying	4075
4,97	4074
▁2,4	4074
▁Supervisor	4074
▁traditionally	4074
▁Expiration	4071
4,26	4070
▁stemm	4070
8,48	4069
▁0.65	4069
▁Dave	4069
▁Mix	4069
▁compel	4069
▁smuggling	4069
,602	4068
0.6	4068
▁PROGRAM	4068
bia	4067
▁restraint	4067
▁Course	4066
▁acknowledg	4066
▁BALANCE	4065
▁forever	4065
1,300	4064
▁293	4063
aving	4062
irn	4062
▁radical	4062
IDE	4061
▁1.01	4061
▁Progress	4061
glo	4060
hap	4060
▁ADF	4060
sourced	4059
▁257	4058
▁AUDITORS	4058
5,76	4057
cette	4057
hon	4057
▁Goldman	4057
▁Langley	4057
UG	4055
▁Continuous	4055
▁DiagnoCure	4055
-77	4053
0,87	4053
▁globe	4053
▁Kelowna	4052
▁258	4051
titu	4050
▁protective	4050
unconstitutional	4049
▁cogent	4049
▁fiber	4049
▁injunction	4049
▁Acadian	4048
▁Know	4048
▁visibilit	4048
▁0.22	4047
▁Métis	4047
▁Husky	4046
▁Starting	4046
9,26	4045
▁12,0	4045
▁12.2	4045
▁CLRB	4045
▁Certification	4045
▁Offshore	4044
▁hoped	4044
gal	4042
▁11,8	4042
0,69	4041
▁moratorium	4041
▁Sign	4039
0,19	4038
▁Accord	4038
6,69	4037
▁Lunn	4037
▁broadcaster	4037
▁gravity	4037
▁scal	4037
▁Learning	4035
à	4034
▁Barbad	4034
▁fishermen	4034
▁interventions	4034
▁motivate	4034
characterization	4033
▁Bru	4033
▁strain	4033
Mar	4032
▁1967	4032
▁CONSUMER	4032
▁stressed	4032
nay	4031
▁Farmers	4031
▁295	4030
▁Show	4029
mine	4028
▁planet	4028
▁overriding	4027
▁35,000	4025
▁purported	4025
illi	4023
▁CE	4023
▁Potash	4023
▁Urban	4023
Acc	4022
nge	4022
▁604	4022
5,46	4021
0,54	4020
ntergovernmental	4020
▁mapping	4020
,892	4019
▁Studies	4019
▁TransForc	4019
▁ratify	4019
▁Johnston	4018
▁satisfie	4018
fil	4017
▁Segregate	4017
9,81	4016
Maxxum	4016
STAR	4016
▁fan	4016
Glossary	4014
logy	4014
SW	4013
-2016	4012
▁3.75	4012
▁GT	4012
▁Sol	4012
akh	4010
▁francophones	4010
BER	4009
▁DFA	4009
▁erect	4009
▁hair	4009
aga	4008
▁Fellow	4008
▁10.7	4007
▁Judgment	4006
▁Romania	4006
▁mobility	4006
yk	4005
▁SIGNIFICANT	4004
GP	4003
▁470	4003
▁Tory	4002
6,49	4001
fixing	4000
▁Irish	4000
9,41	3999
▁370	3999
▁Ivanhoe	3999
▁Minutes	3999
▁POSITION	3999
▁transmitted	3999
,871	3998
9,59	3998
▁argu	3998
ikewise	3997
▁Commencement	3997
1,600	3996
▁FRANKL	3996
6,35	3995
tell	3995
6,29	3993
▁journal	3993
,901	3992
▁Pilot	3992
pie	3991
▁thoughtful	3989
,751	3988
subordinated	3988
▁strategically	3988
0,26	3986
▁Fairmont	3986
▁EC	3985
▁Lou	3985
esse	3984
▁folks	3984
▁slower	3984
6,55	3983
rable	3982
▁Surplus	3982
obility	3981
▁COM	3980
▁bolster	3980
▁originat	3979
-2007	3978
duly	3978
▁urgenc	3978
ille	3977
▁GS	3977
8,07	3975
▁Eggle	3975
▁depository	3975
▁PRC	3974
▁teach	3974
insured	3973
▁recon	3973
▁slowing	3973
inter	3972
8,59	3970
▁Advertising	3970
EMENTS	3969
dollar	3969
tray	3968
NG	3967
bon	3967
bull	3967
0,43	3966
▁captured	3966
▁Wares	3965
▁Crescent	3964
▁corrections	3964
1,400	3963
▁susceptible	3963
,993	3962
▁dinner	3962
▁hub	3962
▁inquire	3962
9,49	3960
AZ	3960
▁246	3960
▁objected	3960
▁4,6	3959
▁Prescrib	3959
▁impress	3959
▁Guelph	3958
▁pronouncement	3958
claring	3957
ownership	3957
▁0.85	3957
▁Allow	3957
lect	3956
▁celebrat	3956
4,90	3955
8,57	3955
▁Sceptr	3955
7,19	3954
TEL	3954
▁0.24	3953
▁carve	3953
▁Hunt	3952
▁signator	3952
cell	3951
▁Alta	3951
Off	3947
0,29	3946
▁shock	3946
9,15	3945
▁labelling	3945
patria	3944
▁Elite	3944
▁Pal	3944
ANN	3943
orial	3943
▁mindful	3943
IZED	3942
0,2	3941
▁Amaya	3941
▁Czech	3941
▁tag	3941
▁80,000	3940
lier	3939
0,52	3938
0,6	3938
APR	3938
▁Deer	3938
▁Venezuela	3938
▁comptables	3938
▁southwest	3938
▁Task	3937
6,25	3936
▁Still	3936
▁Tranche	3936
PLP	3935
▁2,48	3935
▁Leasing	3935
▁PROTECTION	3935
▁nervous	3935
Quest	3934
▁381	3934
▁shameful	3934
▁weighing	3934
9,77	3933
▁45,000	3933
▁condo	3933
▁racial	3933
lig	3932
▁Visit	3932
▁lithium	3932
▁medal	3932
▁artificial	3931
▁cu	3931
,503	3930
7,73	3930
▁coincide	3929
ava	3928
5,17	3927
7,26	3927
▁Clarke	3927
CENT	3926
▁AIDS	3926
▁FUTURE	3926
▁TSO	3926
▁attach	3926
0,50	3925
▁885	3925
▁Citizen	3925
▁souscription	3925
6,26	3924
▁deeper	3923
▁fabrication	3923
▁replay	3923
▁Knock	3922
▁mars	3922
dilutive	3921
▁745	3921
▁Innova	3921
0,85	3919
igan	3918
ucci	3918
▁0.28	3918
0,86	3916
▁8,0	3916
▁accumulation	3916
DW	3915
7,69	3914
▁2,44	3914
▁Registry	3913
▁Spin	3912
▁downside	3912
▁compelled	3911
HOR	3910
ware	3910
▁0.19	3910
▁chat	3910
▁Alexis	3909
▁Quantitative	3909
▁loud	3909
▁Sydney	3908
vention	3907
▁Commitment	3907
▁SHAREHOLDER	3907
▁expend	3907
▁wilful	3907
ges	3906
pri	3905
▁13.2	3905
▁566	3905
▁Hughes	3905
capacities	3904
▁logo	3904
9,07	3902
▁pretend	3902
▁pleading	3901
▁reliabl	3901
▁750,000	3899
▁Burlington	3899
▁jeopardize	3898
9,85	3897
▁Accountability	3897
▁tackle	3897
7,35	3896
▁cool	3896
▁264	3895
110	3893
OLI	3893
taught	3892
urri	3892
▁stripping	3892
6,46	3891
ITE	3891
▁259	3891
▁Message	3891
▁factory	3891
▁11.6	3890
6,04	3889
▁Negative	3889
▁Solar	3889
gul	3888
▁Sachs	3888
▁correctness	3888
▁2,41	3887
▁Oyu	3887
▁Peer	3887
▁renovate	3886
381	3885
8,86	3885
▁attained	3885
▁556	3883
▁Applied	3883
▁Coll	3883
▁9,0	3882
▁Garda	3882
▁prix	3882
9,21	3881
2,50	3880
max	3880
▁Diversification	3880
▁Midstream	3880
▁Ribic	3879
▁18.1	3878
▁Independence	3878
CRI	3877
▁enforcing	3876
uf	3875
▁reluctant	3875
▁liberal	3874
NX	3873
SPA	3873
▁collapse	3873
Lab	3872
aux	3871
▁675	3871
▁Fox	3871
▁Norre	3871
▁PRI	3871
▁loading	3870
▁15.1	3869
▁Enter	3868
▁PI	3868
▁Controller	3866
▁NBF	3866
4,84	3865
dictable	3865
kilometre	3865
▁Buffer	3865
▁Doctor	3865
▁Retraction	3864
▁Davis	3862
▁POOL	3862
▁maternity	3861
▁robber	3861
xia	3860
▁338	3860
▁Often	3859
▁volcanic	3857
▁impediment	3853
arge	3852
▁politically	3852
7,14	3851
9,05	3851
▁AH	3851
▁ordinaires	3851
▁2036	3849
▁indexed	3849
▁2,45	3848
▁Gre	3848
▁Upper	3848
ils	3846
▁51-102	3846
6,95	3845
8,58	3845
▁cluster	3845
nam	3844
Sustainability	3843
funded	3842
VIE	3841
▁commentary	3841
▁reflective	3841
Inter	3840
type	3840
▁Consistent	3840
▁Greg	3840
▁frustrate	3840
▁patronage	3840
▁reinstatement	3840
▁319	3839
▁Carleton	3838
▁bullet	3838
HE	3837
▁Dutch	3837
-101	3836
coated	3836
path	3836
gra	3835
iden	3834
▁Discusses	3834
▁Excellenc	3833
▁Manual	3832
▁Role	3832
▁Yvon	3832
homme	3831
lab	3831
noted	3831
▁1966	3831
▁Beta	3831
▁SME	3830
▁nutrition	3828
9,69	3827
▁albe	3827
9,29	3825
asset	3825
▁Online	3825
▁15.0	3824
▁1933	3824
▁Feature	3824
9,92	3823
▁Nat	3823
▁pressing	3823
0,42	3822
anne	3822
▁BoC	3822
▁Ray	3822
▁288	3821
▁Phone	3821
,691	3820
▁eloquent	3820
▁261	3819
▁Règlement	3819
0,59	3818
3,97	3818
iding	3818
▁Mission	3818
▁latitude	3818
public	3817
▁Segal	3817
▁actuar	3817
▁Luxembourg	3816
▁wireline	3816
▁ABOUT	3815
FD	3814
▁subsidiz	3814
mun	3813
▁LifePoints	3812
▁enumerate	3812
2,00	3811
anna	3811
dre	3811
▁timeframe	3811
▁NPV	3810
illo	3809
▁CFE	3809
▁abusive	3808
▁498	3807
▁Analyze	3807
▁charging	3807
QUI	3806
▁Appear	3806
▁Channel	3806
0,73	3805
▁Dar	3805
▁Intermediar	3804
▁Thailand	3804
▁agri	3804
▁quash	3804
hun	3803
▁rep	3802
8,85	3801
▁263	3801
print	3800
▁Kosovo	3800
pla	3799
▁Pen	3799
▁cellular	3799
▁ta	3798
odi	3796
▁proclamation	3796
7,13	3795
▁7,2	3795
▁Competent	3794
▁Locat	3793
▁NAME	3793
▁Stéphane	3793
▁averag	3793
Lantic	3792
▁ambassador	3792
0,44	3790
agh	3790
maturity	3790
vest	3790
▁Redeem	3790
9,89	3789
▁305	3789
▁OPTIONS	3789
▁274	3787
▁optical	3787
0,37	3786
husband	3786
▁Gon	3786
▁Imagin	3786
cord	3785
▁4,4	3785
▁Sym	3785
▁indictment	3784
-411	3783
lated	3783
▁262	3783
ILI	3782
▁278	3782
▁281	3782
▁282	3782
ryden	3781
▁PUBLIC	3781
▁pur	3780
▁livestock	3779
counting	3778
WN	3777
▁Bélanger	3777
▁arrang	3777
▁circle	3777
▁cocaine	3777
6,19	3776
▁Length	3776
▁county	3776
▁1.30	3775
▁Alex	3775
▁OSB	3774
WEST	3773
▁Nav	3772
▁encompasse	3772
1,00	3771
aze	3770
▁CIDA	3770
▁Vo	3770
▁8,3	3769
▁DRC	3769
▁Kit	3769
▁trillion	3769
▁Assent	3768
▁LIFE	3768
source	3767
▁Rollover	3767
▁propriétés	3767
▁shareholding	3767
-2006	3766
▁Jeffrey	3766
8,69	3765
supervisory	3765
▁dress	3765
ota	3764
▁Extend	3764
▁hidden	3764
▁Inflation	3763
0,57	3762
1,800	3762
bedroom	3762
uster	3761
▁controller	3761
▁Capacity	3760
active	3759
uses	3759
hai	3758
▁Foot	3758
▁ministry	3758
▁Capstone	3757
▁Murphy	3757
▁Received	3757
▁steadily	3757
▁taxi	3757
▁Hal	3756
▁Origin	3756
▁span	3756
412	3755
▁RS	3755
▁customized	3755
0,55	3754
▁DEBT	3754
▁modernization	3754
action	3753
ecurit	3753
▁Syn	3753
▁mer	3753
4,85	3752
ku	3752
▁11,1	3752
▁Thornton	3752
▁afterward	3752
▁thickness	3751
▁wrongdoing	3750
ception	3749
▁Jason	3749
raz	3748
▁Saguenay	3748
OO	3747
▁273	3747
▁NCM	3747
▁Want	3747
▁excise	3747
family	3746
▁Jeff	3746
▁tonnage	3746
▁Inferred	3745
▁abide	3745
▁triple	3744
DO	3743
▁306	3742
▁UBS	3742
▁Wall	3742
represented	3741
mining	3740
~	3740
▁12.3	3740
▁16.1	3740
▁331	3740
▁Certified	3740
▁Gender	3740
-100	3739
missile	3739
4,87	3738
zen	3738
6,96	3737
Sponsored	3737
▁Sk	3737
▁density	3737
▁macro	3737
▁Benoit	3736
▁Winter	3736
▁friendship	3736
5,07	3735
▁1.02	3735
8,81	3734
▁paramount	3734
▁bas	3733
▁downgrade	3733
▁CESG	3732
▁Near	3732
-73	3731
7,78	3731
child	3731
RQ	3730
▁spell	3730
▁276	3729
▁tailored	3729
mard	3728
▁MLP	3727
▁Miles	3727
▁trains	3727
ENS	3726
▁3,6	3726
▁heighten	3726
▁predetermine	3726
▁reckless	3726
▁2,50	3725
▁Ball	3725
▁Securitization	3725
▁incarceration	3725
▁ideology	3724
7,04	3722
▁Recommend	3721
▁filling	3721
▁lunch	3721
kar	3719
▁520	3719
▁Spectra	3719
▁corrupt	3719
▁sawmill	3719
▁RA	3718
▁privatization	3718
ark	3717
▁Chuck	3717
▁Fleet	3717
lotte	3715
▁precaution	3715
▁virus	3714
5,69	3712
9,19	3712
▁Sources	3712
▁assertions	3712
rob	3711
▁287	3711
▁PRINCIPAL	3711
.0.1	3710
ominated	3710
▁nette	3710
▁allocat	3709
▁rede	3709
▁Above	3708
▁FOREIGN	3708
▁welcomed	3708
▁Fo	3707
FER	3706
▁Developed	3706
▁Gaspé	3706
▁Norman	3706
Point	3705
▁Actions	3705
Med	3704
▁REGULATION	3703
▁inequalit	3703
solvent	3701
▁conceal	3701
▁Fla	3700
5,00	3699
pire	3699
▁Rest	3699
0,36	3698
implies	3698
▁Fully	3698
▁525	3697
▁appliance	3697
▁277	3695
oop	3694
pocket	3693
▁externally	3693
▁merge	3693
celer	3692
scribed	3692
ompensatory	3691
▁Living	3691
▁XX	3691
▁bundle	3691
▁regulat	3691
▁steal	3691
▁fisher	3690
ears	3687
▁Beaudoin	3687
▁Ending	3687
eligible	3686
▁OEB	3686
▁inject	3686
▁mandat	3686
End	3685
ute	3684
▁Insight	3684
▁Magna	3684
▁McClellan	3684
▁Mercier	3684
▁dilu	3684
8,26	3683
▁296	3683
▁Normand	3683
▁Bench	3682
4,54	3681
4,79	3681
▁Reid	3681
▁mechanic	3681
5,65	3680
▁Kenya	3680
▁Agricultural	3679
▁alleviate	3678
▁recruiting	3678
3,00	3677
▁10.9	3677
9,43	3676
▁MTN	3676
leading	3675
▁1965	3675
▁430	3675
▁Moncton	3675
BG	3674
rm	3674
tend	3674
restricted	3673
guard	3672
▁concurrence	3672
▁manifest	3672
5.2	3671
▁289	3671
▁stuff	3671
FOR	3670
▁530	3670
▁gener	3670
▁Cohen	3669
▁Paladin	3669
sheet	3667
▁processor	3667
▁wake	3667
▁Beyond	3666
▁Cold	3666
▁Wherea	3666
▁analog	3666
▁tired	3666
105	3664
therapy	3664
▁Judicial	3664
▁psychiatric	3664
▁11.7	3663
0,31	3662
▁Personnel	3661
residential	3660
▁0.21	3660
▁Canam	3660
▁Input	3660
▁Single	3659
▁vacancies	3659
,002	3658
capacity	3658
▁Criteria	3658
▁entertain	3658
inch	3657
▁Banco	3657
▁Bush	3657
PER	3656
▁Reimbursement	3656
▁Francis	3655
▁ecological	3655
▁Bennett	3654
bullying	3653
▁Gomery	3653
▁appr	3653
mplain	3652
▁2,31	3652
▁2,42	3652
▁understandable	3652
FN	3651
Lévesque	3650
chin	3650
▁298	3650
▁Cole	3650
0,40	3649
▁Overseas	3649
▁premature	3649
unit	3648
▁317	3648
▁Immediately	3648
-2.1	3647
fact	3647
▁archive	3646
▁hinder	3646
Chin	3644
Linked	3644
Star	3644
▁Henry	3644
▁11.8	3643
▁pardon	3643
Responsibilities	3642
▁14.2	3642
1.90	3641
▁3,7	3641
▁Expand	3641
▁subcommittee	3640
▁TSR	3638
▁bureaucracy	3638
2,20	3637
▁seventh	3637
▁shutdown	3636
4,00	3635
▁Simcoe	3634
▁administrateur	3634
▁locomotive	3634
▁gentleman	3633
▁100.0	3632
▁ASC	3632
▁Kh	3632
Asset	3631
INS	3631
▁Emphasi	3631
▁Lévis	3631
▁kimberlite	3631
▁psychologist	3631
5,59	3630
▁BEN	3630
▁Serv	3630
ika	3629
nage	3629
▁Eldorado	3629
▁Uranium	3629
▁303	3628
▁Copyright	3628
▁advantageous	3628
▁overhaul	3628
▁13.3	3627
▁surpass	3627
hic	3626
▁347	3626
▁Howard	3626
▁Initially	3626
▁Preventi	3626
▁spontaneous	3625
▁whi	3625
-80	3624
agan	3624
play	3624
▁12,5	3624
▁generator	3624
▁remitte	3623
link	3622
▁11,2	3622
▁evasion	3622
8,29	3621
▁bore	3621
▁kitchen	3621
▁Dofasco	3620
▁Gau	3619
▁Shipp	3618
▁Baie	3617
▁atmosphere	3617
lid	3616
▁402	3616
▁Accretion	3616
▁YOUR	3616
▁underscore	3616
8,500	3615
controlled	3615
▁326	3615
▁HELD	3615
▁Boudria	3614
▁imaging	3614
▁searches	3614
▁slaughter	3614
EMENT	3613
Traded	3613
▁ICFR	3612
▁Nanc	3611
8,49	3610
Time	3610
▁Sav	3610
▁Weak	3610
▁invok	3610
▁345	3609
▁appointee	3609
▁childhood	3609
ailing	3607
zza	3607
▁Therapeutics	3607
MD	3606
▁318	3606
▁CAR	3606
▁2,43	3605
▁292	3605
▁363	3605
6,76	3604
8,04	3604
account	3604
▁560	3604
▁combin	3604
▁escal	3604
-2020	3602
▁Peterborough	3602
▁substitution	3602
IAL	3601
▁MCI	3601
road	3599
▁Important	3599
DAY	3598
▁335	3598
▁mackenzie	3598
9,76	3597
▁Pure	3597
omet	3596
▁Constituent	3596
▁assemble	3596
8,78	3595
▁Dion	3595
▁punitive	3595
▁Sable	3594
0,81	3593
4,89	3593
▁Cur	3593
▁Though	3593
agged	3592
unfunded	3592
▁8561-	3592
▁compulsory	3592
▁finger	3592
NF	3591
▁dire	3591
▁implication	3591
▁CX	3590
▁Editor	3590
ira	3589
▁activist	3589
▁circulat	3589
▁Pur	3588
▁pharmacy	3588
MED	3587
▁Explanat	3587
▁Honduras	3587
▁Iranian	3587
▁geolog	3587
▁344	3586
▁ML	3586
▁Sleep	3586
▁golf	3586
▁1-866-	3585
▁AUDIT	3585
▁FEES	3585
▁NW	3585
GT	3584
▁299	3583
ière	3581
▁Denmark	3581
pell	3580
▁12.6	3580
▁Eight	3580
▁312	3579
▁905	3579
DL	3578
NAC	3578
forward	3578
▁Sim	3578
▁14.5	3577
▁attracting	3577
▁Ces	3576
▁Jackson	3576
PEP	3575
arrow	3575
horn	3575
▁510	3575
▁Davies	3575
articulate	3574
thier	3574
▁2,58	3574
▁Azimut	3574
▁Susan	3574
▁jeopard	3574
▁390	3573
▁intensive	3573
VW	3572
▁AcG	3572
▁Determin	3572
▁climb	3572
▁thick	3572
6,63	3571
change	3571
iopharmaceutical	3571
tiny	3571
▁4,1	3571
▁remit	3571
▁epi	3570
▁14,0	3569
▁Launch	3569
▁tuition	3568
▁underwriter	3568
▁2,57	3566
▁VIII	3566
▁Forum	3565
▁fool	3565
WAY	3564
▁incarcerate	3564
▁nephew	3564
▁overlook	3564
packaged	3563
▁vot	3563
4,68	3562
olo	3562
▁321	3562
8,15	3561
▁Divorce	3561
▁Find	3561
▁Henderson	3561
9,55	3560
turn	3560
▁macroeconomic	3560
▁stoppage	3559
▁mutually	3558
▁psychiatrist	3558
8,75	3557
emia	3557
▁304	3556
▁GIS	3556
▁HIGH	3556
▁Martineau	3556
▁ethnicity	3556
▁conduits	3555
▁70,000	3554
,400,000	3552
closure	3552
▁309	3551
▁Christopher	3551
▁facilitating	3551
genic	3550
▁12.4	3550
▁Principle	3548
▁autres	3548
8,72	3546
Hubert	3546
▁WHO	3546
billion	3545
▁3000	3545
▁PD	3545
▁maternal	3545
▁pharmacist	3545
▁286	3544
▁Substance	3544
▁imply	3544
1,25	3543
▁8.25	3542
▁Primari	3542
▁incidence	3542
▁Midland	3541
▁Opsens	3541
▁SEMAFO	3541
9,2	3540
LAW	3540
▁Cara	3540
▁REPORTS	3540
▁literate	3540
▁Maria	3538
▁boot	3538
▁tra	3538
phi	3537
▁affair	3537
ALI	3535
▁20.00	3535
7,72	3534
taux	3534
▁accru	3534
INT	3533
▁13.4	3533
▁Bertrand	3533
▁613	3532
▁AUD	3532
▁Gibson	3532
▁WSP	3532
▁350,000	3531
▁Tony	3529
▁brew	3529
▁sometime	3529
DR	3528
▁Switche	3528
NC	3527
edimentary	3527
▁Register	3527
Fi	3526
▁FAIR	3526
▁368	3525
▁Saanich	3525
5,57	3524
▁candid	3524
▁PROJECT	3523
anga	3522
▁0.23	3521
7,17	3520
9,04	3518
OUND	3518
▁Frontier	3518
▁rebut	3518
track	3517
▁950	3517
▁Twelve	3517
0,97	3516
▁Nelson	3516
▁Grafstein	3515
Hyacinthe	3514
TW	3514
▁336	3514
▁Joan	3513
imi	3512
▁Video	3512
GER	3511
prof	3511
▁Worth	3511
▁shield	3511
▁580	3510
If	3509
▁GOVERNANCE	3509
▁Milne	3509
▁REQU	3508
vant	3507
▁WILL	3507
ICS	3506
▁Dear	3505
lom	3504
agi	3503
▁1.05	3503
▁quasi	3503
8,89	3502
▁8,1	3502
▁sponsoring	3502
treasurer	3501
▁3,8	3501
▁possibiliti	3501
▁Timber	3500
▁unjust	3500
,008	3499
8,55	3499
▁Minority	3499
361	3498
▁badly	3498
6,03	3497
sufficiency	3497
together	3497
▁Dartmouth	3497
▁Reed	3497
▁seniority	3497
▁12.7	3496
▁Aero	3496
▁ambiguit	3495
0,53	3493
0,80	3493
▁Duration	3493
Government	3492
▁99.9	3492
▁Exercisable	3492
leaf	3490
▁Political	3490
▁updat	3490
▁Ave	3489
▁Detailed	3489
▁PROMOTER	3489
▁Coverage	3488
▁Grow	3488
▁sexually	3488
▁Annex	3487
▁resolv	3487
cade	3486
▁Yamana	3486
jit	3485
▁seismic	3484
fish	3483
▁Gaming	3483
▁Gildan	3483
120	3482
÷	3482
▁tanker	3481
▁template	3481
▁unincorporate	3481
▁1.03	3480
▁ordinar	3480
-00	3479
▁Illinois	3477
▁Securityholder	3477
▁sic	3477
▁14.3	3476
▁circum	3476
▁intelligent	3476
Trust	3475
▁Dawson	3475
0,78	3474
pricing	3474
rata	3474
ERT	3473
avou	3473
▁Inde	3473
▁13.0	3472
▁Israeli	3472
▁cornerstone	3472
uma	3471
▁divert	3471
▁nowhere	3471
▁Duffy	3469
▁Trail	3469
▁va	3469
▁349	3468
▁Mental	3468
casti	3467
osh	3467
0,500	3466
▁precedence	3465
8,54	3464
▁11,6	3464
▁FLOW	3464
0,66	3463
8,80	3463
▁720	3463
▁Questionnaire	3463
▁remark	3463
▁LNG	3462
▁upside	3462
▁0.27	3460
1,250	3459
ULT	3459
organi	3459
▁Arab	3459
▁Herb	3459
▁Safe	3459
GN	3458
▁fastest	3458
▁Merchant	3457
HR	3456
▁APPENDIX	3456
▁Collins	3456
▁fertilizer	3456
6,48	3455
vid	3455
▁livelihood	3455
chief	3454
▁erosion	3454
1,500	3453
▁Atlas	3453
▁havens	3453
0,89	3452
▁materialize	3452
AID	3451
▁Underwriter	3451
deferred	3450
foot	3450
▁Stay	3450
▁brochure	3450
▁PAYMENT	3449
▁Stein	3449
8,73	3448
IER	3448
▁866	3448
▁niece	3448
▁TDN	3447
▁mil	3447
▁secrecy	3447
foli	3446
▁Deep	3446
HC	3445
6,68	3444
7,29	3444
▁Robinson	3444
6,54	3443
▁Sprott	3443
▁hydrocarbon	3443
builder	3442
▁283	3442
▁9.00	3442
▁CONTROL	3442
▁lobbying	3442
▁Function	3441
▁tune	3441
alta	3440
▁LOAN	3440
dict	3439
hip	3439
▁OSC	3439
▁307	3438
▁OEM	3438
▁Szabo	3438
member	3437
▁Godin	3437
erman	3436
▁transferee	3436
currence	3435
▁2,55	3435
▁expropriation	3435
▁lying	3435
7,65	3434
Hébert	3434
▁297	3434
▁headline	3434
▁preventive	3434
▁crystal	3433
5,06	3432
munition	3432
▁2,62	3432
▁Finding	3432
▁improperly	3432
▁interact	3432
DQ	3431
▁guilt	3431
bid	3430
▁CHRA	3430
▁INDUSTRIAL	3430
▁311	3429
▁ALS	3429
▁admir	3429
▁seize	3429
storey	3428
▁Jov	3428
▁Max	3428
0,72	3427
recourse	3426
▁480	3426
▁Taxable	3426
▁affiliation	3426
▁platinum	3426
▁Northeast	3425
▁User	3425
VR	3424
▁Pine	3423
7,79	3422
▁11.9	3422
idnight	3421
▁ADDITIONAL	3421
▁tear	3421
▁interconnect	3420
▁railroad	3420
▁0.99	3419
▁OPG	3419
▁Tour	3419
▁conciliation	3419
▁shocked	3419
▁writer	3419
▁475	3418
▁Kerr	3418
▁advocacy	3418
▁millennium	3418
ARGE	3417
▁behavior	3417
▁embark	3417
▁reassure	3416
LN	3415
YS	3415
mes	3415
▁DESD	3415
▁AV	3414
▁aspiration	3414
-72	3413
OA	3413
ema	3413
contributory	3412
▁373	3412
▁Redwood	3412
▁valve	3411
▁ami	3410
▁laboratories	3410
Au	3409
▁Allen	3408
chand	3407
▁Airbus	3407
▁Samson	3407
▁anyway	3407
▁overturn	3407
▁rev	3407
5,30	3406
VEN	3406
bc	3406
▁credential	3406
▁Islam	3405
▁aff	3405
▁3862	3404
kan	3403
▁rehabilitate	3403
7,49	3402
7,80	3402
▁Sigma	3401
▁discontinu	3401
▁bomb	3400
DJ	3399
chemical	3399
▁3,2	3399
▁LaSalle	3399
▁coordination	3399
9,500	3398
▁Probable	3398
▁intrusive	3398
▁wrongful	3398
▁777	3396
TT	3395
▁Mass	3394
▁Film	3393
▁Join	3393
▁Symbol	3393
▁Zinc	3392
▁separatist	3392
6,57	3391
▁Diluti	3390
Governor	3389
elevated	3389
▁334	3389
▁Alexander	3389
stability	3388
▁complain	3388
0,51	3387
▁Mint	3386
▁Summa	3386
VAL	3385
▁Music	3384
uage	3382
▁SENIOR	3382
Worldwide	3381
rage	3381
▁2,88	3381
▁endorsement	3381
enny	3380
▁Rwanda	3380
▁portal	3380
1,50	3379
var	3379
▁Separation	3379
ompulsory	3378
determination	3377
▁Ever	3377
▁accumulate	3377
▁bureau	3374
▁suppose	3374
chase	3373
7,03	3372
▁12,8	3372
▁Kal	3372
▁Tang	3372
▁halt	3372
terre	3371
▁finite	3371
▁northeaster	3371
8,67	3370
▁SmartCentre	3369
▁expeditious	3369
gawatt	3368
managed	3368
▁710	3368
▁Whole	3368
▁upgraded	3368
▁Chabot	3367
▁Typical	3366
▁impede	3366
▁youngest	3366
BEFORE	3365
SEC	3365
▁XXX	3365
,250,000	3364
▁366	3364
▁Intellectual	3364
▁MRFP	3364
▁loose	3364
▁closest	3363
▁litre	3363
-2003	3362
▁anonymous	3362
mac	3361
▁MDS	3361
▁Markham	3361
▁outlin	3361
radi	3360
▁1.33	3360
▁Legislature	3359
▁Morneau	3359
osco	3358
▁lawfully	3358
egal	3357
ool	3357
▁1,500,000	3357
▁punishable	3357
ote	3356
▁pot	3356
ARI	3355
dan	3355
▁Printing	3355
▁anger	3355
▁737	3354
▁kilometers	3354
MH	3353
▁Aurizon	3353
▁Mobil	3353
▁1.20	3352
ZA	3351
▁Break	3351
▁Secondly	3350
refundable	3349
▁renegotiate	3349
-2001	3348
▁0.26	3347
▁Little	3347
Prohibition	3346
empt	3346
▁3,5	3346
▁proponent	3346
ega	3345
-005	3344
5,18	3343
6,30	3343
omb	3343
▁BRP	3343
▁redress	3342
▁confined	3341
▁mislead	3341
Noranda	3340
▁2,52	3340
▁Horizon	3340
▁apport	3340
▁dismantl	3340
▁subtract	3340
9,54	3339
INA	3339
▁characteristic	3339
▁poste	3339
▁terminat	3339
▁PSEA	3338
▁repeating	3338
111	3337
broker	3337
▁collateralized	3337
▁distort	3337
▁speci	3337
section	3336
▁Louise	3336
▁Publication	3336
▁cosmetic	3336
▁Gil	3335
▁Implement	3335
▁leur	3335
▁expedite	3334
VS	3333
five	3333
▁Bourassa	3333
gr	3332
▁13.6	3332
▁2,53	3332
6,88	3331
▁MATTERS	3331
▁QU	3331
▁nearby	3331
▁rationalization	3331
setting	3330
▁501	3330
▁BETW	3330
▁PLANS	3330
▁PROPERTIES	3330
▁Help	3329
▁acquaint	3329
dium	3328
▁Ash	3328
▁compliment	3328
Supremex	3327
style	3327
8,21	3326
▁0.95	3326
▁11,7	3326
▁13,4	3326
▁2,54	3326
▁RESPONS	3326
▁analyse	3326
apping	3325
scheduling	3324
▁Insider	3324
period	3323
▁1.35	3323
▁Particular	3322
▁Xstrata	3322
▁355	3321
▁Fifth	3321
▁Jersey	3321
▁Syrian	3321
▁redundan	3321
aver	3320
▁elevator	3320
6,17	3319
6,80	3319
▁12,9	3319
▁313	3319
▁extradition	3318
▁SHEET	3317
▁undoubted	3317
GL	3316
Repeal	3316
mation	3316
oh	3316
travaux	3316
▁404	3313
8,19	3312
▁15.5	3312
▁Bad	3312
▁string	3311
2.50	3310
▁MasterCard	3310
▁Text	3310
5,22	3309
▁validly	3309
▁Equi	3308
▁Watch	3308
9,28	3307
tta	3307
▁COO	3307
▁TRUSTEE	3307
▁Dexi	3306
▁324	3304
▁Jacob	3304
▁array	3304
▁policing	3304
▁widow	3304
ORS	3303
emembrance	3303
▁SERP	3302
8,03	3301
▁Eco	3301
verse	3299
▁Embassy	3299
▁Shop	3299
té	3298
▁90,000	3298
▁Dick	3298
▁Elk	3298
bill	3297
iva	3297
▁CAT	3297
▁Relative	3297
▁charity	3297
aska	3296
egion	3296
▁Build	3296
▁unequivocal	3296
▁upstream	3296
▁Richardson	3295
▁appropriation	3295
▁pav	3295
shirt	3294
▁fr	3294
1,60	3293
▁590	3293
▁retir	3293
▁570	3292
hav	3291
▁geologist	3291
▁465	3290
▁Lack	3290
▁Utility	3290
▁bureaucrat	3290
▁snapshot	3290
▁substituting	3290
utonomy	3288
▁courier	3287
▁geography	3287
▁Increasing	3286
▁apprehension	3286
▁autism	3286
▁Fisher	3285
BB	3284
▁Abbott	3284
▁Reynolds	3284
▁Raj	3282
6,06	3281
abopharm	3280
defined	3280
▁125,000	3280
2,400	3279
▁LO	3279
▁NGO	3279
residue	3278
▁12.8	3277
▁reactor	3277
▁surgical	3277
9,4	3276
▁BPI	3276
Heureux	3275
commission	3275
▁RESOLUTION	3275
▁294	3274
▁9,3	3274
▁mall	3274
▁revisit	3274
2,15	3273
DH	3273
▁Pu	3273
▁revolution	3273
▁syndicat	3272
odie	3271
ONT	3270
▁Strah	3270
▁prostate	3270
▁Junior	3269
▁YEAS	3269
IDENT	3268
Wh	3268
cri	3268
▁Pinnacle	3268
▁reunification	3268
▁résultats	3268
▁Clinical	3267
▁Pétrolia	3267
▁continent	3267
▁cultures	3267
▁Traffic	3266
▁continuance	3266
▁810	3265
▁341	3264
9,42	3263
9,65	3263
▁7,6	3263
▁Robertson	3263
▁2,51	3261
▁314	3261
▁339	3261
▁COMPLETE	3261
0,23	3260
▁TRANS	3260
▁Sheila	3259
▁infection	3259
▁329	3258
▁415	3257
5,25	3256
wick	3256
▁2,82	3256
▁NSPI	3255
▁Nino	3255
▁OSK	3255
▁Owen	3255
LAC	3254
mus	3254
▁Emergis	3254
▁Flex	3254
▁seasonality	3254
▁2,56	3253
▁congratulation	3253
▁Disability	3251
▁GUARANTEE	3251
Madeleine	3250
TEM	3250
▁Bathurst	3250
▁Newco	3248
7,30	3247
▁Mason	3247
▁quoting	3246
▁888	3245
▁Angu	3245
▁NAYS	3245
mag	3244
▁20,000,000	3244
▁Consultation	3244
▁Sensitivit	3244
▁facilitator	3244
▁perte	3244
OV	3243
▁384	3243
▁lobby	3243
7,18	3242
▁499	3242
▁Gestion	3242
▁ri	3241
Effect	3240
LW	3240
▁shooting	3240
▁Pel	3238
▁liquor	3238
▁shear	3238
▁gauge	3237
▁Meet	3236
▁consolidat	3236
qualified	3235
▁naturally	3234
roc	3233
▁387	3233
▁Merg	3233
▁persistent	3233
▁MX	3232
▁Matt	3232
▁interprovincial	3232
3,50	3231
hou	3231
▁Plat	3231
Protected	3230
▁camps	3230
7,59	3229
▁DEBENTURE	3229
6,87	3228
▁Compa	3228
▁Mana	3228
▁INCREASE	3227
▁boss	3227
PipeLines	3226
lett	3226
9,22	3225
LIM	3225
▁Athabasca	3225
,003	3224
▁Win	3224
-01-202	3223
▁PARTY	3223
bound	3222
▁337	3222
▁catalogue	3222
TECH	3221
aterpillar	3221
mini	3221
▁SALES	3220
icrocell	3219
version	3219
▁332	3219
▁solemn	3219
▁20.0	3218
▁Flight	3218
▁commercialize	3218
▁resumption	3218
▁unforesee	3218
002	3217
5,87	3217
9,57	3217
▁606	3217
▁Attach	3217
▁BV	3216
▁Ont	3216
▁extortion	3216
▁faire	3216
▁ideological	3216
focused	3215
1,700	3214
▁Roth	3214
CHI	3213
asualty	3213
▁Competency	3213
▁GOVERNMENT	3213
▁Metropolitan	3213
8,35	3212
▁Component	3212
▁Designation	3212
▁IRPR	3212
▁Magazine	3212
▁romantic	3212
8,13	3211
WU	3211
owner	3211
▁291	3211
▁ARTICLE	3211
▁Kootenay	3211
duction	3210
oria	3210
0,83	3209
sector	3209
▁Cho	3209
0,34	3208
7,88	3208
8,65	3208
tent	3208
▁Brascan	3208
▁Caron	3208
29,3	3207
▁ACI	3207
▁Dun	3207
▁em	3207
LED	3206
rais	3206
▁hearsay	3206
ONG	3205
approval	3205
cycle	3205
▁Alan	3205
▁Oakville	3205
APRIL	3204
▁corroborat	3204
▁Heavy	3203
▁2,98	3202
▁Vale	3202
▁southeast	3202
OH	3200
lew	3200
▁0.31	3200
▁canvass	3200
▁BP	3199
500	3198
▁attestation	3198
CORP	3197
▁Mirabel	3197
,800,000	3196
4,94	3196
▁fossil	3196
▁Oshawa	3195
▁delineate	3195
▁forgive	3195
25.00	3194
6,39	3194
iller	3194
▁328	3194
▁6,2	3194
▁negligent	3194
illy	3193
victory	3193
▁contaminated	3193
▁hog	3193
▁migration	3193
9,83	3192
QU	3192
lle	3192
▁Shopping	3192
▁anxious	3192
▁13.8	3191
▁322	3190
▁prediction	3190
AIN	3189
▁Competitive	3189
▁Bois	3187
▁Making	3187
▁McIntyre	3187
▁2,63	3186
▁Beach	3186
biased	3185
▁718	3185
▁Brandon	3185
▁Ringuette	3185
▁erode	3185
5,78	3184
8,45	3184
trol	3184
▁2,64	3184
▁Army	3184
▁wherein	3184
7,46	3183
▁Harvard	3183
▁15.2	3182
▁Creditor	3182
▁IX	3182
▁Elect	3181
▁prosperous	3181
▁pulled	3180
rna	3179
▁12.9	3179
▁348	3178
▁58-101	3178
▁Renewal	3178
8,95	3177
▁Barr	3177
▁indeterminate	3177
▁refresh	3177
▁sterilization	3177
UE	3176
▁ABC	3176
▁dealership	3175
▁780	3174
▁Carter	3174
2-3	3173
▁3,01	3173
▁Generat	3173
▁alongside	3173
▁angry	3173
actions	3172
issued	3172
pharm	3172
▁CGA	3172
▁basin	3172
JA	3171
▁Authorities	3171
▁Semiconductor	3171
▁palladium	3171
5,89	3170
▁12,1	3170
▁Congo	3170
▁AltaLink	3169
▁transactional	3168
▁mu	3167
▁recollection	3167
▁3,02	3166
▁Brien	3166
▁Grande	3166
▁3,05	3165
▁686	3165
▁PFIC	3165
▁Tool	3165
8,79	3164
9,67	3164
▁3,04	3164
▁Booster	3164
▁OTC	3164
▁tendenc	3164
physi	3163
▁Gur	3163
3,25	3162
structuring	3162
world	3162
▁WHAT	3162
▁cruelty	3162
0,56	3160
RSO	3160
roy	3160
▁Loi	3160
▁Measured	3160
▁unavailable	3160
▁thin	3159
lim	3158
▁7,9	3158
▁12,4	3157
▁Doc	3157
▁477	3156
[...]
